#if defined __ICCARM__
#define __ALIGNED(x) __attribute__((aligned(x)))
#else
#define __ALIGNED(x) __attribute__((aligned(x)))
#endif
const unsigned char model1[] __ALIGNED(16) = {
0x4e,0x4e,0x43,0x55,0x01,0x00,0x01,0x00, 0x01,0x0e,0x07,0x00,0x07,0x00,0x00,0x00, // 16
0x02,0x00,0x00,0x00,0x00,0x00,0x00,0x00, 0x18,0x01,0x00,0x00,0x02,0x00,0x00,0x00, // 32
0xe0,0x01,0x00,0x00,0xc8,0x00,0x00,0x00, 0x18,0x01,0x00,0x00,0x00,0x00,0x00,0x00, // 48
0x00,0x00,0x00,0x00,0x00,0x00,0x00,0x00, 0x00,0x00,0x00,0x00,0x00,0x00,0x00,0x00, // 64
0x00,0x00,0x00,0x00,0x00,0x00,0x00,0x00, 0xff,0xff,0xff,0xff,0xff,0xff,0xff,0xff, // 80
0x43,0x4d,0x44,0x00,0x20,0x00,0x80,0x00, 0x50,0x00,0x00,0x00,0x00,0xfe,0x00,0x00, // 96
0x69,0x4d,0x61,0x67,0x2e,0x68,0x35,0x0d, 0x0a,0x54,0x75,0x65,0x20,0x4a,0x75,0x6c, // 112
0x20,0x32,0x38,0x20,0x31,0x37,0x3a,0x34, 0x33,0x3a,0x33,0x34,0x20,0x32,0x30,0x32, // 128
0x30,0x0d,0x0a,0x31,0x34,0x20,0x62,0x69, 0x74,0x73,0x0d,0x0a,0x6e,0x6e,0x63,0x75, // 144
0x20,0x76,0x65,0x72,0x20,0x31,0x2e,0x30, 0x62,0x20,0x32,0x30,0x32,0x30,0x2e,0x30, // 160
0x37,0x2e,0x31,0x34,0x0d,0x0a,0x00,0x00, 0x00,0x00,0x00,0x00,0x00,0x00,0x00,0x00, // 176
0x00,0x00,0x00,0x00,0x00,0x00,0x00,0x00, 0x00,0x00,0x00,0x00,0x00,0x00,0x00,0x00, // 192
0x00,0x00,0x00,0x00,0x00,0x00,0x00,0x00, 0x00,0x00,0x00,0x00,0x00,0x00,0x00,0x00, // 208
0x43,0x4d,0x44,0x00,0x20,0x02,0x00,0x00, 0xd0,0x00,0x00,0x00,0x10,0x02,0x00,0x00, // 224
0x00,0x01,0x00,0x02,0x07,0x06,0x06,0x0b, 0x00,0x00,0x00,0x00,0x00,0x00,0x00,0x00, // 240
0x01,0x00,0x07,0x00,0x01,0x00,0x01,0x00, 0x8c,0x00,0x01,0x00,0x00,0x00,0x00,0x00, // 256
0x0c,0x00,0x0c,0xff,0xff,0xff,0xff,0xff, 0x00,0x01,0x01,0x00,0x18,0x01,0x00,0x00, // 272
0x00,0x00,0x03,0x00,0x0e,0x00,0x00,0x00, 0x00,0x00,0x00,0x00,0x00,0x00,0x00,0x00, // 288
0x00,0x00,0x00,0x00,0x00,0x00,0x00,0x00, 0x00,0x00,0x00,0x00,0x00,0x00,0x00,0x00, // 304
0x00,0x00,0x00,0x00,0x00,0x00,0x00,0x00, 0x00,0x00,0x00,0x00,0x00,0x00,0x00,0x00, // 320
0x00,0x00,0x00,0x00,0x00,0x00,0x00,0x00, 0xa8,0x07,0x00,0x00,0x18,0x01,0x00,0x00, // 336
0x55,0x0c,0x0b,0x00,0x24,0xff,0xb3,0x00, 0x29,0xf4,0x40,0xff,0x42,0x00,0x00,0xfd, // 352
0xea,0x02,0xfd,0x09,0x6f,0xff,0xeb,0x02, 0x85,0x03,0x41,0xf4,0x50,0xfe,0x60,0xff, // 368
0xa4,0xf6,0xcd,0xfd,0x06,0x05,0xd2,0x04, 0xc4,0xfa,0x87,0xff,0x88,0x00,0xc6,0xfd, // 384
0xd9,0xff,0xfe,0xf3,0x8d,0x06,0xcf,0xfb, 0xfe,0xfd,0xf9,0x00,0x04,0x0b,0xc4,0x04, // 400
0x7e,0xf5,0x45,0x00,0xe9,0x01,0xdd,0x07, 0x36,0xfb,0xab,0xfb,0xac,0x04,0xc0,0xf4, // 416
0x25,0x01,0x45,0x08,0xbb,0x04,0x93,0xfb, 0xa2,0x02,0xfe,0xf9,0x41,0x0a,0xe6,0xfe, // 432
0xe7,0xfe,0x3f,0xfa,0xaf,0x03,0x0a,0x0b, 0x50,0x03,0xe6,0xf9,0x5a,0x00,0xde,0x00, // 448
0x70,0x02,0xf0,0xf9,0x40,0x04,0x8b,0x02, 0xab,0xf1,0xa0,0xf6,0x56,0x05,0x88,0xf8, // 464
0xcf,0xff,0x01,0x06,0x3d,0x01,0xc7,0x06, 0x10,0x05,0x78,0xfb,0x45,0x06,0x3b,0xfa, // 480
0x16,0x04,0x11,0xfa,0x2e,0x06,0x94,0xff, 0x46,0x01,0x95,0x00,0x41,0x00,0x07,0x02, // 496
0xf5,0xfb,0x00,0x0a,0xa1,0x09,0x2d,0xf9, 0xd2,0x08,0xe2,0xf7,0xd2,0x04,0x2d,0x04, // 512
0x84,0xf1,0x82,0xfe,0x89,0x02,0x73,0xfa, 0x2b,0xfb,0x5e,0x05,0xb1,0x00,0x5a,0x0a, // 528
0xb5,0xfe,0x24,0xfd,0xa8,0xf0,0x7b,0xfc, 0x06,0xf4,0x23,0x04,0x21,0x09,0x45,0x02, // 544
0x44,0xfc,0x68,0x06,0x9a,0xff,0xff,0x00, 0x6d,0xfe,0xc5,0xf7,0x56,0x0a,0xae,0xf5, // 560
0x5f,0xf8,0xdd,0x00,0xc6,0x04,0x56,0x01, 0x8a,0x08,0x1e,0x04,0xcf,0xf9,0x73,0xfb, // 576
0xb8,0x00,0x32,0x0e,0x20,0x03,0x95,0xf9, 0x25,0xfe,0x70,0x02,0x54,0x0c,0xf1,0xff, // 592
0x97,0xff,0xcf,0x00,0x0f,0xf5,0xa7,0xff, 0xa7,0xff,0x9d,0x05,0xa3,0xf9,0x4b,0xf5, // 608
0x42,0x02,0xd0,0xf9,0x7b,0xfc,0x99,0x0a, 0x41,0x05,0xcd,0x05,0x83,0xf8,0x3d,0xff, // 624
0x86,0xf5,0xe8,0x01,0x12,0x03,0xee,0x00, 0xdb,0xfc,0x98,0xf8,0x34,0x00,0x57,0x03, // 640
0x2d,0x03,0xcd,0xfc,0x1e,0xf4,0x7e,0x00, 0xee,0xff,0xcc,0xff,0xaa,0x0b,0x11,0xff, // 656
0xa8,0x01,0xb7,0x03,0x9a,0xfa,0xb4,0xf5, 0xdc,0x01,0x58,0xfb,0x56,0xfd,0x8a,0x0a, // 672
0xce,0xfd,0xf8,0x02,0xa3,0x0d,0xb3,0xfd, 0x02,0x02,0x49,0x03,0x7a,0xf5,0xc8,0x0a, // 688
0x01,0x00,0xb1,0xff,0x68,0x00,0x65,0xf4, 0xe3,0xff,0x2d,0x00,0x05,0xfd,0x08,0xff, // 704
0xb4,0xfa,0x13,0x00,0xd2,0x08,0xaa,0xfe, 0x08,0xfe,0x80,0x06,0x00,0xf8,0xd5,0x0c, // 720
0xe8,0x00,0xeb,0xf0,0xa7,0xfe,0x72,0xfb, 0x13,0x04,0xa6,0x03,0x5c,0xff,0x19,0x00, // 736
0xd9,0xf4,0x53,0x01,0x3d,0x02,0x86,0x05, 0xb3,0xfe,0x10,0xf2,0x4e,0xfd,0xb3,0x07, // 752
0xbe,0xff,0x49,0xff,0x85,0x00,0x45,0xff, 0x9f,0xff,0xb7,0x02,0xf4,0xfb,0x1a,0xf3, // 768
0x78,0x06,0xe8,0xf7,0x84,0x00,0x2b,0x04, 0x8d,0x02,0xd4,0x08,0xc7,0x04,0xa4,0xfa, // 784
0x2d,0xf9,0xf7,0x03,0xaf,0x0a,0xb2,0xfb, 0x36,0x09,0x55,0x04,0x28,0xf7,0xc0,0x08, // 800
0x3e,0x00,0xb8,0xfd,0x90,0x03,0x71,0xfe, 0xa8,0xfb,0xb9,0x0a,0x70,0x01,0xd4,0xff, // 816
0x2a,0xf2,0x42,0xfc,0x7a,0x09,0x87,0x02, 0x7a,0x00,0x4d,0x08,0x25,0xfe,0x15,0xf4, // 832
0x79,0x02,0xec,0xf5,0x2a,0xfc,0x1f,0x05, 0x61,0xf5,0xa2,0x06,0x6e,0xfb,0x22,0xfb, // 848
0x44,0x0e,0x47,0x02,0xa6,0x01,0x18,0xfc, 0xc0,0x00,0x4b,0xf4,0x50,0xfd,0x3b,0x09, // 864
0x5a,0x03,0xb2,0xfd,0xa1,0x0c,0x2f,0xff, 0x16,0x05,0x0b,0x00,0xba,0xf3,0x13,0x03, // 880
0x99,0xfb,0x31,0xf6,0x23,0x06,0xe3,0x01, 0x22,0xfc,0x01,0x08,0xc7,0xfc,0x42,0xfe, // 896
0x65,0x05,0xf7,0xfa,0xa9,0x04,0x5e,0xfb, 0x74,0x04,0x67,0x02,0x21,0x00,0x36,0x0a, // 912
0x32,0x00,0x72,0x01,0x63,0x00,0x24,0xf4, 0x98,0xff,0x01,0x00,0x8b,0xf8,0xf3,0x00, // 928
0x0d,0x0b,0xc7,0xff,0x42,0x06,0xf7,0x04, 0xc3,0xf9,0x9f,0x0f,0x72,0x04,0xc1,0x06, // 944
0x53,0xfe,0x94,0xf8,0xe2,0xfb,0x85,0x06, 0x6e,0x05,0xea,0xfb,0x7d,0xf6,0xde,0x02, // 960
0xda,0xf9,0xf4,0xf9,0x90,0x0b,0x7f,0xf3, 0xae,0x00,0x54,0xff,0x75,0xff,0x8e,0x0b, // 976
0x2b,0x00,0x2c,0x01,0x32,0xf5,0x9a,0x00, 0x0a,0xff,0xd6,0xff,0xce,0x0c,0x72,0x00, // 992
0x89,0xff,0x68,0xf4,0xa6,0x07,0x16,0x00, 0x6b,0xfb,0xdd,0x0b,0x42,0x02,0x03,0xfa, // 1008
0x1d,0xfb,0x14,0xff,0x6d,0xfb,0xf0,0xfc, 0x04,0x07,0x30,0x05,0xbc,0xf7,0x5a,0x07, // 1024
0x94,0xfe,0xd1,0xfd,0xc0,0x02,0x3b,0x00, 0x80,0xfe,0x1b,0x02,0xdc,0xfb,0x11,0x04, // 1040
0x03,0x10,0xdc,0x03,0xb8,0xf8,0x73,0x00, 0xe5,0xfb,0x6a,0xf5,0x40,0x06,0xbf,0x00, // 1056
0xad,0xf9,0xd4,0x0e,0xe9,0x02,0x5e,0xf7, 0x40,0xfe,0x0e,0x03,0x78,0x0a,0x5f,0x00, // 1072
0x1d,0xf9,0x92,0xfb,0x65,0x04,0x43,0xfd, 0x73,0x00,0x1b,0x03,0xea,0x04,0xa6,0xf8, // 1088
0xae,0xf8,0x04,0x01,0x62,0xfd,0xcc,0xff, 0x6f,0xfc,0x1c,0xff,0x4d,0x01,0xb7,0x06, // 1104
0xc5,0xf4,0x23,0xff,0xbf,0x02,0x75,0x08, 0x2e,0x01,0x6b,0xf8,0xb6,0xfa,0xce,0x06, // 1120
0xdd,0x0b,0xa8,0xff,0x57,0x00,0x3d,0x00, 0x98,0xf4,0x8b,0x00,0xfb,0xfe,0xdb,0x0b, // 1136
0xa8,0xff,0x41,0x00,0xc6,0x00,0xa0,0xf3, 0x24,0x00,0x12,0xff,0xdf,0x05,0x72,0xfb, // 1152
0x1d,0x07,0x21,0x04,0xa3,0xf0,0x06,0x02, 0x7c,0xfb,0x1f,0xf8,0xa6,0x00,0x32,0x09, // 1168
0xac,0xff,0xc0,0x06,0x7e,0x04,0xa1,0xf9, 0xd6,0xf8,0x3e,0xfe,0x28,0x02,0x93,0xfc, // 1184
0xc9,0x00,0x81,0x05,0xe7,0xf4,0x5d,0x00, 0x7f,0xfd,0x5d,0xf7,0x5e,0xfe,0xbf,0x07, // 1200
0x1b,0x05,0x9c,0xfa,0xbf,0xf4,0x6e,0x00, 0x91,0x00,0x0b,0x00,0xaa,0x0a,0xf0,0xff, // 1216
0xa2,0x01,0x36,0x05,0x2b,0xfb,0xe9,0xff, 0xa9,0x02,0x63,0xfb,0xcc,0x09,0xa3,0xf4, // 1232
0x04,0x07,0x0b,0x00,0x6a,0xfe,0xda,0xfc, 0x21,0xf7,0x52,0xfa,0x97,0x05,0x36,0xfd, // 1248
0xe4,0x05,0x5f,0xff,0x80,0x00,0xd3,0xfd, 0xe3,0xfa,0x3b,0x08,0x1c,0xff,0x07,0xfe, // 1264
0x76,0xfb,0x53,0xff,0x60,0x03,0x97,0x07, 0xb6,0xf5,0xd4,0x0a,0x08,0x00,0xbb,0x00, // 1280
0x34,0x00,0x71,0xf3,0x9b,0xff,0x3b,0x01, 0xb3,0x01,0x53,0xfd,0x35,0x00,0x1c,0x02, // 1296
0xf8,0xee,0x5d,0x00,0x2e,0x00,0x96,0xf8, 0xa5,0x01,0xd4,0x12,0xed,0x00,0xbb,0xfe, // 1312
0x2d,0xfb,0x56,0x03,0x99,0xf7,0x8d,0x05, 0x4a,0x05,0xb4,0xfd,0x55,0x0e,0x77,0x06, // 1328
0x3f,0xf9,0xef,0xfa,0x45,0x06,0xe1,0x01, 0x47,0xfe,0xc2,0x06,0xf2,0xfa,0x67,0xfa, // 1344
0xd0,0xfb,0x7d,0x00,0x2c,0x0e,0xa1,0x01, 0xb0,0xfa,0xf8,0xfb,0x57,0x02,0x1a,0x05, // 1360
0x22,0x04,0xb9,0xfb,0x32,0xff,0x90,0xf5, 0x38,0x01,0x0b,0x03,0x60,0x0b,0x4b,0xff, // 1376
0x68,0x01,0xe5,0xff,0x08,0xf3,0xa5,0x00, 0x68,0xff,0x26,0x0b,0xce,0xff,0x24,0xff, // 1392
0x6c,0x00,0x17,0xf5,0xba,0x00,0xe5,0xfe, 0x0d,0x05,0x2e,0xfd,0x44,0xf1,0xb4,0xfd, // 1408
0xae,0x06,0x19,0x01,0xd1,0x00,0x71,0x01, 0x9b,0xff,0x23,0xef,0x4c,0xfd,0x46,0x08, // 1424
0xc5,0x02,0xa6,0x02,0xfa,0x03,0xcf,0xf9, 0x38,0x08,0x6d,0x04,0xdc,0xef,0x4c,0xfc, // 1440
0x87,0x03,0xe2,0x07,0x32,0xfc,0x8a,0x0b, 0xf8,0xfe,0x96,0xfe,0x7d,0xfa,0xea,0xfe, // 1456
0x98,0xf7,0x8e,0x04,0x71,0x09,0x66,0xfe, 0x79,0x0b,0x2f,0x05,0x63,0xf9,0x84,0x06, // 1472
0xd3,0xfa,0x6a,0x06,0x33,0xfb,0x14,0x04, 0x22,0x02,0xeb,0xfc,0x6e,0x07,0x5d,0xfc, // 1488
0xef,0xf9,0x00,0x01,0x26,0xf3,0x3c,0x00, 0xef,0xff,0x96,0xf4,0x62,0x00,0x2e,0xff, // 1504
0x0d,0x00,0xfc,0x0b,0xd5,0xff,0xac,0x00, 0xf7,0x0b,0xc1,0xff,0x87,0xff,0xce,0x00, // 1520
0x07,0xf4,0x98,0xff,0x66,0x00,0xa5,0x05, 0xb1,0xfe,0xc0,0xf8,0x64,0x02,0xae,0xf3, // 1536
0x31,0x00,0x8f,0xff,0x0c,0xf9,0x6a,0x05, 0xf9,0x08,0x25,0xfd,0x86,0x06,0x1e,0x08, // 1552
0xd8,0xf7,0x34,0xf1,0xab,0xfb,0x3b,0xf5, 0xf2,0x02,0x90,0x08,0x16,0x04,0x80,0xfb, // 1568
0x8b,0x02,0x3a,0xfc,0xda,0x07,0x21,0x05, 0x3f,0xf1,0x1d,0xfd,0x20,0x05,0xaa,0xf9, // 1584
0x13,0x05,0x3e,0x0b,0x86,0xfb,0x4b,0x09, 0xfc,0x02,0x45,0xf5,0x0e,0xf5,0x6e,0x04, // 1600
0xa9,0x0a,0x9a,0xfe,0xdc,0x08,0xc9,0x05, 0xd7,0xfb,0x07,0x02,0x84,0x02,0xcf,0x08, // 1616
0x64,0x01,0xd4,0xf9,0xe8,0xfb,0x44,0x01, 0xcc,0x06,0x96,0xfc,0x57,0xfe,0x61,0xfe, // 1632
0xa0,0x03,0xe8,0x01,0x61,0x03,0xfb,0x0a, 0x34,0xf9,0xfb,0x01,0xeb,0x00,0xdf,0xf8, // 1648
0x82,0xfe,0xf6,0x05,0x43,0x06,0xa0,0xfd, 0x0c,0x00,0x46,0x01,0xef,0xf7,0x16,0x06, // 1664
0xc8,0xf7,0xac,0x07,0x20,0xfe,0xc5,0xf5, 0x12,0x01,0x2a,0xfa,0x04,0xfb,0xc1,0x03, // 1680
0xbd,0xf4,0x93,0x00,0x62,0x06,0x56,0xfd, 0xa9,0x08,0x8f,0xf4,0x1a,0x0a,0x29,0x00, // 1696
0x05,0x00,0xaf,0xfd,0xce,0x01,0x0f,0xf3, 0x1d,0x04,0x82,0xfd,0x90,0xfb,0xe9,0x02, // 1712
0xfc,0x02,0xa9,0xfe,0xb1,0x03,0xde,0xf5, 0x15,0x0c,0x44,0x0c,0xd7,0xff,0x21,0xff, // 1728
0xb6,0x00,0x1e,0xf4,0xec,0xff,0x27,0xff, 0x20,0xf8,0xd4,0xff,0xa4,0x05,0x69,0x01, // 1744
0x38,0x07,0x62,0x00,0xc1,0xff,0x46,0xfe, 0x41,0x01,0x45,0xf3,0x31,0x02,0x89,0x03, // 1760
0xfd,0xf9,0xfd,0x06,0x5f,0x08,0x70,0xfb, 0x7b,0x00,0xe6,0xff,0x6c,0x01,0x22,0xfe, // 1776
0x2f,0x05,0x73,0xfa,0xaa,0x00,0xba,0x02, 0x4b,0x05,0x56,0xfb,0x86,0xf5,0x6c,0x06, // 1792
0xa0,0x00,0xfd,0x01,0x0f,0x05,0x67,0x02, 0xf1,0xfc,0x1f,0xf7,0x6d,0x0b,0x97,0x01, // 1808
0xb0,0x00,0xaf,0xf2,0x2e,0xfc,0xfe,0x06, 0x29,0x05,0x3c,0xfb,0x0f,0xf7,0x71,0xff, // 1824
0x65,0x02,0xb6,0xfa,0x70,0x03,0x51,0x06, 0x18,0xf3,0x6f,0xf3,0xb3,0xfd,0x1d,0xf9, // 1840
0xbd,0x02,0x31,0x08,0xdb,0x03,0xf5,0xfb, 0x90,0x00,0xfc,0x02,0xc2,0xfc,0x48,0x01, // 1856
0x8c,0x03,0x89,0xfd,0xa8,0x09,0x72,0x08, 0xf8,0xf9,0x37,0xf2,0xe4,0x00,0x4b,0xff, // 1872
0x77,0xfc,0xb1,0x04,0xde,0xf9,0x1c,0x06, 0xb4,0xfe,0x06,0x04,0xc1,0xf9,0xab,0x00, // 1888
0x64,0xfc,0x3b,0x03,0xfb,0xfd,0x5d,0xf6, 0x0f,0x00,0x8d,0x02,0xf7,0xfd,0x3d,0x01, // 1904
0x56,0x0a,0xae,0xfc,0xd4,0xfd,0x8a,0x04, 0x51,0xf7,0x16,0xff,0xbd,0x00,0xbf,0xf3, // 1920
0x05,0x00,0xdc,0x01,0x86,0xff,0x5c,0x0b, 0x10,0x00,0x6d,0x00,0x14,0x00,0x0a,0x01, // 1936
0xb8,0xf6,0x0e,0xfb,0xfa,0x0a,0xc4,0x01, 0xf4,0xfa,0x0a,0x01,0x45,0xfe,0x59,0x04, // 1952
0x8f,0xfc,0x54,0x03,0x86,0x0b,0x0d,0xf8, 0xde,0x0a,0xc9,0xff,0x80,0x00,0x3b,0x00, // 1968
0x4b,0xf4,0x1c,0x00,0xcc,0xfe,0x1b,0x05, 0x94,0x05,0x40,0xf9,0x26,0xff,0xd7,0xf5, // 1984
0x61,0x01,0xa2,0x02,0xf9,0xfb,0x73,0x04, 0xd1,0x0f,0x74,0x01,0xb3,0xfb,0x15,0x02, // 2000
0x60,0xf7,0xca,0x0a,0x36,0x00,0x3a,0x00, 0x59,0x00,0xb4,0xf4,0x87,0xff,0x9a,0xff, // 2016
0x2c,0x09,0x37,0xfb,0x70,0xef,0x7b,0x01, 0x4d,0x00,0x28,0xfe,0x1c,0x03,0xc9,0xf3, // 2032
0xfd,0xff,0xce,0x00,0x42,0xff,0x76,0x0c, 0xe7,0xff,0x9a,0x00,0xd2,0x08,0x66,0xff, // 2048
0x2b,0xfc,0xba,0xfd,0xf7,0xf6,0xb2,0xfa, 0x63,0x06,0x29,0xfd,0xac,0xfe,0x03,0x12, // 2064
0xc8,0x01,0xb2,0xf5,0x76,0xfe,0x1d,0x00, 0x64,0x07,0xe9,0xfc,0x08,0xf5,0x0b,0x03, // 2080
0xb6,0xf4,0xa1,0xfb,0x20,0x07,0xf8,0x0b, 0x1f,0x00,0x8c,0xfe,0x78,0x00,0xaa,0xf4, // 2096
0xba,0xff,0xa0,0xff,0xc9,0xf7,0x9d,0x07, 0x99,0xfd,0xac,0xfc,0x40,0x09,0x2a,0xfb, // 2112
0x6d,0x03,0x76,0xf7,0xa8,0x02,0x81,0x07, 0x10,0x00,0xbe,0x09,0xae,0x05,0xf0,0xf9, // 2128
0x87,0xfe,0x4b,0x03,0xcf,0x02,0x84,0xfd, 0xff,0x0f,0x62,0xfd,0xdf,0xfa,0x09,0x01, // 2144
0x23,0xff,0x5c,0xf3,0x71,0xfd,0x2d,0x09, 0xf2,0x00,0x50,0xfd,0x5d,0x0c,0x37,0x00, // 2160
0x99,0xfe,0x00,0x01,0x59,0xf4,0x75,0xff, 0x51,0xff,0x69,0xfe,0x79,0x02,0x38,0x0a, // 2176
0x13,0x01,0x90,0xf7,0x5f,0xfa,0xc0,0x04, 0xcf,0xfd,0xe5,0x02,0xb3,0x02,0x51,0x01, // 2192
0x10,0x01,0xcb,0xf5,0x71,0x0d,0x80,0xf6, 0xce,0x03,0x69,0x09,0x67,0xfb,0x68,0x01, // 2208
0xbf,0x03,0xe4,0xf9,0x6c,0xf7,0x99,0x02, 0xc1,0x0c,0x3a,0xfe,0x70,0x06,0x65,0x05, // 2224
0x9c,0xfa,0xd2,0x0b,0xcb,0xff,0x84,0xff, 0x59,0x00,0x49,0xf4,0x20,0x00,0x2f,0xff, // 2240
0xb3,0x05,0xe3,0xfd,0xe7,0xee,0x4d,0xff, 0xe7,0x04,0x6c,0xff,0x73,0x03,0xb2,0xf6, // 2256
0x34,0x01,0x6f,0x04,0xb0,0xfe,0x0d,0x0a, 0x7d,0xf3,0x95,0x07,0x04,0x04,0xff,0xfe, // 2272
0x88,0x00,0xb7,0xfd,0x9d,0xff,0x41,0x0b, 0x2e,0xfe,0x4d,0x0c,0x7a,0xff,0x65,0xff, // 2288
0x8d,0x00,0x22,0xf4,0xca,0xff,0x79,0xff, 0x4d,0xff,0xb7,0xf6,0x21,0x02,0x71,0xf3, // 2304
0xc5,0xf4,0x20,0x07,0x16,0x14,0xb9,0xf3, 0xc9,0xf2,0x41,0x04,0x3b,0x16,0xee,0x0f, // 2320
0xd0,0xff,0x5d,0xfd,0xf6,0xff,0x81,0xfe, 0x2e,0x03,0x4b,0xf6,0x48,0xff,0x70,0x07, // 2336
0xdc,0x01,0x8c,0x04,0x04,0x01,0xef,0x08, 0xa9,0xf8,0x4a,0xfe,0x15,0xff,0x9e,0xf8, // 2352
0xb9,0xfe,0x91,0x0a,0x4a,0xf4,0x2a,0x04, 0xe2,0xff,0xdb,0x0b,0x1d,0x0d,0x5a,0xfc, // 2368
0xa8,0x05,0x96,0x05,0x2b,0xfc,0x07,0xf7, 0x9d,0x13,0xa7,0xfc,0x1e,0x01,0xf3,0x00, // 2384
0x1f,0x05,0x8d,0x00,0x04,0x02,0x08,0xf9, 0x48,0xff,0x22,0x08,0x1b,0xf2,0x26,0xfc, // 2400
0x16,0xf9,0x1d,0xed,0x6b,0xf8,0xdf,0xfa, 0xf2,0xfe,0x0d,0xfe,0x37,0xf4,0x1a,0x02, // 2416
0xf8,0xf6,0x90,0x05,0x4d,0x01,0x5c,0xff, 0x92,0xfa,0xa1,0xfa,0xfe,0xff,0xe9,0xfd, // 2432
0xf7,0xef,0xae,0xf7,0x18,0x05,0xf2,0xf2, 0x4a,0xf7,0xc4,0x01,0x16,0xfe,0xa8,0xff, // 2448
0xae,0x0e,0xfd,0x0b,0x0b,0xf7,0x1f,0x03, 0x0b,0x01,0xd3,0x10,0xe2,0xf8,0xd9,0x00, // 2464
0xde,0xfe,0x5e,0xf7,0xe2,0xfd,0x27,0x01, 0x3f,0xf9,0xff,0xfb,0x1b,0x00,0xc6,0xf8, // 2480
0x55,0x14,0x15,0x0d,0x59,0xfa,0x1b,0xfe, 0x65,0xff,0x04,0xf2,0xb8,0x01,0x1e,0xfe, // 2496
0x1a,0x03,0xca,0xff,0x35,0x11,0x00,0xef, 0x37,0xff,0x10,0x07,0x7b,0xf6,0x94,0x01, // 2512
0x17,0x09,0x20,0x0a,0xb2,0xe8,0x87,0x04, 0x58,0x01,0xcd,0x00,0x94,0x06,0xb3,0x0b, // 2528
0xe1,0xfd,0x4e,0x01,0xd2,0xf1,0xca,0xfd, 0xca,0x08,0x30,0x02,0x8f,0xfc,0xc4,0xf5, // 2544
0xbd,0xfc,0xff,0xfe,0xe8,0xfb,0xb4,0x01, 0x18,0x07,0x5b,0x08,0x9b,0xfe,0x58,0xf8, // 2560
0x58,0x01,0x1c,0xf5,0xa6,0x00,0xaf,0xfe, 0x32,0x0c,0xaf,0xfc,0x60,0x11,0xae,0xff, // 2576
0x43,0x4d,0x44,0x00,0x20,0x03,0x80,0x00, 0x10,0x0a,0x00,0x00,0x10,0x0a,0x00,0x00, // 2592
0x01,0x01,0x00,0x02,0x0c,0x00,0x00,0x00, 0x00,0x00,0x00,0x00,0x00,0x00,0x00,0x00, // 2608
0x01,0x00,0x8c,0x00,0x01,0x00,0x01,0x00, 0x8c,0x00,0x01,0x00,0x00,0x00,0x00,0x00, // 2624
0x0d,0x00,0xff,0xff,0xff,0xff,0xff,0xff, 0x00,0x00,0x00,0x00,0x00,0x00,0x00,0x00, // 2640
0x00,0x00,0x00,0x00,0x00,0x00,0x00,0x00, 0x00,0x00,0x00,0x00,0x00,0x00,0x00,0x00, // 2656
0x00,0x00,0x00,0x00,0x00,0x00,0x00,0x00, 0x00,0x00,0x00,0x00,0x00,0x00,0x00,0x00, // 2672
0x00,0x00,0x00,0x00,0x00,0x00,0x00,0x00, 0x00,0x00,0x00,0x00,0x00,0x00,0x00,0x00, // 2688
0x00,0x00,0x00,0x00,0x00,0x00,0x00,0x00, 0x00,0x00,0x00,0x00,0x00,0x00,0x00,0x00, // 2704
0x43,0x4d,0x44,0x00,0x20,0x05,0x00,0x00, 0x90,0x0a,0x00,0x00,0x10,0x02,0x00,0x00, // 2720
0x01,0x00,0x00,0x02,0x0d,0x0a,0x0b,0x09, 0x00,0x00,0x00,0x00,0x00,0x00,0x00,0x00, // 2736
0x01,0x00,0x8c,0x00,0x01,0x00,0x01,0x00, 0x64,0x00,0x01,0x00,0x00,0x00,0x00,0x00, // 2752
0x0c,0x00,0x0b,0xff,0xff,0xff,0xff,0xff, 0x00,0x00,0x01,0x00,0xc8,0x00,0x00,0x00, // 2768
0x00,0x01,0x02,0x00,0x18,0x01,0x00,0x00, 0x00,0x00,0x00,0x00,0x00,0x00,0x00,0x00, // 2784
0x00,0x00,0x00,0x00,0x00,0x00,0x00,0x00, 0x00,0x00,0x00,0x00,0x00,0x00,0x00,0x00, // 2800
0x00,0x00,0x00,0x00,0x00,0x00,0x00,0x00, 0x00,0x00,0x00,0x00,0x00,0x00,0x00,0x00, // 2816
0x00,0x00,0x00,0x00,0x00,0x00,0x00,0x00, 0x60,0x6d,0x00,0x00,0xc8,0x00,0x00,0x00, // 2832
0xa1,0xff,0xb7,0x06,0xee,0x00,0xfb,0x00, 0xc9,0xff,0x7e,0xfc,0xd3,0x01,0xe6,0xff, // 2848
0x4d,0xfd,0xc6,0x00,0x1a,0x01,0x94,0x03, 0xd1,0xfe,0xe0,0xff,0x90,0xff,0x46,0x02, // 2864
0x95,0x00,0xac,0xff,0xf8,0xff,0xc0,0xfc, 0xc4,0xff,0xc6,0xff,0xfe,0xff,0x80,0xfc, // 2880
0x23,0x03,0xd1,0xff,0x5d,0x00,0x65,0x01, 0xae,0xff,0xf6,0xff,0x2d,0xfe,0x66,0x01, // 2896
0xdf,0x03,0x13,0xfe,0x96,0xff,0x19,0xfe, 0xa5,0xff,0x49,0x00,0x1d,0x00,0x6d,0x00, // 2912
0xf3,0x00,0x8a,0xff,0xf4,0x01,0x92,0x00, 0xa7,0xf9,0x1e,0x00,0x28,0x00,0x14,0x03, // 2928
0x18,0x01,0xf6,0xff,0x27,0x01,0x20,0x06, 0xe2,0xff,0x79,0xfe,0x69,0x01,0x26,0xff, // 2944
0x25,0x00,0x6d,0xff,0xec,0x00,0x38,0x01, 0xf0,0x01,0x59,0x00,0x67,0x00,0x25,0x02, // 2960
0xf4,0xfe,0xb3,0xff,0x35,0x01,0xe5,0xff, 0xe2,0xff,0xcf,0xfe,0xe2,0x02,0x29,0x02, // 2976
0x3d,0xff,0xb5,0xff,0x7a,0xff,0x9b,0xff, 0x04,0x00,0x0a,0xff,0x1d,0xff,0xac,0xff, // 2992
0x74,0x02,0xbf,0x01,0x58,0xff,0x6d,0x00, 0x58,0xff,0x41,0xff,0x70,0x03,0x35,0xff, // 3008
0x5e,0xfe,0xaf,0x03,0x00,0x02,0x51,0x00, 0xc7,0xfe,0xe5,0xfd,0xaf,0x02,0xaa,0xfd, // 3024
0x9d,0xfd,0xf6,0x00,0x7a,0xfd,0x3d,0xff, 0x60,0x00,0x0d,0xfd,0x63,0xfd,0x65,0xfd, // 3040
0x0f,0xfe,0x48,0x01,0xb5,0x02,0x73,0xff, 0x06,0xff,0x6f,0xff,0xe0,0x00,0x73,0xfe, // 3056
0xec,0xfe,0x3c,0x00,0x6d,0x00,0x57,0x03, 0x83,0xff,0x8e,0xff,0xbe,0x01,0x93,0xff, // 3072
0x14,0xff,0x34,0x00,0x34,0xff,0xd6,0xff, 0x51,0xfd,0xbe,0xff,0x04,0xff,0xc7,0x01, // 3088
0xe3,0x01,0x32,0x00,0x91,0xff,0x81,0xff, 0xce,0xfe,0xb6,0x02,0x71,0x02,0x56,0x00, // 3104
0x65,0xff,0x35,0xfe,0xab,0x00,0xd6,0xff, 0xfc,0xff,0x52,0x00,0x17,0x00,0x74,0xff, // 3120
0x17,0x00,0x03,0x00,0x78,0x00,0x0e,0x00, 0xd2,0xff,0xb0,0x00,0x4d,0x00,0x23,0x00, // 3136
0x1c,0x00,0x17,0x00,0x72,0x00,0xf4,0xff, 0xcd,0x00,0x02,0x00,0xdd,0xff,0x25,0x00, // 3152
0xde,0xff,0x0b,0x00,0x09,0x00,0x00,0x00, 0xb4,0xff,0x19,0x00,0x01,0x00,0xa3,0xff, // 3168
0xfa,0xff,0x02,0x00,0xbf,0xff,0x9d,0x00, 0xf0,0xff,0x11,0x00,0x0c,0x00,0x97,0xff, // 3184
0xf1,0xff,0xeb,0xff,0xa3,0xff,0x13,0x00, 0xf5,0xff,0x2e,0x00,0x5e,0x00,0x98,0xff, // 3200
0x1a,0x00,0x4a,0x00,0x48,0x00,0xc6,0xff, 0x04,0x00,0x36,0x00,0xfe,0xff,0x03,0x00, // 3216
0xde,0xff,0xc2,0xff,0xd5,0xff,0x44,0x00, 0x17,0x00,0xe7,0xff,0x90,0xff,0xce,0x00, // 3232
0xbd,0xff,0x17,0x00,0x25,0x00,0x70,0x00, 0x47,0xff,0x32,0x00,0x12,0x00,0xe4,0xff, // 3248
0x85,0xff,0xf7,0xff,0x86,0x00,0xe8,0xff, 0x09,0x00,0x17,0x00,0x23,0x00,0x1e,0x00, // 3264
0xf5,0xff,0xa8,0x00,0xff,0xff,0x3c,0x00, 0x81,0x00,0x16,0x00,0xaf,0xff,0x19,0x00, // 3280
0xeb,0xff,0x16,0x00,0xc7,0xff,0x91,0x00, 0xf5,0xff,0x1a,0x00,0x6f,0x00,0x19,0x00, // 3296
0x56,0x00,0xfe,0xff,0xdc,0xff,0xd4,0xff, 0xf1,0xff,0xa3,0xff,0xf5,0xff,0x1c,0x00, // 3312
0x21,0x00,0x2b,0x00,0xa5,0x00,0xc6,0xff, 0x49,0x00,0xd3,0xff,0x57,0x00,0x85,0x00, // 3328
0x1e,0x00,0xb1,0xff,0x48,0xff,0xe6,0xff, 0x2d,0x00,0xed,0xff,0xcb,0xff,0x65,0x00, // 3344
0x34,0x00,0xce,0xff,0xed,0xff,0x11,0x00, 0xf0,0xff,0xe8,0xff,0x33,0xff,0xb8,0xff, // 3360
0x60,0xff,0x0d,0x00,0xf5,0xff,0x89,0x00, 0x9a,0x00,0x2f,0x00,0x00,0x00,0x0d,0x00, // 3376
0x2b,0x00,0x77,0xff,0x5d,0x00,0xe1,0xff, 0xcc,0xff,0x0a,0x00,0xeb,0xff,0xda,0xff, // 3392
0xc7,0x00,0xa6,0xff,0xe9,0xff,0x2b,0x00, 0x36,0xff,0xb1,0xff,0x97,0xfe,0x7a,0xff, // 3408
0x67,0x00,0xe7,0xff,0xbf,0xfe,0xe4,0xfe, 0xab,0xfe,0x63,0x00,0xae,0xff,0xbf,0xfe, // 3424
0xab,0xff,0x7c,0xff,0xcb,0x00,0x9b,0xff, 0x0b,0x00,0x96,0xff,0x90,0xff,0xeb,0xff, // 3440
0xb7,0xff,0x20,0x00,0xea,0xff,0x02,0xff, 0xeb,0xff,0x96,0x00,0x6e,0x00,0xbb,0xff, // 3456
0x1c,0xff,0xbe,0x00,0xf6,0xff,0x8b,0x00, 0x87,0x01,0xbd,0xff,0x17,0x00,0x75,0x01, // 3472
0x1c,0xfe,0x9e,0x00,0xda,0xff,0x52,0x00, 0x69,0x00,0x42,0x00,0xd2,0xfe,0x68,0x00, // 3488
0x22,0xff,0xc0,0xff,0x18,0x00,0x67,0x00, 0x34,0x00,0xc1,0x00,0xa5,0xfe,0xac,0x00, // 3504
0x51,0x00,0x7c,0x00,0xdd,0xfe,0x52,0xff, 0x0f,0xff,0x85,0xff,0xf0,0xff,0xad,0xfc, // 3520
0x3f,0x00,0x64,0x02,0x4b,0xfe,0xfe,0x00, 0x3c,0x00,0x2b,0x00,0x1c,0xff,0x94,0x01, // 3536
0x97,0xff,0x08,0x00,0x24,0x00,0xca,0xff, 0x21,0x00,0x1b,0x00,0xf0,0xff,0x0c,0x00, // 3552
0xaf,0xff,0xf8,0xfd,0xcb,0x00,0xef,0xff, 0xa9,0x00,0xef,0x00,0xdd,0xff,0xc6,0xff, // 3568
0xbb,0xff,0xd2,0xff,0x93,0xff,0xa1,0x00, 0x97,0xff,0x57,0xff,0x1c,0xff,0x3b,0x01, // 3584
0xc0,0x00,0xb3,0xff,0xe2,0x02,0xb8,0x00, 0x64,0xff,0x74,0x01,0x6f,0xff,0xfe,0x00, // 3600
0xd1,0x00,0xd6,0xff,0x7c,0xff,0xdc,0xff, 0x38,0x00,0x6d,0x00,0x16,0x01,0x6e,0x00, // 3616
0x01,0x00,0x1a,0x00,0x67,0x00,0x79,0xfe, 0x24,0x00,0x19,0x00,0x54,0x00,0x3d,0x00, // 3632
0x2f,0x00,0x8d,0xff,0x5c,0x00,0x67,0xff, 0xe3,0x00,0xe3,0xff,0x78,0x02,0xd0,0xff, // 3648
0x02,0x00,0x1c,0x00,0x62,0x00,0x09,0x01, 0xbd,0x01,0x12,0x00,0xee,0xfe,0xb3,0x00, // 3664
0x28,0x00,0xa8,0x00,0x82,0xff,0x36,0x00, 0x69,0x00,0xf9,0xff,0xfe,0xff,0xd6,0xff, // 3680
0x0a,0x00,0x12,0x00,0x2e,0x00,0x12,0x00, 0xe3,0xff,0x06,0x00,0xe8,0xff,0xf6,0xff, // 3696
0xf4,0xff,0xf1,0xff,0xeb,0xff,0xdb,0xff, 0xd9,0xff,0xd1,0xff,0x4c,0x00,0x27,0x00, // 3712
0xef,0xff,0xe8,0xff,0xa2,0xff,0x30,0x00, 0xd4,0xff,0x5e,0x00,0xd9,0xff,0xe0,0xff, // 3728
0x33,0x00,0x03,0x00,0xbe,0xff,0x33,0x00, 0x31,0x00,0x8d,0xff,0x05,0x00,0x05,0x00, // 3744
0xee,0xff,0xdb,0xff,0x11,0x00,0xdc,0xff, 0x83,0xff,0x97,0x00,0x15,0x00,0xfc,0xff, // 3760
0x1f,0x00,0x85,0xff,0x3d,0xff,0xcc,0xff, 0xd9,0xff,0xc6,0xff,0xf6,0xff,0x19,0x00, // 3776
0xd0,0xff,0xa4,0xff,0x44,0x00,0x13,0x00, 0x66,0x00,0x6a,0x00,0x38,0x00,0xf9,0xff, // 3792
0x17,0x00,0x21,0x00,0xea,0xff,0x27,0x00, 0xf9,0xff,0xe3,0xff,0xc4,0xff,0x89,0x00, // 3808
0xee,0xff,0x02,0x00,0x23,0x00,0xdd,0xff, 0xd0,0xff,0x12,0x00,0x64,0x00,0x76,0x00, // 3824
0xff,0xff,0x23,0x00,0xf2,0xff,0x7c,0xff, 0x03,0x00,0xcf,0xff,0x02,0x00,0x52,0xff, // 3840
0x8e,0x00,0xd4,0xff,0xde,0xff,0xfe,0xff, 0x1b,0x00,0x1d,0x00,0x12,0x00,0xce,0xff, // 3856
0xee,0xff,0x13,0x00,0xf5,0xff,0xc8,0xff, 0x31,0x00,0x07,0x00,0x32,0x00,0xa6,0x00, // 3872
0x17,0x00,0x44,0x00,0xd2,0xff,0xc9,0xff, 0x1a,0x00,0x09,0x00,0x1a,0x00,0x16,0x00, // 3888
0xec,0xff,0xc8,0xff,0x26,0x00,0xec,0xff, 0x04,0x00,0x84,0xff,0xc6,0xff,0xe8,0xff, // 3904
0x65,0x00,0xfb,0xff,0xe0,0xff,0xa7,0x00, 0xb5,0xff,0x52,0xff,0xf1,0xff,0x06,0x00, // 3920
0x05,0x00,0x94,0x00,0x1c,0x00,0xe2,0xff, 0xeb,0xff,0x0a,0x00,0x6f,0x00,0xef,0xff, // 3936
0x1c,0x00,0xfe,0xff,0x02,0x00,0x88,0x00, 0xeb,0xff,0x38,0x00,0x02,0x00,0x77,0x00, // 3952
0x1f,0x00,0xab,0xff,0x2d,0x00,0x06,0x00, 0x56,0x00,0xae,0xff,0x33,0xff,0x29,0x00, // 3968
0x6c,0x00,0xad,0xff,0x37,0xff,0xce,0xff, 0x27,0x00,0xbf,0xff,0x86,0xff,0x1b,0x00, // 3984
0x65,0xff,0x0c,0x00,0x0b,0x00,0x10,0x00, 0x48,0x00,0x2b,0x00,0xb0,0xff,0xe7,0xff, // 4000
0xda,0xff,0x07,0x00,0x07,0x00,0x00,0x00, 0xd6,0xff,0xd2,0xff,0x18,0x00,0xaa,0xff, // 4016
0xfc,0xff,0x51,0x00,0x0d,0x00,0x46,0x00, 0xc7,0xff,0x1c,0x00,0x1a,0x00,0x3d,0x00, // 4032
0xfa,0xff,0x02,0x00,0xd2,0xff,0x6f,0x00, 0xc9,0xff,0x1e,0x00,0xeb,0xff,0xf7,0xff, // 4048
0x05,0x00,0xec,0xff,0xf2,0xff,0xd7,0xff, 0xfd,0xff,0xfd,0xff,0x2c,0x00,0xfa,0xff, // 4064
0xf2,0xff,0x09,0x00,0x5e,0x00,0x90,0xff, 0xf9,0xff,0xb4,0xff,0xeb,0xff,0xef,0xff, // 4080
0xda,0x00,0xeb,0xff,0xea,0xff,0x0e,0x00, 0xac,0x00,0xeb,0xff,0xaa,0xff,0xe5,0xff, // 4096
0xfa,0xff,0x11,0x00,0x26,0x00,0x5a,0x00, 0xed,0xff,0xbf,0xff,0xec,0xff,0xac,0xff, // 4112
0x98,0xff,0xd8,0xff,0x01,0x00,0xf7,0xff, 0x00,0x00,0x72,0x00,0x83,0xff,0xb6,0xff, // 4128
0xfd,0xff,0xca,0xff,0x42,0x00,0xf2,0xff, 0xc8,0xff,0x06,0x00,0x00,0x00,0x69,0x00, // 4144
0x28,0x00,0x69,0x00,0x36,0x00,0xe4,0xff, 0xdf,0xff,0xbe,0xff,0xba,0xff,0x2e,0x00, // 4160
0x1f,0x00,0xea,0xff,0xb4,0xff,0x61,0xff, 0x13,0x00,0x09,0x00,0x97,0x00,0xd0,0xff, // 4176
0xf4,0xff,0xfb,0xff,0xab,0xff,0x8f,0xff, 0x46,0x00,0x1f,0x00,0xd4,0xff,0x22,0x00, // 4192
0xf5,0xff,0xd1,0xff,0xed,0x00,0x27,0x00, 0x2b,0x00,0x18,0x00,0x3f,0x00,0x9a,0xff, // 4208
0x6a,0xff,0x12,0x00,0x16,0x00,0xda,0xff, 0x09,0x00,0x24,0x00,0xb3,0xff,0x35,0x00, // 4224
0xef,0xff,0xdf,0xff,0xa6,0xff,0x1b,0x00, 0x51,0xff,0xa3,0xff,0x9a,0xff,0xf6,0xff, // 4240
0x02,0x00,0xa4,0xff,0x20,0x00,0x0f,0x00, 0x58,0x00,0xe1,0xff,0x48,0x00,0x2e,0x00, // 4256
0xf7,0xff,0xde,0xff,0xfb,0xff,0x20,0x00, 0xfd,0xff,0x16,0x00,0x6e,0xff,0x14,0x00, // 4272
0x07,0x00,0xd7,0xff,0x89,0x00,0xe7,0xff, 0xe5,0xff,0xa4,0xff,0x08,0x00,0xe1,0xff, // 4288
0x15,0x00,0xb6,0xff,0xc1,0xff,0xc7,0xff, 0xc7,0xff,0xe0,0xff,0xab,0xff,0x04,0x00, // 4304
0x19,0x00,0x04,0x00,0x05,0x00,0x1b,0x00, 0x10,0x00,0xae,0xff,0x09,0x00,0xff,0xff, // 4320
0xcf,0xff,0x4e,0x00,0x54,0x00,0x34,0x00, 0x40,0x00,0x23,0x00,0xfb,0xff,0x29,0x00, // 4336
0xf5,0xff,0xa2,0xff,0xe5,0xff,0xc4,0xff, 0x5e,0xff,0x6e,0xff,0xdd,0xff,0x1a,0x00, // 4352
0xe3,0xff,0xd0,0xff,0x76,0x00,0xe2,0xff, 0xfb,0xff,0x04,0x00,0x31,0x00,0x7f,0xff, // 4368
0x11,0x00,0x16,0x00,0xe6,0xff,0x63,0x00, 0x0a,0x00,0xfc,0xff,0x91,0xff,0xa2,0xff, // 4384
0xff,0xff,0x13,0x00,0xf8,0xff,0xc5,0xff, 0xe2,0xff,0xe9,0xff,0xf7,0xff,0xac,0x00, // 4400
0x69,0xff,0x04,0x00,0xe1,0xff,0xe4,0xff, 0xdd,0xff,0x91,0xff,0xfb,0xff,0x16,0x00, // 4416
0x11,0x00,0xbb,0xff,0xfd,0xff,0x13,0x00, 0xd3,0xff,0xf1,0xff,0xf5,0xff,0x2e,0xff, // 4432
0x14,0x00,0x13,0x00,0x0b,0x00,0xca,0xff, 0x9e,0xff,0xe8,0xff,0x12,0x00,0xf3,0xff, // 4448
0xff,0xff,0xea,0xff,0x09,0x00,0x37,0x00, 0x23,0x00,0x87,0x00,0xc7,0xff,0x0f,0x00, // 4464
0x8f,0xff,0x0a,0x00,0xfd,0xff,0xb1,0xff, 0xf3,0xff,0x82,0x00,0x05,0x00,0x30,0x00, // 4480
0x33,0x00,0x76,0xff,0x23,0x00,0xcf,0xff, 0xe9,0xff,0xd6,0xff,0xca,0xff,0x08,0x00, // 4496
0xa6,0xff,0xf4,0xff,0xdf,0xff,0x6e,0xff, 0x3b,0x00,0x11,0x00,0x54,0x00,0x82,0xff, // 4512
0x56,0x00,0x03,0x04,0xb2,0x02,0xae,0x03, 0x6b,0x00,0x6b,0x00,0x90,0xfd,0xd3,0xff, // 4528
0x9f,0xfe,0xb2,0x00,0xe3,0xfd,0x5a,0x01, 0x8e,0x02,0x33,0x00,0xcc,0x00,0x66,0x03, // 4544
0x22,0x00,0x68,0xff,0x63,0x00,0xcb,0xfe, 0xf0,0xff,0xc2,0x01,0xe4,0xff,0xe1,0xfd, // 4560
0xe3,0x01,0x5e,0x00,0x05,0x00,0xb3,0x04, 0xed,0xff,0x76,0xff,0x64,0xfc,0x10,0x01, // 4576
0x80,0x00,0x29,0xf8,0x97,0x00,0xaf,0xff, 0xb1,0xfd,0x62,0x01,0xc1,0x00,0xc6,0xff, // 4592
0xd9,0xfe,0x45,0x00,0x9c,0x00,0x61,0xff, 0x5e,0xfd,0x27,0x00,0x0a,0x00,0x28,0x01, // 4608
0x2f,0x02,0x00,0xff,0x2e,0x01,0x1f,0x03, 0xc1,0xff,0xaf,0xff,0x93,0x08,0x45,0xff, // 4624
0x5c,0x00,0x8e,0x00,0xf3,0x04,0x14,0x01, 0xbf,0x08,0x6a,0x00,0x23,0xff,0xbd,0x04, // 4640
0x77,0xff,0xc7,0xfe,0x10,0x04,0xb2,0xff, 0xd5,0x02,0x19,0xff,0xd1,0xff,0xfb,0xff, // 4656
0x6a,0xff,0xfd,0xff,0x73,0x00,0x64,0x00, 0x4c,0xff,0x12,0x00,0x80,0x00,0x14,0xfe, // 4672
0x45,0x00,0xab,0x00,0x52,0x01,0x73,0xff, 0x4a,0x00,0xfc,0x01,0xfa,0x01,0xe2,0x00, // 4688
0xda,0xff,0xff,0x01,0x90,0x00,0x48,0xff, 0xa9,0xfd,0x28,0xff,0x7c,0x07,0x9f,0xff, // 4704
0x69,0xfd,0x54,0x03,0xd6,0xf5,0x1a,0x00, 0xd9,0xff,0x75,0xfc,0x43,0xfb,0x88,0xfe, // 4720
0x8c,0xf5,0x00,0x02,0x16,0x0c,0x25,0x01, 0x1f,0xfb,0x01,0xff,0x9e,0x03,0x3f,0xff, // 4736
0x3b,0x01,0x16,0x00,0x59,0x01,0x76,0x05, 0x8b,0x00,0xec,0xff,0xd4,0x01,0x86,0x00, // 4752
0x54,0xff,0xe3,0xff,0xde,0xfe,0x33,0x00, 0xd3,0xff,0xbd,0x00,0x99,0xfe,0xf1,0x00, // 4768
0xda,0xfd,0xe6,0x00,0x09,0x00,0x8c,0xff, 0x81,0xf1,0xc5,0x02,0x54,0x00,0x5a,0x00, // 4784
0x56,0xff,0xc3,0xfd,0x2f,0x02,0x68,0x00, 0x18,0x00,0x91,0x00,0x86,0xff,0x39,0x00, // 4800
0xab,0x00,0x02,0x00,0xeb,0xfe,0x71,0x00, 0xeb,0xff,0xf4,0xff,0x58,0xff,0x15,0x00, // 4816
0x66,0x00,0x47,0xff,0x0d,0x00,0xce,0xff, 0xd6,0xff,0x31,0x00,0x45,0x00,0x15,0x00, // 4832
0x9f,0x00,0xe5,0xff,0x97,0x00,0x23,0xff, 0x98,0x00,0xf3,0xff,0x9f,0xff,0xab,0xff, // 4848
0xa9,0x00,0x0f,0xff,0xfb,0xff,0x0e,0x00, 0x14,0x00,0x95,0xff,0xb8,0xff,0x5b,0x00, // 4864
0xd2,0xff,0x58,0xff,0x1f,0x00,0x0b,0x00, 0x99,0xff,0x10,0x00,0xe5,0xff,0x3a,0x00, // 4880
0x0c,0x00,0x01,0x00,0x59,0x00,0x55,0x00, 0xdb,0xff,0x37,0x00,0x19,0x00,0xf7,0xff, // 4896
0x61,0x00,0x69,0x00,0x08,0x00,0x31,0x00, 0x2d,0x00,0xde,0xff,0x3f,0x00,0x2d,0x00, // 4912
0xf2,0xff,0x51,0x00,0xf9,0xff,0x19,0x00, 0x2e,0x00,0xf5,0xff,0xac,0x00,0xcc,0xff, // 4928
0xff,0xff,0x3f,0x00,0x56,0x00,0x04,0x00, 0x6f,0x00,0x78,0x00,0x25,0x00,0xbf,0xff, // 4944
0x76,0xff,0x42,0xff,0x0b,0x00,0xe3,0xff, 0xe4,0xff,0x7e,0xff,0xc9,0xff,0xef,0xff, // 4960
0xb8,0xff,0xda,0xff,0x63,0x00,0xe9,0xff, 0xe9,0x00,0x44,0x00,0xec,0xff,0x39,0x00, // 4976
0xe4,0xff,0xd9,0xff,0xc5,0xff,0xf0,0xff, 0x1c,0x00,0x4d,0x00,0xce,0xff,0xb6,0xff, // 4992
0x13,0x00,0xff,0xff,0xaa,0xff,0x32,0x00, 0xfd,0xff,0xb9,0xff,0x0c,0x00,0xfe,0xff, // 5008
0x1b,0x00,0xb0,0xff,0x31,0x01,0xcd,0xff, 0x39,0x00,0x27,0x00,0xba,0xff,0xcf,0xff, // 5024
0x19,0x00,0x7c,0x00,0x35,0x00,0xf5,0xff, 0x57,0xff,0x3e,0x00,0x72,0xff,0x68,0x00, // 5040
0xc4,0xff,0xee,0xff,0x7f,0xff,0x1d,0x00, 0x2d,0x00,0x7e,0xff,0x6b,0xff,0xf4,0xff, // 5056
0x25,0x00,0x63,0x00,0xec,0xff,0xf2,0xff, 0x44,0xff,0x59,0x00,0x13,0x00,0x20,0x00, // 5072
0x6d,0x00,0xf0,0xff,0x11,0x00,0x2c,0x00, 0x0c,0x00,0xa1,0xff,0x5e,0x00,0x16,0x00, // 5088
0xb7,0xff,0x2e,0x00,0x87,0x00,0x2b,0x00, 0xf6,0xff,0x33,0x00,0xec,0xff,0xd0,0xff, // 5104
0x09,0x00,0x10,0x00,0x25,0x00,0x67,0x00, 0xd8,0xff,0x80,0xff,0xea,0xff,0x0e,0x00, // 5120
0xaf,0xff,0x51,0x00,0xd0,0xff,0xdd,0xff, 0x34,0x00,0xd5,0xff,0x3c,0xff,0xce,0xff, // 5136
0x06,0x00,0x52,0x00,0xf9,0xff,0x30,0x00, 0x56,0x00,0xdf,0xff,0x17,0x00,0x2c,0x00, // 5152
0xcd,0x00,0x42,0x00,0x50,0x00,0x1d,0x00, 0x28,0x00,0x83,0xff,0x00,0x00,0x80,0x00, // 5168
0x05,0x00,0xd9,0xff,0x04,0x00,0x5c,0x00, 0x26,0x00,0x53,0xff,0xb1,0xff,0x65,0x00, // 5184
0x29,0x00,0x12,0x00,0xbc,0xff,0xf5,0xff, 0xa7,0xff,0xca,0xff,0xdc,0xff,0x96,0xff, // 5200
0x48,0x00,0xb3,0x00,0x57,0xff,0x78,0x00, 0x4b,0x00,0xf4,0xff,0xae,0xff,0xa3,0xff, // 5216
0x18,0x00,0xf7,0xff,0x45,0x00,0x1d,0x00, 0x02,0x00,0xc4,0xff,0xbb,0xff,0x36,0x00, // 5232
0xb1,0xff,0x03,0x01,0x7e,0x00,0xc7,0xff, 0x0e,0x00,0x72,0x00,0xf5,0xff,0xd3,0xff, // 5248
0xee,0xff,0xf1,0xff,0x03,0x00,0x21,0x00, 0xb0,0x00,0xb9,0xff,0x5e,0xff,0xeb,0xff, // 5264
0x26,0x00,0x58,0x00,0x46,0x00,0x13,0x00, 0xbf,0xff,0x90,0xff,0xe5,0xff,0x7e,0xff, // 5280
0x8c,0x00,0x15,0x00,0xd5,0xff,0x03,0x00, 0x4c,0x00,0xb9,0xff,0x7b,0xff,0xae,0xff, // 5296
0xf8,0xfe,0x9d,0xff,0x4c,0x00,0x69,0x00, 0x3e,0x00,0xcc,0xff,0x11,0x00,0x85,0x00, // 5312
0xec,0xff,0xab,0xff,0x2a,0x00,0x33,0x00, 0xe6,0xff,0x23,0x00,0x35,0x00,0xe1,0xff, // 5328
0x85,0xff,0xdd,0xff,0x51,0x00,0x12,0x00, 0x0c,0x00,0x79,0x00,0x0a,0x00,0x15,0x00, // 5344
0xd0,0xff,0xf9,0xff,0x3b,0x00,0x2d,0x00, 0x4b,0x00,0x04,0x00,0x09,0x00,0xe9,0xff, // 5360
0x5c,0x00,0xfe,0xff,0x6a,0x00,0xf0,0xff, 0x42,0x00,0x05,0x00,0x05,0x00,0x12,0x00, // 5376
0xf2,0xff,0x0e,0x00,0xed,0xff,0xde,0xff, 0xe5,0xff,0x2d,0x00,0x45,0x00,0x32,0x00, // 5392
0xdc,0xff,0x08,0x00,0x88,0xff,0x35,0x00, 0xfb,0xff,0x8b,0x00,0x3d,0x00,0x56,0x00, // 5408
0xfc,0xff,0x01,0x00,0xc7,0xff,0xf6,0xff, 0x24,0x00,0xea,0xff,0xfb,0xff,0x29,0x00, // 5424
0xf1,0xff,0x11,0x00,0x5a,0x00,0x1e,0x00, 0x42,0x00,0x5c,0x00,0xec,0xff,0x00,0x00, // 5440
0xcc,0xff,0x3f,0xff,0x51,0xff,0x41,0x00, 0x5f,0x00,0xf6,0xff,0xcb,0xff,0xdf,0xff, // 5456
0xfd,0xff,0xdb,0xff,0xf6,0xff,0x12,0x00, 0x6c,0x00,0x5d,0x00,0x04,0x00,0x30,0x00, // 5472
0x1d,0x00,0xe5,0xff,0x79,0xff,0x3d,0x00, 0xeb,0xff,0xef,0xff,0xf6,0xff,0x3f,0x00, // 5488
0x45,0x00,0xf2,0xff,0x25,0x00,0x32,0x00, 0x1e,0x00,0x2d,0x00,0x75,0x00,0x27,0x00, // 5504
0xfc,0xff,0x06,0x00,0x0e,0x00,0x0f,0x00, 0xee,0xff,0x4e,0x00,0xef,0xff,0xaa,0xff, // 5520
0x67,0x00,0xd3,0xff,0x55,0x00,0x02,0x00, 0x02,0x00,0x2c,0x00,0x2d,0x00,0x21,0x00, // 5536
0x2e,0x00,0x1b,0x00,0x50,0x00,0x42,0x00, 0x42,0x00,0x3f,0x00,0x13,0x00,0x6f,0x00, // 5552
0x18,0x00,0xa9,0xff,0x28,0x00,0xfb,0xff, 0xc3,0xff,0x04,0x00,0x20,0x00,0x01,0x00, // 5568
0xee,0xff,0xf7,0xff,0x2f,0x00,0xfd,0xff, 0xfc,0xff,0x85,0xff,0x00,0x00,0xfc,0xff, // 5584
0x9c,0x00,0xef,0xff,0x05,0x00,0x7a,0x00, 0xfa,0xff,0xae,0xff,0x0e,0x00,0x1e,0x00, // 5600
0xf3,0xff,0x8d,0x00,0x16,0x00,0x17,0x00, 0xff,0xff,0xfc,0xff,0x55,0x00,0xd2,0xff, // 5616
0xf1,0xff,0xfc,0xff,0x0d,0x00,0x8f,0x00, 0x41,0x00,0x11,0x00,0x45,0x00,0x8e,0x00, // 5632
0x39,0x00,0x60,0xff,0x6f,0x00,0x6f,0x00, 0xe9,0xff,0xa3,0xff,0x29,0x00,0xb3,0xff, // 5648
0x3e,0xff,0x06,0x00,0x1d,0x00,0x60,0x00, 0xfb,0xfe,0x5b,0x00,0x40,0x00,0xe8,0xff, // 5664
0x48,0x00,0x8b,0xff,0x29,0x00,0x35,0x00, 0x23,0x00,0x9a,0x00,0x97,0xff,0x2c,0x00, // 5680
0x42,0xff,0x11,0x00,0xbb,0xff,0xc4,0xff, 0xc5,0xff,0x41,0x00,0x64,0xff,0xe8,0xff, // 5696
0xda,0xff,0x10,0xff,0x50,0x00,0xb3,0xff, 0x7d,0x00,0x99,0xff,0xe6,0xff,0x21,0xff, // 5712
0x40,0x00,0x37,0x00,0xec,0xff,0xbb,0xff, 0x11,0x00,0xea,0xff,0xde,0xff,0xe6,0x00, // 5728
0xfa,0x00,0x8d,0xff,0x01,0xff,0xb5,0x01, 0x8d,0xff,0x5f,0xff,0xcb,0x00,0xb1,0xfe, // 5744
0x14,0x00,0x0c,0x00,0x52,0x00,0x35,0x00, 0x8a,0x01,0x3a,0x01,0x9f,0xff,0x6a,0x00, // 5760
0xcc,0xff,0x16,0xff,0x98,0x00,0x42,0x00, 0x14,0x00,0xe3,0xff,0x64,0x00,0xdf,0xff, // 5776
0xb1,0xff,0x49,0x00,0x67,0x00,0xcd,0xff, 0x8d,0xff,0x1b,0x01,0x27,0xff,0xc7,0xff, // 5792
0x3d,0x00,0xf7,0xff,0xc1,0xff,0xe9,0xff, 0x44,0x00,0xcd,0xff,0xe1,0xff,0xac,0x00, // 5808
0x50,0xff,0xaa,0xff,0xbc,0xff,0xeb,0xff, 0x68,0x00,0xd6,0xfe,0x68,0x00,0x5d,0x00, // 5824
0xda,0xff,0x48,0x00,0x6c,0xff,0x2f,0x00, 0xb8,0xff,0x1a,0x00,0xf7,0xff,0xd1,0xff, // 5840
0x05,0x00,0xa2,0x00,0xb3,0x00,0x4d,0x00, 0x3d,0xff,0x0a,0x00,0xff,0xff,0x11,0x00, // 5856
0x53,0xff,0x0a,0x00,0x84,0x00,0x61,0x00, 0x41,0x00,0xc2,0xff,0x32,0xff,0xe0,0xff, // 5872
0xfa,0x00,0x02,0x00,0x13,0x00,0x0d,0xff, 0x23,0x00,0x10,0x00,0x9f,0xff,0x13,0x00, // 5888
0xff,0xff,0x5e,0x00,0xf7,0xff,0x0f,0xff, 0x52,0x00,0xfd,0xff,0xa1,0xff,0x41,0x00, // 5904
0xeb,0xff,0xf3,0xff,0x5a,0x00,0x15,0x00, 0xbd,0xff,0x4c,0x00,0xd4,0xff,0xf1,0xff, // 5920
0xdc,0xff,0x9f,0xfe,0x63,0xfd,0x5e,0x00, 0xd5,0x03,0x0c,0x00,0xbd,0xfc,0xa1,0xfc, // 5936
0xe4,0xff,0x86,0xff,0x3f,0x00,0xcd,0xff, 0x0a,0x00,0xd6,0xff,0xe4,0xff,0xd8,0xff, // 5952
0x2b,0x00,0xd5,0xff,0xf8,0xff,0x73,0xff, 0x71,0x00,0x12,0x00,0xc6,0xff,0x79,0x01, // 5968
0x6e,0x00,0xcf,0xff,0x34,0x02,0x4a,0x00, 0xae,0xff,0xf3,0xfe,0x88,0xff,0x34,0x00, // 5984
0xde,0xff,0xea,0xff,0xda,0xff,0x26,0x02, 0xea,0xfb,0x9d,0xff,0xdb,0xff,0xce,0xff, // 6000
0x86,0xff,0x84,0xff,0x2d,0x00,0x53,0x01, 0x17,0x00,0x29,0xfe,0x1a,0x01,0xd0,0x00, // 6016
0x8f,0x00,0x76,0x03,0x54,0x00,0x04,0x00, 0x2a,0x00,0xb8,0xff,0x25,0x01,0xd8,0xff, // 6032
0x72,0x00,0x72,0x00,0x41,0x00,0xdc,0xfe, 0x00,0x00,0x4c,0x00,0x75,0xff,0xd0,0xff, // 6048
0xbb,0x00,0x20,0x00,0xd0,0xff,0x53,0x03, 0x49,0x00,0x61,0x00,0x06,0x00,0x37,0x00, // 6064
0x7d,0xff,0x20,0xff,0xc3,0x02,0x9e,0xff, 0x18,0x00,0xf3,0xfd,0xa1,0x00,0x52,0x00, // 6080
0xd2,0xff,0x54,0x00,0x8e,0xff,0x9b,0x00, 0xe6,0x00,0xe6,0x00,0x38,0xff,0xd9,0xff, // 6096
0x8e,0xfc,0x17,0xfe,0xb6,0x00,0xc4,0x00, 0x68,0x00,0xad,0x00,0x30,0x01,0xe1,0xff, // 6112
0xc5,0xff,0x81,0x00,0x64,0xfd,0xba,0x01, 0x7a,0x00,0xff,0xff,0xaf,0x00,0x15,0x00, // 6128
0x18,0xff,0x30,0x00,0x05,0x04,0x24,0x00, 0xdc,0xfe,0x00,0x00,0x5e,0xff,0xcb,0xfc, // 6144
0x7d,0xff,0x21,0x00,0x80,0x00,0xf7,0xff, 0xf5,0xff,0xc0,0xff,0x01,0x00,0xd7,0x00, // 6160
0xbc,0x00,0x31,0x00,0x25,0x01,0x38,0x00, 0x9f,0xff,0x1b,0x00,0xbd,0xff,0x2f,0x00, // 6176
0x9f,0x00,0x57,0x02,0x9d,0xff,0x4e,0x00, 0x7f,0xff,0x85,0x00,0x48,0xfd,0xd9,0xff, // 6192
0xfc,0xff,0xa8,0x00,0xf0,0xff,0x1c,0x00, 0x02,0x00,0xd9,0xfd,0x72,0x00,0x0b,0x00, // 6208
0x1a,0x01,0x82,0xff,0x8f,0xff,0x9d,0xfe, 0x54,0xfe,0x25,0x00,0x25,0x00,0x9d,0xff, // 6224
0xa0,0xff,0x19,0x00,0xe0,0xff,0x27,0xff, 0xec,0xff,0xcf,0xff,0xb5,0xff,0x39,0xff, // 6240
0xca,0x00,0xfc,0xff,0x73,0xff,0x3b,0xff, 0x45,0x00,0x47,0x00,0xc3,0x00,0xb3,0xff, // 6256
0x13,0x00,0x9b,0xfe,0xce,0xff,0xef,0xff, 0x89,0x00,0x9d,0xff,0xd0,0xff,0xf0,0x00, // 6272
0x0d,0xff,0xd5,0xff,0x99,0xff,0x98,0xff, 0xab,0xff,0xfc,0xff,0xfe,0xff,0x5b,0x01, // 6288
0xa2,0xff,0xf9,0xfe,0xe4,0xff,0x0a,0x02, 0x14,0x02,0x6c,0x00,0x28,0x00,0x79,0x01, // 6304
0x0b,0x00,0xa0,0xff,0x66,0xff,0xf9,0xff, 0x4c,0x00,0x8a,0xfe,0x66,0x00,0x7a,0xff, // 6320
0x34,0x00,0xc2,0x00,0x9b,0xff,0x2d,0x00, 0xde,0xff,0x05,0x00,0x90,0xff,0x26,0x02, // 6336
0x19,0x00,0xbf,0xff,0xe7,0xff,0x2c,0x00, 0xe2,0xff,0x7c,0x00,0x32,0x00,0x81,0x01, // 6352
0xdc,0xff,0xb3,0xff,0xd5,0xff,0x1b,0x00, 0xd2,0xff,0x0b,0x00,0xe0,0xff,0xdd,0xff, // 6368
0x5c,0xff,0x94,0x00,0xb4,0xff,0x16,0x01, 0x1e,0xff,0x37,0xff,0x34,0x00,0xf8,0xff, // 6384
0x89,0x00,0x7b,0x00,0x25,0x00,0xdd,0xff, 0xf6,0xff,0x28,0x00,0x9e,0xfe,0x6c,0x00, // 6400
0x22,0x00,0x57,0x00,0x62,0x00,0xe5,0xff, 0xf2,0xfe,0x2e,0x00,0x85,0x01,0x6f,0x00, // 6416
0xd5,0xfe,0x55,0x00,0xf7,0xff,0x16,0xff, 0xee,0xff,0x40,0x00,0x0a,0x00,0xe0,0xff, // 6432
0x0c,0x00,0x00,0x00,0x56,0x00,0xde,0xff, 0xec,0xff,0xde,0xff,0x59,0x01,0x8d,0xff, // 6448
0x05,0x00,0xe5,0xff,0xfd,0xff,0xc7,0x01, 0x45,0x00,0xd3,0x00,0x0d,0x00,0xe9,0xff, // 6464
0xb2,0xff,0x38,0x00,0x66,0xff,0xb5,0xff, 0x8f,0xff,0x86,0xff,0x97,0xff,0x1b,0x00, // 6480
0xe3,0xff,0x99,0x00,0x2b,0x00,0x00,0x00, 0xa3,0xfb,0x06,0x00,0x1e,0x00,0x0c,0x02, // 6496
0xeb,0xf9,0xee,0xff,0x2f,0xff,0x56,0x01, 0xab,0xff,0x0b,0xff,0xfb,0xff,0x25,0xff, // 6512
0x45,0x00,0x76,0xff,0x0e,0x00,0x38,0xff, 0x7e,0xff,0x85,0x00,0x5b,0xff,0x9d,0xf8, // 6528
0x42,0x00,0x88,0x00,0x04,0xfc,0xf8,0xff, 0xce,0x00,0x5d,0x00,0xeb,0x01,0xdd,0xff, // 6544
0xf2,0x07,0xc6,0xff,0x91,0x00,0x79,0x00, 0xcb,0x00,0x25,0x00,0xe3,0xff,0x6b,0x00, // 6560
0xa2,0xff,0xc0,0xff,0xc8,0xff,0x9b,0x03, 0x41,0xff,0xc2,0xff,0xfe,0xfe,0xf4,0x02, // 6576
0x0a,0x00,0x12,0xf9,0x63,0xff,0xd9,0xff, 0x30,0x00,0xae,0xff,0x0a,0xfa,0x90,0xff, // 6592
0xb8,0xfe,0x33,0x00,0x6c,0x00,0x73,0xfe, 0x09,0x00,0x78,0x00,0x1f,0xff,0x36,0x00, // 6608
0xa7,0xfe,0xf3,0xfd,0x09,0x01,0x21,0xff, 0x1a,0xfe,0x7a,0x00,0x1c,0x00,0x3a,0x00, // 6624
0x70,0x01,0x16,0x02,0x70,0xf6,0xa4,0xfe, 0xf3,0x00,0x63,0xff,0x7c,0xff,0xc4,0xff, // 6640
0x65,0x00,0x9c,0xff,0x10,0x02,0x4f,0xff, 0x4e,0xfc,0x84,0x00,0xb0,0x00,0xa0,0x00, // 6656
0x90,0x02,0x0b,0xff,0xf1,0xfd,0x05,0x00, 0x1f,0xfe,0xb6,0xff,0xcb,0x00,0x6f,0x00, // 6672
0x6b,0xff,0xf9,0xff,0x2e,0x00,0xa4,0xf9, 0x53,0x00,0xe3,0x01,0x2d,0xff,0xc0,0xff, // 6688
0xbe,0x02,0xda,0xfe,0xf3,0xfe,0xd6,0xfe, 0xce,0xfd,0x1e,0x00,0xaf,0x00,0xe6,0x01, // 6704
0xef,0xff,0xf3,0xff,0x86,0xfe,0x68,0x00, 0xea,0xff,0x99,0xff,0x02,0x00,0xdd,0xfc, // 6720
0x53,0xff,0x72,0x00,0x10,0x02,0xac,0x00, 0x6d,0x00,0x5c,0xff,0xec,0xff,0xd0,0xff, // 6736
0xfb,0x00,0x4f,0x00,0xef,0x00,0x66,0x00, 0x94,0x00,0x7d,0xfd,0x7a,0x03,0x7c,0x00, // 6752
0xa9,0xff,0x5e,0x00,0xd4,0xff,0x53,0x00, 0x61,0x00,0xcc,0xfe,0xfd,0x00,0x8c,0xff, // 6768
0x69,0x00,0x0b,0x00,0xec,0x00,0x52,0x00, 0xf2,0xff,0xd2,0x04,0xff,0xff,0xf0,0xff, // 6784
0x20,0x00,0x58,0x00,0xc4,0xff,0x15,0x00, 0xe7,0xfa,0x70,0xff,0x14,0x00,0x25,0x00, // 6800
0x17,0x00,0xe5,0xff,0x61,0x01,0xb1,0xff, 0x75,0xfc,0x10,0xff,0x31,0x00,0x15,0x00, // 6816
0x6b,0x00,0x64,0xff,0xdd,0xff,0xf6,0xff, 0x12,0x01,0xff,0xff,0xf8,0xff,0x04,0x01, // 6832
0x4b,0x01,0xd7,0xff,0x26,0x00,0x16,0x00, 0x71,0xff,0x39,0x00,0xff,0xff,0x71,0x01, // 6848
0x4d,0x00,0xbf,0xfe,0x79,0x00,0x2a,0x02, 0x9d,0xff,0x2e,0x00,0x3a,0x00,0xf2,0xff, // 6864
0x89,0xff,0x1c,0x00,0xc7,0xff,0x10,0x00, 0x6b,0x00,0x9a,0x00,0x4c,0x00,0xaa,0xff, // 6880
0xe4,0xff,0x4d,0x00,0x35,0x00,0xe7,0xff, 0x9e,0x00,0x4c,0x00,0xd9,0xff,0xca,0xff, // 6896
0x5d,0x00,0xbc,0xfb,0x0b,0x00,0xd0,0xff, 0x6b,0xff,0xcd,0xff,0x94,0x00,0x90,0x00, // 6912
0x9b,0xff,0xfe,0x00,0x6c,0x00,0x13,0x00, 0xe8,0xff,0xe7,0xff,0x0d,0x00,0x00,0x00, // 6928
0x82,0xff,0x5f,0x00,0x15,0x00,0xe5,0xff, 0xba,0xff,0x5f,0xfe,0x77,0xff,0xed,0xff, // 6944
0xb5,0x01,0x7c,0x00,0x34,0x00,0xe0,0xff, 0x2b,0x00,0xa4,0xff,0x6f,0xff,0x4b,0x00, // 6960
0x9d,0xff,0x67,0xff,0x66,0x00,0x1d,0x00, 0x1d,0xff,0xa1,0xff,0x45,0xff,0xf0,0xff, // 6976
0x28,0xfe,0x42,0x00,0xef,0xff,0xf1,0x00, 0xe4,0xff,0x78,0xfb,0x1b,0x00,0x00,0x00, // 6992
0xd9,0xff,0x12,0x00,0x0a,0x00,0x76,0x00, 0x3b,0x00,0xc8,0xff,0x00,0x00,0xe3,0xff, // 7008
0x7c,0xff,0xe3,0xff,0xc6,0xff,0xcc,0xff, 0xdb,0xff,0x1e,0x01,0xce,0xff,0xeb,0xff, // 7024
0x90,0xff,0xa0,0x01,0xf7,0xff,0xe2,0xff, 0xbd,0xff,0xe2,0xff,0x21,0x00,0x75,0x00, // 7040
0x7f,0xfe,0x62,0xff,0x8f,0x00,0x76,0xfd, 0x19,0x01,0xf8,0xff,0x05,0x00,0x9c,0xff, // 7056
0x65,0x00,0xfd,0xff,0x26,0x00,0x8e,0x00, 0x30,0x00,0x1e,0xff,0x83,0x00,0xb6,0x01, // 7072
0xaf,0xff,0x5d,0x00,0xe0,0xff,0x78,0x00, 0x2e,0xff,0x46,0x00,0xde,0xff,0x75,0x00, // 7088
0x03,0x00,0xd0,0x01,0xc4,0x00,0x00,0x00, 0xbc,0xff,0x91,0xff,0x52,0x02,0xb5,0xff, // 7104
0xdd,0xfe,0xb2,0xff,0x54,0x00,0x59,0x00, 0xaf,0xff,0x04,0x00,0xe6,0xff,0x24,0x00, // 7120
0xa6,0x00,0xf4,0xff,0x56,0xff,0xde,0xff, 0xec,0xff,0x8a,0xff,0xab,0xf7,0xac,0x00, // 7136
0x80,0x00,0xec,0xff,0x4c,0x00,0x0a,0x00, 0x40,0x00,0x6e,0x00,0xa5,0xff,0x28,0x00, // 7152
0xcc,0x00,0x0d,0x00,0xd6,0xff,0xc7,0x00, 0x9e,0xff,0xd5,0xff,0x5e,0x00,0xde,0xff, // 7168
0x84,0x00,0x5d,0xff,0x4d,0x00,0x82,0x01, 0xd7,0xfd,0xae,0xff,0x50,0x00,0x19,0x00, // 7184
0x35,0x01,0x0d,0x06,0x3b,0xff,0x73,0x00, 0x65,0xff,0x91,0x00,0x45,0x00,0xc7,0xff, // 7200
0x24,0x00,0xa7,0x00,0x53,0xff,0xe2,0xff, 0x5e,0xfe,0x58,0xff,0xb1,0xff,0x67,0x00, // 7216
0xf8,0xfe,0xe2,0xff,0x66,0x00,0x56,0x00, 0x36,0x00,0xf7,0x00,0xf5,0xff,0xf4,0xff, // 7232
0x39,0x00,0x34,0x00,0x09,0xff,0x8e,0xff, 0xd8,0xff,0xc1,0x01,0x6b,0x00,0xb0,0xff, // 7248
0x51,0xff,0xf8,0x01,0x02,0x00,0xa5,0x00, 0xa9,0x00,0xb0,0xff,0x5e,0x01,0x16,0xff, // 7264
0x1b,0x00,0x2b,0x00,0xc6,0xfb,0x61,0x00, 0xfc,0x02,0xb6,0xff,0xa0,0xff,0x31,0xfd, // 7280
0x88,0xff,0x18,0x00,0x3a,0x00,0x8b,0xff, 0xa5,0xff,0xce,0x00,0x41,0x00,0x0f,0x00, // 7296
0x76,0xff,0x51,0xff,0xe6,0xff,0xb1,0xff, 0x1b,0x01,0x4e,0x00,0xbd,0xfe,0x1e,0x00, // 7312
0xc5,0xff,0xcd,0xff,0x63,0x00,0xda,0xff, 0xfc,0xff,0x1d,0x00,0xa2,0xff,0xb4,0xff, // 7328
0xdb,0xff,0x1f,0x00,0x46,0xff,0xf5,0xff, 0xf4,0xff,0x38,0x00,0x17,0x00,0xcf,0xff, // 7344
0x02,0x00,0x31,0x00,0x3b,0x00,0x40,0x00, 0xdd,0xff,0x51,0x00,0x06,0x00,0x2c,0x00, // 7360
0x04,0x00,0x08,0x00,0x4b,0x00,0xdc,0xff, 0xf5,0xff,0xbd,0xff,0xd2,0xff,0xfa,0xff, // 7376
0xf4,0xff,0xb3,0xff,0xe1,0xff,0x06,0x00, 0xe1,0xff,0xe9,0xff,0x06,0x00,0xf8,0xff, // 7392
0x79,0xff,0xe6,0xff,0x38,0x00,0xee,0xff, 0x13,0x00,0xe0,0xff,0xf6,0xff,0x00,0x00, // 7408
0xd0,0xff,0xc6,0xff,0xfc,0xff,0xc4,0xff, 0xcb,0xff,0x63,0x00,0x3c,0x00,0xc4,0xff, // 7424
0xe1,0xff,0x00,0x00,0xe0,0xff,0xe2,0xff, 0x4c,0x00,0x3e,0x00,0x48,0x00,0xfe,0xff, // 7440
0xdb,0xff,0xfa,0xff,0x80,0x00,0xe6,0xff, 0xc8,0xff,0xfa,0xff,0x44,0x00,0xc2,0xff, // 7456
0x36,0x00,0xe0,0xff,0x06,0x00,0x0e,0x00, 0xda,0xff,0x2a,0x00,0xfd,0xff,0xb7,0xff, // 7472
0xf6,0xff,0x65,0xff,0xbe,0xff,0xe7,0xff, 0xa1,0xff,0xd2,0xff,0x1a,0x00,0x19,0x00, // 7488
0xd2,0xff,0x01,0x00,0x0d,0x00,0xde,0xff, 0x28,0x00,0x81,0xff,0x12,0x00,0xfe,0xff, // 7504
0x3a,0x00,0x02,0x00,0xf5,0xff,0xe3,0xff, 0x20,0x00,0x35,0x00,0xbf,0xff,0x1a,0x00, // 7520
0xe4,0xff,0xeb,0xff,0x3c,0x00,0x3f,0x00, 0xcb,0xff,0x05,0x00,0x3c,0x00,0x34,0x00, // 7536
0x37,0x00,0x0f,0x00,0xf6,0xff,0xd8,0xff, 0x08,0x00,0xeb,0xff,0xe3,0xff,0x29,0x00, // 7552
0x11,0x00,0x06,0x00,0x19,0x00,0xe9,0xff, 0xf3,0xff,0x0a,0x00,0x1e,0x00,0x19,0x00, // 7568
0x59,0x00,0xf3,0xff,0x16,0x00,0x05,0x00, 0xff,0xff,0xb7,0xff,0x9d,0xff,0x11,0x00, // 7584
0x39,0x00,0x00,0x00,0x90,0xff,0xe7,0xff, 0xdc,0xff,0x0d,0x00,0x1a,0x00,0xad,0xff, // 7600
0x18,0x00,0x52,0x00,0x58,0x00,0x59,0x00, 0x3a,0xff,0x98,0x00,0x75,0x00,0x93,0x00, // 7616
0x8d,0x00,0xd1,0xff,0xcd,0xff,0x52,0x00, 0x80,0x00,0xfa,0xff,0x91,0xff,0xdb,0x00, // 7632
0x27,0x00,0xf6,0xff,0x5f,0x00,0x49,0x00, 0xc0,0xff,0x95,0xff,0xd3,0xff,0x1f,0x00, // 7648
0x2e,0x00,0xb1,0xff,0xfd,0xfe,0x85,0x00, 0xed,0xff,0x04,0x00,0xce,0xff,0x3e,0xff, // 7664
0xa6,0x00,0x19,0x00,0xbd,0xff,0x79,0xff, 0xa0,0x00,0xe6,0xff,0xa7,0x00,0x37,0x00, // 7680
0x72,0x00,0x4c,0x00,0xf0,0xff,0xa9,0xff, 0x12,0x00,0x1c,0x00,0xdf,0xff,0xb8,0xff, // 7696
0x5e,0x00,0xab,0xff,0x4a,0x00,0x10,0x00, 0xd0,0xff,0xe2,0xff,0x5f,0x00,0x63,0x00, // 7712
0x10,0x00,0x17,0x00,0x1b,0x00,0x25,0x00, 0x93,0xff,0xbe,0xff,0x5d,0x00,0xd1,0xff, // 7728
0xb7,0xff,0x85,0x00,0xd0,0x00,0xb1,0xff, 0x2b,0x00,0x2e,0x00,0x36,0x00,0xc2,0xff, // 7744
0x19,0x00,0x7c,0x00,0x2e,0x00,0x72,0xff, 0x62,0x00,0x8a,0x00,0x8d,0xff,0x37,0x00, // 7760
0x02,0x00,0xa5,0xff,0x53,0x00,0xe3,0xff, 0x3e,0x00,0x05,0x00,0xe2,0x00,0x04,0x00, // 7776
0xbd,0x00,0x83,0x00,0x79,0x00,0x3f,0xff, 0xe6,0xff,0xfa,0xff,0xb9,0xff,0xba,0xff, // 7792
0xc5,0x00,0xd3,0xff,0xdd,0xff,0x9f,0xff, 0x11,0x00,0xce,0xff,0x34,0x00,0xfb,0xff, // 7808
0xb9,0xff,0x1d,0x00,0xda,0xff,0xe6,0xff, 0x32,0x00,0xfb,0xff,0x99,0xff,0xb5,0x00, // 7824
0xc9,0xff,0x48,0x00,0x99,0xff,0xf1,0xff, 0x1b,0x00,0x0a,0x00,0x0b,0x00,0x37,0x00, // 7840
0x71,0xff,0x1c,0x00,0x6c,0xff,0x51,0x00, 0xe2,0xff,0xe6,0xff,0xb6,0xff,0x54,0x00, // 7856
0xad,0xff,0x0c,0x00,0x67,0x00,0xc6,0xff, 0x22,0x00,0x0c,0x00,0x46,0x01,0xeb,0xff, // 7872
0xda,0xff,0x7d,0xfd,0x9d,0xfb,0x51,0xfd, 0xb7,0x00,0x7d,0xfe,0x92,0x00,0xfd,0x00, // 7888
0xab,0x04,0xf3,0xff,0xdf,0x00,0x66,0xfa, 0x8e,0xfe,0x3d,0x00,0x0d,0x00,0xdb,0xfc, // 7904
0x61,0xff,0xdc,0x01,0x01,0x00,0x81,0x02, 0xd1,0xff,0x72,0xfd,0x09,0x00,0x58,0x01, // 7920
0x4d,0xfd,0xef,0xff,0xc8,0xff,0xec,0xfd, 0xf4,0xff,0xaf,0xfe,0x44,0x06,0x83,0xff, // 7936
0xc0,0xfe,0x9b,0x05,0x9d,0xfe,0x0b,0x00, 0x4d,0x02,0xfc,0xfe,0x72,0xff,0xdd,0x02, // 7952
0xe7,0xfd,0x97,0xff,0x36,0xff,0xd8,0xff, 0x3a,0x04,0x6c,0x00,0x5a,0x00,0xc7,0x01, // 7968
0x27,0xfd,0xbd,0xff,0x82,0xff,0xce,0xfe, 0xbc,0x00,0x47,0x03,0x12,0xf6,0xdb,0x00, // 7984
0x8b,0xff,0x97,0xff,0xc7,0xfc,0xa7,0xff, 0x48,0xf9,0xdf,0xfe,0x42,0x00,0x9a,0xf7, // 8000
0xb1,0x00,0x38,0x02,0x36,0xfa,0xac,0xff, 0x04,0xff,0xc0,0x02,0xba,0xfe,0x64,0x01, // 8016
0xf7,0x02,0x0f,0x00,0x8a,0xff,0xa1,0xff, 0x05,0xfe,0x4f,0xff,0x6b,0x01,0x48,0x02, // 8032
0x90,0xfe,0xe9,0xfd,0x85,0xff,0x7c,0x00, 0x83,0xff,0x57,0xff,0xba,0xfc,0x84,0xff, // 8048
0xd7,0x01,0xc4,0xfd,0xe3,0xfe,0xc6,0x01, 0xf2,0xfe,0x25,0x00,0xab,0xf8,0x9a,0x00, // 8064
0xce,0x03,0x0a,0xfe,0x3d,0x10,0xa7,0xff, 0x04,0x00,0x9c,0x02,0x5f,0x01,0x0f,0x04, // 8080
0x9e,0x0d,0x20,0xfc,0x3a,0xf5,0x27,0x00, 0x18,0x03,0xd3,0x00,0x67,0xff,0x15,0x00, // 8096
0xe4,0xfd,0x69,0x00,0xeb,0xfe,0x53,0xf8, 0xb2,0xff,0xdb,0xff,0x16,0xfe,0x9f,0xff, // 8112
0x0c,0x00,0xff,0xff,0x06,0x00,0x5c,0x01, 0x23,0x01,0x1a,0x00,0x28,0x03,0x8c,0xff, // 8128
0x70,0x01,0xce,0xfd,0x86,0xff,0x7e,0x01, 0xdd,0x13,0x3d,0xff,0x3b,0xff,0x73,0xff, // 8144
0x30,0xff,0x79,0x04,0xd4,0xfa,0xc2,0xff, 0x67,0x00,0x51,0x00,0x8f,0x00,0x19,0x00, // 8160
0x41,0xff,0x91,0xfd,0x16,0xff,0xa1,0xff, 0x3a,0x00,0xe2,0xff,0xfd,0xfc,0x70,0xff, // 8176
0x0d,0xff,0xd5,0xfd,0x7d,0x00,0xbf,0xff, 0xc7,0xff,0x76,0xff,0x28,0x00,0x78,0xff, // 8192
0x21,0x02,0x62,0x00,0xa6,0xff,0x9b,0xff, 0x62,0x00,0x37,0x00,0x4c,0xff,0xc1,0xff, // 8208
0xe5,0x01,0x14,0x00,0x7c,0x00,0xf2,0xff, 0x5e,0x00,0x9d,0xff,0x26,0x00,0x15,0x00, // 8224
0x55,0x00,0x66,0x00,0xf8,0xff,0xe3,0x01, 0x9c,0xfd,0x39,0x00,0xb4,0xff,0x20,0xff, // 8240
0xae,0xff,0xd9,0xff,0xaa,0xff,0x6e,0x02, 0xab,0x00,0x0b,0xff,0x20,0x00,0xd4,0x01, // 8256
0x1e,0x01,0x6c,0x01,0x56,0x00,0xc3,0xff, 0x4c,0x00,0x25,0x00,0xfc,0xff,0x15,0x00, // 8272
0x18,0x01,0xe6,0xff,0xd7,0xff,0x78,0xff, 0x23,0x00,0x48,0x00,0xc3,0xff,0x76,0x00, // 8288
0x9a,0x00,0xff,0xff,0x98,0xff,0x09,0x02, 0x2a,0x00,0x52,0x02,0x47,0x00,0xfc,0xff, // 8304
0x19,0x00,0x84,0x00,0xad,0xfe,0xa0,0xff, 0x57,0x00,0xf0,0xfe,0x36,0x00,0xab,0xff, // 8320
0x51,0x00,0x3c,0x00,0xe3,0xff,0x75,0x00, 0x3c,0xfe,0x8b,0x00,0x06,0x00,0xa5,0xff, // 8336
0xf4,0xfd,0x56,0xfd,0x99,0xff,0x4f,0x00, 0xf0,0xff,0x67,0x00,0x61,0x00,0x54,0x00, // 8352
0xfb,0xff,0xee,0xff,0x47,0xfe,0x51,0x00, 0xdc,0xff,0xab,0x00,0x71,0x00,0x88,0x00, // 8368
0x76,0xff,0xce,0xff,0xb4,0x03,0x0e,0x00, 0x58,0xff,0xf4,0xff,0x27,0x01,0x10,0xff, // 8384
0xc8,0x00,0xab,0x02,0xd1,0x00,0x45,0x00, 0xfc,0xff,0x8a,0xff,0x40,0x00,0xbb,0xff, // 8400
0x7f,0x00,0x35,0x00,0x3f,0x01,0xe6,0xff, 0x6d,0x00,0x67,0x00,0x57,0x00,0x61,0x00, // 8416
0x17,0x01,0x8c,0x00,0x95,0xff,0x42,0x00, 0x9a,0xff,0x8a,0x00,0x16,0xff,0x3d,0x00, // 8432
0x38,0x00,0x9d,0xff,0x1e,0x00,0x76,0x00, 0xec,0xff,0xf1,0xff,0x5c,0xff,0x3e,0x00, // 8448
0x1c,0x00,0x7a,0xff,0x64,0xff,0xb1,0xff, 0x77,0xff,0xfd,0xff,0x27,0xff,0x38,0x00, // 8464
0x64,0xff,0xf9,0xff,0xfc,0xff,0x13,0x00, 0x5c,0x00,0xd1,0xff,0xe5,0xff,0x36,0x00, // 8480
0x02,0x00,0x0f,0x00,0x32,0x00,0x6e,0x00, 0x2f,0x00,0xe5,0xff,0x54,0x00,0x4b,0xff, // 8496
0xe4,0xff,0x5a,0x00,0x2a,0x00,0x7c,0x00, 0x20,0x00,0xb6,0xff,0x5e,0x00,0x38,0x00, // 8512
0xd4,0xff,0x40,0x00,0x90,0xff,0xa7,0x00, 0x19,0x00,0xf5,0xff,0x08,0x00,0x57,0x00, // 8528
0x36,0x00,0x08,0x00,0x42,0x00,0x16,0x00, 0x30,0x00,0x40,0x00,0xdd,0xff,0xf8,0xff, // 8544
0x2a,0x00,0x4c,0x00,0x3b,0x00,0x52,0xff, 0x55,0x00,0xa6,0xff,0xf3,0xff,0xeb,0xff, // 8560
0xcb,0x00,0x17,0x00,0x59,0x00,0x31,0x00, 0x70,0x00,0xf2,0xff,0xf9,0xff,0x17,0x00, // 8576
0x42,0x00,0x51,0x00,0xea,0xff,0x36,0x00, 0xfd,0xff,0x24,0x00,0x50,0x00,0x84,0xff, // 8592
0xcb,0xff,0x9e,0xff,0x31,0x00,0x03,0x00, 0xdf,0xff,0x34,0x00,0xfd,0xff,0x7c,0xff, // 8608
0x08,0x00,0x97,0xff,0x9a,0xff,0xbc,0xff, 0xe0,0xff,0xb4,0xff,0x0b,0x00,0x51,0x00, // 8624
0xde,0xff,0x45,0x00,0xfe,0xff,0x0f,0x00, 0xb9,0xff,0x13,0x00,0xd8,0xfe,0x21,0x00, // 8640
0xb6,0xff,0xf8,0xff,0x23,0x00,0x46,0xff, 0xec,0xff,0xd6,0xff,0x77,0x00,0xc6,0xff, // 8656
0xcb,0xff,0xe5,0xff,0xd7,0xff,0x8f,0xff, 0x5b,0x00,0x30,0x00,0xe6,0xff,0x63,0x00, // 8672
0x05,0x00,0xc3,0xff,0xfc,0x00,0x22,0x00, 0x16,0x00,0x07,0x00,0x38,0x00,0xd1,0xff, // 8688
0x7f,0xff,0xe7,0xff,0xee,0xff,0x1e,0x00, 0x26,0x00,0xd9,0x00,0x9c,0xff,0x10,0x00, // 8704
0x09,0x00,0x0c,0x00,0x33,0x00,0x17,0x00, 0x86,0x00,0xd5,0x00,0x76,0xff,0x68,0x00, // 8720
0x55,0x00,0x7a,0xfe,0x2e,0x00,0x8a,0x00, 0x20,0x00,0x72,0xff,0xa5,0xff,0x30,0x00, // 8736
0x21,0x00,0xd4,0xff,0x70,0x00,0x5c,0x00, 0x29,0x00,0x38,0x00,0x94,0xff,0x88,0xfe, // 8752
0x45,0x00,0x8e,0xff,0x25,0x00,0x0c,0xfe, 0x8d,0x01,0x57,0xff,0xea,0xff,0x22,0x01, // 8768
0x51,0x00,0x0e,0xff,0xcd,0x00,0xc7,0xff, 0xd7,0x00,0x57,0xff,0x53,0xfe,0x0c,0x00, // 8784
0xf7,0xfe,0x44,0xff,0x68,0x00,0xfa,0x00, 0xa1,0xff,0x19,0x00,0x06,0x00,0x5f,0xff, // 8800
0x11,0xff,0x58,0x00,0x61,0x00,0x6c,0x00, 0x14,0x00,0x3b,0x00,0x17,0x02,0x8c,0x00, // 8816
0x40,0x00,0x84,0x00,0x76,0x00,0x12,0x00, 0x02,0x00,0xcf,0xff,0x44,0x01,0xb4,0xff, // 8832
0x13,0x00,0xdf,0xff,0x47,0x00,0x64,0x00, 0x63,0x00,0x94,0xff,0x78,0x00,0xde,0xff, // 8848
0xa1,0xff,0x93,0x00,0xce,0xff,0x68,0x01, 0x84,0x00,0x5a,0x00,0x45,0x00,0x73,0xff, // 8864
0x00,0xff,0x79,0xfd,0xb6,0x00,0x3c,0x00, 0xed,0xff,0x3d,0x00,0x3f,0x00,0xc0,0xff, // 8880
0xfd,0xff,0xcc,0xff,0x4d,0x00,0x2b,0x00, 0x02,0x00,0xa6,0x01,0x92,0xff,0xc0,0x00, // 8896
0x89,0xff,0x96,0xff,0x4b,0x00,0xca,0xff, 0xdb,0xff,0x1a,0x00,0xe9,0xff,0x1f,0x00, // 8912
0x78,0xff,0xb4,0xff,0x06,0x00,0x01,0x00, 0x16,0x00,0x75,0xff,0x35,0x00,0x8f,0x00, // 8928
0x0b,0x00,0x20,0xff,0x27,0x01,0xcb,0xff, 0x47,0x00,0x2b,0x00,0xb3,0xff,0xb4,0xff, // 8944
0xf6,0xff,0x2c,0x00,0xda,0x01,0xdc,0xff, 0x6d,0xfe,0x1f,0x00,0xfe,0xff,0x6b,0x01, // 8960
0x11,0x00,0x00,0x00,0x6e,0x00,0xca,0xff, 0x5d,0x00,0x97,0xff,0x34,0x00,0x09,0x00, // 8976
0xa4,0xff,0x61,0x00,0xc9,0xff,0xef,0xff, 0x99,0xfe,0x7e,0x00,0x19,0xff,0xf8,0xff, // 8992
0xe4,0xff,0x49,0x00,0x7b,0x00,0xc9,0x00, 0x81,0xff,0x1e,0xff,0x44,0xfd,0xbf,0xff, // 9008
0x85,0x00,0x0d,0x00,0xa1,0xfb,0xda,0xfe, 0x6c,0xff,0x78,0xff,0x56,0x00,0xe1,0xff, // 9024
0x1b,0x00,0x54,0x00,0x6a,0x00,0x8e,0xff, 0xba,0x00,0x27,0x00,0x4b,0xff,0x26,0x00, // 9040
0xe2,0xff,0xa4,0x00,0x77,0xff,0x85,0xff, 0xf1,0x00,0xe1,0xff,0xba,0x00,0x23,0x00, // 9056
0x9f,0xff,0x26,0xff,0x5a,0x00,0xdc,0xff, 0xfa,0xff,0xaf,0xff,0x1e,0x00,0xba,0x00, // 9072
0x49,0xfd,0x59,0x00,0x9b,0xff,0x95,0xff, 0xf7,0xff,0x40,0xff,0xf2,0xff,0x6d,0x01, // 9088
0x5b,0x00,0x4b,0xff,0xcc,0xff,0xfb,0xff, 0x62,0x00,0x79,0x01,0xac,0x00,0x24,0x00, // 9104
0x88,0x00,0x88,0x00,0x15,0x00,0xf7,0xff, 0x4a,0x00,0x01,0x00,0x96,0xff,0xa8,0xff, // 9120
0xe4,0xff,0x74,0x00,0xad,0xff,0x56,0x00, 0xff,0x00,0x9c,0xff,0x35,0x00,0xd5,0x00, // 9136
0xc3,0xff,0x8e,0x00,0x4c,0x00,0xc5,0x00, 0x13,0x00,0x75,0x00,0xdf,0xff,0x2d,0xff, // 9152
0x51,0x00,0x5b,0xfe,0x08,0x00,0xa7,0xff, 0xcd,0x00,0x87,0x00,0x53,0x00,0x76,0x00, // 9168
0xff,0xff,0x23,0x00,0x0d,0x00,0x5b,0x00, 0x6e,0xfe,0xc2,0xfe,0xa6,0xff,0x28,0x00, // 9184
0xcc,0xff,0x76,0x01,0x36,0x00,0x9b,0x00, 0x48,0x00,0xd6,0x00,0x49,0xfe,0x1e,0x01, // 9200
0xe2,0xff,0x68,0x00,0x5c,0x00,0x08,0x00, 0x9c,0xff,0xb2,0xff,0xbd,0x04,0x56,0x00, // 9216
0x79,0x00,0x96,0xff,0x67,0x00,0x8d,0xff, 0xe6,0x00,0xee,0x00,0xf1,0xff,0xbb,0x00, // 9232
0xc5,0xff,0x43,0xff,0x02,0x00,0xa2,0xff, 0xcb,0xff,0x3b,0x00,0x6e,0x00,0x9f,0xff, // 9248
0x12,0x00,0x1b,0x00,0x78,0x00,0x0d,0x00, 0xfc,0xff,0xb5,0xff,0x7f,0xff,0x8a,0x00, // 9264
0x9a,0xff,0x58,0x00,0x9e,0xff,0x91,0x00, 0xda,0xff,0xc8,0xff,0x13,0x00,0x50,0x00, // 9280
0xba,0xff,0x19,0x00,0x31,0xff,0xec,0xff, 0xcc,0xff,0x2d,0xff,0x7b,0xff,0xf5,0xff, // 9296
0xd2,0xff,0xf4,0xff,0x82,0xff,0x5a,0x00, 0x71,0xff,0xed,0xff,0x38,0x00,0x1a,0x00, // 9312
0x0d,0x00,0xb1,0xff,0x00,0x00,0x45,0x00, 0x19,0x00,0x25,0x00,0xe8,0xff,0x80,0x00, // 9328
0x51,0x00,0xfd,0xff,0xdc,0x00,0x68,0xff, 0xdb,0xff,0x11,0x00,0xef,0xff,0x4c,0x00, // 9344
0x0e,0x00,0xc0,0xff,0x47,0x00,0x28,0x00, 0x9e,0xff,0x23,0x00,0xb8,0xff,0x6e,0x00, // 9360
0x3a,0x00,0x15,0x00,0xec,0xff,0x2a,0x00, 0xdc,0xff,0xd0,0xff,0x18,0x00,0x62,0x00, // 9376
0x04,0x00,0x28,0x00,0x2c,0x00,0x19,0x00, 0xd5,0xff,0x05,0x00,0xfe,0xff,0x44,0xff, // 9392
0xea,0xff,0xec,0xff,0xf4,0xff,0x45,0x00, 0x19,0x01,0x4c,0x00,0x05,0x00,0x06,0x00, // 9408
0x62,0x00,0x1e,0x00,0xaa,0xff,0x55,0x00, 0x11,0x00,0x01,0x00,0xf5,0xff,0x18,0x00, // 9424
0xfa,0xff,0x13,0x00,0x39,0x00,0x28,0x00, 0xc0,0xff,0xde,0xff,0x38,0x00,0x2d,0x00, // 9440
0x02,0x00,0xfc,0xff,0x99,0xff,0x94,0xff, 0x49,0x00,0x93,0xff,0xa8,0xff,0xf4,0xff, // 9456
0x2b,0x00,0xef,0xff,0x30,0x00,0x4c,0x00, 0x4f,0x00,0x1e,0x00,0x0e,0x00,0x1c,0x00, // 9472
0x9b,0xff,0xd2,0xff,0x01,0x00,0x44,0x00, 0xd6,0xff,0xf5,0xff,0xd2,0xff,0x5c,0xff, // 9488
0xd7,0xff,0xdf,0xff,0x54,0x00,0xfe,0xff, 0x16,0x00,0xcc,0xff,0x39,0x00,0x83,0xff, // 9504
0xe6,0xff,0x00,0x00,0x38,0x00,0xca,0xff, 0x12,0x00,0xdf,0xff,0xd4,0x00,0xd8,0xff, // 9520
0x1a,0x00,0xde,0xff,0x96,0x00,0x80,0xff, 0x82,0xff,0xdd,0xff,0x0c,0x00,0x1e,0x00, // 9536
0xa5,0xff,0x5f,0x00,0xbd,0xff,0x0e,0x00, 0x0d,0x00,0x45,0x00,0xaa,0xff,0x2c,0x00, // 9552
0x4e,0x00,0x3a,0x02,0x87,0x00,0x6f,0x00, 0x5d,0x00,0x90,0xff,0xae,0xff,0x78,0xff, // 9568
0x98,0x00,0x96,0x00,0xc6,0xff,0x76,0xff, 0xfc,0x00,0x06,0x00,0x07,0x00,0xc5,0x00, // 9584
0x57,0x00,0xf6,0xff,0x4c,0x00,0x5e,0x00, 0xb5,0xff,0x0b,0x00,0xee,0xff,0x00,0x00, // 9600
0xc4,0x00,0x38,0x00,0x6c,0x00,0xd1,0x01, 0xe4,0xff,0x30,0xff,0xdd,0x00,0x57,0x00, // 9616
0x21,0x01,0xb9,0xff,0x0c,0xff,0x98,0xff, 0x87,0xfe,0x63,0x00,0x45,0x00,0x41,0x00, // 9632
0xd1,0xff,0x38,0x00,0xd1,0x00,0xce,0xff, 0x72,0xff,0xca,0xff,0x7e,0xff,0xe6,0xff, // 9648
0x7a,0x00,0xc4,0xff,0x32,0x00,0xa2,0xff, 0xa5,0xff,0x9c,0x00,0x79,0x00,0x3e,0xff, // 9664
0x8d,0x00,0x25,0x00,0x6b,0x02,0xd1,0x00, 0x4c,0x01,0x1a,0x00,0xb1,0xff,0xce,0xff, // 9680
0x94,0xff,0x20,0x00,0xdc,0xff,0xfc,0xff, 0xea,0x00,0x65,0x00,0x59,0x00,0xd8,0x00, // 9696
0xee,0xff,0xe5,0xff,0x63,0x00,0x49,0x00, 0x6a,0xff,0x65,0xff,0x46,0x01,0xe7,0x00, // 9712
0xc6,0x00,0x8d,0x00,0xff,0xff,0xcd,0xff, 0x1f,0x00,0x54,0x00,0xb5,0x00,0x06,0x00, // 9728
0x65,0x00,0xed,0x00,0x8e,0x00,0xa7,0xff, 0x52,0xff,0x5d,0xff,0xf9,0xff,0xa5,0xff, // 9744
0x56,0x00,0x91,0x00,0x14,0x00,0x6e,0x00, 0x6c,0x00,0x0c,0xff,0x78,0xff,0x4b,0x00, // 9760
0xa7,0xff,0x82,0x00,0xaf,0x00,0xd5,0xff, 0x4e,0xff,0xc2,0xff,0x30,0x01,0x10,0x00, // 9776
0xb0,0x00,0x03,0x00,0x35,0x00,0xbb,0xff, 0x54,0x00,0x3b,0x00,0xa3,0x00,0x11,0x00, // 9792
0xbe,0xff,0xd5,0xff,0x37,0xff,0xc1,0x00, 0x29,0xff,0x47,0x00,0x93,0x00,0x86,0x00, // 9808
0x4d,0x00,0x5e,0x00,0x3e,0x00,0x66,0xff, 0x10,0x00,0xff,0x00,0xbd,0x00,0xfe,0xff, // 9824
0xb3,0xff,0xc1,0xff,0xe8,0xfe,0xf4,0xff, 0xee,0xff,0xd5,0xff,0x5c,0x00,0xa5,0xff, // 9840
0xfb,0xff,0x1f,0x00,0xc7,0xff,0xcc,0xff, 0xe0,0xff,0x06,0x00,0x62,0xff,0xca,0xff, // 9856
0x12,0x00,0x20,0x00,0xfd,0xff,0x9b,0xff, 0xf9,0xff,0xe4,0xff,0xe0,0xff,0xda,0xff, // 9872
0x23,0x00,0x5d,0x00,0x07,0x00,0xe3,0xff, 0x2b,0x00,0xf0,0xff,0x37,0x00,0x09,0x00, // 9888
0x03,0x00,0xbe,0xff,0xa7,0x00,0x11,0x00, 0xe1,0xff,0xe0,0xff,0x0c,0x00,0xfb,0xff, // 9904
0xd3,0xff,0xfb,0xff,0x14,0x00,0xfd,0xff, 0x9e,0xff,0xf5,0xff,0x20,0x00,0xf1,0xff, // 9920
0x26,0x00,0x44,0x00,0x20,0x00,0xca,0xff, 0x50,0x00,0x20,0x00,0x17,0x00,0xdd,0xff, // 9936
0xdd,0xff,0x51,0x00,0x77,0x00,0xc6,0xff, 0xf7,0xff,0xe3,0xff,0x35,0x00,0x03,0x00, // 9952
0x1c,0x00,0x42,0x00,0x12,0x00,0x32,0x00, 0xfc,0xff,0xc9,0xff,0x16,0x00,0x07,0x00, // 9968
0xcf,0xff,0x45,0x00,0x48,0x00,0xc6,0xff, 0xfb,0xff,0xf5,0xff,0xd1,0xff,0xc7,0xff, // 9984
0x1f,0x00,0x1a,0x00,0x71,0x00,0xed,0xff, 0x38,0x00,0x70,0xff,0xff,0xff,0x1a,0x00, // 10000
0x2a,0x00,0xf1,0xff,0x05,0x00,0x02,0x00, 0x3a,0x00,0x21,0x00,0xfc,0xff,0xd8,0xff, // 10016
0xa8,0xff,0xa0,0xff,0xda,0xff,0x2a,0x00, 0x1d,0x00,0xc5,0xff,0xca,0xff,0xe8,0xff, // 10032
0x2e,0x00,0x24,0x00,0xb8,0xff,0x7d,0x00, 0x02,0x00,0x02,0x00,0xfc,0xff,0x07,0x00, // 10048
0xfc,0xff,0xed,0xff,0x59,0x00,0x22,0x00, 0x37,0x00,0x12,0x00,0x1a,0x00,0x8e,0xff, // 10064
0xd7,0xff,0xdb,0xff,0x0f,0x00,0xd9,0xff, 0x17,0x00,0x0e,0x00,0xf3,0xff,0xe3,0xff, // 10080
0xb5,0xff,0x08,0x00,0x03,0x00,0x37,0x00, 0x22,0x00,0x2c,0x00,0x00,0x00,0xf2,0xff, // 10096
0xda,0xff,0xd9,0xff,0xd9,0xff,0xce,0xff, 0x07,0x00,0x1d,0x00,0x82,0xff,0x01,0x00, // 10112
0xe7,0xff,0x7e,0x00,0x18,0x00,0x33,0x00, 0xa7,0x00,0x32,0x00,0x09,0xff,0x2b,0x00, // 10128
0x1e,0x00,0x0d,0x00,0x37,0xff,0xa0,0xff, 0x4c,0x00,0xb7,0xff,0xc2,0xff,0xf9,0xff, // 10144
0xd9,0xff,0xdc,0x00,0xd8,0xff,0xe6,0xff, 0x05,0x00,0x00,0x00,0xd8,0xff,0x69,0xff, // 10160
0x3d,0x00,0x10,0x00,0x0f,0x00,0xdb,0xff, 0x9a,0x00,0x88,0xff,0xe2,0xff,0x38,0x00, // 10176
0xa7,0xff,0xf7,0xff,0xc8,0xff,0xa8,0xff, 0xf6,0xff,0x6f,0xff,0xcd,0xff,0xbf,0xff, // 10192
0xdf,0xff,0x0c,0x00,0x66,0x00,0x0b,0x00, 0x05,0x00,0x17,0x00,0xe1,0xff,0x85,0xff, // 10208
0x21,0x00,0x5d,0x00,0x00,0x00,0xd9,0xff, 0x27,0x00,0x3d,0x00,0xf9,0xff,0xe7,0xff, // 10224
0x49,0x00,0x12,0x00,0x8c,0x00,0x12,0x00, 0xf9,0xff,0xdf,0xff,0x93,0x00,0x70,0x00, // 10240
0xa7,0xff,0xc6,0xff,0x2b,0x00,0x0e,0x00, 0x09,0x00,0xad,0x00,0x08,0x00,0xc9,0xff, // 10256
0xdd,0x00,0x2c,0x00,0xe6,0xff,0xa7,0xff, 0x2f,0xff,0x41,0x00,0xc6,0xff,0xcf,0xff, // 10272
0x69,0x00,0xd0,0xff,0xcd,0xff,0xcb,0xff, 0xf3,0xff,0x8e,0xff,0x68,0x00,0xcd,0xff, // 10288
0xa7,0x00,0xbc,0xff,0x43,0x00,0x15,0x00, 0x36,0x00,0xe9,0xff,0x35,0x00,0x08,0x00, // 10304
0x64,0x00,0x1e,0x00,0xfc,0xff,0xfc,0xff, 0xc2,0xff,0xe0,0xff,0xaa,0xff,0x77,0x00, // 10320
0xb3,0xff,0xd4,0xff,0x01,0x00,0x0d,0x00, 0xf7,0xff,0xac,0xff,0x5a,0x00,0x1e,0x00, // 10336
0xfa,0xff,0xec,0xff,0xae,0xff,0x3f,0x00, 0xc0,0xff,0x11,0x00,0x17,0x00,0x33,0x00, // 10352
0x98,0xff,0x39,0x00,0x3b,0x00,0x58,0x00, 0x0a,0x00,0xf8,0xff,0xe2,0xff,0xe8,0xff, // 10368
0xc7,0xff,0xba,0xff,0xb3,0xff,0x49,0x00, 0x25,0x00,0xab,0x00,0xfd,0xff,0xb2,0xff, // 10384
0xea,0xff,0x14,0x00,0xdc,0xff,0xfd,0xff, 0xd2,0xff,0x5a,0x00,0xab,0xff,0x52,0xff, // 10400
0xf0,0xff,0xba,0xff,0x85,0x01,0x02,0x00, 0xc9,0xff,0x3b,0x00,0xf7,0x01,0xab,0x00, // 10416
0x63,0x01,0x10,0x00,0xd4,0xff,0xbe,0xff, 0x2b,0x00,0x0f,0x00,0xf6,0xff,0xff,0xff, // 10432
0xe6,0xff,0x6b,0xff,0x47,0x00,0xb1,0xff, 0x5b,0xff,0x95,0xff,0x2b,0x00,0x90,0x00, // 10448
0xeb,0xff,0x8c,0xff,0xdb,0xff,0x18,0x00, 0x17,0x00,0x3b,0x00,0x80,0xff,0xd8,0xff, // 10464
0x46,0xff,0xbc,0xff,0xd7,0xff,0x88,0xff, 0x2a,0x01,0xd7,0xff,0x7c,0x00,0x01,0x00, // 10480
0x2e,0x00,0x45,0x00,0x25,0x00,0x4a,0xff, 0xb8,0xff,0xfd,0xff,0x97,0xff,0xb5,0xff, // 10496
0x77,0x00,0x27,0xff,0xf2,0xff,0xfd,0xff, 0x7b,0xff,0x79,0xff,0xaa,0xff,0x00,0x00, // 10512
0x9e,0xff,0xb8,0xff,0x60,0x00,0xbd,0xff, 0xfd,0xff,0x4c,0x00,0x2e,0x00,0xb7,0xff, // 10528
0x1f,0xff,0x22,0x00,0xe9,0xff,0xa8,0xff, 0x78,0x00,0xd3,0xff,0xda,0xff,0x6e,0xff, // 10544
0x81,0xff,0x66,0xff,0x6b,0xff,0x85,0x00, 0x6a,0x00,0x71,0x01,0xdd,0xff,0x09,0x00, // 10560
0xec,0xff,0xce,0xff,0xe5,0xff,0x0e,0x00, 0xb1,0x00,0x49,0x00,0x41,0x00,0xf8,0xff, // 10576
0xb2,0x00,0xe4,0x00,0xf1,0xff,0xbe,0xff, 0xba,0x00,0xfc,0xfe,0xa2,0xff,0x6c,0xff, // 10592
0xe0,0xff,0xfb,0xff,0xfc,0x00,0xed,0xff, 0x39,0x00,0x4e,0xff,0x9f,0xff,0xc7,0xff, // 10608
0x5d,0x00,0x04,0x00,0xcc,0xfd,0xb1,0xff, 0xc4,0xff,0x2c,0x00,0xe5,0xff,0x7b,0x00, // 10624
0xb6,0xff,0xb8,0xff,0x12,0x00,0xe0,0xff, 0x20,0x00,0x28,0x00,0x2d,0x00,0xf1,0xff, // 10640
0xf1,0xff,0xab,0xff,0xef,0xff,0x06,0x00, 0x18,0x00,0xde,0xff,0xc4,0xff,0xe5,0xff, // 10656
0x82,0xff,0x27,0x00,0xda,0xff,0xfb,0xff, 0xfd,0xff,0x63,0x00,0xf5,0xff,0xe1,0xff, // 10672
0x88,0xff,0x43,0x00,0xe0,0xff,0x2a,0x00, 0x2c,0x00,0xdf,0xff,0xce,0xff,0x02,0x00, // 10688
0x44,0x00,0x19,0x00,0x99,0xff,0xe6,0xff, 0x58,0x00,0xd2,0xff,0xee,0xff,0x30,0x00, // 10704
0xe5,0xff,0xdb,0xff,0xab,0xff,0x99,0xff, 0xf2,0xff,0xed,0xff,0x12,0x00,0xf4,0xff, // 10720
0x0f,0x00,0x56,0xff,0x19,0x00,0x00,0x00, 0xea,0xff,0x06,0x00,0x19,0x00,0x19,0x00, // 10736
0xfb,0xff,0xea,0xff,0xd0,0xff,0x06,0x00, 0xd6,0xff,0x30,0x00,0xc5,0xff,0x9f,0x00, // 10752
0xd5,0xff,0xba,0xff,0x02,0x00,0xeb,0xff, 0xca,0xff,0x76,0x00,0x85,0x00,0x3b,0x00, // 10768
0xff,0xff,0x22,0x00,0x26,0x00,0xf0,0xff, 0x44,0x00,0x17,0x00,0xa9,0xff,0x16,0x00, // 10784
0xb5,0xff,0x84,0xff,0x07,0x00,0xe4,0xff, 0xfe,0xff,0x15,0x00,0x65,0x00,0x41,0x00, // 10800
0x05,0x00,0x8c,0xff,0xeb,0xff,0x8d,0xff, 0x1a,0x00,0xe7,0xff,0xdb,0xff,0x2b,0x00, // 10816
0xc2,0xff,0x22,0x00,0xbb,0xff,0x97,0xff, 0x25,0x00,0xf2,0xff,0x38,0x00,0x2c,0x00, // 10832
0x28,0x00,0x1d,0x00,0x03,0x00,0x3c,0x00, 0xb1,0xff,0x39,0x00,0x0b,0x00,0x0d,0x00, // 10848
0xe2,0xff,0x46,0x00,0xcc,0xff,0xfc,0xff, 0xe4,0xff,0xf0,0xff,0x5c,0x00,0xfc,0xff, // 10864
0xfb,0xff,0x26,0x00,0xfe,0xff,0x78,0xff, 0x23,0x00,0xf3,0xff,0x39,0x00,0x85,0xff, // 10880
0xf6,0xff,0xf9,0xff,0x44,0x00,0x0a,0x00, 0xd4,0xff,0x14,0x00,0x33,0x00,0xf2,0xff, // 10896
0xee,0xff,0x61,0x00,0x2d,0x00,0x45,0x00, 0xc1,0xff,0x02,0x00,0x21,0x00,0x6d,0xff, // 10912
0x2f,0x00,0x4b,0x00,0xed,0xff,0x08,0x00, 0xe0,0xff,0x9e,0xff,0xf3,0xff,0x32,0x00, // 10928
0x48,0x00,0xf0,0xff,0x90,0xff,0xf6,0xff, 0x1f,0x00,0x25,0x00,0xe9,0xff,0x7f,0xff, // 10944
0x04,0x00,0xef,0xff,0x0d,0x00,0x9d,0xff, 0x02,0x00,0x74,0x00,0xb8,0x00,0x0e,0x02, // 10960
0x98,0x00,0x4e,0x03,0x8a,0xff,0x3a,0x00, 0x5c,0xff,0x3b,0x00,0x5a,0x01,0x90,0x01, // 10976
0x8e,0x02,0xc4,0xff,0x6f,0xff,0x81,0x04, 0x39,0x00,0x44,0x00,0x1c,0x00,0xd0,0xff, // 10992
0x46,0x00,0xb5,0x00,0xfa,0xff,0xab,0x00, 0x48,0x00,0x79,0x00,0xea,0xff,0x86,0x02, // 11008
0x42,0x00,0xb6,0xff,0x54,0xfd,0x1c,0x00, 0xce,0xff,0x03,0x00,0x14,0xff,0xe8,0xff, // 11024
0x0a,0xfd,0x43,0x00,0x13,0x01,0x7b,0xfd, 0x44,0x01,0x19,0x00,0xca,0xff,0x43,0x00, // 11040
0x75,0xff,0x93,0xff,0xcf,0xff,0xca,0xfb, 0xd1,0xff,0xb5,0x00,0x33,0x00,0x10,0xfd, // 11056
0xa5,0xff,0x20,0xfe,0x6e,0x00,0xb4,0xff, 0x58,0x00,0x34,0x00,0xcc,0x02,0x18,0x00, // 11072
0x10,0x00,0x5e,0x00,0x9d,0xff,0xd5,0x01, 0x7e,0xff,0xcd,0xff,0x5f,0x00,0xe3,0xff, // 11088
0x1f,0x00,0x70,0xff,0x0b,0x00,0xb1,0xfd, 0x65,0x00,0x0f,0x00,0x1e,0x00,0x15,0x00, // 11104
0x6f,0xff,0x3a,0xff,0xd7,0x02,0xf7,0xff, 0xff,0xff,0xcc,0x00,0x4c,0x00,0x88,0xff, // 11120
0x51,0x00,0x32,0x00,0xd8,0x00,0x9c,0xff, 0xbf,0x01,0xb9,0xff,0xf8,0xff,0x35,0x00, // 11136
0x91,0x00,0x85,0x02,0x17,0x03,0x9e,0xff, 0xaa,0xf6,0xa1,0x00,0x92,0xfe,0x21,0x00, // 11152
0x63,0xff,0x55,0xfe,0x2c,0x01,0x8e,0xfc, 0xe6,0xfe,0xc4,0x00,0xff,0xff,0x9c,0xff, // 11168
0xdc,0xff,0x3f,0xff,0xca,0xfe,0xe1,0xff, 0xc1,0x02,0xc9,0xff,0xaf,0xff,0xae,0x01, // 11184
0x25,0x00,0x1a,0x00,0x4d,0x00,0x59,0x00, 0x91,0x00,0xb1,0xff,0xd2,0xff,0x80,0x00, // 11200
0x42,0x00,0x4e,0x00,0x15,0xfe,0x2d,0x00, 0x81,0xfe,0x2b,0x00,0x30,0x00,0xc8,0xff, // 11216
0x72,0xfe,0xfe,0xfd,0x15,0x00,0x44,0x00, 0x2e,0x00,0x74,0xf5,0xac,0x02,0x51,0x00, // 11232
0xdc,0xff,0x0b,0x00,0xe5,0xff,0xa2,0xff, 0xa7,0xff,0x1f,0x00,0xda,0x00,0x09,0x00, // 11248
0xb2,0xff,0x3b,0x00,0xd6,0x00,0xe8,0xff, 0x6f,0xff,0x11,0x00,0xe1,0x00,0xbf,0xff, // 11264
0xb1,0x00,0xfa,0xff,0x1f,0x00,0x96,0xff, 0xf3,0xff,0x03,0x00,0x06,0x00,0x7f,0xff, // 11280
0x40,0x00,0xeb,0xff,0x1e,0x00,0xd0,0xff, 0xe7,0xff,0xaa,0x00,0x98,0xff,0x6f,0x00, // 11296
0xfd,0xff,0x1e,0x00,0xfc,0xff,0xc5,0xff, 0x26,0x00,0x38,0x00,0xf8,0xff,0x11,0x00, // 11312
0xa3,0x00,0x0d,0x00,0xab,0x00,0x00,0xff, 0xfb,0xff,0x06,0x00,0x2f,0x00,0x18,0x00, // 11328
0xde,0xff,0x11,0x00,0x6b,0x00,0xf3,0xff, 0x0f,0x00,0x9a,0xff,0xdb,0xff,0x3c,0x00, // 11344
0xdb,0xff,0xf4,0xff,0xe4,0xff,0x34,0x00, 0x18,0x00,0x31,0x00,0xe8,0xff,0x5a,0x00, // 11360
0x63,0xff,0x86,0xff,0xc4,0xff,0xf5,0xff, 0x25,0xff,0xe2,0xff,0x6b,0x00,0x34,0x00, // 11376
0xe0,0xff,0xa4,0xff,0xa7,0xff,0xd6,0xff, 0x62,0x00,0xc0,0xff,0x68,0xff,0x68,0x00, // 11392
0x5f,0x00,0x59,0x00,0xa5,0xff,0xe9,0xff, 0x10,0x00,0x12,0x00,0xfc,0xff,0xa8,0x00, // 11408
0xff,0xff,0x08,0x00,0x11,0x00,0xfc,0xff, 0x31,0x00,0x35,0x00,0xf9,0xff,0xeb,0xff, // 11424
0x1b,0x00,0xc9,0xff,0x2c,0x00,0xff,0xff, 0x33,0x00,0xf6,0xff,0xc5,0x00,0xa9,0xff, // 11440
0xfc,0xff,0xc3,0xff,0xec,0xff,0xb6,0x00, 0x3a,0x00,0xf3,0xff,0xa9,0xff,0xfd,0xff, // 11456
0x03,0x00,0x3d,0x00,0x32,0x00,0x1c,0x00, 0x17,0x00,0xe1,0xff,0x20,0x00,0x09,0x00, // 11472
0xb8,0xff,0x05,0x00,0x48,0xff,0xc7,0xff, 0x97,0xff,0x01,0x00,0xc1,0xff,0x96,0x00, // 11488
0xc7,0x00,0xcc,0xff,0xd8,0xff,0x44,0x00, 0x10,0x00,0xe1,0xff,0x2b,0x00,0x1d,0x00, // 11504
0xec,0xff,0xf0,0xff,0x73,0x00,0x44,0x00, 0x1f,0x00,0xfc,0xfe,0x30,0x00,0x3a,0x00, // 11520
0xbb,0x00,0x6d,0x01,0xed,0xfe,0x0e,0x00, 0x70,0x01,0x07,0x00,0x5f,0xff,0x9b,0xff, // 11536
0xa9,0x02,0xf9,0xff,0x67,0x00,0x92,0xff, 0xe3,0xff,0x33,0x00,0xb1,0xff,0xc7,0x01, // 11552
0x15,0x00,0xca,0x00,0x42,0x00,0xe1,0x01, 0x08,0xfe,0x19,0x00,0x41,0x00,0x72,0x01, // 11568
0xce,0xff,0xcf,0xff,0xb1,0x00,0x10,0x00, 0xe0,0xfe,0x31,0x00,0xc6,0xff,0x80,0x00, // 11584
0x3e,0xfe,0x85,0xff,0x5b,0xff,0xc6,0xfe, 0xdb,0xff,0xfd,0xff,0x5f,0xff,0xbc,0xff, // 11600
0x75,0x01,0x4e,0x00,0x22,0x00,0x67,0xfd, 0x19,0x00,0xef,0xff,0xab,0xff,0xb6,0xfc, // 11616
0x81,0xff,0xb5,0x00,0xd9,0xff,0xe6,0xff, 0x04,0x00,0xe4,0xff,0xac,0x00,0x3a,0xff, // 11632
0x35,0x00,0xf1,0xff,0x2c,0x00,0x8d,0x00, 0x3a,0x00,0xd1,0xff,0xae,0x00,0xfb,0xff, // 11648
0xac,0x01,0xfb,0xff,0x77,0xff,0x9c,0xfe, 0xe6,0xff,0xfd,0xff,0xdf,0xff,0x1d,0x00, // 11664
0xcd,0xff,0xcc,0xff,0xd8,0x01,0x34,0xff, 0x0f,0xff,0x42,0xff,0x7b,0x00,0x24,0x00, // 11680
0x5d,0x00,0xa7,0x00,0x0f,0xfe,0x74,0x00, 0x07,0x01,0x82,0xfd,0x80,0xff,0x1d,0xff, // 11696
0xeb,0xff,0xb0,0x00,0x34,0x00,0x28,0x00, 0x6b,0x00,0x71,0x00,0xca,0xff,0x16,0x00, // 11712
0x98,0xff,0xc4,0x00,0xd7,0xff,0x64,0x00, 0xaf,0xff,0x98,0xff,0xbe,0xff,0x3e,0x00, // 11728
0xb6,0xff,0x22,0x01,0xc2,0x00,0x69,0x00, 0xcf,0x00,0x80,0x00,0x9e,0xff,0x18,0xff, // 11744
0xa2,0xff,0xd4,0xff,0x30,0xff,0xa6,0xff, 0xc1,0x00,0x3f,0x00,0x39,0x00,0x8e,0x00, // 11760
0xe5,0x00,0x0a,0x00,0x44,0xff,0x92,0xff, 0x99,0xfe,0x1b,0x00,0xed,0xff,0xe8,0xff, // 11776
0xff,0xff,0xd3,0xfe,0xb5,0xff,0x26,0x00, 0x44,0x00,0xc0,0xff,0x30,0xff,0xf5,0xff, // 11792
0xe9,0xff,0x1c,0x00,0xbe,0xff,0x26,0x00, 0xcd,0xff,0x06,0x00,0x98,0x00,0xd6,0xff, // 11808
0x33,0x00,0x0a,0x00,0xba,0x00,0x2c,0x00, 0x18,0x00,0xa7,0xff,0xf8,0xff,0x0b,0x00, // 11824
0x1d,0x00,0xd7,0xff,0x13,0x00,0x9f,0xff, 0x45,0x00,0x91,0xff,0xf4,0xff,0xcf,0xff, // 11840
0x4c,0x00,0x02,0x00,0x8b,0xff,0xd1,0xff, 0x3b,0x00,0x1b,0x00,0x09,0x00,0x09,0x00, // 11856
0x22,0x00,0x17,0x00,0xfa,0xff,0x31,0x00, 0xe5,0xff,0xd9,0xff,0x0e,0x00,0xce,0xff, // 11872
0x75,0x00,0xe8,0xff,0x00,0x00,0xe5,0xff, 0xe0,0xff,0xc5,0xff,0xc3,0xff,0x1f,0x00, // 11888
0xaa,0xff,0x24,0x00,0x0f,0x00,0x03,0x00, 0x36,0x00,0xb4,0xff,0xf4,0xff,0x63,0x00, // 11904
0x1f,0x00,0x13,0x00,0xce,0xff,0x21,0x00, 0xdf,0xff,0x9e,0xff,0xc2,0xff,0xea,0xff, // 11920
0xda,0xff,0x13,0x00,0xda,0xff,0xe0,0xff, 0x0d,0x00,0x00,0x00,0xd6,0xff,0x5b,0x00, // 11936
0x2d,0x00,0x3b,0x00,0x16,0x00,0xf9,0xff, 0xc8,0xff,0xf3,0xff,0x97,0xff,0x93,0x00, // 11952
0xff,0xff,0x54,0x00,0x09,0x00,0xd3,0xff, 0x19,0x00,0x2c,0x00,0x29,0x00,0xff,0xff, // 11968
0x9c,0xff,0xb8,0xff,0xd9,0xff,0xe5,0xff, 0x03,0x00,0x77,0x00,0xe7,0xff,0x17,0x00, // 11984
0xe6,0xff,0xbc,0xff,0x09,0x00,0x2a,0x00, 0xe2,0xff,0xd6,0xff,0x2d,0x00,0x22,0x00, // 12000
0x16,0x00,0xeb,0xff,0xd3,0xff,0x1d,0x00, 0x3b,0x00,0x9b,0xff,0xe1,0xff,0xef,0xff, // 12016
0x02,0x00,0xe3,0xff,0xe8,0xff,0xd3,0xff, 0xe8,0xff,0x2b,0x00,0x3e,0x00,0xf4,0xff, // 12032
0xf8,0xff,0xf6,0xff,0xf7,0xff,0x0c,0x00, 0x18,0x00,0x2d,0x00,0x17,0x00,0x07,0x00, // 12048
0x1a,0x00,0xfb,0xff,0x14,0x00,0x08,0x00, 0x18,0x00,0xcf,0xff,0x1b,0x00,0x16,0x00, // 12064
0xf1,0xff,0xec,0xff,0x1b,0x00,0x22,0x00, 0xf2,0xff,0x0a,0x00,0x1e,0x00,0x3b,0x00, // 12080
0x6d,0xff,0xaa,0xff,0x0d,0x00,0x68,0xff, 0x79,0x00,0xaa,0xff,0xb1,0x00,0xee,0xff, // 12096
0xc3,0xff,0x28,0x00,0x1c,0x00,0xfe,0xff, 0x00,0x00,0x32,0xff,0xe0,0xff,0x10,0x00, // 12112
0xc2,0xff,0x02,0x00,0x09,0x00,0x50,0x00, 0x1c,0x00,0x31,0x00,0x43,0x00,0x52,0x00, // 12128
0xe6,0xff,0x9f,0x00,0x27,0x00,0xed,0xff, 0xf6,0xff,0xe6,0xff,0x4e,0x00,0x47,0x00, // 12144
0xf0,0xff,0x0d,0x00,0x08,0x00,0x26,0x00, 0x22,0x00,0x15,0x00,0x01,0x00,0xb9,0xff, // 12160
0x41,0x00,0x2c,0x00,0x2f,0x00,0x2c,0x00, 0xc3,0xff,0xe8,0xff,0x05,0x00,0x54,0x00, // 12176
0xb8,0xff,0x0e,0x00,0xd1,0xff,0x22,0x00, 0x01,0x00,0xff,0xff,0xd3,0xff,0x4b,0x00, // 12192
0xd0,0xff,0xa4,0xff,0x39,0x00,0xe9,0xff, 0x3d,0x00,0x2c,0x00,0xd4,0xff,0xe5,0xff, // 12208
0xa9,0xff,0xd0,0xff,0x84,0xff,0x28,0x00, 0x0a,0x00,0xd3,0xff,0xe7,0xff,0x07,0x00, // 12224
0xe3,0x00,0x0c,0x00,0x9b,0xff,0x32,0x00, 0x89,0xff,0x1a,0x00,0x68,0x00,0xf3,0xff, // 12240
0x16,0x00,0x26,0x00,0xd8,0xff,0xec,0xff, 0xd1,0xff,0x8e,0x00,0xd2,0xff,0x42,0x00, // 12256
0x0e,0x00,0x06,0x00,0x51,0x00,0x21,0x00, 0xc3,0xff,0x1c,0x00,0x32,0x00,0xfc,0xff, // 12272
0x84,0xff,0x2f,0x00,0x16,0x00,0xd5,0xff, 0x00,0x00,0x49,0x00,0x09,0x00,0x4b,0x00, // 12288
0xff,0xff,0x06,0x00,0xaa,0xff,0x06,0x00, 0xe4,0xff,0xf3,0xff,0x49,0x00,0x07,0x00, // 12304
0x1e,0x00,0xbc,0xff,0x1b,0x00,0x42,0x00, 0x08,0x00,0x37,0x00,0x04,0x00,0xaa,0xff, // 12320
0xe0,0xff,0x2f,0x00,0x54,0x00,0xb7,0xff, 0x38,0x00,0x03,0x00,0xcb,0xff,0x5c,0x00, // 12336
0xa4,0xff,0xc5,0xff,0xc9,0xff,0x19,0x00, 0x94,0x00,0xb0,0xff,0xac,0xff,0x1a,0x00, // 12352
0x45,0x00,0x41,0x00,0x85,0xff,0xea,0xff, 0x11,0x00,0x20,0x00,0xe5,0xff,0x0b,0x00, // 12368
0x70,0x00,0xbb,0xff,0x80,0xff,0x9a,0xff, 0x51,0x00,0x41,0x00,0xd8,0xff,0x0d,0x00, // 12384
0x6f,0xff,0x23,0x00,0x2a,0x00,0x52,0xff, 0xf8,0xff,0x83,0xff,0xfe,0xff,0xdf,0xff, // 12400
0xc3,0xff,0xbc,0xff,0x4b,0x00,0x9a,0xff, 0xf2,0xff,0xae,0xff,0x26,0x00,0x7e,0xff, // 12416
0x35,0x00,0x05,0x01,0x2a,0x00,0x0d,0x00, 0xdc,0xff,0xd2,0xff,0xf5,0xff,0xcf,0xff, // 12432
0x2d,0xff,0x31,0x00,0x25,0x00,0x64,0x00, 0xa0,0xff,0x3b,0x00,0x56,0x00,0xe2,0xff, // 12448
0x2e,0xff,0x2d,0x00,0x66,0x00,0x70,0xfe, 0x2c,0x01,0x24,0x00,0xad,0xff,0xd1,0x01, // 12464
0x78,0xff,0xee,0xff,0x8c,0xff,0x03,0x00, 0xa6,0xff,0x1f,0xfe,0xeb,0xff,0x5a,0x00, // 12480
0x86,0x00,0x4d,0x00,0x84,0xff,0xef,0xff, 0xcf,0xff,0x1c,0x00,0x12,0x00,0x37,0x00, // 12496
0x2e,0x00,0x24,0x00,0x16,0x00,0xac,0xff, 0xbf,0xff,0x55,0xff,0x50,0x00,0x3c,0x00, // 12512
0xcc,0xff,0xab,0xff,0x9d,0xff,0x4e,0x00, 0xe5,0xff,0x19,0x00,0x02,0x00,0xad,0xff, // 12528
0xae,0x00,0x80,0x00,0x05,0x00,0x29,0x00, 0xa9,0xff,0x40,0x00,0x12,0x00,0x50,0x00, // 12544
0x06,0x00,0x65,0xff,0xe7,0xff,0x20,0x00, 0x27,0x00,0x1f,0x00,0x0a,0x00,0xe8,0xff, // 12560
0x78,0x00,0x3a,0xff,0x4a,0xff,0xbc,0xff, 0x68,0x00,0x3e,0x00,0x57,0x00,0xd3,0xff, // 12576
0x23,0x00,0x4d,0x00,0xd0,0xff,0xf3,0xff, 0xda,0xff,0x03,0x00,0xb6,0x00,0x12,0x00, // 12592
0x19,0x00,0x01,0x00,0x48,0x00,0x18,0x00, 0x29,0x00,0xe4,0xff,0x0c,0x00,0xbf,0xff, // 12608
0x05,0x00,0x20,0x00,0xe1,0xff,0x86,0x01, 0xe6,0xff,0xc1,0xff,0xdc,0xff,0xff,0xff, // 12624
0xc9,0xff,0xf9,0xff,0x00,0x00,0xf0,0xff, 0x51,0x00,0x8a,0x01,0x69,0x00,0xad,0x00, // 12640
0x01,0x00,0xa9,0xff,0x61,0xff,0x48,0x00, 0xf5,0x00,0x1d,0x00,0x17,0xff,0x86,0xff, // 12656
0xb6,0x00,0x1f,0x00,0xcd,0xff,0x8e,0x00, 0x86,0x00,0xe0,0xff,0x4c,0x00,0xdf,0xff, // 12672
0xf1,0xff,0x70,0x00,0x01,0x00,0x65,0xff, 0x39,0x00,0xda,0xff,0x54,0x00,0x42,0x01, // 12688
0x68,0xff,0xbb,0xff,0x0c,0x00,0x95,0x00, 0xd2,0x00,0x33,0xff,0x68,0xff,0x54,0xff, // 12704
0x03,0xff,0xd3,0xff,0x46,0x00,0x5e,0x00, 0xbf,0xff,0xe9,0xff,0xaf,0x00,0x8e,0xff, // 12720
0x2e,0xff,0xa5,0xff,0x78,0xff,0x11,0x00, 0x33,0x00,0xca,0xff,0x35,0x00,0xd1,0x00, // 12736
0xa9,0xff,0xb0,0x00,0x1c,0x00,0x20,0x00, 0x21,0x00,0xf3,0xff,0x76,0x01,0xc1,0x00, // 12752
0x79,0x00,0x0e,0x00,0xdb,0xff,0xde,0xff, 0x2b,0x00,0x10,0x00,0x31,0x00,0xfa,0xff, // 12768
0x0c,0x01,0xbc,0xff,0xfa,0xff,0x12,0x00, 0x33,0x00,0x0f,0x00,0x70,0x00,0x3f,0x00, // 12784
0x7c,0xff,0xce,0xff,0xe4,0x00,0x48,0x00, 0xbc,0x00,0x63,0x00,0x71,0x00,0xdb,0xff, // 12800
0xd2,0xff,0xa3,0x00,0x9e,0x00,0x79,0xff, 0x6a,0x00,0x7e,0x00,0x7a,0x00,0xf2,0xff, // 12816
0x7f,0xff,0xf9,0xfe,0xa6,0x00,0xb0,0xff, 0xd2,0xff,0x02,0x01,0x32,0x00,0x47,0x00, // 12832
0xe3,0xff,0x34,0xff,0x35,0xff,0xe6,0xff, 0xe3,0xff,0xdb,0xff,0x3e,0x00,0x3f,0x00, // 12848
0xab,0xff,0x10,0x00,0xd4,0x00,0xe3,0xff, 0xfe,0xff,0xf6,0xff,0xe6,0xff,0xeb,0xff, // 12864
0x13,0x00,0xf1,0xff,0x8c,0x00,0x2f,0x00, 0x1a,0x00,0xaa,0xff,0x3a,0xff,0x84,0x00, // 12880
0xd1,0xff,0xfa,0xff,0x9c,0xff,0xe9,0x00, 0x04,0x00,0x2d,0x00,0x1d,0x00,0xd3,0xff, // 12896
0xa3,0xff,0xdb,0x00,0x5e,0x00,0x01,0x00, 0x08,0xff,0x2b,0x00,0x33,0xff,0x96,0x00, // 12912
0xfc,0xff,0xc1,0xff,0x08,0x00,0xbd,0xff, 0xa6,0xff,0xe8,0xff,0x96,0x00,0x80,0xff, // 12928
0x12,0x00,0xfd,0xff,0x75,0x00,0xd7,0xff, 0x3e,0x00,0x85,0xff,0xff,0xff,0xec,0xff, // 12944
0x51,0x00,0xcf,0xff,0x05,0x00,0x39,0x00, 0x36,0x00,0x20,0x00,0x13,0x00,0x63,0x00, // 12960
0x96,0xff,0xd9,0xff,0x07,0x00,0xb5,0xff, 0xa5,0xff,0x73,0x00,0x3c,0x00,0xce,0xff, // 12976
0x0c,0x00,0x8b,0x00,0x82,0x00,0x14,0x00, 0x5a,0x00,0x08,0x00,0x70,0xff,0x4e,0x00, // 12992
0x46,0x00,0x23,0x00,0xe5,0xff,0xb3,0xff, 0x30,0x00,0xec,0xff,0x55,0x00,0x58,0x00, // 13008
0xe2,0xff,0x40,0x00,0xcb,0xff,0x88,0xff, 0x7a,0x00,0x96,0xff,0x7f,0xff,0x34,0x00, // 13024
0x2a,0x00,0xd0,0xff,0x5f,0xff,0xcb,0xff, 0xa0,0xff,0x26,0x00,0xca,0xff,0x65,0x00, // 13040
0xff,0xff,0xe5,0xff,0x1f,0x00,0x71,0x00, 0x07,0x00,0xb2,0xff,0x42,0x00,0xd7,0xff, // 13056
0xe8,0xff,0x1b,0x00,0x1d,0x00,0x21,0x00, 0x55,0x00,0x5d,0x00,0xd2,0xff,0x17,0x00, // 13072
0xe8,0xff,0xb1,0xff,0xf2,0xff,0x4d,0x00, 0xf9,0xff,0x2d,0x00,0xaa,0xff,0xc3,0xff, // 13088
0xf1,0xff,0x8d,0xff,0xcd,0xff,0xf6,0xff, 0x8e,0x00,0x0f,0x00,0xe4,0xff,0x4c,0x00, // 13104
0xe9,0xff,0x17,0x00,0x9b,0xff,0xb1,0xff, 0xf3,0xff,0x90,0x00,0x7d,0x00,0x13,0x00, // 13120
0x28,0x00,0x20,0x00,0xc7,0xff,0x02,0x00, 0x3c,0x00,0xc6,0xff,0x4d,0xff,0x88,0x00, // 13136
0x41,0x00,0x23,0x00,0x76,0x00,0x91,0xff, 0x5d,0x00,0x14,0x00,0x0d,0x00,0xdf,0xff, // 13152
0x3a,0x00,0x2d,0x00,0x63,0x00,0xb6,0xff, 0x6c,0x00,0x2a,0x00,0x50,0x00,0xe6,0xff, // 13168
0x1a,0x00,0x50,0x00,0x20,0x00,0x4c,0x00, 0x6a,0x00,0x07,0x00,0x71,0xff,0x19,0x00, // 13184
0x76,0x00,0x44,0x00,0x23,0x00,0x11,0x00, 0x33,0x00,0x33,0x00,0x88,0xff,0x6e,0xff, // 13200
0x63,0x00,0x44,0x00,0x1d,0xff,0x5c,0x00, 0x88,0xff,0x93,0xff,0x37,0xff,0x8b,0x00, // 13216
0xe9,0xff,0x11,0x00,0x63,0x00,0xdc,0xff, 0x2b,0x00,0x44,0x00,0xbc,0xff,0x2e,0x00, // 13232
0x60,0x00,0x7a,0xff,0x37,0x00,0x1a,0x00, 0x2e,0x00,0xed,0xff,0x03,0x00,0xf1,0xff, // 13248
0x43,0x00,0x8f,0xff,0xe1,0xff,0x49,0x00, 0x01,0x00,0xb2,0xff,0x9d,0xff,0x48,0x00, // 13264
0xeb,0xff,0xbf,0xff,0x0a,0x00,0xa5,0xff, 0x4a,0xff,0xf0,0xff,0x13,0x00,0x49,0x00, // 13280
0x06,0x00,0x0e,0x00,0xbe,0xff,0xd4,0xff, 0xda,0xff,0x38,0x00,0x54,0x00,0xf1,0xff, // 13296
0x91,0x00,0x0c,0x00,0xce,0xff,0xee,0xff, 0xe2,0xff,0x5c,0x00,0x2f,0x00,0xef,0xff, // 13312
0x16,0x00,0x19,0x00,0x2b,0x00,0x2a,0x00, 0xa9,0xff,0x78,0x00,0x52,0x00,0x04,0x00, // 13328
0x42,0x00,0x61,0x00,0x35,0x00,0x33,0x00, 0x68,0x00,0x5a,0x00,0x35,0x00,0xf4,0xff, // 13344
0x56,0xff,0x9d,0xff,0x1c,0x00,0x6d,0xff, 0x32,0x00,0xc3,0xff,0x43,0x00,0xbc,0xff, // 13360
0x94,0xff,0xe7,0xff,0x66,0x00,0xd3,0xff, 0x8e,0x00,0x67,0x00,0x8e,0x00,0x31,0x00, // 13376
0xd2,0xff,0x0f,0x00,0xad,0xff,0x9b,0xff, 0x42,0x00,0x0b,0x00,0x2e,0x00,0x2d,0x00, // 13392
0x4d,0x00,0x1e,0x00,0x65,0xff,0xdd,0xff, 0xf1,0xff,0xe7,0xff,0x3a,0x00,0x1c,0x00, // 13408
0xc3,0xff,0xbe,0xff,0xba,0x00,0xa8,0xff, 0x53,0x00,0x4e,0x00,0xb8,0xff,0x48,0x00, // 13424
0x93,0xff,0x2f,0x00,0xfb,0xff,0x66,0x00, 0x1a,0xff,0xcc,0xff,0x10,0x00,0x81,0x00, // 13440
0xbd,0xff,0x1d,0x00,0xde,0xff,0x09,0x00, 0x1e,0x00,0xa3,0xff,0xeb,0xff,0xa4,0x00, // 13456
0xc2,0xff,0x66,0x00,0x10,0x00,0xd2,0xff, 0x4b,0xff,0xf8,0xff,0x2f,0x00,0x3b,0x00, // 13472
0x89,0xff,0xd9,0xff,0x17,0x00,0x49,0x00, 0xe0,0xff,0x3b,0x00,0x09,0x00,0x45,0x00, // 13488
0xd5,0xff,0x04,0x00,0xad,0xff,0x07,0x00, 0x30,0x00,0xc9,0xff,0x18,0x00,0xa5,0xff, // 13504
0x05,0x00,0xd8,0xff,0xe3,0xff,0xec,0xff, 0x31,0x00,0x23,0x00,0x2c,0x00,0xfb,0xff, // 13520
0xef,0xff,0x00,0x00,0x2a,0x00,0xa5,0xff, 0xee,0xff,0x1e,0x00,0x43,0x00,0x0c,0x00, // 13536
0x20,0x00,0x41,0x00,0x1b,0x00,0xa8,0xff, 0xfe,0xff,0x61,0x00,0xca,0xff,0xe4,0xff, // 13552
0xdd,0xff,0xb0,0xff,0x16,0x00,0x15,0x00, 0xde,0xff,0x86,0x00,0x75,0x00,0xb5,0xff, // 13568
0x2d,0x00,0x33,0x00,0xfc,0xff,0xa2,0xff, 0xe1,0xff,0x13,0x00,0x55,0x00,0x15,0x00, // 13584
0xd8,0xff,0x73,0xff,0xd5,0xff,0xed,0xff, 0x05,0x00,0x23,0x00,0x1d,0x00,0xad,0xff, // 13600
0x08,0x00,0xff,0xff,0x0b,0x00,0xbd,0xff, 0x19,0x00,0xc9,0xff,0x25,0x00,0xe6,0xff, // 13616
0xb6,0xff,0x16,0x00,0xa0,0xff,0xdc,0xff, 0x3d,0x00,0x55,0x00,0xfd,0xff,0x27,0x00, // 13632
0x21,0x00,0xcf,0xff,0xe5,0xff,0x84,0x00, 0x5e,0xff,0xbb,0xff,0x41,0x00,0xd0,0xff, // 13648
0xe5,0xff,0x4d,0x00,0x50,0x00,0x12,0x00, 0xfc,0xff,0x17,0x00,0x22,0x00,0x22,0x00, // 13664
0x0a,0x00,0xfd,0xff,0x05,0x00,0xd0,0xff, 0xed,0xff,0x5b,0x00,0x80,0x00,0x7e,0x00, // 13680
0xd3,0xff,0x15,0x00,0xf5,0xff,0x05,0x00, 0x8e,0xff,0xd1,0xff,0x41,0x00,0xda,0xff, // 13696
0x83,0x00,0x67,0x00,0x2d,0x00,0x62,0xff, 0x62,0xff,0x22,0x00,0xea,0xff,0xb2,0xff, // 13712
0xd9,0xff,0x36,0x00,0xe9,0xff,0xe7,0xff, 0x01,0x00,0xb3,0xff,0x37,0x00,0x1f,0x00, // 13728
0xea,0xff,0x3c,0x00,0x8e,0xff,0xdb,0xff, 0x18,0x00,0x48,0xff,0x13,0x00,0x6a,0xff, // 13744
0xb7,0xff,0x24,0x00,0x8e,0xff,0xb5,0xff, 0xed,0xff,0xdb,0x01,0xa5,0xff,0xd4,0x00, // 13760
0x48,0x01,0x6c,0xfe,0x00,0xfe,0xc3,0x00, 0xab,0xff,0xf7,0xff,0xb2,0xfd,0x7d,0x00, // 13776
0xeb,0x00,0xf6,0xff,0x9a,0x00,0xbf,0x00, 0x0c,0x00,0x50,0x01,0x16,0x00,0x48,0xfb, // 13792
0xf9,0xff,0x68,0xff,0x41,0x00,0xc2,0xfa, 0xb7,0x03,0x60,0x00,0x00,0x00,0x8f,0x02, // 13808
0x1d,0x00,0xcd,0xfe,0x13,0xff,0x00,0x00, 0xf1,0xff,0xb6,0xfe,0x38,0xfe,0xd0,0xff, // 13824
0x46,0xfe,0x67,0xff,0x06,0x00,0x30,0x00, 0x1e,0x00,0x1f,0x00,0x5d,0x00,0x37,0xff, // 13840
0xa0,0xfe,0x5e,0x00,0xfc,0xff,0x83,0x00, 0x6e,0x00,0x24,0xff,0x40,0x03,0x02,0x02, // 13856
0xca,0x00,0x8d,0x00,0xe5,0x00,0xb7,0x00, 0xff,0xff,0xe9,0xff,0x1a,0x03,0xf4,0xff, // 13872
0x1e,0x01,0x6f,0xff,0xb4,0xff,0x71,0x00, 0x14,0x00,0xd5,0xff,0x54,0x00,0xde,0xff, // 13888
0x4a,0x01,0x83,0x00,0x08,0x00,0x5d,0x01, 0x52,0x00,0xf1,0xff,0x10,0x00,0x16,0x00, // 13904
0x56,0xff,0x9d,0xfd,0xd1,0x01,0x94,0x01, 0x4e,0x00,0x14,0x00,0xf9,0xff,0xd2,0xff, // 13920
0x38,0x00,0x67,0x00,0x01,0x02,0x43,0x00, 0xfa,0x00,0x44,0x01,0xa4,0xff,0x66,0x01, // 13936
0xa3,0xfe,0x7d,0xfe,0xf3,0x00,0x9c,0xff, 0x7f,0xff,0xec,0xff,0x62,0xfe,0xfd,0xff, // 13952
0xf4,0xff,0xd6,0xfd,0xf6,0xfd,0xd3,0xff, 0x91,0xfe,0xdd,0xff,0xe3,0x01,0x7a,0x00, // 13968
0x58,0xfe,0x7e,0xff,0x91,0x02,0xb9,0xff, 0x46,0x00,0xf9,0xff,0xd7,0xff,0x13,0x01, // 13984
0x15,0x00,0x08,0x00,0xa6,0x06,0x0a,0x00, 0x9f,0xff,0x0f,0x00,0xe0,0xff,0x82,0x01, // 14000
0x67,0xff,0xe1,0xff,0x3e,0x00,0xe7,0xff, 0xf4,0xff,0xbc,0xff,0x09,0x00,0x2b,0x00, // 14016
0xbe,0xff,0x34,0x02,0x3b,0x00,0xeb,0xff, 0x34,0xff,0x5f,0xff,0x40,0x00,0x21,0x00, // 14032
0xc6,0xff,0xff,0xff,0x12,0x00,0xf2,0xff, 0x1b,0x00,0xf4,0xff,0x2d,0xff,0x18,0x00, // 14048
0xea,0xff,0xfc,0xff,0x7f,0xff,0xee,0xff, 0x1a,0x00,0x2b,0x00,0x2b,0x00,0xf8,0xff, // 14064
0x0b,0x00,0x22,0x00,0xd2,0xff,0x55,0x00, 0xee,0xff,0x66,0x00,0x1f,0x00,0x34,0x00, // 14080
0xde,0xff,0xf4,0xff,0x2f,0x00,0x72,0xff, 0x24,0x00,0x01,0x00,0x54,0x00,0x25,0x00, // 14096
0x1f,0x00,0xf1,0xff,0x24,0x00,0x17,0x00, 0xf8,0xff,0xd3,0xff,0x30,0x00,0xc5,0xff, // 14112
0xb5,0xff,0x18,0x00,0x0e,0x00,0xd2,0xff, 0x2f,0x00,0x2a,0x00,0xfe,0xff,0xc6,0xff, // 14128
0x0b,0x00,0xec,0xff,0xea,0xff,0x18,0x00, 0xcd,0xff,0x78,0x00,0x37,0x00,0xdb,0xff, // 14144
0xe0,0xff,0x19,0x00,0x19,0x00,0x16,0x00, 0x5a,0x00,0x35,0x00,0xe6,0xff,0x2a,0x00, // 14160
0xe5,0xff,0xd6,0xff,0x5e,0x00,0xe3,0xff, 0xde,0xff,0x26,0x00,0x41,0x00,0x33,0x00, // 14176
0x03,0x00,0x09,0x00,0x0f,0x00,0x20,0x00, 0xee,0xff,0x1e,0x00,0x29,0x00,0xa4,0xff, // 14192
0xec,0xff,0x9c,0xff,0x07,0x00,0x3b,0x00, 0xd3,0xff,0x92,0xff,0x9c,0xff,0x00,0x00, // 14208
0x52,0x00,0xf6,0xff,0x1d,0x00,0xf2,0xff, 0xac,0xff,0x12,0x00,0xb3,0xff,0xcd,0xff, // 14224
0x54,0x00,0xfe,0xff,0xfd,0xff,0x01,0x00, 0x19,0x00,0x54,0x00,0xc3,0xff,0x5d,0x00, // 14240
0xde,0xff,0xe6,0xff,0x2d,0x00,0x0a,0x00, 0xfc,0xff,0x24,0x00,0x6c,0x00,0x2f,0x00, // 14256
0x0b,0x00,0xde,0xff,0x10,0x00,0xb8,0xff, 0xf9,0xff,0xfa,0xff,0xf2,0xff,0xde,0xff, // 14272
0xf3,0xff,0xfe,0xff,0x11,0x00,0xf6,0xff, 0xfa,0xff,0x12,0x00,0x17,0x00,0x11,0x00, // 14288
0x0a,0x00,0x05,0x00,0x0e,0x00,0xeb,0xff, 0x1b,0x00,0x15,0x00,0xe7,0xff,0xda,0xff, // 14304
0xdb,0xff,0x0d,0x00,0xcd,0xff,0xea,0xff, 0x8b,0xff,0x46,0x00,0xd0,0xff,0xef,0xff, // 14320
0xfe,0xff,0x15,0x00,0x4e,0x00,0x2d,0x00, 0xed,0xff,0xed,0xff,0x55,0x00,0xe7,0xff, // 14336
0x2f,0x00,0xd3,0xff,0x0f,0x00,0x1c,0x00, 0x02,0x00,0xea,0xff,0xc9,0xff,0x04,0x00, // 14352
0xf9,0xff,0xf3,0xff,0x9c,0x00,0x3f,0x00, 0xdb,0xff,0x7d,0xff,0x0f,0x00,0xc9,0xff, // 14368
0x01,0x00,0x25,0x00,0xb7,0xff,0x0b,0x00, 0x21,0x00,0xe3,0xff,0x1e,0x00,0x21,0x00, // 14384
0xe0,0xff,0xec,0xff,0x1a,0x00,0xd5,0xff, 0x1d,0x00,0x9e,0xff,0xe4,0xff,0xf2,0xff, // 14400
0x30,0x00,0x4b,0x00,0x56,0x00,0xeb,0xff, 0xdf,0xff,0x3c,0x00,0x0f,0x00,0xb9,0x00, // 14416
0xe9,0xff,0xfa,0xff,0xe5,0xff,0x1a,0x00, 0xd2,0xff,0x85,0xff,0x1e,0x00,0x15,0x00, // 14432
0x38,0x00,0x0d,0x00,0x80,0x00,0x4f,0x00, 0x14,0x00,0x05,0x00,0xe9,0xff,0x63,0xff, // 14448
0xca,0xff,0xf6,0xff,0x1a,0x00,0x10,0x00, 0x25,0x00,0x0e,0x00,0x93,0xff,0x65,0xff, // 14464
0xdc,0xff,0xd4,0xff,0x24,0x00,0x10,0x00, 0x05,0x00,0x13,0x00,0x10,0x00,0x93,0x00, // 14480
0x69,0xff,0x01,0x00,0x1f,0x00,0x07,0x00, 0x39,0x00,0xf0,0xff,0x33,0x00,0xfe,0xff, // 14496
0xd5,0xff,0xde,0xff,0xda,0xff,0xfb,0xff, 0x06,0x00,0xf7,0xff,0xd1,0xff,0x99,0xff, // 14512
0x16,0x00,0x06,0x00,0xeb,0xff,0xaf,0xff, 0x24,0x00,0x17,0x00,0x33,0x00,0x28,0x00, // 14528
0xf1,0xff,0x0e,0x00,0x88,0xff,0xca,0xff, 0xd0,0xff,0x44,0x00,0xf3,0xff,0x11,0x00, // 14544
0xc0,0xff,0xfc,0xff,0x06,0x00,0x88,0xff, 0xbf,0xff,0x78,0x00,0x15,0x00,0x0d,0x00, // 14560
0x0b,0x00,0x98,0xff,0x28,0x00,0xcc,0xff, 0xd4,0xff,0x14,0x00,0xb3,0xff,0x19,0x00, // 14576
0x4e,0x00,0xa4,0xff,0x05,0x00,0x89,0xff, 0x2b,0x00,0xee,0xff,0x42,0x00,0x9f,0xff, // 14592
0x06,0x00,0xc8,0xff,0x57,0x00,0x2b,0x00, 0x0b,0x00,0xe1,0xff,0x0a,0x00,0xdb,0xff, // 14608
0xfc,0xff,0xf6,0xff,0xe1,0xff,0xd3,0xff, 0xdc,0xff,0xd8,0x00,0x1d,0x00,0x01,0x00, // 14624
0x12,0x00,0xf6,0xff,0xcc,0xff,0x04,0x00, 0x34,0xff,0x40,0x00,0xfe,0xff,0x29,0x00, // 14640
0x04,0x00,0xf7,0xff,0x79,0x01,0x0f,0x00, 0x1b,0xff,0x00,0x00,0xe1,0xff,0xe8,0xff, // 14656
0x3e,0x00,0xc1,0xff,0x2f,0x00,0xe8,0xff, 0xf3,0xff,0x5a,0x00,0xfb,0xff,0x02,0x00, // 14672
0xd5,0xff,0x0f,0x00,0xfc,0xff,0x03,0x00, 0x0e,0x00,0xf9,0xff,0xf7,0xff,0x1a,0x00, // 14688
0x83,0x00,0xd9,0xff,0x17,0x00,0xf3,0xff, 0x47,0xff,0x5d,0x00,0xa8,0x00,0xa2,0xff, // 14704
0xc1,0xff,0xf7,0xff,0x1f,0x00,0xd7,0xff, 0x58,0x00,0x5b,0x00,0xfe,0xff,0x52,0x00, // 14720
0x0f,0x00,0xf0,0xff,0x79,0x00,0xce,0xff, 0xd3,0xff,0x10,0x00,0x0c,0x00,0x4c,0x00, // 14736
0x18,0x00,0x52,0xff,0x00,0x00,0xc1,0xff, 0xc9,0xff,0xd7,0xff,0x26,0x00,0xb9,0xff, // 14752
0xec,0xff,0x03,0x00,0xaf,0xff,0xda,0xff, 0xb1,0xff,0x14,0x00,0x12,0x00,0xdf,0xff, // 14768
0x64,0x00,0x1a,0x00,0x17,0x00,0x8c,0xff, 0x6a,0xff,0x1b,0x00,0xbd,0xff,0xf2,0xff, // 14784
0x2f,0x00,0xe1,0xff,0x8f,0xff,0x05,0x00, 0xfd,0xff,0x14,0x00,0x81,0xff,0x98,0x00, // 14800
0xaa,0xff,0xd0,0xff,0x59,0x00,0xee,0xff, 0xf0,0xff,0x02,0x00,0xb9,0x00,0x0f,0x00, // 14816
0x14,0x00,0x1b,0x00,0xc7,0xff,0x3f,0x00, 0x09,0x00,0x3f,0xff,0x06,0x00,0xf7,0xff, // 14832
0x0f,0x00,0xff,0xff,0xed,0xff,0x69,0x00, 0x0d,0x00,0xc7,0xff,0xfe,0xff,0x0a,0x00, // 14848
0xe8,0xff,0x64,0x00,0xf6,0xff,0xca,0xff, 0x7a,0xff,0xa6,0xff,0x1b,0x00,0xed,0xff, // 14864
0xf5,0xff,0x40,0x00,0xc4,0xff,0x1d,0x00, 0x24,0x00,0xe1,0xff,0xd9,0xff,0x95,0xff, // 14880
0x70,0x00,0x07,0x00,0xe1,0xfe,0x6d,0x00, 0x0f,0x00,0x02,0x00,0x8f,0xff,0x05,0x00, // 14896
0x0b,0x00,0x23,0x00,0x8d,0xff,0x01,0x00, 0xa4,0x00,0x17,0x00,0xa9,0xff,0x4e,0x00, // 14912
0x10,0x00,0x50,0x00,0xae,0xff,0x32,0x00, 0x1c,0x00,0xdf,0xff,0x37,0x00,0x62,0xff, // 14928
0x2a,0x00,0x57,0xff,0x78,0xff,0x3e,0x00, 0xf8,0xff,0x34,0x00,0x5b,0xff,0xa9,0xff, // 14944
0x28,0x00,0x04,0x00,0x11,0x00,0xa7,0xff, 0xe5,0xff,0x25,0x00,0x01,0x00,0xd9,0xff, // 14960
0x43,0x00,0xe8,0xff,0x19,0x00,0x12,0x00, 0xfb,0xff,0xc1,0xff,0x51,0x00,0x03,0x00, // 14976
0xbe,0xff,0x69,0x00,0xea,0xff,0xc8,0xff, 0xf7,0xff,0x19,0x00,0xab,0xff,0x27,0x00, // 14992
0x33,0x00,0xa7,0xff,0x1c,0x00,0x4f,0x00, 0xc0,0xff,0xd9,0xff,0x2c,0x00,0xf0,0xff, // 15008
0x29,0x00,0xd3,0x00,0xf0,0xff,0xae,0xff, 0x7e,0x00,0xca,0xff,0x9c,0xff,0x00,0x00, // 15024
0x18,0xff,0x9e,0xff,0x95,0x00,0x99,0xff, 0x5a,0x00,0xc9,0xff,0x38,0x00,0xe8,0xff, // 15040
0x44,0x00,0xac,0xff,0x1f,0x00,0xf7,0xff, 0x15,0x00,0x5b,0x00,0x60,0x00,0xee,0xff, // 15056
0xb6,0xff,0xfd,0xff,0xba,0xff,0x38,0x00, 0xdf,0xff,0x2b,0x00,0x0b,0x00,0x3f,0x00, // 15072
0x00,0x00,0x3e,0x00,0xc6,0xff,0xab,0x00, 0x10,0x00,0x22,0xff,0x15,0x00,0xc9,0xff, // 15088
0xbe,0xff,0x59,0xff,0x51,0x00,0x8a,0xff, 0x1f,0x00,0x21,0x00,0x9f,0xff,0x30,0x00, // 15104
0x54,0x00,0x3f,0x00,0x1e,0x00,0x1e,0x00, 0x44,0xff,0xd5,0xff,0xf5,0xff,0x14,0x00, // 15120
0xda,0xff,0xcf,0xff,0x1a,0x00,0x20,0x00, 0x02,0x00,0xa5,0xff,0x26,0x00,0x9e,0xff, // 15136
0x2a,0x00,0x61,0x00,0x13,0x00,0x0b,0x00, 0x7d,0xff,0xc5,0xff,0xac,0xff,0x32,0x00, // 15152
0xba,0xff,0x29,0x00,0xa8,0xff,0xca,0xfe, 0x75,0x00,0x4e,0xff,0x48,0x01,0xfd,0xff, // 15168
0x78,0x00,0xef,0xff,0xc8,0x01,0xee,0xff, 0x12,0x00,0x4d,0x00,0x20,0x00,0xa3,0xfe, // 15184
0xe6,0xff,0x0e,0x00,0x2c,0x00,0x68,0x00, 0xeb,0xff,0x87,0xff,0x51,0x00,0x15,0x00, // 15200
0x21,0x00,0xf5,0xff,0xed,0xff,0xda,0x00, 0x17,0x00,0x23,0x00,0x35,0x00,0x28,0x00, // 15216
0x13,0x00,0x68,0x00,0xa5,0xff,0x28,0x00, 0xc6,0xff,0x3e,0xff,0xfb,0xff,0xde,0xff, // 15232
0x6b,0x01,0xca,0xff,0xf8,0xff,0x1c,0x00, 0xea,0xff,0x29,0x00,0x01,0x00,0x07,0x00, // 15248
0x77,0xff,0x19,0x00,0xd7,0xff,0xc9,0xff, 0x76,0x00,0x92,0xff,0x73,0xff,0x68,0x00, // 15264
0xd0,0xff,0xc8,0xff,0x7d,0xff,0x33,0x00, 0xcb,0xff,0x04,0x00,0x85,0x00,0x1b,0x00, // 15280
0xe1,0xff,0xbe,0xff,0xe7,0xff,0xb1,0xff, 0xe1,0xff,0x21,0x00,0x4f,0x00,0x91,0xff, // 15296
0x07,0x00,0xf9,0xff,0xf6,0xff,0x82,0xff, 0x07,0x00,0x2b,0x00,0x13,0x00,0x66,0x01, // 15312
0x40,0x00,0xd5,0x01,0xfc,0xff,0x48,0x00, 0x10,0x00,0x89,0xff,0xa3,0xff,0x42,0x00, // 15328
0x01,0x00,0x1f,0x00,0xca,0xff,0x84,0x00, 0x7e,0x00,0x23,0x00,0x8d,0xff,0xbf,0xff, // 15344
0x29,0x02,0x48,0xff,0xdf,0xff,0xaf,0xff, 0xfe,0xff,0x07,0x00,0x98,0x00,0x68,0x00, // 15360
0x50,0x00,0xed,0xff,0xe1,0xff,0xf5,0xff, 0x94,0xff,0xc5,0x00,0xb9,0xfe,0x69,0xff, // 15376
0x7d,0xff,0x1c,0x00,0xd1,0xff,0x02,0x00, 0xc0,0xff,0x15,0x00,0xfc,0xff,0x37,0x00, // 15392
0x52,0x00,0x33,0x00,0xe3,0xff,0xf1,0xff, 0xc7,0xff,0x0c,0x00,0xbd,0xff,0xdb,0xff, // 15408
0xd4,0x00,0xb6,0xff,0xd5,0xff,0xff,0xff, 0xa7,0xff,0x0d,0x00,0x77,0x00,0xbd,0xff, // 15424
0xd4,0xff,0x01,0x02,0xaa,0xff,0xb0,0xff, 0xab,0x00,0xc9,0xff,0x2e,0x00,0xd5,0xff, // 15440
0xf0,0xff,0x31,0x00,0x1c,0x00,0x12,0x00, 0xcb,0xff,0x07,0x00,0xf5,0xff,0x3d,0x00, // 15456
0xf8,0xff,0x27,0x00,0xd7,0xff,0xef,0xff, 0xf2,0xff,0x24,0x00,0xbb,0x00,0x27,0x00, // 15472
0x07,0x00,0xee,0xff,0x85,0xff,0xe9,0xff, 0x3f,0x00,0x85,0x00,0x2b,0x00,0xb5,0xff, // 15488
0xf5,0xff,0xef,0xff,0xf5,0xff,0x3a,0x00, 0x3a,0x00,0x0f,0x00,0x05,0x00,0x27,0x00, // 15504
0x83,0xff,0xf4,0xff,0x14,0x00,0xa1,0xff, 0xff,0xff,0x87,0x00,0x10,0x00,0xde,0xff, // 15520
0x19,0x00,0x8f,0xff,0x80,0xff,0x7c,0xff, 0xeb,0xff,0x6c,0x00,0x27,0x00,0xc4,0xff, // 15536
0xef,0xff,0xe4,0xff,0x23,0x00,0xff,0xff, 0x82,0x00,0x7d,0x00,0x2a,0x00,0xd5,0xff, // 15552
0x33,0x00,0x12,0x00,0xc3,0xff,0xbd,0xff, 0xec,0xff,0x03,0x00,0x23,0x00,0xa9,0x00, // 15568
0xd0,0xff,0x26,0x00,0x2d,0x00,0xf5,0xff, 0xd2,0xff,0xef,0xff,0x6d,0x00,0x43,0x00, // 15584
0x08,0x00,0x10,0x00,0xce,0xff,0xe3,0xff, 0x1e,0x00,0x0b,0x00,0x10,0x00,0x7a,0xff, // 15600
0x80,0x00,0xce,0xff,0xf7,0xff,0x05,0x00, 0xe5,0xff,0xea,0xff,0x16,0x00,0xfd,0xff, // 15616
0x44,0x00,0xbc,0xff,0xd5,0xff,0x02,0x00, 0x3d,0x00,0xc1,0xff,0x09,0x00,0x7e,0x00, // 15632
0x1d,0x00,0x20,0x00,0xe9,0xff,0xe6,0xff, 0x00,0x00,0xfc,0xff,0xac,0x00,0xe1,0xff, // 15648
0xbd,0xff,0xf3,0xff,0xd7,0xff,0x0e,0x00, 0x2b,0x00,0x78,0xff,0x1d,0x00,0x16,0x00, // 15664
0x4e,0x00,0xd9,0xff,0xdf,0xff,0x78,0x00, 0x12,0x00,0x53,0xff,0xff,0xff,0xa3,0xff, // 15680
0x16,0x00,0x84,0x00,0x4f,0x00,0x0f,0x00, 0xc5,0xff,0x33,0x00,0xa1,0x00,0xd8,0xff, // 15696
0x2b,0x00,0x90,0xff,0x29,0x00,0x8a,0x00, 0xfc,0xff,0x2d,0x00,0xea,0xff,0x43,0x00, // 15712
0x23,0x00,0xdd,0xff,0x22,0x00,0xdd,0xff, 0x88,0xff,0xd7,0xff,0x24,0x01,0x71,0xff, // 15728
0xf6,0xff,0x12,0x00,0xa4,0x00,0xe0,0xff, 0xf4,0xff,0x4b,0x00,0xeb,0xff,0xd3,0xff, // 15744
0xa7,0xff,0x87,0xff,0x2a,0x00,0xe4,0xff, 0xe7,0xff,0xec,0xff,0x36,0x00,0xe8,0xff, // 15760
0xd0,0xff,0xd2,0xff,0xea,0xff,0xca,0xff, 0xa5,0xff,0xc6,0x00,0x12,0x00,0x01,0x00, // 15776
0xdb,0xff,0x32,0x00,0x69,0x00,0x0e,0x00, 0xfa,0xff,0x27,0x00,0xcc,0xff,0x89,0x00, // 15792
0x06,0x00,0x6a,0x00,0x17,0x00,0xf4,0xff, 0x2f,0x00,0x0d,0x00,0x28,0x00,0xa2,0xff, // 15808
0xc4,0xff,0xfe,0xff,0xd5,0xff,0x24,0x00, 0x06,0x00,0xca,0xff,0xb9,0xff,0xf2,0xff, // 15824
0x5e,0x00,0xfe,0xff,0x5e,0xff,0xed,0xff, 0x96,0xff,0x06,0x00,0xe6,0xff,0x00,0x00, // 15840
0x3b,0x00,0xec,0xff,0xcb,0xff,0xa7,0xff, 0xf9,0xff,0x88,0xff,0xc5,0xff,0xec,0xff, // 15856
0x90,0xff,0x9f,0xff,0xda,0xff,0xef,0xff, 0xb1,0x00,0xf3,0xff,0xa2,0xff,0xf4,0xff, // 15872
0xba,0xff,0x18,0x00,0x37,0x00,0xbc,0xff, 0x7a,0x00,0xf7,0xff,0xe7,0xff,0xef,0xff, // 15888
0x63,0xff,0x62,0x00,0xd0,0xff,0xe2,0xff, 0x42,0x00,0x5f,0x00,0xf7,0xff,0x2b,0x00, // 15904
0xbb,0xff,0xd8,0xff,0x40,0x00,0x04,0x00, 0x1c,0x00,0x31,0x00,0x44,0x00,0x82,0xff, // 15920
0x01,0x00,0x47,0x00,0x0a,0x00,0x4f,0x00, 0x15,0x00,0x4b,0x00,0x66,0xff,0x6c,0x00, // 15936
0xe7,0xff,0xe9,0xff,0x52,0x00,0x1f,0x00, 0xca,0xff,0xb3,0xff,0xf3,0xff,0xe5,0xff, // 15952
0x26,0x00,0x18,0x00,0xb9,0xff,0xc3,0xff, 0xcb,0xff,0xdb,0xff,0xe5,0xff,0xf1,0xff, // 15968
0x1c,0x00,0x73,0x00,0x2f,0x00,0xee,0xff, 0x0f,0x00,0x71,0xff,0x7e,0xff,0x17,0x00, // 15984
0xe0,0x00,0xf6,0xff,0xa0,0xff,0xf3,0xff, 0x52,0x00,0x57,0xff,0xd7,0xfe,0x5a,0x00, // 16000
0xca,0x00,0x2b,0x03,0xf9,0xfe,0x55,0x00, 0x60,0x03,0xab,0xff,0xf1,0xff,0xef,0xfe, // 16016
0x24,0x04,0x16,0x00,0x74,0x00,0xda,0xff, 0x16,0x00,0x00,0x01,0x6b,0x00,0xde,0x02, // 16032
0xfc,0xff,0xaf,0x00,0x48,0x00,0xd9,0x02, 0x85,0xfe,0x14,0x00,0x2b,0x00,0xaa,0x02, // 16048
0x23,0x00,0x6a,0xff,0xd2,0x01,0xeb,0xff, 0x6a,0xff,0xaf,0x00,0xf2,0xfe,0xa2,0x00, // 16064
0x33,0xfd,0x85,0xff,0x0b,0x00,0x51,0xfd, 0xa9,0xff,0x09,0x00,0x59,0x00,0xa6,0xff, // 16080
0x00,0x02,0x75,0xff,0xb2,0xff,0xef,0xfa, 0x8c,0xff,0xdb,0x00,0x2d,0x00,0x61,0xf7, // 16096
0xd4,0xff,0x0b,0x02,0xe6,0xff,0x8a,0xff, 0xf7,0xff,0x35,0x00,0x03,0x02,0x08,0x00, // 16112
0xb1,0xff,0x91,0x00,0xc1,0xff,0x70,0x01, 0x12,0x00,0x84,0xff,0x35,0x00,0x67,0x00, // 16128
0xe3,0x00,0xe9,0x00,0xee,0xfe,0xb3,0xfd, 0x47,0x01,0x16,0x00,0x85,0xff,0x43,0x00, // 16144
0xc1,0xfe,0xc0,0xfe,0x98,0x04,0x7b,0x00, 0x27,0xff,0x7c,0xff,0x6a,0x00,0x73,0x00, // 16160
0x35,0x00,0x7d,0x00,0xda,0xfd,0x13,0x00, 0xf1,0x02,0x06,0xfd,0x9e,0xff,0xbf,0xff, // 16176
0x00,0x00,0x07,0x02,0x4a,0x00,0xee,0xff, 0xbb,0x00,0xd8,0xff,0xde,0xff,0x05,0x00, // 16192
0xc0,0xff,0x9f,0x00,0xca,0x00,0xc8,0x01, 0x34,0x00,0xc1,0xfe,0x14,0xff,0xde,0xff, // 16208
0x74,0xff,0xaf,0x00,0x06,0x00,0xe1,0x00, 0x35,0x02,0xd3,0xff,0x71,0xfe,0x4d,0xfe, // 16224
0x25,0x00,0x34,0x00,0xe8,0xfe,0x0d,0x00, 0x8d,0xff,0xb0,0xff,0x01,0x00,0xf5,0x01, // 16240
0x5c,0x00,0x49,0x00,0x8a,0xfd,0x92,0xff, 0xd2,0xfe,0x6b,0xff,0x17,0x00,0xcc,0xff, // 16256
0x0d,0x01,0x21,0xfe,0xb3,0xff,0xbb,0xff, 0x3f,0x00,0x94,0x00,0x71,0xff,0x53,0x00, // 16272
0xd4,0xff,0x36,0x00,0x80,0x00,0x0e,0x00, 0xf5,0xff,0xe4,0xff,0x7f,0xff,0xb2,0xff, // 16288
0xda,0xff,0xb7,0xff,0x7a,0xff,0x0f,0x00, 0x20,0x00,0x77,0x02,0x19,0x00,0x22,0x00, // 16304
0x48,0x00,0xbe,0xff,0xd1,0xff,0xb8,0xff, 0x5e,0xfd,0x24,0x00,0x04,0x00,0xd6,0xff, // 16320
0x31,0x00,0xdf,0xff,0xaa,0x01,0xc0,0x00, 0x0f,0xfe,0x12,0x00,0x00,0x00,0x26,0x00, // 16336
0x31,0x00,0x5f,0xff,0x5a,0x00,0xac,0xff, 0x97,0xff,0x12,0x00,0x2d,0x00,0xd1,0xff, // 16352
0xce,0xfe,0x1d,0x00,0xfe,0xff,0xe7,0xff, 0xa5,0xff,0xd1,0xff,0x2d,0x00,0x43,0x00, // 16368
0x27,0x00,0xf8,0xff,0x96,0xff,0x5d,0x00, 0x3f,0xff,0x75,0x00,0x4a,0x00,0xfa,0xfe, // 16384
0xff,0xff,0x29,0x00,0xa0,0x00,0x04,0x00, 0x4e,0x00,0xbf,0x00,0x0d,0x00,0xe8,0x00, // 16400
0xf5,0xff,0xf6,0xff,0x05,0x00,0xef,0xff, 0x62,0x00,0xf4,0xff,0x07,0x00,0x6f,0x00, // 16416
0xc7,0xff,0x04,0xfe,0x08,0x00,0x0c,0x00, 0xe1,0xff,0x83,0x00,0x13,0x00,0x69,0xff, // 16432
0x32,0x00,0x11,0x00,0xd1,0xff,0x2b,0x00, 0xef,0xff,0x09,0x00,0x31,0x00,0x22,0x00, // 16448
0x95,0xff,0x4c,0x00,0xf3,0xff,0x4b,0x00, 0xa2,0xff,0x32,0x00,0x5b,0x00,0xce,0xff, // 16464
0xf9,0xff,0x0f,0x00,0x73,0xff,0x16,0x00, 0x23,0x00,0x83,0x00,0x1e,0xff,0x85,0x00, // 16480
0xfd,0xff,0x1c,0x00,0x67,0x00,0x00,0x00, 0x98,0xff,0xe7,0xff,0x11,0x01,0x3c,0x00, // 16496
0xc6,0x00,0xd5,0xff,0xbb,0x00,0x9c,0xff, 0x3e,0x00,0x15,0xfe,0xe4,0xff,0x2a,0x00, // 16512
0xa6,0xff,0xc2,0xff,0x28,0x00,0x1e,0x00, 0x83,0xff,0x0f,0x00,0xd5,0xff,0xf0,0xff, // 16528
0x1b,0x00,0x10,0x00,0x3b,0x00,0xde,0xfe, 0xa3,0xff,0x99,0xff,0x47,0x00,0x29,0x00, // 16544
0xeb,0xff,0x51,0x00,0xba,0xff,0x28,0x00, 0x77,0x00,0x31,0x00,0xae,0xff,0x58,0x01, // 16560
0x09,0x00,0x12,0xff,0x27,0xff,0x79,0x00, 0xcc,0xff,0xa7,0xfc,0xb5,0xff,0x76,0x00, // 16576
0x58,0xfe,0x11,0x00,0x25,0xff,0xf2,0x00, 0xac,0xfc,0x67,0xff,0x1c,0x00,0x37,0x00, // 16592
0xc9,0xff,0xe8,0xff,0xa6,0xff,0xa3,0xff, 0x78,0x00,0x13,0x00,0x22,0x00,0xc8,0xfe, // 16608
0xaf,0xff,0x3b,0x00,0xbb,0xff,0x13,0xfd, 0x4f,0x00,0xb2,0xff,0x06,0x00,0x57,0x01, // 16624
0xf9,0x00,0xec,0xff,0x10,0x02,0x37,0x01, 0xa3,0xff,0x29,0x00,0x3b,0xfe,0xc5,0x00, // 16640
0x45,0xff,0x0a,0x00,0xe4,0xff,0x54,0x01, 0x4d,0x00,0x11,0x00,0x33,0x00,0xad,0x01, // 16656
0xf4,0xff,0xc9,0xff,0x95,0x00,0xc4,0xff, 0x2d,0x00,0xff,0xff,0xb5,0xff,0xde,0xfd, // 16672
0x5b,0x00,0x40,0x00,0xc8,0xff,0xa0,0xff, 0xfa,0x02,0x46,0x00,0xe7,0xff,0xfa,0xff, // 16688
0xc9,0x00,0x6d,0xfe,0x3b,0x00,0xa7,0x00, 0x20,0x00,0xc8,0xff,0x16,0x00,0xf0,0xff, // 16704
0x84,0xff,0xcf,0xff,0xe5,0xfe,0x14,0x00, 0x0b,0x00,0x96,0xff,0xa1,0x01,0xba,0xff, // 16720
0x63,0x00,0x4e,0x01,0xea,0x00,0x99,0xff, 0x76,0xff,0x78,0x00,0xea,0xff,0x2a,0x00, // 16736
0x99,0xff,0x86,0xff,0xf2,0xff,0x23,0x01, 0xcd,0xfe,0x12,0x01,0xc4,0x00,0xe8,0xff, // 16752
0x92,0xf9,0x6a,0xff,0x84,0xff,0xf9,0xfe, 0x55,0x00,0xa1,0x00,0x4d,0x00,0xf7,0xfe, // 16768
0x78,0xff,0xa2,0xff,0xc6,0x00,0xd3,0xfe, 0xee,0xfe,0xb7,0xff,0x6a,0x00,0x67,0x00, // 16784
0x4f,0x00,0xd6,0xff,0x8b,0x00,0x1d,0x00, 0x1f,0xff,0x05,0x00,0xd1,0x02,0x03,0x00, // 16800
0x6d,0x00,0x25,0x00,0x19,0x01,0x5f,0xff, 0xf2,0x00,0x39,0x00,0x67,0x00,0x04,0x00, // 16816
0x5a,0x00,0x80,0x01,0xd7,0xff,0x14,0x00, 0xc5,0xff,0x00,0xff,0x93,0x00,0x8c,0x00, // 16832
0xf1,0xff,0x1f,0x01,0x95,0xff,0xb2,0x00, 0x9a,0x00,0x9b,0xff,0x92,0x01,0x22,0x00, // 16848
0x68,0x00,0x9a,0xff,0x0f,0x01,0xf5,0xff, 0x6a,0x01,0x04,0x00,0xd9,0xfc,0xae,0x03, // 16864
0x60,0xff,0x22,0x00,0x1d,0x00,0x3d,0x00, 0xd7,0xff,0x5c,0xff,0x5c,0xff,0xf3,0xfe, // 16880
0x7b,0x00,0x1a,0x00,0xcf,0xff,0x6a,0x02, 0xf8,0xff,0x76,0xff,0xbd,0x00,0xa6,0xff, // 16896
0x4b,0x00,0x4d,0xff,0x2d,0xff,0xcc,0xff, 0x62,0xfd,0x5a,0xff,0xcf,0x0a,0x68,0xff, // 16912
0xd6,0x00,0x92,0x00,0x62,0xff,0xf8,0x01, 0x0f,0xff,0x5f,0xff,0x65,0xff,0x82,0xff, // 16928
0xdc,0xff,0xdf,0xff,0x95,0x00,0x19,0xff, 0x11,0x00,0x78,0xff,0xbd,0x00,0x04,0x00, // 16944
0x95,0x00,0x74,0x00,0xcb,0x01,0x5c,0x00, 0xea,0x00,0xfd,0xff,0x6e,0xff,0x93,0x00, // 16960
0xf5,0xff,0x18,0x00,0x2a,0x00,0x4e,0x00, 0xc1,0x00,0xc9,0xff,0x41,0x00,0x0c,0x00, // 16976
0xd4,0xff,0xbc,0xff,0xac,0x00,0x22,0x00, 0xdc,0xfe,0x08,0xff,0xbe,0x01,0x55,0x01, // 16992
0x25,0x00,0xae,0x00,0x2e,0x01,0xdc,0xff, 0x78,0x00,0xdf,0x00,0x68,0x00,0x71,0xfd, // 17008
0x7c,0x00,0xed,0x00,0x9b,0xff,0x74,0x00, 0x0c,0x00,0x72,0x00,0xc1,0x02,0x3e,0x00, // 17024
0xe3,0xfb,0xd5,0x00,0x21,0xff,0xe7,0xff, 0x15,0xfe,0xe8,0xfe,0xec,0xff,0xd3,0xfe, // 17040
0xcc,0xff,0x3e,0x00,0xa6,0x00,0x1b,0xfd, 0x24,0xff,0xf4,0xff,0x8b,0xff,0x7f,0xff, // 17056
0xd3,0x00,0xcc,0xff,0xf6,0xff,0x0d,0x00, 0x2f,0x00,0x0e,0x00,0x7a,0x00,0x74,0x00, // 17072
0xd1,0xfe,0xd1,0xff,0x2a,0x00,0xd6,0x00, 0x06,0x00,0x47,0x00,0x28,0xff,0xbd,0xff, // 17088
0x2c,0x00,0xbd,0xff,0xb1,0x00,0x59,0x00, 0xce,0xfe,0xc7,0xff,0x0b,0x00,0x26,0x00, // 17104
0xac,0xfe,0xcb,0xfb,0xf3,0xff,0x59,0x00, 0x7d,0x00,0x6f,0x00,0x48,0x00,0xe0,0xff, // 17120
0x18,0x00,0x03,0x00,0xd2,0xff,0x22,0x00, 0x2b,0x00,0x10,0x00,0xc0,0xff,0xf4,0xff, // 17136
0xdd,0xff,0x27,0x00,0xf6,0xff,0xfc,0xff, 0xe0,0xff,0x26,0x00,0x5f,0x00,0x06,0x00, // 17152
0xf7,0xff,0x2b,0x00,0xba,0xff,0xe8,0xff, 0xef,0xff,0x70,0x00,0x0b,0x00,0x3b,0x00, // 17168
0xcd,0xff,0x04,0x00,0x56,0x00,0x05,0x00, 0x1c,0x00,0xa3,0xff,0xdf,0xff,0x02,0x00, // 17184
0xe6,0xff,0xb2,0xff,0xf9,0xff,0xb3,0xff, 0xf0,0xff,0x48,0x00,0x01,0x00,0xef,0xff, // 17200
0xd0,0xff,0xa4,0xff,0x8a,0xff,0xd5,0xff, 0x36,0x00,0xd2,0xff,0xda,0xff,0xff,0xff, // 17216
0x00,0x00,0x7b,0x00,0x20,0x00,0xdb,0xff, 0x5a,0x00,0xcd,0x00,0xf7,0xff,0x01,0x00, // 17232
0x42,0x00,0xf1,0xff,0x87,0xff,0xcd,0xff, 0xfe,0xff,0xe8,0xff,0xf4,0xff,0x7d,0x00, // 17248
0xc7,0xff,0x2f,0x00,0x63,0x00,0x1c,0x00, 0xda,0xff,0x27,0x00,0x7d,0x00,0x55,0x00, // 17264
0xfd,0xff,0xfd,0xff,0x0a,0x00,0x27,0x00, 0xf6,0xff,0x38,0x00,0x11,0x00,0x7f,0xff, // 17280
0x73,0x00,0xea,0xff,0xfe,0xff,0x24,0x00, 0xd4,0xff,0x20,0x00,0x3b,0x00,0xe2,0xff, // 17296
0x01,0x00,0x3e,0x00,0x21,0x00,0xef,0xff, 0xd5,0xff,0xf5,0xff,0xc4,0xff,0x63,0x00, // 17312
0x1f,0x00,0xf4,0xff,0xfa,0xff,0x24,0x00, 0x11,0x00,0xe5,0xff,0xb8,0xff,0xdc,0xff, // 17328
0xe4,0xff,0x15,0x00,0x02,0x00,0x8d,0xff, 0x68,0x00,0x69,0xff,0x29,0x00,0x0e,0x00, // 17344
0x90,0x00,0x00,0x00,0xc2,0xff,0xc3,0x00, 0x05,0x00,0x5a,0xff,0x2a,0x00,0x16,0x00, // 17360
0xde,0xff,0x61,0x00,0xd5,0xff,0xf9,0xff, 0xed,0xff,0x11,0x00,0x73,0x00,0xd4,0xff, // 17376
0xf3,0xff,0xdc,0xff,0xf2,0xff,0x58,0x00, 0xf1,0xff,0x3c,0x00,0xe1,0xff,0x92,0x00, // 17392
0xe3,0xff,0x1a,0xff,0x17,0x00,0xea,0xff, 0xec,0xff,0x60,0x00,0x68,0xff,0x52,0xff, // 17408
0x7b,0x00,0x96,0xff,0xa7,0xfe,0x7e,0xff, 0xf6,0xff,0x06,0x00,0x98,0x02,0xcf,0xfc, // 17424
0xbc,0xff,0x65,0x00,0xac,0xff,0xe2,0x00, 0x21,0x00,0x81,0x00,0x43,0x00,0x14,0x01, // 17440
0x60,0xfe,0x70,0xff,0xd4,0xff,0x7a,0xff, 0xf0,0xff,0x98,0xff,0xdd,0x00,0x9e,0xff, // 17456
0x9d,0xff,0x55,0xff,0x2c,0x00,0x7a,0x00, 0x94,0x00,0xbc,0x00,0x97,0xf9,0xa3,0xff, // 17472
0x5f,0xff,0xc6,0xff,0x5f,0xff,0xc2,0xfe, 0xb4,0x01,0x2c,0x00,0x0d,0x00,0x02,0x00, // 17488
0x2d,0x00,0x0d,0xff,0x43,0x00,0x5b,0x00, 0xd0,0xff,0x97,0x01,0x09,0x00,0xac,0xff, // 17504
0xc7,0xff,0xd6,0xff,0xe0,0xff,0x69,0xff, 0xc9,0x00,0x21,0x00,0x6a,0x00,0xb5,0xff, // 17520
0xa1,0x00,0xd0,0xff,0x26,0x00,0xfa,0xff, 0x36,0x00,0x84,0x00,0xc9,0xfe,0xbc,0xff, // 17536
0x87,0x00,0xda,0xff,0xf6,0xff,0xb3,0xff, 0xde,0xff,0xa6,0xff,0x71,0x00,0x91,0xfe, // 17552
0xa5,0xfe,0xca,0xfe,0xbc,0xff,0x64,0x00, 0x98,0xff,0x9c,0x00,0xbb,0xff,0x32,0x02, // 17568
0x4c,0x00,0x2b,0xff,0xcd,0xff,0xe1,0xfe, 0x41,0xff,0xe3,0xff,0x51,0xfe,0x71,0x00, // 17584
0x09,0x07,0x53,0x00,0x91,0x00,0xee,0xff, 0x0e,0x01,0x98,0x00,0xdc,0xfe,0x18,0x04, // 17600
0x4b,0x00,0x34,0x00,0x7b,0xff,0xcf,0x01, 0x08,0x00,0xb7,0xff,0x24,0x01,0xea,0xff, // 17616
0x34,0xff,0x23,0x00,0x3a,0x00,0x1d,0xff, 0xb3,0xff,0x0f,0x00,0xe8,0xff,0xd9,0xff, // 17632
0xaa,0xff,0xd9,0x00,0xa4,0x00,0x29,0x00, 0xcc,0x00,0x66,0xff,0x44,0x00,0xb3,0xff, // 17648
0x55,0xff,0x05,0x00,0x8f,0xff,0x1a,0x00, 0xca,0x00,0xb2,0x00,0x8c,0xff,0x41,0xff, // 17664
