#if defined __ICCARM__
#define __ALIGNED(x) __attribute__((aligned(x)))
#else
#define __ALIGNED(x) __attribute__((aligned(x)))
#endif
const unsigned char model2[] __ALIGNED(16) = {
0x4e,0x4e,0x43,0x55,0x01,0x00,0x01,0x00, 0x01,0x0e,0x07,0x00,0x07,0x00,0x00,0x00, // 16
0x02,0x00,0x00,0x00,0x00,0x00,0x00,0x00, 0x18,0x01,0x00,0x00,0x02,0x00,0x00,0x00, // 32
0xe0,0x01,0x00,0x00,0xc8,0x00,0x00,0x00, 0x18,0x01,0x00,0x00,0x00,0x00,0x00,0x00, // 48
0x00,0x00,0x00,0x00,0x00,0x00,0x00,0x00, 0x00,0x00,0x00,0x00,0x00,0x00,0x00,0x00, // 64
0x00,0x00,0x00,0x00,0x00,0x00,0x00,0x00, 0xff,0xff,0xff,0xff,0xff,0xff,0xff,0xff, // 80
0x43,0x4d,0x44,0x00,0x20,0x00,0x80,0x00, 0x50,0x00,0x00,0x00,0x00,0xfe,0x00,0x00, // 96
0x6e,0x6f,0x72,0x6d,0x61,0x6c,0x2e,0x68, 0x35,0x0d,0x0a,0x57,0x65,0x64,0x20,0x4d, // 112
0x61,0x79,0x20,0x31,0x33,0x20,0x31,0x32, 0x3a,0x33,0x33,0x3a,0x34,0x36,0x20,0x32, // 128
0x30,0x32,0x30,0x0d,0x0a,0x31,0x34,0x20, 0x62,0x69,0x74,0x73,0x0d,0x0a,0x6e,0x6e, // 144
0x63,0x75,0x20,0x76,0x65,0x72,0x20,0x30, 0x2e,0x30,0x70,0x0d,0x0a,0x00,0x00,0x00, // 160
0x00,0x00,0x00,0x00,0x00,0x00,0x00,0x00, 0x00,0x00,0x00,0x00,0x00,0x00,0x00,0x00, // 176
0x00,0x00,0x00,0x00,0x00,0x00,0x00,0x00, 0x00,0x00,0x00,0x00,0x00,0x00,0x00,0x00, // 192
0x00,0x00,0x00,0x00,0x00,0x00,0x00,0x00, 0x00,0x00,0x00,0x00,0x00,0x00,0x00,0x00, // 208
0x43,0x4d,0x44,0x00,0x20,0x02,0x00,0x00, 0xd0,0x00,0x00,0x00,0x10,0x02,0x00,0x00, // 224
0x00,0x01,0x00,0x02,0x07,0x07,0x06,0x0c, 0x00,0x00,0x00,0x00,0x00,0x00,0x00,0x00, // 240
0x01,0x00,0x07,0x00,0x01,0x00,0x01,0x00, 0x8c,0x00,0x01,0x00,0x00,0x00,0x00,0x00, // 256
0x0c,0x00,0xff,0xff,0xff,0xff,0xff,0xff, 0x00,0x01,0x01,0x00,0x18,0x01,0x00,0x00, // 272
0x00,0x00,0x03,0x00,0x0e,0x00,0x00,0x00, 0x00,0x00,0x00,0x00,0x00,0x00,0x00,0x00, // 288
0x00,0x00,0x00,0x00,0x00,0x00,0x00,0x00, 0x00,0x00,0x00,0x00,0x00,0x00,0x00,0x00, // 304
0x00,0x00,0x00,0x00,0x00,0x00,0x00,0x00, 0x00,0x00,0x00,0x00,0x00,0x00,0x00,0x00, // 320
0x00,0x00,0x00,0x00,0x00,0x00,0x00,0x00, 0xa8,0x07,0x00,0x00,0x18,0x01,0x00,0x00, // 336
0x89,0x06,0xe3,0xf0,0xa7,0x03,0x32,0x06, 0x45,0x07,0x96,0xff,0x17,0xf3,0xc0,0x10, // 352
0xfc,0x01,0x7e,0xfe,0xde,0xf6,0x29,0x07, 0x27,0xff,0x7d,0x03,0xeb,0xf8,0x1d,0x06, // 368
0x14,0xf5,0x43,0x07,0xa8,0xf2,0x94,0xfb, 0xd0,0xfd,0xe6,0x04,0xab,0xee,0x12,0xfd, // 384
0x35,0x02,0x8d,0x08,0xfc,0xfc,0xb0,0xf5, 0xe8,0x0e,0xfb,0xf9,0x2f,0xfe,0x41,0xf8, // 400
0x71,0x07,0xe9,0x02,0x7e,0x00,0x96,0x09, 0x39,0xeb,0xb9,0x00,0xa1,0x03,0xc2,0x06, // 416
0xd7,0x00,0x5e,0x00,0xfe,0x03,0x28,0xfa, 0x8b,0x01,0x2d,0xf9,0x4f,0x09,0xc8,0x01, // 432
0x2e,0x09,0xc7,0x07,0xf9,0x0a,0x51,0x07, 0xc3,0x05,0x9f,0xf7,0x9e,0xfe,0x65,0xfe, // 448
0x61,0xf8,0x7b,0x04,0x3b,0xf5,0xb3,0xf7, 0xc2,0x0c,0x9b,0xfb,0xf7,0xf7,0x4c,0x12, // 464
0x04,0xf6,0x05,0x0c,0x5c,0x05,0xa6,0x05, 0x89,0xfd,0x48,0x00,0x00,0xfd,0x51,0x05, // 480
0x21,0xf6,0x97,0x04,0xb6,0xf4,0xae,0xf7, 0x64,0xfc,0x1c,0xfe,0xeb,0x10,0x40,0x04, // 496
0x54,0x00,0x41,0x05,0x96,0x00,0x32,0xfb, 0xa0,0x02,0x70,0x0b,0x8c,0xff,0xc2,0xf6, // 512
0x23,0x0c,0xda,0xfb,0x45,0xff,0xb0,0xf3, 0x53,0x07,0xa7,0xf4,0x95,0xf4,0x5b,0x0c, // 528
0x30,0xfe,0xf5,0xfa,0xbe,0x11,0xed,0xf7, 0xf5,0x09,0x3d,0x00,0x1a,0x04,0xfa,0xfd, // 544
0xa6,0x07,0x08,0xfa,0x4e,0xf4,0x4c,0x00, 0x38,0xfb,0xdf,0x0b,0xc2,0x0b,0x8a,0xff, // 560
0x04,0xf8,0x7d,0xf5,0xeb,0xf6,0x91,0xf8, 0xce,0x0d,0xc1,0x03,0x5c,0xfe,0x02,0x0a, // 576
0xd4,0x02,0xd3,0x03,0x51,0xf5,0x9a,0x09, 0xec,0xf7,0x6f,0x01,0x79,0x01,0x88,0x06, // 592
0x3c,0x04,0xd2,0xfd,0xc7,0x05,0x35,0xf5, 0x98,0xf3,0x0a,0xfe,0xb1,0xf3,0x14,0xf5, // 608
0xb2,0x06,0x98,0xfd,0x40,0xfc,0x3a,0xf5, 0x1c,0x00,0xb8,0xf7,0x2a,0xfb,0x8b,0xfe, // 624
0x92,0xfd,0x3c,0x09,0x10,0x0c,0xe6,0xfe, 0xc0,0xee,0x89,0xff,0x20,0x01,0x67,0x04, // 640
0xec,0xfb,0x8c,0x00,0x8c,0xfe,0xaa,0xeb, 0x89,0x08,0xd7,0xff,0xa6,0x06,0xd8,0x10, // 656
0x26,0x01,0x84,0xff,0xc2,0xf1,0xbe,0xfa, 0x1d,0xfd,0x54,0x0b,0x3e,0xfe,0xaf,0xfa, // 672
0xaf,0x09,0x49,0x08,0x8a,0xfc,0x77,0xfb, 0xaa,0xfe,0xb9,0xfd,0xfc,0x04,0xab,0xfd, // 688
0xba,0xef,0x17,0xf9,0x73,0x03,0xd5,0xf8, 0x51,0x06,0xf8,0x03,0x0b,0xfd,0x9c,0x0a, // 704
0x97,0xfb,0xc7,0xf1,0x92,0x08,0xbd,0x03, 0xe2,0x07,0x94,0x05,0x51,0x0f,0x63,0x01, // 720
0x8a,0xf9,0x5d,0x00,0xb7,0xf1,0x96,0xff, 0xa8,0x0c,0x13,0xf1,0x5c,0x03,0xb2,0xfe, // 736
0x4b,0x08,0xef,0xf9,0x89,0xfe,0x3a,0x09, 0x40,0xfc,0xe8,0x0a,0x9f,0x0a,0x97,0xf2, // 752
0x41,0x01,0x8d,0x04,0xc6,0xfa,0x91,0xee, 0x28,0xfe,0xb6,0x02,0xe6,0x0a,0xd6,0x09, // 768
0x36,0xf8,0xdd,0xf8,0x12,0x08,0x50,0xfd, 0x72,0xf4,0x59,0x03,0x0e,0x08,0x97,0x0b, // 784
0xa9,0xfd,0xc1,0x10,0x4f,0xfe,0xd9,0xfc, 0x3b,0x00,0x64,0xfa,0x8b,0x0b,0xa3,0xfd, // 800
0xef,0xf9,0xc3,0xf8,0x39,0x01,0x98,0xf4, 0xdc,0x04,0x2b,0x07,0x3b,0x04,0xa5,0xff, // 816
0x52,0x0b,0x60,0x09,0x20,0x02,0x89,0xfb, 0xe6,0xf5,0xc4,0x02,0x7c,0xf1,0x03,0x09, // 832
0xf9,0xfe,0xfe,0x07,0xf4,0x0b,0x71,0x04, 0x2c,0x05,0x6d,0xf8,0xe5,0x04,0xcc,0x0c, // 848
0x37,0xf5,0x3b,0xfd,0x16,0xfb,0xde,0x00, 0x89,0xf6,0xf5,0xfd,0x7e,0x07,0x91,0xf1, // 864
0x2f,0x00,0x2f,0x01,0xad,0xf9,0xb3,0xf1, 0x1b,0xfc,0x5d,0x05,0x11,0xff,0xf3,0x0a, // 880
0x48,0x04,0xef,0x02,0xba,0xfb,0xf4,0x0a, 0x57,0xfd,0xc9,0x06,0xc3,0x0a,0x17,0x08, // 896
0x0c,0xf7,0x85,0xe6,0x7e,0xf8,0x3e,0x04, 0x74,0x06,0xb6,0x0c,0x18,0xfc,0x73,0xfd, // 912
0xa1,0xfd,0x69,0xf9,0xca,0xf6,0xaf,0x06, 0x94,0x01,0xad,0x09,0x79,0x04,0x7c,0x03, // 928
0xdd,0x05,0x2b,0x08,0x36,0x00,0xae,0xf5, 0x31,0xf1,0x7c,0xff,0x34,0x0d,0xbb,0x08, // 944
0xfc,0xf8,0x2b,0x00,0x5b,0x05,0x2e,0x0b, 0x76,0xfb,0xf2,0x08,0xdd,0xfd,0x66,0xf2, // 960
0x79,0x0d,0x96,0xfe,0x00,0xff,0x85,0xfa, 0x3d,0x02,0x54,0xfd,0x1a,0x06,0xde,0xf1, // 976
0xdd,0x02,0x14,0x06,0x1b,0x06,0x35,0x17, 0x06,0x07,0xc8,0x01,0x7b,0xf4,0xa3,0xf9, // 992
0xee,0x03,0xe6,0x00,0xb7,0x04,0x89,0x04, 0x0f,0xff,0x75,0x02,0x77,0xf5,0x4a,0xf3, // 1008
0x6e,0xef,0x79,0x07,0x15,0xf1,0x2b,0xfb, 0x12,0x07,0xa3,0xff,0x69,0xfa,0x38,0xf4, // 1024
0xf5,0x11,0xd6,0xf6,0x69,0xfd,0xbb,0xf5, 0xa9,0x00,0xdf,0x07,0xfd,0xf0,0xf1,0x09, // 1040
0xd5,0xf4,0x60,0xfe,0x84,0xf5,0x28,0x03, 0x91,0x05,0xa2,0xfe,0x49,0xfc,0xf2,0x03, // 1056
0xe6,0xfb,0x50,0x0a,0x87,0x0c,0x4f,0xfa, 0x8a,0xfe,0x46,0x0c,0x6b,0x08,0xb0,0xf9, // 1072
0x89,0xfe,0xcb,0x05,0xab,0x0b,0xa3,0x11, 0xd9,0xf7,0x7b,0x08,0xad,0xfe,0x30,0x03, // 1088
0xab,0xfe,0xa7,0x09,0x43,0x00,0xf2,0x05, 0xa8,0x05,0xbb,0xfe,0xed,0x02,0x00,0xf7, // 1104
0x23,0xf4,0x7a,0x03,0x42,0xfc,0x75,0x00, 0x5c,0x07,0x5b,0xf2,0xa8,0x00,0x34,0x07, // 1120
0x38,0x02,0x9b,0xf3,0xeb,0xff,0xd4,0x08, 0x16,0xf4,0xf3,0x06,0x12,0x07,0x3c,0xee, // 1136
0x07,0x10,0x74,0xf1,0x85,0xf4,0x5b,0x01, 0x38,0x03,0x90,0x04,0xc6,0xf9,0xea,0xfc, // 1152
0x6f,0xfa,0x10,0x06,0x75,0xf7,0xe7,0x0a, 0xb6,0x07,0xcd,0x11,0x0c,0xf8,0xfb,0x0b, // 1168
0x52,0x00,0xc9,0x09,0x46,0xff,0x08,0x02, 0x65,0xee,0xc2,0x05,0xf2,0x00,0x8b,0x04, // 1184
0x06,0xfb,0x9c,0xff,0xb5,0xfc,0xbd,0xfd, 0x75,0x03,0xea,0x00,0x81,0xf7,0x93,0x0f, // 1200
0xad,0x00,0x83,0xfc,0x60,0xfc,0x47,0x00, 0x1e,0x02,0x7d,0xfb,0xeb,0x0a,0xdf,0x0a, // 1216
0xe0,0xf9,0x47,0x0b,0xfd,0xfb,0x9d,0x0c, 0xcc,0x09,0x62,0xf2,0x81,0xff,0xad,0x03, // 1232
0xda,0xf8,0x59,0xf9,0x78,0xf1,0xea,0xfc, 0x2e,0xfe,0x2e,0xfb,0x36,0xf7,0xbe,0xff, // 1248
0x00,0xfa,0xd1,0xfa,0x48,0xf9,0xe9,0x01, 0x66,0x0b,0x5f,0x01,0x56,0xf5,0xa6,0xf7, // 1264
0xe7,0xfc,0x12,0x00,0xba,0xff,0xdf,0x0c, 0x64,0xfa,0x6d,0xf7,0x91,0xf7,0x29,0x01, // 1280
0xbb,0x01,0xe2,0x04,0x40,0x11,0xbe,0xff, 0x42,0x03,0x9d,0x03,0xd9,0x04,0x04,0xf7, // 1296
0xfb,0x0e,0x87,0xff,0xca,0xff,0xa1,0x01, 0x3c,0x00,0xd6,0xfb,0x55,0x06,0xdc,0xf1, // 1312
0x62,0xf7,0x15,0x04,0x63,0x04,0x65,0xfd, 0x12,0x00,0x0d,0xff,0x4d,0x0a,0x6d,0xf8, // 1328
0x95,0xf4,0xc0,0xf9,0x23,0x18,0x58,0x01, 0x86,0xfc,0x9b,0xfd,0x20,0x01,0x72,0xfe, // 1344
0x11,0x04,0x3e,0x0f,0xf7,0xfa,0x11,0xfa, 0x83,0x02,0xd8,0xf0,0x06,0xfd,0xaf,0x06, // 1360
0x48,0x05,0x0f,0x09,0x0b,0xfd,0xea,0x09, 0x44,0x02,0x3c,0x06,0x6f,0x00,0x32,0xf6, // 1376
0xcb,0x09,0x46,0xfc,0x9a,0x07,0x43,0x0e, 0x35,0x06,0x8a,0x00,0xc2,0xf7,0x40,0x04, // 1392
0x01,0x02,0x9a,0x04,0x3b,0x0d,0x4f,0xfc, 0x3d,0xfb,0x8f,0x14,0x04,0x00,0x5b,0xf8, // 1408
0x40,0x03,0x4a,0xfe,0x24,0xff,0xbc,0x0c, 0x15,0xee,0xee,0x09,0x3c,0x0d,0x5f,0xfc, // 1424
0x20,0xfc,0x2b,0xf9,0xd0,0xff,0x46,0x02, 0xd3,0x03,0xa0,0xfc,0x75,0x0c,0x53,0x06, // 1440
0x4c,0xf8,0x44,0x01,0x54,0xff,0xf9,0xf7, 0x10,0x04,0xcc,0xf2,0x6c,0xf8,0x4e,0x03, // 1456
0x66,0x06,0xf3,0xfb,0x8f,0x0b,0x39,0x05, 0x19,0xfe,0x2f,0x08,0xc2,0x07,0xf3,0xef, // 1472
0xd4,0xfb,0xec,0x02,0xdd,0x06,0xe6,0xfc, 0xeb,0x02,0x92,0xf9,0x79,0xfb,0xdf,0x04, // 1488
0xec,0x02,0x0b,0x05,0xa4,0x04,0xde,0xf8, 0x24,0xf2,0xfc,0x06,0x07,0x10,0x6b,0x01, // 1504
0x79,0xfd,0x7d,0x01,0x9d,0xf0,0xc5,0x00, 0x20,0x04,0x57,0x05,0xcc,0x01,0x1d,0xf9, // 1520
0x80,0x0e,0xc0,0xfb,0xa9,0xfb,0x57,0xf7, 0xb7,0x09,0xe2,0xf9,0x3b,0xf3,0xcb,0x0b, // 1536
0xd5,0x00,0x4e,0xff,0x72,0xf5,0x8d,0x0e, 0x87,0xf9,0xb3,0xf5,0x52,0x0c,0x23,0xff, // 1552
0x9d,0xfe,0x9b,0xfe,0x6f,0x16,0xf7,0x04, 0x11,0xf9,0xe6,0x03,0x94,0xfb,0x7d,0x02, // 1568
0x97,0x07,0x28,0xfb,0x6e,0x06,0x58,0xfa, 0x82,0x0e,0x6d,0xff,0x97,0xfb,0xc9,0xfe, // 1584
0xc2,0xf8,0x1d,0xf7,0xda,0x08,0x67,0xf6, 0x8f,0xfd,0x11,0xf8,0x18,0xff,0x19,0xed, // 1600
0xc3,0x01,0x4b,0x04,0x99,0x05,0x59,0x09, 0x46,0xf7,0xe0,0x04,0xcc,0xfa,0xb1,0x06, // 1616
0x71,0xfa,0xdd,0x0e,0xa8,0x04,0xc5,0xfb, 0x77,0x0a,0x35,0x03,0x09,0x03,0x27,0xfa, // 1632
0x5b,0x02,0xd4,0xfb,0xe0,0x0e,0x8b,0xfd, 0xe3,0x13,0xc0,0xfb,0x10,0xfd,0x89,0xfd, // 1648
0xdb,0xf7,0x80,0x09,0xba,0xfd,0xb8,0xf2, 0x02,0x07,0x95,0x03,0x5f,0x07,0x3b,0x0e, // 1664
0xb3,0xfe,0x2f,0xf1,0x8c,0x07,0x97,0xf4, 0x33,0x00,0x8d,0xf8,0x3e,0x00,0x59,0xfd, // 1680
0x47,0x10,0x50,0xf4,0x0e,0x0a,0xd4,0x05, 0xc1,0xf9,0x11,0x01,0xb0,0x06,0x63,0x05, // 1696
0xb6,0x0e,0x72,0x03,0xe7,0x01,0xe5,0xfd, 0x00,0xf1,0xe4,0x02,0x2f,0x02,0x40,0xf1, // 1712
0x79,0xfa,0x7b,0x04,0x74,0xfc,0x8b,0x02, 0xf2,0x04,0x8a,0x04,0x37,0xfa,0xff,0x04, // 1728
0x59,0x0c,0x2e,0xfd,0xd7,0xf8,0x7e,0xf4, 0x60,0xf4,0x02,0x05,0x77,0xf8,0x0b,0xfb, // 1744
0x77,0xff,0xa9,0x00,0x8a,0xf6,0x2f,0x05, 0xeb,0x08,0xc6,0x07,0x70,0x07,0xc9,0xf1, // 1760
0xa6,0xfe,0xd9,0x02,0x6c,0xfd,0xa3,0xf5, 0x87,0xf8,0xa5,0x04,0x50,0xfb,0xb4,0x08, // 1776
0xd6,0x08,0xe5,0xfb,0xe8,0xf2,0xb7,0x04, 0x01,0xfd,0xe8,0x09,0x01,0x0d,0x1f,0xf9, // 1792
0xaa,0x02,0x7f,0xea,0x31,0xfd,0xcf,0xfe, 0xd5,0x05,0x28,0x05,0x3e,0xff,0xe5,0x07, // 1808
0xe3,0x06,0xb4,0x08,0xf2,0x04,0x93,0xf5, 0x14,0xfe,0x3a,0xfc,0x58,0x0f,0xd3,0xf0, // 1824
0xe3,0x0d,0x45,0x07,0x3b,0x02,0xf9,0xfd, 0xcf,0xfc,0xc3,0x0c,0xa6,0xf5,0x74,0x0c, // 1840
0x38,0x0a,0x8c,0xf4,0x45,0x00,0xc1,0x02, 0x70,0x0d,0x46,0xf5,0xad,0x07,0xd2,0x01, // 1856
0x25,0x04,0x16,0xf9,0xb0,0x04,0x9a,0x0a, 0x35,0xfb,0xc4,0x03,0xb9,0xfc,0x16,0xfe, // 1872
0x7f,0xf6,0xdb,0x0b,0xa0,0x04,0x46,0x07, 0xef,0x07,0x19,0x02,0x9c,0x02,0x55,0xf5, // 1888
0x41,0xf3,0xfc,0xfc,0x07,0x09,0xbc,0xfe, 0x52,0xf8,0xc3,0x09,0x63,0xfc,0xdf,0xf7, // 1904
0x79,0x09,0xfb,0xf1,0x3e,0xfd,0x5f,0xfc, 0xd4,0x03,0x2a,0x04,0xc9,0x09,0x68,0xf9, // 1920
0x5f,0x06,0xd7,0xf4,0x58,0xfc,0xe8,0xff, 0x75,0xf7,0xae,0xf7,0x31,0x10,0x8a,0xfb, // 1936
0x19,0xfe,0xd2,0xf6,0x9c,0x06,0x19,0x01, 0xf2,0x06,0x54,0x05,0x18,0x06,0x3d,0x07, // 1952
0xc9,0xfb,0x69,0x0b,0x44,0x02,0x5b,0x05, 0xba,0xfd,0x50,0x06,0x4e,0x08,0xe0,0xf7, // 1968
0x7e,0x08,0x59,0x04,0x86,0x07,0xf5,0xfa, 0x5c,0x0c,0x51,0x02,0xf6,0xf8,0x92,0xfd, // 1984
0xf4,0x07,0xe1,0x0b,0x56,0xf0,0x53,0x0c, 0x85,0xf3,0x9f,0xf4,0x24,0x05,0x67,0x01, // 2000
0x94,0xff,0x6b,0x04,0xeb,0x04,0x2a,0x09, 0x26,0xff,0xb8,0x06,0x86,0xf8,0x60,0xf4, // 2016
0x6e,0xf9,0x91,0xec,0x26,0x00,0x9d,0x06, 0xf9,0xfb,0x50,0x0e,0x9d,0xfe,0xee,0x0d, // 2032
0xfa,0xf9,0x51,0x0c,0x92,0x07,0xa2,0x08, 0x41,0xfc,0x7d,0xf9,0xd4,0x08,0xe8,0xfd, // 2048
0xfc,0x05,0x09,0xf7,0x5f,0x0b,0xa2,0xff, 0xa4,0x05,0x0b,0xfc,0x2e,0xee,0x50,0x00, // 2064
0xe9,0x02,0x10,0x04,0x47,0x0a,0xd5,0xf6, 0x15,0xee,0xfe,0x00,0xf6,0xfe,0x25,0x05, // 2080
0x55,0xfd,0xa1,0xff,0x00,0xf8,0x96,0x06, 0x0e,0x0c,0xc7,0x05,0x06,0x01,0xb8,0x01, // 2096
0xc3,0xf3,0x46,0xf7,0x7a,0x11,0x72,0xfd, 0x9b,0xfd,0x70,0xf8,0x93,0x08,0x11,0xfe, // 2112
0x1c,0x05,0xe0,0x0b,0x37,0xfa,0xed,0x0c, 0xc7,0x09,0xa1,0xfe,0xf2,0x00,0x27,0x05, // 2128
0x52,0xfe,0x41,0x00,0x69,0xfe,0xbe,0xf6, 0x83,0x0f,0x16,0xff,0x7d,0xfb,0x6f,0xf7, // 2144
0x68,0xfd,0xdd,0xf8,0x73,0x02,0x05,0xf2, 0x36,0x01,0x6f,0x01,0xfc,0xf8,0x06,0x02, // 2160
0x23,0xff,0x38,0x03,0x5b,0x05,0xb9,0xf9, 0xd6,0xf3,0xc9,0x00,0xf5,0xf8,0x1e,0x00, // 2176
0x73,0x0a,0x07,0xf8,0x82,0xfc,0xe8,0x01, 0xd8,0x0a,0xab,0xfe,0x41,0x08,0xcb,0x02, // 2192
0xe9,0x0b,0xab,0xfe,0xf8,0xfc,0xac,0x0e, 0xe4,0xfc,0xe3,0x09,0x1a,0x04,0x1b,0x08, // 2208
0x97,0xfe,0xab,0x01,0x59,0x0c,0x47,0xf7, 0x2f,0x0e,0xc5,0x0a,0xf8,0xf5,0xe8,0x00, // 2224
0x95,0x05,0xe4,0xfe,0xde,0x0f,0xfd,0x07, 0x55,0x03,0x77,0xfa,0xa3,0x03,0x6f,0xff, // 2240
0x1c,0xef,0x39,0x01,0x14,0x05,0xe6,0x03, 0xb8,0xfc,0x8f,0xfe,0xca,0xfd,0x23,0xf9, // 2256
0xe7,0xef,0xb2,0x00,0xcf,0x06,0xda,0xfe, 0xbc,0x0f,0x12,0xff,0x20,0xf0,0xd8,0x03, // 2272
0xd4,0xfa,0x63,0x03,0xf8,0x02,0x33,0x01, 0xcc,0xf6,0x07,0x02,0xc5,0x05,0x86,0x06, // 2288
0x68,0xfc,0x45,0x08,0x08,0xf7,0x3c,0xf3, 0xe7,0xfb,0x0e,0x03,0x02,0xef,0x3c,0xfa, // 2304
0x42,0xfa,0x48,0x08,0x0f,0x10,0x1a,0x00, 0x14,0xf9,0x9a,0x14,0xa2,0xee,0x8d,0x0b, // 2320
0x38,0x0c,0xe3,0xf9,0xfa,0x14,0x3d,0x06, 0x49,0x02,0x92,0x05,0x64,0xfb,0xba,0xec, // 2336
0xb1,0x03,0xda,0xfb,0xf5,0x08,0x57,0xff, 0x22,0xfb,0x3d,0xf6,0x04,0x0c,0x74,0xfd, // 2352
0xae,0x04,0x1f,0x02,0x12,0x01,0xf4,0x0a, 0x65,0x0c,0x38,0xf6,0xf9,0x02,0x2a,0x0e, // 2368
0xa8,0xf7,0xa3,0xf1,0xa1,0x00,0x4c,0x15, 0xa3,0xfe,0x09,0x09,0x4c,0xfd,0xe6,0x0c, // 2384
0x38,0x03,0xfc,0xfa,0x82,0x00,0x0f,0xf6, 0xf6,0xf7,0xb2,0xf9,0x4a,0xf2,0xbe,0x06, // 2400
0x12,0x0f,0xaa,0x14,0xcf,0xf9,0x03,0xfe, 0x76,0xfd,0xa3,0xf6,0x4f,0x01,0xba,0x16, // 2416
0x6c,0x02,0xe2,0x07,0x73,0x05,0x1c,0x01, 0x42,0xe6,0x6d,0xfc,0x56,0xf5,0x48,0x09, // 2432
0x46,0x0e,0x61,0xf5,0x95,0xfe,0x80,0xfe, 0xa0,0xfa,0x91,0x19,0x60,0x11,0x18,0x0b, // 2448
0x24,0x02,0x1a,0x00,0x91,0x0a,0x0e,0xf2, 0x4c,0x14,0xf7,0xfd,0x40,0xf9,0x63,0x05, // 2464
0x7b,0x0b,0xc3,0xff,0x9e,0x03,0xe7,0x09, 0x30,0x09,0x39,0xed,0xe5,0xfc,0x92,0x0b, // 2480
0x11,0x13,0x0e,0x09,0x08,0x0c,0xff,0xeb, 0x69,0x0a,0x6d,0x03,0x45,0xfd,0xc2,0xf8, // 2496
0x9d,0xeb,0xb6,0xfd,0xbc,0x00,0x99,0x00, 0x7f,0xff,0x48,0xf7,0x1a,0x0b,0x4b,0x01, // 2512
0x19,0x0a,0xe1,0x03,0xe7,0xfe,0xb2,0xff, 0x03,0x06,0xfd,0xe8,0xaa,0x02,0x99,0x19, // 2528
0x66,0x11,0x30,0x09,0xa3,0xf5,0x28,0x03, 0xfc,0xf8,0x70,0x11,0xc8,0x10,0x39,0xf8, // 2544
0x2b,0xfa,0x68,0x00,0xcc,0x04,0x8b,0x14, 0xa6,0x04,0x09,0xeb,0x1f,0xf5,0xbb,0xfe, // 2560
0xc0,0x15,0x45,0x1a,0xe6,0x08,0xad,0x01, 0xee,0x02,0x53,0xff,0xa6,0xf9,0xa9,0xff, // 2576
0x43,0x4d,0x44,0x00,0x20,0x03,0x80,0x00, 0x10,0x0a,0x00,0x00,0x10,0x0a,0x00,0x00, // 2592
0x01,0x01,0x00,0x02,0x0c,0x00,0x00,0x00, 0x00,0x00,0x00,0x00,0x00,0x00,0x00,0x00, // 2608
0x01,0x00,0x8c,0x00,0x01,0x00,0x01,0x00, 0x8c,0x00,0x01,0x00,0x00,0x00,0x00,0x00, // 2624
0x0d,0x00,0xff,0xff,0xff,0xff,0xff,0xff, 0x00,0x00,0x00,0x00,0x00,0x00,0x00,0x00, // 2640
0x00,0x00,0x00,0x00,0x00,0x00,0x00,0x00, 0x00,0x00,0x00,0x00,0x00,0x00,0x00,0x00, // 2656
0x00,0x00,0x00,0x00,0x00,0x00,0x00,0x00, 0x00,0x00,0x00,0x00,0x00,0x00,0x00,0x00, // 2672
0x00,0x00,0x00,0x00,0x00,0x00,0x00,0x00, 0x00,0x00,0x00,0x00,0x00,0x00,0x00,0x00, // 2688
0x00,0x00,0x00,0x00,0x00,0x00,0x00,0x00, 0x00,0x00,0x00,0x00,0x00,0x00,0x00,0x00, // 2704
0x43,0x4d,0x44,0x00,0x20,0x05,0x00,0x00, 0x90,0x0a,0x00,0x00,0x10,0x02,0x00,0x00, // 2720
0x01,0x00,0x00,0x02,0x0d,0x0b,0x0b,0x0a, 0x00,0x00,0x00,0x00,0x00,0x00,0x00,0x00, // 2736
0x01,0x00,0x8c,0x00,0x01,0x00,0x01,0x00, 0x64,0x00,0x01,0x00,0x00,0x00,0x00,0x00, // 2752
0x0c,0x00,0xff,0xff,0xff,0xff,0xff,0xff, 0x00,0x00,0x01,0x00,0xc8,0x00,0x00,0x00, // 2768
0x00,0x01,0x02,0x00,0x18,0x01,0x00,0x00, 0x00,0x00,0x00,0x00,0x00,0x00,0x00,0x00, // 2784
0x00,0x00,0x00,0x00,0x00,0x00,0x00,0x00, 0x00,0x00,0x00,0x00,0x00,0x00,0x00,0x00, // 2800
0x00,0x00,0x00,0x00,0x00,0x00,0x00,0x00, 0x00,0x00,0x00,0x00,0x00,0x00,0x00,0x00, // 2816
0x00,0x00,0x00,0x00,0x00,0x00,0x00,0x00, 0x60,0x6d,0x00,0x00,0xc8,0x00,0x00,0x00, // 2832
0xf6,0x00,0xf2,0xff,0x58,0xfe,0x44,0x01, 0x1e,0x00,0xb1,0x01,0x0f,0x02,0xcb,0xff, // 2848
0x55,0xfe,0xc6,0x08,0x3c,0x01,0x6b,0x00, 0xa7,0x00,0x6b,0xfb,0x8f,0x06,0x9d,0xfe, // 2864
0xb7,0xff,0x4d,0x02,0xc9,0x00,0x9e,0xff, 0x52,0x00,0x5c,0x00,0xc4,0x00,0x63,0x00, // 2880
0xe4,0xff,0xb6,0xff,0x47,0x00,0x9f,0x00, 0x67,0x02,0x84,0x03,0x90,0xff,0x93,0xfd, // 2896
0x0d,0x00,0xdf,0xff,0x16,0x00,0x5f,0xff, 0xb1,0x00,0x3f,0x01,0x7f,0xff,0xf2,0xff, // 2912
0xdd,0xff,0x15,0x01,0xfc,0xff,0xd3,0xff, 0x89,0xfb,0x5c,0xff,0x32,0x00,0x9c,0x00, // 2928
0x96,0xfd,0xd9,0xfe,0x33,0xfa,0x35,0xff, 0xd3,0xff,0x45,0x05,0x0e,0x00,0x24,0x02, // 2944
0x04,0x00,0xa5,0xf9,0x92,0xfe,0xc1,0x08, 0xa0,0xff,0x57,0xfc,0xaf,0xfd,0x50,0x03, // 2960
0x82,0xfd,0xf7,0xfe,0x6e,0xfc,0x8b,0xfe, 0x5f,0xff,0xa8,0x02,0x8f,0x00,0x2a,0xff, // 2976
0x18,0x01,0x77,0x01,0xb3,0xfe,0xcb,0xfe, 0x4c,0xff,0x01,0x04,0xb7,0xfd,0xd2,0x01, // 2992
0xee,0x00,0xa7,0x00,0xf1,0xff,0xdb,0x00, 0x03,0xff,0x5a,0xfc,0x97,0xf8,0x02,0xff, // 3008
0xb8,0xff,0xc9,0xff,0x9a,0x01,0xd4,0xfd, 0x94,0x02,0x73,0xff,0xb9,0xff,0xa3,0xfb, // 3024
0xe0,0x05,0x06,0x02,0x32,0x00,0xad,0xff, 0xc9,0xfc,0x39,0xff,0x54,0xff,0xd9,0xfe, // 3040
0xb9,0x00,0x38,0xff,0xfb,0x02,0xf6,0x04, 0x71,0x02,0xdc,0x02,0x9d,0xff,0xfd,0xfe, // 3056
0xd5,0xff,0x3c,0xff,0x04,0x00,0x74,0x00, 0x91,0xff,0xea,0xff,0x0c,0xf9,0xda,0xff, // 3072
0x50,0xff,0x20,0x01,0x9c,0x03,0xde,0xff, 0x7f,0x00,0x69,0x00,0x1b,0x00,0x38,0x03, // 3088
0x38,0xfd,0x6c,0xfe,0x0f,0xfe,0xfb,0x00, 0xf4,0x00,0x2c,0x04,0xdd,0x04,0x91,0xfe, // 3104
0x4c,0x00,0xdf,0xff,0x49,0xfe,0xd4,0xff, 0x00,0xfe,0xa2,0x09,0x31,0x00,0xce,0xfe, // 3120
0xc8,0x06,0x68,0x00,0x5c,0x03,0xb8,0x00, 0x25,0x00,0xe6,0xfe,0x7d,0x00,0xb9,0xfe, // 3136
0xbc,0x01,0xfb,0x00,0x25,0x03,0x9d,0xfe, 0x2f,0x00,0x95,0x01,0x10,0xff,0x83,0xff, // 3152
0x65,0x01,0x0e,0x01,0xfd,0xff,0x77,0xff, 0x1b,0x04,0x95,0x00,0x82,0x02,0x8b,0x00, // 3168
0x28,0xff,0x2f,0xfe,0xbd,0xfd,0xee,0x01, 0x93,0xff,0xab,0x01,0xba,0xfd,0x3e,0xff, // 3184
0x26,0xfd,0x8e,0xff,0xcb,0xfe,0x1f,0x00, 0x6a,0xff,0xf9,0x01,0x0f,0xfd,0x83,0x00, // 3200
0x90,0x02,0xbb,0xff,0x62,0x00,0xf7,0xff, 0x34,0xff,0x34,0x01,0x82,0x01,0x32,0xff, // 3216
0x79,0x00,0xaf,0x02,0x01,0x00,0x24,0x00, 0x42,0xff,0x36,0x02,0x2c,0x00,0x03,0x00, // 3232
0xa5,0xf9,0xe1,0xff,0x32,0xff,0xab,0xfe, 0xdf,0xff,0x4a,0x02,0x1b,0xff,0xb7,0xff, // 3248
0x66,0x01,0x79,0xff,0x1f,0xff,0x44,0xff, 0x0d,0x00,0xe6,0x00,0x26,0x00,0x6f,0xff, // 3264
0xdc,0xff,0x43,0xfd,0xb9,0xff,0x8a,0x00, 0xea,0xff,0x2d,0xf8,0x8b,0xfd,0x7e,0xff, // 3280
0xdc,0x01,0xee,0x01,0x8d,0x01,0xfb,0x00, 0xd2,0x01,0x82,0xfe,0x84,0xfe,0xcd,0xfe, // 3296
0x80,0x02,0x20,0x01,0xc5,0xfe,0x9f,0x00, 0x95,0x00,0xd1,0xff,0x95,0x00,0x9f,0xfd, // 3312
0x90,0x00,0xc5,0xff,0xc0,0x00,0x6e,0xff, 0xe9,0xff,0x30,0xff,0xeb,0xfc,0xe9,0xfd, // 3328
0xc8,0x00,0x7a,0x01,0xea,0xff,0x44,0x00, 0x33,0x04,0x1b,0x00,0x1a,0x09,0xab,0x00, // 3344
0x77,0x00,0x9e,0x01,0x71,0x03,0x61,0xfe, 0x7e,0xfe,0x3b,0xff,0x5a,0x03,0x92,0xfe, // 3360
0x39,0xf9,0xb1,0xfe,0x87,0x09,0x55,0xff, 0xb1,0x02,0x38,0x00,0xdd,0xfe,0x4f,0xff, // 3376
0x16,0xff,0x90,0x00,0x29,0xff,0xbd,0xff, 0x2a,0xf9,0x04,0xff,0x96,0xfb,0xb4,0xff, // 3392
0x83,0xfc,0xce,0xff,0x97,0x04,0xa1,0xff, 0x2b,0x00,0xc4,0xff,0x3d,0xff,0x82,0xff, // 3408
0xee,0xff,0x4a,0xfd,0x70,0x01,0x8a,0x00, 0xcf,0xfe,0x03,0x00,0x52,0xff,0xbe,0xfe, // 3424
0x62,0xff,0x6a,0xff,0x03,0x00,0x2a,0x00, 0x63,0x00,0x7b,0xff,0x45,0xff,0x69,0xff, // 3440
0x80,0xff,0x07,0x00,0xaa,0x01,0x6b,0x00, 0xf8,0xfe,0x68,0x00,0x29,0xff,0x71,0x02, // 3456
0xa8,0xff,0xcb,0x01,0x44,0xfe,0x92,0xfe, 0xb8,0xfe,0x40,0x04,0x63,0xfe,0x70,0xfe, // 3472
0x76,0x00,0x54,0x00,0x82,0xfe,0xc3,0x00, 0x3a,0xff,0xa2,0x04,0xb9,0xff,0x5e,0x00, // 3488
0x50,0xff,0x38,0x04,0xb6,0x06,0xfb,0x00, 0x0b,0x01,0xae,0xff,0xaa,0x00,0x51,0x02, // 3504
0x21,0x00,0x96,0x02,0x2c,0x00,0x26,0xfb, 0xe6,0xff,0xec,0xfd,0x9e,0xff,0xf4,0xff, // 3520
0xd2,0x00,0x17,0x00,0x88,0x00,0xef,0xfe, 0x37,0xfb,0xf7,0x00,0x8c,0xfd,0x19,0x01, // 3536
0xe7,0xff,0xb8,0xfd,0x8d,0xff,0xbd,0x00, 0x30,0x01,0xd6,0xfe,0x5d,0x00,0x4c,0x00, // 3552
0xd3,0xff,0xfb,0xff,0x81,0xfe,0xb8,0xff, 0x4d,0xfb,0xd0,0x00,0xce,0xff,0x2d,0x00, // 3568
0xa0,0xfa,0x9b,0x00,0x69,0xff,0xbf,0xfd, 0x58,0xff,0x13,0x00,0x22,0xfe,0x7b,0x02, // 3584
0x58,0x00,0xc9,0xff,0x9c,0xfe,0xee,0xfd, 0xb7,0x01,0x08,0x00,0x55,0xfe,0x9c,0xff, // 3600
0x28,0xff,0xa0,0xff,0xce,0xfc,0x10,0xff, 0x00,0xff,0x1b,0xff,0x88,0x00,0xb7,0x00, // 3616
0x85,0xff,0x2a,0x00,0xa2,0xff,0x3c,0xfc, 0x47,0x00,0x92,0x00,0xfb,0x00,0x14,0x00, // 3632
0xe5,0xff,0x51,0xfa,0xa7,0xff,0xe7,0xfe, 0x30,0x00,0x48,0xff,0xb9,0xff,0x0f,0xfe, // 3648
0xec,0xfd,0x2d,0x09,0x7a,0xfd,0xdc,0xff, 0x22,0xf5,0x36,0xfa,0xad,0xfe,0xe3,0x00, // 3664
0x7d,0x00,0xfe,0xfe,0x45,0x00,0x58,0xff, 0x33,0x02,0x31,0x00,0xae,0x08,0xce,0x01, // 3680
0xd2,0x00,0xc2,0xfd,0xe0,0xfb,0x22,0x01, 0x20,0x03,0xee,0xfd,0xd6,0x03,0x43,0xfe, // 3696
0xa6,0xf8,0xcd,0x02,0x72,0xfa,0x1d,0x00, 0xd1,0xff,0x4e,0xfd,0x50,0x00,0x65,0x08, // 3712
0xf1,0xff,0x32,0xff,0x42,0x01,0x02,0x00, 0x69,0xff,0x67,0x04,0xd2,0xfd,0x32,0xfd, // 3728
0x7c,0xff,0xb0,0xfe,0xa6,0x01,0xce,0xfd, 0x98,0xfa,0x59,0x02,0xb4,0xff,0x41,0x00, // 3744
0x3f,0x01,0x91,0x0b,0xf6,0x00,0xed,0xfa, 0x8a,0x01,0xd9,0xfd,0xf8,0xff,0x6b,0xfc, // 3760
0xea,0xf9,0x28,0x05,0xf5,0xfe,0xde,0xff, 0x9f,0x01,0xc5,0xff,0xd9,0x01,0x4d,0x01, // 3776
0xb8,0xfb,0x8c,0xf9,0x83,0x00,0xf0,0x02, 0x6c,0x03,0x92,0x01,0x7e,0x02,0x82,0xf6, // 3792
0x2b,0x00,0xae,0xf8,0x4b,0x03,0x86,0xfe, 0xc0,0x0b,0x95,0x00,0xad,0x03,0x0c,0x00, // 3808
0xdb,0xf2,0x21,0x02,0x31,0xff,0x29,0x01, 0x2c,0xfe,0xe6,0xeb,0x8f,0xfe,0xcc,0x00, // 3824
0x51,0xfe,0x87,0x01,0xb7,0xff,0xc5,0x02, 0xf3,0xfa,0x7c,0xff,0xa1,0xff,0x61,0xfc, // 3840
0x77,0xf4,0x33,0xfe,0x15,0xfb,0xa6,0xfc, 0xea,0xf9,0x51,0x0c,0x68,0x04,0xee,0xfb, // 3856
0xc2,0xfb,0xc7,0xfc,0x55,0x00,0xfe,0x05, 0x3d,0xfd,0xc2,0xfc,0xbf,0xff,0x04,0x01, // 3872
0x36,0x04,0xb0,0x00,0x26,0x00,0x17,0x03, 0x8d,0x01,0xca,0x01,0x62,0xff,0xeb,0xfe, // 3888
0x70,0xfd,0xf4,0xfc,0x39,0xff,0xf3,0xff, 0xd2,0x00,0x0c,0x04,0x3e,0x00,0x0d,0xe8, // 3904
0x70,0xf6,0xa0,0xfd,0x5c,0x01,0x06,0x00, 0xf2,0x02,0x5a,0xfd,0xcd,0xf5,0xde,0x03, // 3920
0x42,0x00,0x56,0xfd,0x11,0x00,0xfb,0xfb, 0xc3,0xfc,0x2f,0x10,0x00,0x01,0xac,0xff, // 3936
0xe7,0xf8,0x5a,0xf7,0x3c,0xfe,0x06,0x00, 0x2b,0x00,0x50,0x02,0x2a,0x01,0x2d,0xff, // 3952
0x38,0x05,0xf0,0xfe,0x5f,0xfd,0x05,0x01, 0xdf,0xff,0xcb,0x00,0x1f,0x00,0xf7,0xff, // 3968
0x7a,0xfd,0x52,0x02,0xfc,0xfd,0xcd,0xfe, 0xe6,0xfa,0x90,0xfc,0x3c,0xff,0x83,0x02, // 3984
0x61,0x00,0xd2,0xfd,0x18,0xff,0xb9,0x01, 0x53,0xff,0x01,0x00,0xaf,0x09,0x13,0x00, // 4000
0x44,0xff,0x0d,0x01,0xe3,0xfa,0x62,0xfa, 0x4e,0xff,0x6d,0x01,0x88,0x04,0x8c,0xfb, // 4016
0x3b,0xfd,0xd4,0x00,0x1e,0x01,0x04,0x04, 0x59,0x01,0x26,0xfe,0xb3,0x00,0x07,0x01, // 4032
0xf7,0x02,0x09,0xff,0xf2,0x00,0xeb,0xfd, 0x06,0xfa,0xad,0xff,0x90,0xfe,0x31,0x01, // 4048
0x4b,0xff,0x86,0xf8,0x2f,0xfc,0xdc,0x00, 0x77,0xfc,0x55,0xff,0xf0,0xff,0x7c,0xff, // 4064
0x72,0x05,0x11,0xfa,0xf9,0x00,0xd5,0x01, 0x0b,0x00,0x5a,0x01,0x64,0x00,0xca,0x01, // 4080
0xc1,0x00,0x37,0x00,0x00,0x01,0x26,0x03, 0xe7,0xfe,0x0c,0xfd,0x6b,0xff,0xd2,0xfe, // 4096
0x58,0xf6,0xfa,0xfe,0x96,0x02,0x24,0x00, 0xf6,0xfe,0x22,0x05,0x78,0x01,0x50,0xff, // 4112
0x54,0x01,0x08,0x01,0x81,0x02,0xe9,0xfd, 0xca,0xfb,0x56,0xfb,0x0c,0xfe,0x98,0xfc, // 4128
0xf6,0x02,0x5b,0x02,0x0d,0x09,0x55,0x04, 0x54,0xfc,0x93,0xfc,0xa4,0x07,0xbd,0xfd, // 4144
0x5a,0x01,0xd8,0xfd,0xd8,0x00,0x9c,0x02, 0xb8,0x00,0xbf,0xff,0x37,0x01,0x8b,0x04, // 4160
0xff,0x01,0xeb,0x00,0x3b,0x03,0xc7,0x04, 0x56,0x00,0x30,0xfe,0x66,0xff,0x31,0xfd, // 4176
0x6f,0x00,0x83,0xff,0xed,0xff,0xad,0xfd, 0x0a,0xff,0x94,0xfd,0xb4,0xfc,0xe4,0xff, // 4192
0x0c,0x09,0x41,0x05,0x8b,0xfd,0x8f,0x04, 0xaf,0x00,0xe1,0xfd,0xa0,0xff,0xda,0x03, // 4208
0x68,0xff,0xc7,0xfe,0x5f,0x01,0xc4,0x00, 0xbd,0x02,0x19,0x00,0x98,0x04,0x38,0xff, // 4224
0x7a,0x00,0x65,0x0a,0x16,0x02,0x7c,0x00, 0x11,0xff,0x3d,0xfe,0xae,0x00,0x68,0x00, // 4240
0xd4,0xfe,0x05,0x00,0x6c,0x00,0x5a,0xff, 0x52,0x00,0x18,0x00,0x69,0xff,0x84,0xff, // 4256
0x24,0xff,0x1e,0x01,0xd3,0xff,0x3c,0xff, 0x02,0x02,0x6a,0x00,0x33,0x00,0xb0,0xff, // 4272
0x71,0xff,0xdf,0x00,0x05,0xff,0xf0,0x01, 0xd1,0xff,0xb7,0x00,0x9f,0xff,0x11,0x00, // 4288
0xb5,0xff,0x79,0x00,0xf1,0xff,0xf5,0xff, 0x7a,0xff,0x55,0x00,0x1e,0x01,0x3d,0xff, // 4304
0xe1,0xfe,0x02,0xff,0xdb,0x00,0xd6,0x00, 0xfd,0x00,0x89,0x00,0xd1,0xff,0xdf,0x01, // 4320
0xe1,0xfe,0xe8,0xff,0x05,0xfe,0x52,0xff, 0xbd,0xff,0x0a,0x00,0x29,0x00,0x80,0xfe, // 4336
0xe1,0xff,0x85,0x01,0xa0,0xff,0xfa,0xff, 0xd4,0x00,0x8a,0x00,0xc0,0xff,0xf2,0x00, // 4352
0x99,0x00,0x0f,0xfe,0x5b,0xff,0x46,0x00, 0xc5,0x00,0x09,0x00,0x9b,0x00,0x54,0xff, // 4368
0x29,0x01,0x2a,0x00,0x7c,0xff,0x59,0x00, 0x72,0xff,0x8e,0xfe,0x19,0x00,0x1b,0x00, // 4384
0x60,0x00,0xe2,0xff,0xa8,0xff,0xe5,0xff, 0x52,0xff,0x2b,0x01,0x83,0xff,0x2a,0x00, // 4400
0x51,0x00,0x70,0x00,0x73,0xff,0xa9,0xff, 0xb7,0x00,0x5e,0xff,0x1f,0xff,0x97,0xfe, // 4416
0xe8,0xff,0x69,0x00,0xec,0xff,0xfc,0x00, 0xdb,0xff,0xc7,0xff,0x08,0x00,0xb1,0xfe, // 4432
0x0b,0x00,0x65,0xfe,0x83,0xff,0xcc,0xff, 0x23,0x00,0x3c,0xfd,0x05,0xff,0xe7,0xff, // 4448
0xf0,0xff,0x84,0xff,0xda,0xfe,0x80,0xff, 0x5f,0xff,0xb1,0xff,0x5f,0xff,0xfd,0xff, // 4464
0x9d,0x01,0x9a,0xff,0x25,0x00,0x12,0x00, 0x56,0x00,0xca,0xfd,0xc8,0x00,0x61,0x00, // 4480
0x4b,0x00,0xa9,0xfe,0x0e,0x00,0x2c,0xfe, 0x27,0x00,0xcc,0xff,0x18,0x00,0x13,0xff, // 4496
0x61,0x00,0x0a,0x01,0x91,0x00,0xe3,0xfe, 0x0e,0x02,0x1b,0xff,0xfa,0xff,0x57,0xff, // 4512
0x46,0xfe,0x3a,0x00,0xe6,0x04,0x18,0x00, 0x09,0x00,0xe3,0x00,0x6b,0x01,0xa4,0xff, // 4528
0xf6,0xff,0xea,0x00,0xeb,0x04,0x99,0xfc, 0x68,0xfd,0xa9,0xfe,0xbe,0x01,0x09,0xff, // 4544
0xba,0xff,0x9e,0x03,0x28,0x00,0xe8,0xff, 0x22,0x00,0x06,0x01,0x33,0xff,0x94,0x00, // 4560
0x40,0x00,0xa4,0x02,0x78,0xff,0xc4,0x01, 0x19,0x02,0x20,0x00,0x27,0xff,0xd3,0xff, // 4576
0xe3,0x02,0x43,0x01,0x5d,0x00,0x68,0xff, 0xb2,0x00,0x29,0x03,0x85,0xff,0xff,0xfd, // 4592
0xf9,0xff,0xde,0x00,0x8c,0x00,0xea,0xff, 0x28,0xfd,0xef,0xff,0xe6,0xff,0x1e,0xff, // 4608
0xb6,0x00,0x1b,0x01,0xd3,0x01,0xde,0xf6, 0xf0,0xfe,0x66,0x02,0xac,0xff,0x93,0x04, // 4624
0x8c,0x02,0x55,0xff,0xd5,0xff,0xbe,0xfc, 0x57,0xff,0x5b,0xfd,0x4b,0xf8,0x4d,0xff, // 4640
0x18,0x00,0xea,0xff,0xa2,0xfc,0x92,0xfc, 0xc3,0xfa,0x87,0x06,0x8a,0xff,0x7a,0xfe, // 4656
0xa4,0x00,0x64,0xfe,0xea,0xf9,0xa7,0xf8, 0x59,0xfd,0x86,0x00,0x57,0xf6,0xef,0x04, // 4672
0x7c,0xff,0x2e,0x00,0x49,0x00,0x4a,0x03, 0x82,0xfd,0x2c,0xff,0x65,0x00,0x08,0xfe, // 4688
0xa4,0xfb,0xdb,0x00,0xc5,0xfd,0x8a,0xf8, 0xd2,0x02,0xd7,0x03,0xca,0xfe,0x63,0x01, // 4704
0x85,0x00,0xd8,0x03,0xfa,0x01,0x6c,0x00, 0xd5,0xfc,0x86,0xff,0x99,0x00,0x08,0xfa, // 4720
0xc1,0x00,0xa4,0xfe,0x1a,0x02,0x4b,0x00, 0x07,0x04,0xe6,0x07,0x19,0xff,0xb1,0xfb, // 4736
0x2c,0x00,0xf9,0x01,0x5b,0x00,0xd3,0xfe, 0xae,0xff,0x3e,0xff,0xe2,0xff,0xb9,0xfe, // 4752
0x2d,0x00,0xeb,0xfe,0x69,0xfe,0xcc,0xfd, 0xdd,0xff,0xda,0x00,0xe6,0xff,0xde,0x00, // 4768
0xbb,0xfe,0x8b,0x03,0x92,0x00,0x98,0x02, 0xc9,0xfd,0xf5,0xff,0x6a,0x00,0xef,0xff, // 4784
0x70,0xff,0xcd,0xff,0x58,0x00,0xe1,0xfe, 0xb2,0x03,0x6a,0xff,0xa6,0xfb,0xfb,0x05, // 4800
0x96,0xff,0xce,0x03,0x13,0x05,0x8c,0xfa, 0x0e,0x08,0x62,0x00,0x6c,0xfe,0x73,0xfe, // 4816
0x98,0xff,0x40,0x08,0x89,0x00,0x71,0x05, 0xae,0x16,0xad,0x00,0x71,0xff,0x7d,0x04, // 4832
0xe2,0xff,0xe4,0x01,0xa5,0x03,0x74,0x0a, 0xc6,0xfe,0xdc,0x01,0x0b,0x01,0xa2,0xfd, // 4848
0xcc,0x04,0xeb,0xf2,0x1a,0x08,0x60,0x00, 0x4b,0xff,0x0f,0x00,0x0f,0x00,0xb8,0x03, // 4864
0x39,0xfd,0x26,0xfe,0xa2,0x01,0xdc,0x00, 0x5d,0x0b,0x01,0x03,0xb3,0xff,0x13,0xfb, // 4880
0x50,0x02,0xe4,0xf9,0xc3,0xeb,0x20,0x00, 0xb9,0x03,0x0f,0xfc,0xa7,0xfb,0x11,0x00, // 4896
0x68,0xfc,0x8c,0x00,0x22,0xff,0x5d,0xfe, 0xbd,0xff,0xe5,0xff,0x11,0x00,0x7c,0x01, // 4912
0x4c,0x00,0xd6,0x04,0xe1,0xff,0x79,0xf3, 0xba,0x02,0x08,0x00,0xa2,0xff,0xac,0x01, // 4928
0xfd,0x02,0x0a,0xfd,0x99,0x03,0x0d,0xfb, 0xd5,0xfd,0x0a,0xff,0x21,0x02,0xb9,0xff, // 4944
0x8d,0xfd,0x89,0x01,0x27,0xff,0xa4,0xfe, 0x0d,0xfe,0xd0,0x00,0x75,0x00,0x09,0xff, // 4960
0x62,0x03,0x18,0x03,0x54,0x01,0xd6,0xfc, 0xda,0x05,0x53,0x01,0xee,0x04,0xa2,0x03, // 4976
0xad,0xff,0xac,0xfe,0x0e,0x02,0x66,0xff, 0xa9,0xfe,0x70,0x00,0x93,0x01,0x37,0xfe, // 4992
0xed,0xfe,0x43,0xea,0x46,0x01,0xc6,0x01, 0x5b,0x03,0xc7,0xf3,0xd0,0x00,0xb9,0xf8, // 5008
0xa7,0x00,0x71,0x00,0x22,0x00,0xc1,0xff, 0x30,0x01,0x71,0x01,0x56,0xff,0x94,0x00, // 5024
0xc3,0xff,0x13,0xfe,0x71,0x01,0x2f,0x01, 0x07,0x03,0x01,0x00,0x97,0x02,0x52,0x03, // 5040
0xbc,0x00,0xe6,0xfd,0xaa,0xff,0x6f,0xfe, 0x3d,0x08,0x0e,0xfe,0x7a,0x00,0xcb,0x00, // 5056
0xb9,0x01,0x48,0x01,0xd9,0xfb,0x75,0xfa, 0xd0,0x00,0xf1,0x01,0xcb,0x01,0xe7,0x00, // 5072
0x68,0xff,0x61,0x01,0x62,0xfe,0x05,0x01, 0xc2,0x01,0xbc,0xfe,0x10,0xff,0x15,0x01, // 5088
0x4b,0x01,0x2f,0x00,0x4d,0x00,0xd1,0xff, 0xf0,0x00,0xb1,0xff,0x5e,0x00,0xdc,0xff, // 5104
0x28,0x00,0x5d,0x00,0xee,0xff,0xf5,0xff, 0xe3,0xfe,0xa3,0x00,0x67,0xff,0xdc,0xff, // 5120
0x15,0x01,0x6c,0xfe,0x7a,0xff,0xde,0xff, 0x55,0x00,0x63,0x00,0x18,0x00,0x36,0x00, // 5136
0x27,0xff,0xbe,0xff,0xbf,0xff,0x36,0x00, 0xe1,0x02,0x0b,0xff,0x5f,0xff,0x95,0x00, // 5152
0x24,0x00,0x89,0xff,0x1b,0x00,0xcd,0xff, 0x6e,0x00,0x8c,0xff,0x51,0x00,0xc7,0xff, // 5168
0x3e,0xfe,0x5e,0xff,0x41,0xfe,0x99,0xff, 0x2f,0x00,0xa4,0x00,0x9e,0xff,0x42,0x00, // 5184
0x4d,0x02,0x0a,0xff,0x57,0x00,0xde,0xff, 0xe3,0xfe,0x82,0x01,0xc8,0x00,0xc8,0xff, // 5200
0xd3,0xfe,0x3a,0x00,0x15,0x00,0xd1,0x00, 0xae,0x02,0x92,0xfe,0x9f,0xff,0x63,0x01, // 5216
0x9b,0xff,0xde,0x00,0x2d,0xff,0x61,0xff, 0x44,0x00,0x30,0x00,0xef,0xff,0x61,0x00, // 5232
0x01,0xff,0x2b,0xff,0x66,0x00,0xf1,0xfe, 0x62,0x01,0x9b,0x00,0x2f,0x00,0x9a,0x00, // 5248
0xd8,0x01,0x38,0x00,0xc3,0xff,0x0b,0x00, 0x70,0xfe,0x3e,0x00,0xfa,0xff,0x15,0x00, // 5264
0xb8,0x00,0x5e,0xff,0x01,0x00,0xca,0xff, 0x79,0x00,0x19,0x00,0x86,0xff,0xd1,0x00, // 5280
0x2e,0xff,0xbb,0x00,0xdf,0xff,0x60,0x00, 0x3f,0x01,0x4c,0xff,0x82,0x00,0x38,0x00, // 5296
0xb4,0x00,0x76,0x00,0x3e,0x00,0xa4,0x01, 0xc8,0xff,0x44,0x00,0x35,0x00,0xe7,0xff, // 5312
0xd3,0xff,0x5f,0x01,0xca,0x00,0xdf,0x00, 0x98,0xff,0x3c,0x01,0x48,0x00,0xe7,0x00, // 5328
0xa3,0xff,0x01,0xff,0x16,0x02,0x84,0xff, 0x7c,0x00,0x68,0xff,0x64,0x00,0x27,0x01, // 5344
0x19,0xff,0x78,0xff,0x27,0x00,0x13,0x00, 0x57,0xfe,0x23,0x00,0xfd,0x02,0x8c,0xff, // 5360
0x6e,0xff,0x99,0x00,0x5b,0x01,0x3e,0xff, 0xde,0xfc,0xe7,0x00,0x9f,0x00,0x2a,0xfe, // 5376
0x8c,0xfd,0x2b,0xfb,0xa6,0x00,0x5f,0x00, 0x18,0x00,0xb0,0xff,0xf8,0xff,0x8f,0x01, // 5392
0x3f,0x01,0xe2,0xff,0x44,0x00,0xc1,0x00, 0xe3,0xff,0xaa,0x01,0x4a,0xff,0x52,0xff, // 5408
0xf2,0x00,0x6b,0x04,0xf3,0xff,0xa0,0x01, 0x59,0xff,0xcf,0x00,0xd1,0xfe,0x0a,0x00, // 5424
0xfe,0x00,0x0a,0x06,0x3a,0x01,0xe7,0xff, 0x31,0x00,0x99,0x00,0x8a,0xfe,0xba,0xff, // 5440
0x59,0xf7,0xcc,0x03,0x3e,0x00,0x08,0x00, 0x5b,0xfe,0xa5,0x00,0x3b,0x02,0x17,0xff, // 5456
0x43,0x00,0x5e,0x02,0x4a,0x00,0x5c,0x04, 0x67,0x01,0xfc,0xfd,0x5c,0x00,0x76,0x01, // 5472
0x60,0x00,0x20,0xfa,0x3c,0x00,0x1d,0x04, 0xf1,0x00,0x45,0x00,0x1c,0x01,0x55,0x00, // 5488
0x23,0xf9,0x27,0x01,0x90,0xfe,0xe6,0xfe, 0x4f,0xff,0xf1,0xfd,0x38,0x00,0xe3,0xff, // 5504
0xd6,0xff,0x1e,0x02,0xe2,0xfe,0x53,0x02, 0x4b,0x00,0xe0,0xff,0x07,0xfe,0xc6,0xff, // 5520
0x1a,0xfb,0x66,0xfa,0xca,0xf8,0x76,0xfe, 0xc6,0xfa,0xb9,0x01,0xa7,0x00,0xff,0xfd, // 5536
0x5f,0x00,0x42,0x00,0x70,0x00,0x0c,0x00, 0xbf,0x03,0xef,0xfd,0x35,0x01,0xca,0xff, // 5552
0xda,0xfe,0xab,0x00,0x55,0x00,0xc9,0x00, 0xf7,0x00,0x70,0xff,0x50,0x00,0xf7,0x03, // 5568
0xda,0x00,0x1d,0x00,0xb7,0xff,0x05,0x00, 0x5a,0x00,0xc4,0xff,0xfa,0xff,0x5c,0xfe, // 5584
0x09,0xfe,0xe0,0xff,0xff,0xfc,0xf3,0xff, 0xd8,0xff,0xcf,0xfe,0xdf,0xff,0x11,0x00, // 5600
0xce,0xff,0xea,0xfe,0x72,0x00,0xf9,0x01, 0x95,0xfb,0xba,0x03,0xf8,0xfc,0x8e,0x00, // 5616
0xfc,0xfe,0x88,0x00,0xb3,0x03,0xed,0xfe, 0x88,0x00,0x5e,0xff,0x28,0xff,0x4b,0x00, // 5632
0xaa,0x03,0x68,0xff,0x4a,0x00,0x0a,0x01, 0x13,0x00,0xb9,0x00,0x7a,0xfc,0x41,0x01, // 5648
0x43,0x00,0x55,0xfe,0xa8,0xff,0x39,0x00, 0x41,0xfb,0xc5,0xff,0xea,0xfa,0xd1,0xff, // 5664
0x15,0xff,0x17,0xff,0x66,0x00,0x53,0x01, 0x73,0xfe,0x6f,0x01,0x48,0x00,0x89,0xff, // 5680
0x2a,0x00,0xf2,0x00,0x21,0xfc,0xe6,0xfe, 0xf9,0xff,0x00,0x01,0x8b,0x01,0x6f,0xfd, // 5696
0xf8,0xfc,0xb3,0xff,0xf8,0x00,0x9e,0x00, 0x17,0x05,0xc8,0x00,0x66,0x00,0x9d,0xff, // 5712
0xf5,0x00,0x1b,0xfd,0x1c,0x02,0x28,0xff, 0xf6,0xfb,0x2e,0xff,0x85,0xff,0x84,0x00, // 5728
0x6e,0x01,0x2d,0xfd,0x52,0xfd,0x2b,0x00, 0xa2,0xff,0xf6,0xf8,0xc3,0x00,0xd6,0xfe, // 5744
0x16,0x01,0xf1,0xfd,0x11,0x01,0xfa,0xfa, 0x2e,0xff,0xfc,0x00,0x4a,0x01,0x0b,0x01, // 5760
0xd1,0x00,0xf9,0xff,0x59,0x02,0x54,0x01, 0x5b,0xfe,0x52,0xfe,0x63,0x01,0x23,0xff, // 5776
0x7a,0xff,0xb6,0xfd,0xf1,0xff,0x50,0x00, 0xe7,0xfe,0x85,0x02,0xaf,0x00,0xf9,0xfe, // 5792
0x0f,0xff,0xbd,0xff,0x1a,0x02,0x63,0xff, 0xb7,0xfc,0x2d,0xfe,0x4e,0xfe,0x6e,0xfe, // 5808
0xa0,0x00,0xb7,0x01,0x6e,0x02,0xb4,0x01, 0x68,0xf6,0x4a,0xfc,0x83,0x01,0xc4,0x01, // 5824
0x31,0xfe,0x9c,0xff,0xc1,0xff,0x6f,0x04, 0x5e,0x03,0x33,0x01,0xe4,0x00,0x9c,0x02, // 5840
0xf7,0xff,0xf1,0x00,0xf0,0x01,0xb0,0x01, 0xfc,0xff,0x5f,0xff,0x42,0x01,0x02,0x00, // 5856
0x7b,0xfe,0x98,0x00,0x3e,0x00,0xad,0xfd, 0xe0,0xfe,0x3e,0xff,0x65,0xff,0xb1,0x00, // 5872
0xef,0x02,0x99,0x00,0xb1,0xf7,0xf5,0x03, 0x99,0x01,0x36,0x01,0xb6,0xff,0x5c,0xff, // 5888
0x08,0xfe,0xc6,0x00,0x26,0x03,0xa8,0xff, 0x49,0x00,0x81,0xfe,0xdb,0xfe,0x2f,0x00, // 5904
0xab,0xff,0xa7,0x01,0xbf,0x00,0x06,0x01, 0x07,0xff,0x25,0x07,0xa4,0xff,0x3f,0xfe, // 5920
0x00,0x04,0x36,0xff,0xba,0x04,0x33,0xff, 0x6a,0x00,0xf1,0x02,0x6b,0x00,0x0d,0x00, // 5936
0x45,0x03,0xc0,0x00,0xd4,0x06,0xa7,0xff, 0x1c,0x01,0x11,0x03,0x22,0x00,0xbc,0xfe, // 5952
0x6f,0x00,0x30,0xfe,0xdc,0xfe,0x82,0xff, 0x1b,0x03,0xbf,0xfe,0x9e,0x06,0x47,0x00, // 5968
0xe7,0xfe,0xec,0xfe,0xbe,0xff,0x03,0x01, 0x56,0xff,0x4e,0x00,0x3d,0xfd,0x25,0xff, // 5984
0xca,0xf9,0xd4,0xff,0x8c,0xfe,0x7e,0xff, 0xbc,0xfe,0xfa,0x04,0x47,0xfe,0x73,0x01, // 6000
0xd0,0x06,0x8f,0xfe,0x9e,0x00,0x10,0x00, 0xe6,0xfd,0x0e,0x00,0xe0,0xfd,0x3b,0x02, // 6016
0xe8,0x00,0x4a,0x06,0xe6,0xff,0x16,0xfe, 0xd4,0xfe,0x03,0x03,0x7e,0xfe,0x98,0x04, // 6032
0x44,0xfc,0xb0,0x01,0x87,0x02,0x62,0xff, 0xe9,0xff,0x60,0x03,0xad,0x00,0x36,0xff, // 6048
0x8b,0x03,0xc0,0xff,0x18,0xff,0xdd,0x00, 0xe6,0x00,0x04,0x01,0xf0,0xff,0x48,0x01, // 6064
0x88,0x00,0x9d,0xfc,0x5c,0x01,0x0a,0x00, 0xbb,0xff,0x81,0xfa,0x98,0xf9,0x07,0x01, // 6080
0x12,0x04,0x4c,0x06,0x35,0x02,0xcd,0x01, 0x5c,0x04,0x9c,0xff,0x07,0xff,0x9b,0x01, // 6096
0x77,0x03,0x68,0x00,0xdd,0xfe,0x80,0xfd, 0x39,0x02,0x4d,0xfe,0x36,0x00,0x20,0xfd, // 6112
0x02,0x00,0x29,0x00,0xee,0xff,0x28,0x01, 0x96,0x01,0x1c,0xff,0x5d,0xfe,0x05,0xfe, // 6128
0x50,0xff,0xdf,0x00,0xb1,0xff,0xe7,0x00, 0x12,0x03,0x4a,0x00,0x26,0x06,0xb0,0x00, // 6144
0xa8,0xff,0xf3,0x00,0xa3,0x01,0x87,0x00, 0x7e,0xfe,0x3f,0xfe,0x36,0x09,0x1d,0xff, // 6160
0xe1,0xf6,0x29,0x01,0x3a,0x07,0x34,0xff, 0x87,0x04,0xd0,0xfd,0xb6,0xfc,0x25,0xfe, // 6176
0x31,0x00,0x66,0x01,0x5b,0xff,0x5a,0x00, 0x38,0xfc,0xd5,0xfe,0xc6,0xf7,0xa2,0x00, // 6192
0x65,0x02,0xd5,0xfd,0x2a,0xff,0x0d,0x01, 0xb7,0xfd,0xfe,0x02,0xd6,0x00,0xd7,0xfd, // 6208
0x59,0xff,0xdd,0x03,0x70,0xfe,0xee,0xfe, 0xb5,0xfb,0x53,0xfd,0xa2,0x00,0x9b,0x00, // 6224
0xd0,0x00,0x7a,0xff,0x5b,0xff,0x20,0x00, 0xdd,0xfd,0x9f,0x03,0x65,0x00,0xba,0x01, // 6240
0x47,0xfe,0x4c,0x00,0x77,0xf7,0x6e,0x00, 0x72,0x01,0xd1,0x02,0x51,0x01,0x35,0xfd, // 6256
0xea,0x01,0xd0,0xfd,0x87,0x05,0x7a,0x00, 0x8a,0x06,0x6a,0xfe,0x24,0x00,0x75,0x00, // 6272
0x7b,0x01,0xbb,0xfd,0xcb,0x01,0xa0,0xfe, 0xf5,0xfa,0x79,0xfc,0x35,0xfe,0x52,0x00, // 6288
0xe3,0xfe,0x2f,0xfc,0x03,0xfc,0x18,0xff, 0x1d,0xff,0xdb,0xfe,0xea,0x00,0x71,0xff, // 6304
0x0c,0x01,0xc8,0xf5,0xda,0xff,0xd0,0x01, 0x51,0x01,0x07,0x01,0xad,0xfd,0xa2,0x02, // 6320
0xc0,0xfe,0xb5,0xfb,0xfa,0xfc,0xe9,0x00, 0xa1,0x00,0x5f,0xff,0x0a,0x01,0x41,0xfd, // 6336
0xab,0x00,0x79,0x01,0xec,0xfe,0x55,0xff, 0x57,0xfe,0x2b,0x08,0xa0,0xff,0x7a,0xfe, // 6352
0x9b,0x00,0x31,0x02,0x20,0x06,0x83,0x00, 0xee,0xfe,0x9d,0xf9,0x89,0xfe,0x44,0xfe, // 6368
0xf3,0x00,0x7f,0xfe,0x5d,0x01,0x15,0x00, 0xa2,0xfe,0x5f,0x00,0x85,0x00,0x27,0xfd, // 6384
0x9f,0xfe,0x3e,0x02,0x15,0x00,0xd6,0x04, 0xad,0xfd,0x00,0xff,0xd8,0xff,0x59,0x00, // 6400
0x33,0xff,0x09,0xff,0x7e,0x07,0xb9,0x04, 0x4c,0x03,0x1a,0x01,0x1a,0x00,0x1d,0xfe, // 6416
0xd2,0xfe,0x8c,0xfe,0x4a,0xfd,0xbf,0x00, 0xb0,0x01,0xb5,0xfe,0x54,0xfa,0x49,0x00, // 6432
0xfc,0x00,0x5b,0x08,0x9a,0xfe,0x02,0x00, 0xbb,0x03,0xcf,0x00,0xe0,0xfd,0xd3,0x01, // 6448
0x2e,0x00,0x38,0xfe,0xb0,0x04,0x29,0x04, 0xe9,0x02,0xc1,0x02,0xad,0x01,0x60,0x00, // 6464
0xd3,0x01,0x06,0x00,0xe5,0x04,0xfb,0xff, 0xad,0x04,0x35,0x00,0xea,0xfe,0xc4,0xff, // 6480
0xc3,0x00,0xf4,0xfd,0x40,0xfc,0x3e,0x01, 0x2e,0x01,0xb2,0xfe,0xf9,0xfd,0x85,0x03, // 6496
0x20,0xff,0xea,0xff,0x62,0xf9,0xad,0x01, 0x55,0x00,0x0c,0xfc,0xd8,0x00,0xc3,0x00, // 6512
0x50,0xff,0xb2,0xff,0x9c,0x04,0xb2,0x00, 0x61,0x00,0xa9,0xfe,0x50,0xfe,0x3d,0xfe, // 6528
0x23,0xfe,0xd6,0xff,0x76,0x04,0xdc,0xfe, 0xbf,0xf9,0xc8,0xfd,0x58,0x00,0xaa,0xff, // 6544
0x62,0x02,0xf9,0x00,0x5b,0x00,0x2b,0x00, 0x3b,0x01,0x6c,0xfb,0xb5,0x00,0xba,0x00, // 6560
0xaf,0xfe,0x10,0x00,0x3f,0xfe,0xc8,0x01, 0x69,0x00,0x2a,0xfc,0x1f,0x00,0x95,0x07, // 6576
0xdf,0xfe,0x2f,0xf9,0x43,0x01,0xd7,0xfb, 0x45,0x00,0x2b,0xff,0x4e,0x00,0x18,0xfe, // 6592
0x92,0x00,0x79,0x02,0x13,0x06,0xab,0xff, 0xdb,0x00,0x5e,0x00,0xb5,0x05,0x5d,0x02, // 6608
0x78,0x00,0x07,0xfa,0x42,0x00,0x62,0x03, 0x09,0xfc,0xec,0xfe,0xc0,0x01,0x7d,0x05, // 6624
0xf8,0x01,0xa4,0x00,0xa1,0x09,0x4d,0xfb, 0xa3,0xfe,0xe4,0x00,0xb6,0x00,0x0a,0xfc, // 6640
0x4a,0xfe,0xed,0xfe,0xd4,0xff,0xf9,0x00, 0xc1,0x03,0x07,0x01,0xfe,0x05,0x17,0x07, // 6656
0xd7,0xf0,0xed,0xfa,0xda,0x03,0x0b,0x01, 0xc6,0xfe,0xaf,0xfc,0x53,0xfe,0x4d,0x01, // 6672
0x90,0x06,0x2a,0xff,0xa3,0xfe,0x48,0x0a, 0x32,0x00,0x8b,0x01,0x8b,0xff,0xe6,0x01, // 6688
0x3a,0xfb,0xed,0xf7,0x5d,0x00,0x94,0x03, 0x89,0xfe,0x3d,0x00,0x0e,0x00,0xd3,0xfd, // 6704
0x6e,0xfd,0x87,0xff,0xcb,0xff,0x9b,0x01, 0x56,0x03,0x7a,0x00,0x53,0xfa,0x46,0x05, // 6720
0x2a,0x00,0xa9,0x00,0xfd,0xff,0x2c,0x00, 0xa1,0x03,0x15,0x02,0x0b,0x02,0x7b,0xfd, // 6736
0x8a,0x00,0x79,0xfd,0xbd,0xfe,0xa5,0x01, 0x9e,0xff,0x61,0x04,0x57,0x01,0x6f,0x00, // 6752
0x40,0xff,0xe5,0xff,0x79,0x01,0xb6,0xff, 0xea,0xfe,0xcf,0xfe,0x61,0x01,0x16,0x00, // 6768
0xa7,0x00,0xce,0x00,0x30,0x00,0xe6,0xff, 0xa1,0xff,0x49,0xff,0xb8,0x00,0x53,0x01, // 6784
0x9a,0x00,0xb3,0xfe,0x9d,0xff,0x7c,0x00, 0x14,0x00,0x92,0x00,0x82,0xff,0x1d,0x00, // 6800
0x85,0xff,0xbe,0xff,0x80,0x00,0x69,0xff, 0x11,0xfe,0x2c,0x00,0x3a,0x00,0xd6,0xff, // 6816
0x0d,0x00,0x5d,0x00,0xba,0xff,0x15,0xff, 0x7e,0x00,0xaf,0xfe,0x4c,0x00,0x29,0xff, // 6832
0x22,0x00,0x6e,0x00,0xa0,0x00,0x36,0x00, 0xb5,0xff,0x38,0x00,0x44,0x00,0x5f,0x00, // 6848
0xff,0x00,0x7b,0x01,0xb8,0x00,0x8a,0xff, 0xf4,0x00,0xa1,0xff,0x38,0x00,0xb4,0x00, // 6864
0x4e,0x00,0xc0,0x00,0x95,0x00,0x96,0x01, 0x0b,0x00,0x36,0x01,0xf4,0xff,0xdb,0xff, // 6880
0x1a,0xff,0xa1,0xff,0x48,0x00,0x5b,0xff, 0x0f,0xff,0x52,0x00,0x76,0x00,0xb1,0xff, // 6896
0xb8,0xff,0x1d,0x01,0x7b,0x00,0x5f,0xff, 0x8c,0x00,0x42,0xfe,0x7c,0x00,0xa6,0x00, // 6912
0x6f,0x00,0x5e,0x00,0x53,0x01,0xfd,0xff, 0x60,0x00,0x02,0xff,0xc8,0x01,0xaa,0x00, // 6928
0x5a,0x00,0xb0,0xff,0xa1,0x00,0x89,0xff, 0x5b,0x00,0x96,0x01,0x19,0x00,0x6f,0x00, // 6944
0xe0,0xfd,0xc8,0x00,0x47,0x00,0x88,0xff, 0x34,0xff,0x2c,0xff,0x1c,0x00,0xa2,0xff, // 6960
0x3e,0xff,0x69,0xff,0x48,0xff,0x4e,0xff, 0xf8,0xff,0x4c,0xff,0xa0,0xfe,0xf6,0x00, // 6976
0x5b,0xfe,0x9d,0x00,0x31,0xfe,0x85,0x00, 0xa9,0xff,0x7c,0xff,0xd4,0xfe,0x17,0xfe, // 6992
0xa0,0x00,0x8a,0x00,0xff,0xff,0x42,0xff, 0x0c,0x01,0xa3,0xff,0x24,0x00,0x71,0x00, // 7008
0x60,0x01,0xa1,0xfd,0xab,0xff,0xf7,0xff, 0x69,0x01,0x01,0x03,0xdf,0xff,0xdc,0xff, // 7024
0x98,0x00,0xa9,0xff,0x91,0x00,0x62,0xfe, 0x05,0x03,0x4c,0x00,0x6d,0xff,0x53,0x02, // 7040
0x22,0xff,0xa1,0x04,0x4d,0x00,0xd5,0xff, 0xb4,0xff,0xec,0x02,0xa1,0xff,0xb1,0xfd, // 7056
0x84,0xfd,0xf9,0xfc,0x1b,0x01,0xad,0x00, 0xa6,0x00,0x41,0x01,0x62,0xff,0xf2,0x01, // 7072
0xf7,0xff,0x64,0x03,0x11,0x01,0xe4,0x03, 0x55,0x00,0x5a,0x01,0xc5,0xfc,0x27,0xff, // 7088
0x3c,0x03,0x54,0x02,0xfe,0xff,0xd3,0xfd, 0x3a,0x00,0x36,0x00,0xd4,0x00,0xc2,0x00, // 7104
0x1f,0x04,0xdb,0x01,0xcc,0x01,0xbb,0xff, 0x10,0x01,0xef,0xff,0xec,0xff,0xd5,0xfc, // 7120
0xff,0xf9,0xe7,0xfe,0xf7,0xfd,0x63,0x00, 0x8d,0xfe,0x51,0xfd,0x80,0xfd,0x65,0x00, // 7136
0x16,0xfe,0xda,0x01,0x7e,0xff,0x08,0x02, 0x20,0x02,0x01,0xfa,0x91,0xff,0x9c,0x03, // 7152
0x6f,0xff,0x53,0x00,0x94,0xff,0xbb,0x02, 0x23,0xff,0x48,0xff,0xfd,0x00,0xad,0xff, // 7168
0x1e,0xfd,0xfb,0xff,0x0b,0x01,0x1b,0xfa, 0x38,0xff,0x00,0xff,0x3b,0x00,0xdf,0x00, // 7184
0x3e,0xfb,0xa0,0x05,0x71,0xff,0xab,0xff, 0xf9,0xfe,0xa7,0x00,0x6c,0x01,0x94,0xff, // 7200
0xab,0xfe,0x10,0xfa,0x06,0xfd,0x69,0xfd, 0x8a,0xff,0x9d,0x01,0xa6,0x00,0xfc,0x00, // 7216
0xf7,0xff,0x0f,0x00,0x59,0x01,0x1c,0xff, 0xad,0x01,0xd7,0xff,0xc8,0x02,0x32,0x03, // 7232
0xe1,0xfe,0x6a,0x00,0xbc,0x00,0x55,0x01, 0xc5,0x02,0xae,0xfe,0xbb,0x03,0x74,0x04, // 7248
0xf8,0x02,0xa3,0x00,0x12,0xff,0x92,0xfd, 0x74,0x02,0x1c,0x00,0x32,0x00,0x01,0xff, // 7264
0x51,0xff,0x03,0xfe,0x65,0xfb,0x62,0xff, 0xa1,0x00,0xc7,0x01,0x66,0x00,0xe2,0x00, // 7280
0xda,0xfe,0xf2,0xff,0x01,0x00,0x77,0x00, 0x6b,0xfd,0x35,0x00,0x44,0x01,0x46,0x03, // 7296
0x58,0x00,0x21,0x03,0x2f,0x01,0x16,0xff, 0x93,0x00,0x2b,0x00,0x8a,0xff,0x0f,0xfe, // 7312
0x33,0xfc,0xc1,0x00,0x5a,0x01,0xa3,0xff, 0xb7,0xff,0xd3,0xff,0xb6,0x00,0x60,0x00, // 7328
0xa3,0x03,0xd2,0xfd,0xeb,0x01,0x59,0x00, 0xd5,0x05,0xe4,0x03,0xa4,0x00,0x10,0xfe, // 7344
0x4f,0x00,0x70,0x03,0xbf,0x05,0xd7,0xfe, 0xb7,0xfc,0x4c,0xff,0x97,0xf4,0x58,0x00, // 7360
0x9e,0x00,0x07,0xfe,0x44,0x04,0xd4,0x06, 0xf2,0xff,0x75,0xfd,0x67,0xfe,0x73,0x02, // 7376
0xd5,0x01,0x5e,0xfe,0xa5,0xfd,0xef,0xfb, 0x49,0xfc,0xa7,0xfc,0x20,0xfe,0x30,0xfe, // 7392
0x59,0xfe,0xef,0x00,0x40,0x00,0x31,0x01, 0x79,0x07,0x6d,0xfe,0x2f,0x00,0xcf,0x01, // 7408
0x02,0x02,0x3f,0x05,0x09,0x02,0xb4,0xfe, 0xcb,0x01,0x08,0x01,0x10,0x02,0xca,0xfe, // 7424
0xf8,0xf4,0x3f,0x04,0x45,0xfc,0x15,0x00, 0xf2,0x00,0x4b,0x01,0xa3,0xff,0x05,0xfe, // 7440
0x97,0x01,0x49,0xff,0x5d,0xfe,0xc0,0xfb, 0x52,0x03,0xc1,0x00,0x3c,0x00,0x88,0x01, // 7456
0x59,0x0b,0x56,0x02,0x3d,0xfc,0x92,0xff, 0x2c,0x02,0x7b,0xfb,0x4f,0xff,0x2f,0x00, // 7472
0x0e,0xfd,0xeb,0xff,0xbb,0xfe,0x38,0x02, 0xa3,0x06,0x4e,0x04,0xbf,0x03,0x12,0x01, // 7488
0x1f,0xff,0x36,0xfc,0x1b,0xfb,0x56,0xfd, 0xaa,0x01,0xd6,0x01,0xea,0xfa,0xe6,0x02, // 7504
0xa2,0xfd,0x7f,0x00,0x18,0xff,0xa3,0xfc, 0xa4,0x00,0x43,0xff,0x35,0xfb,0x62,0xfd, // 7520
0x38,0xfe,0x18,0x00,0x0a,0xfd,0x31,0xfc, 0x5b,0xff,0x16,0x00,0x8c,0x03,0xf3,0x03, // 7536
0x68,0xff,0x75,0x02,0x7d,0xff,0xcc,0x02, 0xd5,0x00,0x9b,0x01,0x40,0x05,0x23,0x02, // 7552
0x7e,0xf8,0x22,0xfe,0x91,0x01,0xe5,0xfc, 0x56,0xff,0x5a,0x04,0x73,0xff,0x8f,0xfc, // 7568
0xb8,0x00,0x51,0xfd,0x24,0xfe,0x9d,0xff, 0x12,0xff,0x5b,0x00,0x78,0xfb,0xe4,0xff, // 7584
0x29,0x00,0xb3,0xf6,0xf1,0xfe,0xda,0x03, 0x29,0x03,0xcb,0x00,0x00,0xfb,0xc6,0x02, // 7600
0x19,0x00,0xd6,0xff,0x41,0x00,0x8a,0xff, 0x60,0x0a,0x40,0xff,0x0b,0xff,0xdd,0xff, // 7616
0xac,0x02,0x90,0x08,0x04,0xff,0x57,0x00, 0xb9,0x01,0x1d,0x03,0x9d,0x01,0x17,0x01, // 7632
0xc1,0xfe,0xe4,0xff,0x2d,0x00,0xc7,0x00, 0xe9,0xff,0x88,0x00,0xba,0xff,0x90,0x02, // 7648
0x81,0x00,0x99,0xf8,0xbe,0x01,0xd8,0xfe, 0xea,0xfc,0x4f,0xfe,0xb7,0xff,0xcb,0xff, // 7664
0xdc,0xfd,0xd5,0xfc,0xe9,0xfe,0xe4,0xfe, 0x08,0xff,0x94,0xfe,0xee,0x00,0xcc,0xfe, // 7680
0xf9,0x06,0xf6,0xf8,0x61,0xff,0x77,0x01, 0x4c,0x01,0xa5,0xfa,0x89,0xfc,0x86,0x00, // 7696
0x9a,0xfe,0x63,0xfd,0x0a,0x00,0x00,0xfa, 0xdb,0xfd,0xca,0xff,0xed,0xfc,0xb4,0x00, // 7712
0xfe,0xfe,0x3b,0x06,0x94,0x00,0x04,0xfa, 0x87,0x01,0x5c,0xff,0xd7,0xfe,0xc5,0xfe, // 7728
0xfa,0x05,0xae,0xfd,0x57,0x04,0x24,0x00, 0xa3,0x02,0xfc,0xfe,0x85,0x00,0x22,0xff, // 7744
0x68,0xff,0x49,0x00,0x7d,0x01,0x51,0xfe, 0x5b,0xfe,0xc3,0xff,0x3b,0x00,0xba,0x01, // 7760
0xa2,0x07,0xd6,0x05,0x6b,0x03,0xf3,0xff, 0x8a,0x07,0xfd,0xfe,0xee,0x02,0x36,0x05, // 7776
0x21,0xfe,0xbe,0xfe,0x88,0xff,0x8f,0xff, 0x46,0xfc,0x07,0x00,0xd2,0xff,0x60,0x01, // 7792
0x2b,0x03,0xec,0xfc,0x91,0x00,0x46,0x00, 0xee,0x00,0x06,0xff,0xc4,0x00,0xb6,0xfb, // 7808
0x6d,0x00,0x00,0xff,0x07,0x00,0x1d,0x01, 0xc2,0x00,0xf0,0x02,0xb1,0x00,0x26,0x00, // 7824
0x69,0xfe,0x23,0xfe,0x3e,0x02,0xe4,0x01, 0x90,0xfd,0xf7,0xff,0x56,0x01,0x46,0x01, // 7840
0x32,0xff,0x30,0x01,0x38,0x00,0x30,0xfd, 0xc5,0x0c,0xea,0xfb,0x56,0x01,0x6c,0xfe, // 7856
0xd6,0x00,0x06,0x00,0x60,0xf7,0xfe,0xff, 0x1b,0x00,0xf2,0xfe,0x62,0xff,0x7c,0x01, // 7872
0x33,0x01,0x53,0xff,0xbe,0xf8,0x84,0xfc, 0xc5,0xff,0x44,0xfe,0x59,0xfe,0x09,0x02, // 7888
0x6c,0xf5,0x05,0x05,0x03,0xfc,0x48,0x04, 0x9d,0x03,0x7d,0xf6,0xc3,0x02,0x94,0x00, // 7904
0x7c,0xfb,0xa8,0xff,0x6d,0xff,0xb7,0xf2, 0x72,0x01,0x32,0xfd,0xe9,0xff,0xc9,0xfc, // 7920
0x9e,0xff,0x90,0xfd,0x70,0x01,0x3a,0xff, 0xb8,0xfe,0x08,0x09,0xaa,0xff,0x05,0x02, // 7936
0x1d,0x00,0x69,0xfd,0xfa,0x01,0x8c,0x01, 0x08,0x00,0x66,0xf9,0x46,0xff,0xc0,0x02, // 7952
0xfe,0xfd,0xfb,0xfd,0x3a,0xff,0xe6,0x09, 0x36,0x01,0xef,0x00,0x3d,0x04,0xbd,0xff, // 7968
0xd9,0xf6,0x2f,0xff,0x18,0xfc,0x1e,0x02, 0x43,0x09,0x0e,0x02,0x71,0xff,0x39,0xff, // 7984
0xcf,0xff,0x4b,0xfb,0xcd,0xff,0xa8,0x08, 0xc7,0xff,0x53,0x02,0x86,0x02,0x4f,0x0a, // 8000
0xea,0xf3,0x15,0x00,0x47,0x01,0x60,0x00, 0xcb,0x0a,0x36,0xfd,0xb8,0xfd,0xc6,0x02, // 8016
0x8a,0xff,0x8f,0x0e,0xcf,0x02,0x2e,0x03, 0xc3,0x02,0xe1,0x00,0x88,0x03,0x07,0xfd, // 8032
0xe7,0x05,0x8d,0xff,0x25,0xfd,0x2b,0xff, 0x46,0x03,0x1e,0xfd,0x51,0xfe,0x15,0x03, // 8048
0xe8,0x04,0xd4,0xf8,0x39,0x00,0x0d,0x04, 0xe7,0x00,0x1d,0xff,0xa9,0x00,0x9f,0xf8, // 8064
0x35,0x04,0xa2,0xff,0xb0,0xfd,0x63,0xfd, 0xcf,0xfe,0x18,0x03,0x61,0xff,0x72,0x01, // 8080
0xf7,0xfe,0xf1,0x01,0x9a,0x01,0xfc,0x07, 0xd0,0xfe,0x8c,0xff,0x73,0x00,0x9b,0xff, // 8096
0xe4,0x00,0x31,0xfb,0xfa,0xff,0x3b,0x0f, 0x10,0x05,0x18,0x05,0x44,0xfa,0xcb,0x00, // 8112
0xa5,0xff,0x9d,0x02,0x54,0x05,0x2b,0x00, 0xb9,0xfe,0x49,0x00,0xc1,0xff,0x6b,0x05, // 8128
0xd5,0x00,0xc6,0xf4,0x42,0xfb,0xc9,0xfd, 0xa0,0x06,0xda,0x06,0x3c,0x07,0xd1,0x03, // 8144
0x36,0x00,0x55,0xff,0x39,0xfd,0xd7,0xff, 0x98,0xfd,0xe9,0x00,0xc6,0x04,0x0c,0xfc, // 8160
0x7c,0x00,0x91,0xfd,0xf4,0xf9,0xe5,0x05, 0xc2,0xf7,0x44,0xff,0xfd,0x02,0x33,0x01, // 8176
0x58,0xfe,0xa7,0xf7,0x8a,0xfe,0x54,0xf9, 0x08,0xea,0xe0,0xfe,0xc7,0x00,0x02,0xff, // 8192
0x93,0xff,0x2b,0xfe,0xe1,0xfb,0x56,0xf8, 0x7d,0x01,0xe1,0xff,0xa6,0xfd,0xca,0x00, // 8208
0x8d,0xfb,0xc6,0x0c,0x63,0xf9,0x2a,0xfe, 0x48,0xff,0xc5,0xff,0xee,0x00,0x16,0xfc, // 8224
0x25,0x05,0x51,0x02,0xa7,0xff,0xfc,0xfd, 0xc5,0xf7,0x6d,0xfc,0xe1,0x00,0xd1,0x00, // 8240
0x77,0xfa,0x79,0x05,0xee,0x0d,0x2c,0x00, 0x8c,0xfc,0xe7,0x01,0x82,0x01,0x75,0x00, // 8256
0x0f,0x02,0x7a,0x00,0x1c,0x00,0xb4,0x01, 0xc5,0x01,0x81,0xfe,0xa8,0xff,0xf4,0xfc, // 8272
0x69,0xff,0xb8,0xf9,0x35,0x00,0xf5,0x0d, 0x49,0xfe,0x9e,0xff,0x5b,0x01,0x0a,0xff, // 8288
0xec,0xfa,0x94,0x02,0x53,0xff,0x54,0x03, 0xbb,0x00,0x3d,0xfe,0xb6,0xfd,0xca,0xff, // 8304
0x6e,0x00,0xc5,0x01,0x9a,0xff,0xc2,0x01, 0x7f,0x01,0xe7,0xff,0x14,0x00,0x4f,0xff, // 8320
0xfe,0xfa,0x5f,0xfa,0x22,0xfe,0x5b,0x02, 0xb4,0xf9,0x70,0x02,0xde,0xfd,0x5a,0xfc, // 8336
0xfc,0xfe,0xe4,0xff,0x48,0xfe,0xaf,0xff, 0x0a,0x02,0x15,0xff,0x15,0xff,0x2b,0x01, // 8352
0x4c,0x01,0x22,0x13,0x98,0xff,0xa1,0xfd, 0x30,0xfd,0x9d,0x0d,0xff,0xff,0x39,0x09, // 8368
0xda,0xfd,0x9b,0xff,0x80,0x00,0x48,0xff, 0x22,0xff,0x8a,0xff,0x67,0x00,0xde,0xfe, // 8384
0xef,0xfd,0xbd,0x01,0xae,0xfc,0x16,0x00, 0x09,0xff,0x0a,0x01,0x47,0xfc,0x29,0xff, // 8400
0xd9,0xff,0x20,0x01,0x91,0x00,0x9a,0x01, 0xb6,0xf5,0xc2,0x02,0xde,0xff,0xab,0xfe, // 8416
0xcc,0xfe,0x5b,0x00,0xc4,0x04,0x50,0x04, 0x8b,0xff,0x93,0xfe,0xd4,0xff,0x60,0xff, // 8432
0x1b,0xff,0x15,0xff,0x17,0x03,0xd5,0xfd, 0xa9,0xff,0xdb,0xfc,0xbe,0xfd,0xd1,0x00, // 8448
0xbe,0xff,0x84,0xf9,0x24,0x01,0x51,0x00, 0x60,0x00,0xec,0x01,0xb0,0xfe,0x85,0xfd, // 8464
0x23,0xff,0xdd,0xfd,0x27,0x00,0x81,0x00, 0x3b,0xfe,0xb0,0xfe,0x09,0x01,0xba,0xff, // 8480
0x3f,0x00,0x3c,0x00,0x1a,0x01,0xe0,0xfe, 0xb4,0xfd,0xf6,0xfe,0x90,0xff,0x0d,0x01, // 8496
0xc3,0xfe,0x7d,0x02,0x49,0xff,0x10,0xfe, 0xb7,0xff,0x66,0x04,0x47,0xff,0xdb,0xff, // 8512
0xff,0xff,0x9a,0xfe,0xf2,0xff,0x66,0x00, 0xdc,0xfe,0xef,0x05,0x76,0xff,0x50,0x01, // 8528
0xdd,0xff,0xf8,0x01,0x33,0x06,0xee,0x00, 0xc3,0x01,0xa8,0xff,0x99,0x00,0x2d,0x01, // 8544
0x6d,0xfe,0x38,0x02,0x5f,0x00,0x9b,0xfb, 0xba,0xff,0xa9,0xfc,0xfd,0x00,0xb3,0xff, // 8560
0xd2,0x01,0x32,0x01,0x3f,0x01,0x18,0x00, 0x04,0xfc,0x0a,0x01,0x0c,0xfd,0x79,0x01, // 8576
0x1f,0x00,0x7d,0xfc,0x91,0xff,0xf0,0x00, 0xa3,0x02,0xc0,0xfe,0xd0,0xfe,0xef,0x01, // 8592
0x1d,0xff,0xd5,0x00,0xf1,0xfd,0x7c,0xfe, 0x85,0xfb,0x86,0x00,0x4f,0xff,0xc1,0xff, // 8608
0x8d,0xfc,0xf4,0x02,0xce,0xff,0x9f,0xfd, 0x84,0xff,0x37,0x00,0x23,0xff,0x09,0x05, // 8624
0x0b,0x00,0x1a,0xff,0x9a,0xfd,0xec,0xfe, 0x0e,0x04,0x1b,0x00,0xfd,0xfe,0x95,0x00, // 8640
0x2d,0xff,0xe4,0x00,0xec,0xf8,0xd7,0xfd, 0x5a,0xfc,0x21,0xff,0xd9,0xff,0x33,0x02, // 8656
0xd8,0xfe,0x46,0x02,0x2f,0xff,0xa0,0xfc, 0x23,0xfe,0xd3,0x01,0x00,0x02,0xff,0x00, // 8672
0xe2,0x00,0x60,0xfa,0xbb,0xfd,0x24,0x00, 0xfc,0xff,0x3a,0xff,0xf9,0xff,0x82,0xfc, // 8688
0x73,0xfc,0x94,0x08,0xdc,0xfd,0x34,0xfe, 0xa3,0xfa,0x1b,0xf8,0xb6,0xfe,0x39,0xff, // 8704
0xa1,0xff,0x16,0x00,0x59,0xff,0x63,0x01, 0x28,0x01,0x67,0x00,0x02,0xff,0x77,0x00, // 8720
0xef,0xff,0xa1,0xff,0x93,0xff,0x5b,0x00, 0x17,0x03,0x63,0x02,0xb1,0x00,0x66,0x00, // 8736
0x07,0x03,0xbb,0x01,0x35,0x00,0x82,0x01, 0x4d,0xff,0x4e,0x00,0xd9,0x07,0xa8,0x00, // 8752
0x6e,0xf7,0xa9,0xff,0x3c,0xff,0x97,0x00, 0xc9,0x00,0x53,0xfe,0x1d,0x01,0x33,0xff, // 8768
0xa0,0x00,0x5c,0xfe,0x9f,0x00,0xe4,0xfb, 0xe4,0xfe,0x14,0xfd,0x29,0x03,0x7a,0xff, // 8784
0xc0,0xfe,0x7f,0xfe,0x7c,0xff,0x62,0xff, 0x64,0x00,0x4e,0x00,0x0b,0x07,0xbc,0xfe, // 8800
0xe3,0x02,0x47,0xfd,0xdb,0xff,0xc4,0x05, 0xe0,0x00,0x81,0xfd,0x1d,0xfa,0xec,0xff, // 8816
0x88,0xfd,0x03,0x00,0x33,0x06,0x73,0xfe, 0x05,0xf8,0x14,0xfe,0x96,0xfc,0x72,0x02, // 8832
0x21,0x00,0x9a,0x00,0xe2,0xff,0x31,0xfe, 0x45,0x01,0x87,0xff,0x7b,0x00,0x60,0xff, // 8848
0x5e,0x02,0xbe,0xff,0x2f,0x05,0xb5,0xff, 0x3a,0x01,0x3d,0x00,0x91,0xfe,0x3b,0x00, // 8864
0x07,0x01,0xd1,0x00,0x64,0x00,0x89,0x00, 0x81,0xfe,0x5d,0x00,0x48,0x03,0x04,0x01, // 8880
0x5f,0x08,0x5a,0x02,0x52,0x01,0xa4,0xff, 0x90,0x02,0x0e,0x01,0x6c,0x00,0x14,0x01, // 8896
0x89,0xff,0x34,0xff,0x80,0x00,0x11,0xfe, 0xd9,0xfe,0x7b,0xff,0x29,0xfe,0x70,0x01, // 8912
0xb2,0x00,0x9b,0xff,0x54,0xfc,0xa5,0x00, 0xe1,0xff,0x12,0x00,0x77,0x00,0x41,0xfe, // 8928
0x2e,0x00,0x72,0xff,0xcc,0x08,0x6c,0x03, 0x3c,0xfe,0x93,0x01,0x66,0xff,0x7a,0x00, // 8944
0x58,0xfe,0xde,0xfc,0xee,0xff,0xac,0x08, 0x34,0xfe,0x41,0x02,0x70,0x01,0x80,0x00, // 8960
0x78,0x00,0xfc,0x00,0xcf,0x00,0xd4,0xff, 0xb1,0x03,0x6c,0xfc,0xf5,0x02,0x72,0xff, // 8976
0xa8,0x01,0x70,0x01,0x10,0xfe,0xc9,0xff, 0xbf,0xff,0x73,0xff,0x67,0x01,0x3b,0x0c, // 8992
0xd6,0x04,0xda,0x00,0x79,0x01,0xf5,0x01, 0x4e,0x00,0xbd,0xff,0xfb,0xfa,0xa3,0x01, // 9008
0x56,0x00,0x82,0xff,0x61,0x00,0x9d,0x00, 0xf5,0xff,0xf0,0xff,0x33,0xfe,0xa1,0xff, // 9024
0x91,0xfe,0xce,0xff,0x09,0x01,0x00,0x02, 0x42,0xff,0xa0,0xfe,0xee,0xff,0xaa,0xff, // 9040
0x0d,0x01,0xdd,0x00,0x21,0xfe,0xf9,0xfe, 0x5e,0x00,0xf8,0x00,0x89,0x00,0x73,0xfe, // 9056
0x1d,0xfd,0x50,0xff,0x83,0x01,0x3f,0xff, 0x3f,0x03,0x76,0x00,0x68,0xff,0xfc,0xfd, // 9072
0x60,0xff,0xeb,0xfc,0x4b,0x01,0xe0,0xfe, 0x81,0xfd,0x62,0xfe,0x1f,0x00,0x52,0x00, // 9088
0xc0,0xfd,0xa7,0xfe,0xa9,0xfd,0xb3,0x00, 0xab,0xfe,0xc0,0xfe,0x7e,0x00,0x76,0xfe, // 9104
0x6c,0x00,0x05,0xff,0x87,0xff,0x5f,0xff, 0xc3,0xfe,0xe9,0xfe,0x77,0x01,0xc6,0x01, // 9120
0x81,0x00,0xd8,0xff,0x64,0x00,0x65,0xfe, 0x5c,0xff,0x42,0x00,0x61,0x00,0xbd,0x01, // 9136
0x22,0x01,0x44,0xfe,0x55,0xff,0x81,0x01, 0x5e,0x00,0x02,0x03,0x0c,0x02,0x2c,0x00, // 9152
0x7c,0xfe,0x09,0xff,0x50,0x00,0xd3,0xff, 0xc5,0xfe,0xc2,0xfd,0x72,0xfe,0x43,0xff, // 9168
0x77,0x02,0xad,0x01,0xbb,0xff,0xae,0x00, 0x24,0xfd,0xb7,0xfd,0x77,0xff,0x3c,0x01, // 9184
0x2b,0xff,0x98,0xff,0x63,0xff,0xec,0x00, 0xee,0x03,0x48,0x01,0x26,0x00,0xd2,0x00, // 9200
0x7b,0xff,0x63,0x03,0x0c,0x00,0xfe,0x01, 0x9c,0xfe,0xcc,0xfd,0xb1,0xff,0xda,0x00, // 9216
0x02,0x00,0xf5,0x00,0xf7,0x00,0xe1,0xfb, 0xc6,0xfe,0x95,0xfe,0x6e,0xff,0xcd,0xff, // 9232
0x3d,0x00,0xac,0x00,0x3a,0xfc,0xaa,0x00, 0x97,0xfe,0xd1,0xff,0x5b,0x00,0x05,0xff, // 9248
0x74,0xff,0xfd,0x00,0xb0,0x00,0xbd,0xff, 0xce,0xfe,0x18,0xfe,0x11,0xfe,0x82,0x00, // 9264
0xcf,0xfe,0xe4,0xff,0x7f,0xff,0xb3,0xff, 0xa7,0x01,0x1a,0x01,0xe0,0xfe,0xa7,0x00, // 9280
0x94,0x01,0x11,0x00,0x3f,0xff,0x89,0x00, 0x03,0x01,0x48,0x00,0xa9,0xfe,0x8a,0x00, // 9296
0xa1,0x00,0x4c,0x01,0xfa,0xff,0x53,0xff, 0xfa,0xff,0x68,0xff,0xad,0x01,0x1f,0x01, // 9312
0xb2,0xff,0xc2,0xfe,0xfa,0x00,0x9a,0x00, 0x81,0x01,0xf2,0xff,0xe5,0x00,0x23,0xff, // 9328
0xb5,0xff,0x18,0x00,0xb8,0xff,0x4e,0xff, 0x81,0xfd,0xd0,0xff,0x1e,0xff,0x46,0x00, // 9344
0x34,0x00,0x04,0x00,0xd9,0xff,0xc3,0xff, 0x25,0x00,0xc6,0xff,0xe4,0x00,0x0b,0xff, // 9360
0x47,0x01,0x12,0xff,0xb6,0x00,0x24,0x01, 0xf7,0xff,0xf2,0xfe,0x48,0xfd,0xbb,0x02, // 9376
0x25,0xff,0xf0,0x00,0xb2,0xff,0x74,0xfb, 0xaf,0xfe,0xc0,0xff,0xbf,0xfe,0xc1,0x03, // 9392
0x71,0xfe,0xbc,0x02,0x07,0x04,0x6d,0xff, 0xd4,0x01,0xd2,0x03,0x41,0x02,0xb8,0x00, // 9408
0x32,0x03,0x4c,0xfc,0x63,0x00,0x49,0x00, 0xc6,0xff,0xbd,0xff,0x05,0x00,0xd3,0x02, // 9424
0xcd,0xff,0x9d,0x00,0x80,0x04,0xeb,0xfb, 0xef,0xff,0xee,0xfe,0xc7,0xfd,0x61,0xff, // 9440
0xc3,0x03,0x23,0x02,0x5c,0x00,0xe1,0x00, 0x1b,0x04,0x6f,0x01,0xcd,0x01,0x77,0x04, // 9456
0xe5,0xfd,0x01,0xfd,0x17,0x01,0x4b,0x00, 0xcd,0x00,0x11,0xfe,0xd3,0xfe,0x46,0x00, // 9472
0xf3,0x02,0xf5,0xff,0xa6,0xff,0x26,0x01, 0x22,0xff,0xda,0xff,0xf9,0x00,0xb8,0xff, // 9488
0xf9,0xfe,0x40,0xfe,0x10,0x01,0xfd,0x00, 0x72,0x00,0x88,0x00,0xb1,0x02,0x93,0x00, // 9504
0x37,0xff,0x83,0xff,0x87,0x00,0x36,0xfe, 0xd1,0x00,0x99,0x00,0xa4,0x01,0x88,0x02, // 9520
0x70,0xff,0x64,0x00,0xb7,0x01,0x98,0xfe, 0x22,0x03,0x7a,0xfe,0x3d,0x00,0x8d,0xfd, // 9536
0x2e,0x01,0x3c,0x00,0x34,0xff,0x44,0x00, 0xde,0xff,0x54,0x00,0xc3,0xff,0xa8,0x00, // 9552
0x40,0xff,0xed,0xff,0x32,0xff,0x70,0x00, 0x04,0x00,0x57,0x00,0xe3,0xff,0xad,0x00, // 9568
0x32,0x01,0x26,0x03,0x05,0x02,0x2c,0x00, 0x6e,0x04,0x3e,0x01,0xa5,0x02,0x14,0xfd, // 9584
0xa4,0x00,0x82,0x02,0x0b,0x05,0x62,0x00, 0xe5,0xfc,0x09,0x00,0xdf,0xf8,0x8b,0xff, // 9600
0x9f,0x00,0x22,0xfe,0x6b,0xff,0x2b,0x06, 0xb0,0x00,0xae,0xff,0xbc,0xff,0xde,0xfd, // 9616
0x10,0x00,0x05,0xfd,0x08,0x01,0x76,0xfc, 0x23,0xff,0x31,0xff,0xcc,0xfe,0x13,0xfd, // 9632
0x93,0xff,0x28,0x00,0x2d,0x02,0x11,0xff, 0xfe,0xff,0x80,0xff,0x6d,0x00,0x1f,0x03, // 9648
0x25,0x00,0xc7,0xff,0x44,0xfb,0x46,0xfe, 0xa7,0xff,0x1f,0x01,0x45,0x02,0x77,0xff, // 9664
0x4c,0xfa,0x02,0xfe,0x41,0xf8,0x1c,0x04, 0x0e,0x00,0xa7,0xff,0xd3,0xfe,0x50,0xff, // 9680
0x2e,0x01,0x6e,0xff,0xb1,0xfa,0x7d,0xfa, 0x85,0x01,0xa6,0x03,0xb8,0x01,0xb2,0x00, // 9696
0xec,0x07,0x64,0x01,0x94,0xf8,0x0b,0xfe, 0xa1,0xff,0x7b,0x01,0xbc,0xfd,0x2b,0x02, // 9712
0x3a,0xfe,0x7d,0xff,0x4d,0x00,0xc6,0x06, 0x6c,0x06,0x65,0x00,0xa4,0xff,0xd4,0xff, // 9728
0x2d,0x02,0x1e,0xff,0xba,0xfc,0x03,0xfe, 0x48,0x01,0x5e,0x02,0xa5,0xf9,0x98,0xfd, // 9744
0xf5,0xff,0x97,0x02,0x87,0xff,0x6d,0x00, 0xc5,0xff,0xa2,0xff,0xf8,0xfd,0xf2,0xf9, // 9760
0xc8,0xff,0xab,0xff,0x20,0x03,0x29,0xff, 0x50,0x00,0x49,0x00,0x2b,0x03,0x73,0x01, // 9776
0xa6,0xff,0x86,0xff,0x0e,0x00,0x21,0x02, 0x89,0xff,0x76,0xff,0x87,0xff,0x6b,0x03, // 9792
0x53,0xf9,0xd3,0x01,0x0d,0x02,0xa3,0xfc, 0xd1,0xff,0x2e,0x04,0xf6,0xff,0xea,0x00, // 9808
0x4b,0x00,0x4b,0xfd,0x4b,0x00,0x41,0x00, 0xfc,0x01,0xfc,0x03,0x8c,0xfe,0x65,0xff, // 9824
0x49,0x00,0x04,0xf9,0x84,0xff,0xad,0x04, 0xda,0x01,0x92,0x00,0xf8,0xff,0x76,0x00, // 9840
0x35,0x00,0x64,0x01,0xc9,0x01,0x64,0xff, 0x40,0x01,0x9a,0x06,0x01,0xff,0xf7,0xfe, // 9856
0x77,0x01,0xcf,0xff,0x44,0x02,0x0f,0xff, 0xd8,0x00,0x30,0x01,0xd7,0xff,0xb5,0xff, // 9872
0x7a,0xff,0xd3,0xff,0xfd,0x00,0xbe,0x01, 0xc2,0x00,0x78,0xff,0x95,0x00,0xf9,0x00, // 9888
0xc0,0x01,0x94,0xff,0xcd,0xff,0x24,0xff, 0xe8,0x00,0xaf,0xff,0xd7,0xff,0x0a,0x00, // 9904
0x17,0x01,0x50,0xfe,0x00,0x00,0x84,0xfe, 0xbc,0xff,0x64,0x00,0x37,0x00,0x5e,0xfe, // 9920
0x89,0x01,0x9e,0xfc,0x15,0x00,0xfd,0xff, 0x05,0x00,0x5c,0xfe,0xf6,0xfa,0xf0,0xff, // 9936
0x14,0xff,0x5b,0x01,0x01,0x00,0x2a,0x00, 0x58,0x00,0x0c,0xfe,0x1d,0xfe,0x83,0x04, // 9952
0x12,0xff,0xc3,0x00,0xe3,0xff,0x1c,0x00, 0xf9,0xff,0xc5,0x00,0x32,0xff,0x35,0xff, // 9968
0x0e,0x01,0x1b,0x01,0x75,0x00,0x60,0xff, 0x61,0x00,0xfc,0x00,0xbf,0xff,0x92,0x00, // 9984
0xb6,0xff,0xa6,0x00,0x3c,0xff,0x30,0x00, 0xaa,0x00,0x23,0xff,0xf4,0xfe,0x36,0x00, // 10000
0x67,0x03,0x65,0xfd,0xf3,0xfe,0xe2,0xff, 0x55,0x03,0x89,0x00,0x26,0x00,0x3c,0x00, // 10016
0x26,0x00,0x32,0xff,0x8e,0xff,0x58,0xfc, 0xbf,0x00,0x03,0x00,0xf5,0xff,0x5c,0x00, // 10032
0x40,0xff,0x44,0xff,0x03,0x00,0x60,0x00, 0x93,0x00,0xd9,0xff,0x99,0x00,0x81,0x00, // 10048
0xfe,0x01,0xf3,0xff,0x1e,0x00,0xd1,0xff, 0xaf,0x00,0xb9,0xff,0xc5,0x01,0x0e,0x03, // 10064
0x2c,0xfe,0xc9,0xfe,0x91,0xfd,0xef,0xff, 0xa4,0xff,0xe4,0x01,0xb2,0x01,0xc5,0xff, // 10080
0x29,0xff,0x7f,0x01,0x5d,0x00,0x84,0x00, 0xc0,0x01,0x37,0xfc,0x65,0x00,0x83,0xff, // 10096
0x93,0x03,0x7b,0x03,0x49,0x00,0xbf,0xfe, 0xa0,0xfe,0x8c,0x00,0xad,0xfe,0x76,0x00, // 10112
0x02,0xfe,0x65,0xfb,0xd5,0xfe,0x1e,0xff, 0x69,0xfb,0x2e,0xfe,0x76,0xfe,0xa5,0x00, // 10128
0x26,0xff,0x5b,0xfe,0xf4,0xff,0xa7,0x00, 0x97,0xff,0x97,0xff,0xe2,0xfd,0xd6,0xff, // 10144
0xcb,0xfe,0x01,0xff,0xfe,0x00,0xa5,0xff, 0xd2,0x00,0xf1,0xff,0x52,0x00,0x45,0x00, // 10160
0xce,0xfd,0x45,0x00,0xd0,0x00,0xc6,0xff, 0x5f,0xff,0xec,0xfe,0x04,0x00,0x02,0x01, // 10176
0xc1,0xff,0xdb,0x00,0x4c,0x00,0x6f,0x00, 0x1b,0xff,0x42,0x00,0x1a,0x00,0xb8,0xff, // 10192
0x4f,0x00,0xab,0x00,0x94,0xfe,0xfe,0x00, 0xf5,0xfe,0x9b,0x00,0x98,0xff,0x71,0xff, // 10208
0xdf,0xff,0x87,0x03,0x62,0x01,0x09,0x01, 0xfc,0xff,0x1c,0xfe,0xa4,0xff,0x72,0x00, // 10224
0x8f,0xff,0x29,0x02,0x4d,0x00,0x0e,0xfe, 0xa1,0x04,0x6f,0xfe,0xfb,0xff,0x31,0x00, // 10240
0xc6,0x00,0xbf,0xff,0x2a,0x01,0x44,0x00, 0x99,0xff,0xa2,0x00,0xd8,0xff,0x23,0x00, // 10256
0xbe,0xff,0x8d,0xff,0xbe,0x00,0x55,0x00, 0xeb,0xff,0x00,0xff,0xf9,0x00,0x61,0x00, // 10272
0xe2,0xff,0xaf,0x04,0x87,0xff,0xa1,0xff, 0xde,0xfd,0x3d,0x00,0x9e,0x01,0x37,0x00, // 10288
0x2a,0xfd,0x39,0x00,0x10,0x00,0xd2,0xfe, 0x97,0xfe,0xc9,0xff,0x53,0x00,0xd6,0xfe, // 10304
0xe7,0xff,0x47,0xff,0xc5,0xfe,0xd2,0xfe, 0xc8,0x00,0xa5,0x00,0xec,0xfe,0xfd,0xff, // 10320
0xbd,0xfe,0xa2,0xff,0x3d,0xfe,0x5b,0xff, 0x92,0xff,0x9d,0xff,0x04,0x00,0x53,0xff, // 10336
0xe2,0xfc,0xf0,0x00,0xb8,0xfc,0x7f,0x00, 0xbe,0xff,0x25,0x00,0x9e,0x01,0xa5,0xfe, // 10352
0x37,0x00,0xbe,0xfe,0x34,0xfe,0x35,0x00, 0x9e,0x02,0x10,0xff,0x48,0xfa,0x24,0xff, // 10368
0x0f,0xfd,0xe6,0xff,0x4a,0xff,0xb9,0x00, 0xd5,0xfe,0x80,0xfe,0xf8,0xff,0x16,0x00, // 10384
0xd3,0x04,0x93,0xff,0x4a,0x02,0x5f,0x00, 0x72,0x00,0x5a,0x00,0xb1,0xfb,0xdd,0x00, // 10400
0x80,0x00,0x77,0x01,0x61,0x03,0x52,0x00, 0xd7,0x01,0x89,0x08,0xc7,0xfe,0xfd,0x00, // 10416
0x61,0x03,0x1f,0x00,0x49,0x06,0x52,0x01, 0x4b,0x00,0x74,0x02,0xda,0x00,0x19,0xff, // 10432
0xcf,0xff,0x61,0xff,0x75,0x00,0x23,0x01, 0x59,0x00,0x53,0x00,0xcc,0x01,0x4d,0x00, // 10448
0xdf,0x01,0x1c,0x00,0xaa,0x00,0x45,0x01, 0xf7,0x01,0x70,0xff,0xf2,0xfe,0x46,0x00, // 10464
0x22,0xfd,0xb7,0xfb,0xac,0xff,0x35,0x01, 0xdd,0xff,0xee,0x00,0x36,0x00,0xbe,0xff, // 10480
0xae,0x04,0x2f,0xf9,0xfc,0xfe,0x63,0xff, 0xb8,0xfe,0xd3,0xff,0x19,0xfb,0x73,0x00, // 10496
0x37,0xff,0x62,0x05,0x38,0xff,0xa2,0xfd, 0xee,0x00,0x8f,0xfe,0xef,0x00,0xda,0x0f, // 10512
0x1a,0x00,0xa9,0x03,0xc2,0x00,0x8f,0xff, 0xc5,0xfe,0xb6,0xff,0xde,0xfe,0xb8,0xff, // 10528
0x57,0x07,0x1b,0xff,0x5d,0x01,0x4e,0xff, 0x62,0x01,0x8e,0x03,0x69,0x00,0xe2,0xff, // 10544
0x1e,0x00,0xd9,0xff,0x49,0x02,0x1d,0xff, 0x5d,0x00,0x9d,0xff,0x3a,0xfe,0xbc,0x00, // 10560
0x59,0x06,0x95,0x01,0x35,0x01,0x85,0xff, 0x40,0x07,0x4c,0xfd,0xf7,0xff,0xab,0x01, // 10576
0x5f,0x04,0xcc,0x01,0xa1,0xff,0xf7,0xf7, 0x26,0x02,0xd6,0xff,0x22,0x01,0x62,0xff, // 10592
0x31,0xfc,0xf5,0xfd,0x66,0xff,0xf0,0xff, 0x5d,0x00,0x1d,0xff,0x41,0x01,0xa7,0xff, // 10608
0x96,0x00,0xe1,0x00,0x16,0x00,0xaf,0xfd, 0xe4,0x00,0xf5,0xfe,0x98,0x00,0x13,0x06, // 10624
0xb7,0x00,0xa4,0xff,0x9c,0xfd,0x42,0x00, 0x64,0xff,0x43,0x01,0x73,0x0b,0x00,0xff, // 10640
0x3a,0xff,0x5c,0xff,0x51,0x00,0xe5,0x01, 0x18,0x04,0x49,0xf6,0x44,0xfe,0x6e,0xff, // 10656
0x05,0x05,0x97,0x09,0x26,0x00,0x20,0xff, 0x1c,0x00,0xb6,0xff,0x1f,0xff,0x39,0xff, // 10672
0x5c,0xfb,0x74,0xff,0x35,0x04,0x0b,0x00, 0x25,0x00,0x49,0x01,0xe0,0x01,0xbd,0xff, // 10688
0xf0,0xff,0x8d,0xff,0x06,0x05,0xd3,0xfd, 0xa7,0x00,0x83,0x00,0x9c,0x04,0x5b,0xfe, // 10704
0x33,0x00,0xfc,0x04,0x0c,0xff,0x0a,0x00, 0x11,0x00,0x40,0x01,0xdd,0xfa,0x4a,0x00, // 10720
0x0a,0x00,0x17,0x00,0xb0,0x02,0x2a,0x03, 0x3a,0x01,0x00,0x00,0x6b,0xfc,0x78,0x00, // 10736
0x75,0x04,0x7a,0x01,0x8e,0xfe,0xfc,0xfb, 0x35,0xff,0xad,0x00,0x62,0xff,0x44,0xfe, // 10752
0x89,0xfe,0xdc,0x02,0x85,0xff,0x75,0xff, 0x73,0x01,0xa3,0xfe,0x67,0x00,0x9e,0xff, // 10768
0x50,0x00,0xe5,0x03,0x06,0x03,0xcd,0xf7, 0x95,0xff,0x70,0x03,0xf9,0xff,0xff,0x01, // 10784
0x0e,0x00,0xdf,0x01,0x32,0xff,0x22,0xfe, 0x67,0x00,0x0c,0xfe,0xf2,0xfa,0x1d,0xff, // 10800
0x6b,0xff,0x2c,0xff,0x95,0xfb,0xf7,0xfb, 0xc4,0xfe,0xb0,0x06,0x1d,0x00,0xd2,0xfe, // 10816
0x01,0x06,0x43,0x00,0x6e,0xfa,0x8d,0xf8, 0x2c,0xff,0x52,0xfe,0x4d,0xf8,0x34,0x07, // 10832
0x0f,0xff,0x95,0xff,0x62,0xff,0xb7,0x04, 0x53,0x00,0x64,0x01,0xfb,0x00,0xea,0xff, // 10848
0xb0,0xfc,0xfa,0xff,0x6c,0xfb,0xac,0xf7, 0x75,0x0a,0x92,0x06,0x87,0xfb,0x49,0x01, // 10864
0x34,0x01,0x7e,0x02,0xdc,0x01,0xe2,0xfe, 0x97,0xfc,0xa6,0xfe,0xe2,0x00,0x45,0xf4, // 10880
0x55,0x00,0x46,0x00,0x45,0xff,0xfb,0xfe, 0xce,0x02,0x35,0x06,0x04,0xff,0xe7,0xfd, // 10896
0x33,0x00,0xab,0x01,0x5c,0xff,0x8d,0xff, 0xe7,0xff,0xe0,0x00,0xd6,0x01,0x1d,0x00, // 10912
0xff,0xfc,0x1b,0xfe,0x0a,0x02,0x6a,0xf9, 0x04,0x00,0x90,0x01,0x86,0x00,0x16,0xff, // 10928
0xb8,0xfd,0x84,0x03,0x1b,0x00,0x48,0x01, 0x22,0xfd,0xa3,0x00,0x51,0xff,0x84,0xff, // 10944
0x1f,0x01,0x44,0xfc,0x26,0xff,0x56,0x00, 0x78,0xfd,0x15,0x00,0x40,0x03,0x57,0x00, // 10960
0x86,0xff,0x3d,0x00,0x8e,0x00,0x2e,0x00, 0x09,0x01,0xb8,0xfb,0xbc,0x01,0xba,0xff, // 10976
0x89,0xfe,0xa1,0x01,0x3c,0x00,0x49,0xfe, 0xc0,0xff,0xdf,0xfe,0x09,0xfe,0xfd,0x00, // 10992
0x90,0x02,0xb0,0xff,0x4d,0xff,0xe1,0xff, 0xf2,0xff,0x29,0x01,0x16,0x01,0x0e,0x00, // 11008
0x47,0xff,0x80,0xff,0x05,0xff,0x97,0x01, 0xca,0xff,0xe4,0x03,0x88,0xfa,0xe6,0xfd, // 11024
0x42,0xff,0xeb,0x06,0xe5,0xfe,0xee,0xfe, 0xca,0xff,0x59,0x00,0x07,0xfd,0x2d,0x00, // 11040
0x22,0xff,0x4c,0x02,0x0a,0x00,0x0e,0xff, 0xae,0xfe,0x42,0x03,0x71,0x08,0xac,0xff, // 11056
0x29,0x00,0xec,0xff,0x2b,0xff,0x70,0x00, 0x7a,0x01,0xdb,0x04,0x9a,0x01,0x9d,0xfa, // 11072
0xb4,0xff,0xfe,0xfb,0xfa,0xff,0xdf,0xff, 0x47,0x02,0xdf,0x00,0x07,0x00,0x7b,0xff, // 11088
0x64,0xfb,0x9c,0x01,0x71,0xfe,0xf7,0xff, 0xdd,0x00,0xce,0xfb,0x3b,0x00,0xdc,0xff, // 11104
0x7a,0x00,0x24,0xfd,0xe8,0xff,0xa5,0x02, 0x71,0xfe,0x14,0x00,0x41,0xfb,0x74,0xfe, // 11120
0x7e,0xfb,0x89,0x00,0x59,0xff,0x1f,0x00, 0x49,0xfc,0x74,0x02,0xc3,0xff,0x1d,0xfe, // 11136
0xa3,0x00,0xd8,0xff,0xa0,0xfe,0xb0,0x03, 0xb6,0x01,0x59,0xfe,0xed,0xff,0xf2,0xfb, // 11152
0x45,0x01,0x5a,0xff,0xf3,0xff,0xda,0xff, 0x8d,0x00,0x19,0x00,0xc5,0xfb,0x10,0xff, // 11168
0xa6,0xfe,0x58,0xff,0x47,0xfe,0xc3,0xff, 0x07,0x01,0x90,0x01,0xa6,0x00,0xc3,0xfa, // 11184
0x40,0xfc,0x2f,0x00,0x0f,0x02,0x74,0xfe, 0x8f,0x00,0x49,0xf3,0xb6,0xfe,0x49,0x00, // 11200
0x64,0xff,0x40,0xff,0x2e,0x00,0x02,0xfc, 0xb4,0xfe,0xa3,0x0d,0xd7,0xfd,0x7e,0xff, // 11216
0x5d,0xf7,0xbc,0xf7,0x0b,0xff,0xbb,0xff, 0x23,0x00,0x3a,0xff,0x94,0xff,0xf0,0xfd, // 11232
0x61,0xfe,0x5a,0xfc,0xc7,0x00,0x52,0xff, 0x4e,0xfc,0xa8,0xfe,0x16,0xff,0xdd,0x00, // 11248
0x45,0xfe,0xe2,0xff,0x17,0x00,0xaf,0x00, 0xea,0x01,0x4c,0xfe,0x68,0xff,0xbb,0xfe, // 11264
0xd1,0xff,0x73,0xff,0x18,0x01,0x49,0xff, 0x3f,0xfd,0xa9,0xff,0xe0,0xfe,0xfb,0xfe, // 11280
0x59,0xfd,0xfe,0xfd,0x9d,0xfd,0x60,0x02, 0x07,0xff,0xc8,0x00,0x6e,0x00,0x9e,0xff, // 11296
0x53,0x00,0x27,0xfd,0xef,0x02,0x97,0xff, 0x13,0x01,0x4a,0x00,0x84,0xff,0x4b,0x00, // 11312
0xe8,0x00,0x73,0xfe,0x88,0x02,0x20,0x00, 0xa0,0xff,0x54,0x02,0x76,0x01,0x06,0x01, // 11328
0xd1,0xff,0x11,0x03,0x76,0xff,0xb5,0x00, 0xb3,0x00,0x45,0xff,0xbc,0x01,0xcf,0x00, // 11344
0x47,0xfe,0xd0,0xfd,0x99,0xfe,0xce,0x00, 0xb7,0x03,0x1e,0xff,0x74,0x00,0x6c,0x01, // 11360
0xdb,0xff,0x09,0xfe,0xca,0xff,0xfe,0xff, 0x0b,0x01,0x76,0xff,0x34,0xff,0x51,0x00, // 11376
0x73,0x00,0x36,0x01,0xe8,0x00,0xb0,0x00, 0xe9,0x00,0xb9,0x00,0xd0,0x00,0x53,0x00, // 11392
0x61,0x01,0x74,0x03,0x4c,0xff,0xcb,0x01, 0x2a,0x00,0x06,0xff,0x21,0xff,0x55,0x01, // 11408
0x71,0xfd,0x37,0xff,0x9d,0xfd,0xe6,0xff, 0xe9,0xfe,0x39,0x01,0x4c,0xff,0x3a,0x00, // 11424
0xce,0x00,0x96,0x00,0x06,0xfe,0x50,0x02, 0xee,0xff,0x6e,0x00,0x5c,0xfe,0xba,0xfe, // 11440
0x52,0xfe,0xed,0x00,0xf9,0xff,0x44,0x01, 0x89,0xfe,0x42,0xff,0x91,0x02,0xfa,0x00, // 11456
0xc1,0xf6,0xfb,0xff,0xf5,0xfa,0xe6,0xff, 0xba,0xff,0xce,0x00,0xcf,0xfe,0x99,0x03, // 11472
0x3f,0xff,0x15,0x02,0x9f,0xfd,0x54,0xfe, 0x29,0x03,0x49,0x02,0xc0,0xf9,0x5b,0x02, // 11488
0x5d,0xfe,0x4d,0x00,0xb8,0xff,0x7f,0x00, 0x98,0x00,0x9d,0x00,0x22,0x01,0x0c,0x01, // 11504
0x95,0x03,0xa1,0xfd,0xb7,0x00,0xbe,0x01, 0x1d,0xff,0x6a,0xff,0x83,0x00,0xf2,0xff, // 11520
0xe4,0xff,0xfa,0xfe,0x1a,0x00,0x88,0xff, 0x93,0x07,0x14,0xfa,0x59,0x00,0x9b,0x00, // 11536
0x6e,0x03,0x48,0x0a,0x38,0xfe,0x75,0xff, 0xd2,0xff,0xcf,0x01,0x0f,0x04,0xf0,0xfe, // 11552
0x2f,0xfd,0x77,0x00,0x7e,0xff,0xff,0xff, 0x05,0x00,0x4a,0xfe,0x67,0x03,0xc5,0x00, // 11568
0x9b,0xff,0x82,0xfa,0x9b,0xff,0xfb,0x00, 0x98,0x00,0x03,0xff,0x11,0x00,0x12,0xfd, // 11584
0x1e,0xfd,0xa2,0xfb,0x4f,0xff,0xa1,0xfe, 0xdc,0xff,0xe7,0x00,0xef,0xfe,0x90,0x00, // 11600
0x41,0x0c,0x0b,0xff,0x19,0x00,0x46,0x02, 0xbe,0x03,0x54,0x02,0x64,0x04,0x01,0x00, // 11616
0x79,0x00,0x06,0xfe,0x5c,0x02,0x01,0xfe, 0xee,0xf4,0xe1,0x05,0xc4,0xfd,0xd8,0xfb, // 11632
0xca,0xff,0x5f,0x02,0x80,0xff,0xae,0xfb, 0x74,0x01,0xd0,0xff,0x53,0x00,0xa9,0x00, // 11648
0x15,0x04,0x3a,0xff,0xd9,0x00,0x69,0x00, 0xda,0x01,0x4b,0xff,0x72,0xfe,0xb0,0xff, // 11664
0x25,0x01,0xec,0xfb,0xd4,0xfe,0x0c,0x00, 0x49,0xfc,0x15,0x00,0x89,0x01,0xb1,0x00, // 11680
0xf1,0x04,0xca,0x09,0x62,0x08,0xff,0x00, 0xbb,0xff,0x6d,0xfe,0xda,0xfe,0x7e,0x00, // 11696
0xb3,0xff,0x77,0x00,0xfe,0xfe,0xb3,0x04, 0xb7,0xfa,0x8f,0x00,0xc0,0xfd,0x6d,0xfe, // 11712
0x86,0x01,0x2b,0xff,0x37,0xfd,0x57,0x00, 0xad,0xfd,0x55,0xff,0x02,0xfc,0x40,0xf7, // 11728
0x9e,0xff,0x98,0x00,0xe9,0x00,0xe0,0x05, 0xe1,0xfe,0x20,0x03,0xee,0xff,0x45,0x00, // 11744
0x12,0x02,0xea,0x00,0x38,0x08,0x59,0x00, 0x87,0xff,0x19,0xfb,0x80,0x01,0x82,0xff, // 11760
0xdf,0x00,0xb9,0x00,0xf4,0xff,0x1e,0xf9, 0x49,0x03,0xc8,0xff,0x6b,0x01,0xf4,0xff, // 11776
0xf5,0xfc,0x91,0xfb,0x09,0xf6,0x81,0xfe, 0x2d,0x00,0xa2,0xfe,0x57,0x00,0x2c,0x02, // 11792
0x87,0x00,0x47,0x00,0xeb,0xfa,0xd3,0xff, 0x60,0x00,0xeb,0x00,0xea,0x00,0x23,0xff, // 11808
0x9a,0x07,0xf9,0xfd,0x8f,0xff,0x80,0x00, 0x06,0x06,0x9b,0x0a,0x81,0xfe,0xc3,0x00, // 11824
0xc0,0x02,0x48,0x01,0xc0,0x01,0xf4,0xff, 0x6f,0xff,0x97,0x00,0x0c,0xff,0xde,0x00, // 11840
0x1a,0x00,0x73,0xff,0xf9,0x02,0x7e,0x00, 0x02,0x01,0xe0,0xf7,0x51,0xfe,0x35,0x01, // 11856
0xa3,0xfe,0x97,0xff,0x28,0xff,0x9b,0xfe, 0x17,0xfd,0x90,0xfc,0x77,0xff,0x14,0xff, // 11872
0x6b,0xff,0x22,0x01,0xc2,0xff,0x78,0x01, 0xaf,0x09,0xb1,0xfc,0x36,0x00,0x7c,0x00, // 11888
0x61,0x02,0x4f,0x00,0xe7,0xff,0xa1,0x00, 0x93,0x00,0x35,0xff,0xde,0x00,0x67,0xfb, // 11904
0x72,0xfa,0xfa,0x02,0x46,0xfe,0x12,0xfe, 0x6d,0x00,0x5b,0x05,0x59,0x01,0x15,0xf9, // 11920
0xc5,0x00,0x0b,0x00,0xe2,0x00,0xe2,0xff, 0x64,0x07,0x6f,0xfe,0xa0,0x01,0xe6,0xff, // 11936
0xc4,0x01,0xe8,0x01,0x49,0x00,0x89,0x00, 0xae,0x01,0x9a,0xff,0x8e,0x01,0xe2,0xfe, // 11952
0xab,0xfd,0xba,0x00,0x13,0x00,0x4e,0x01, 0x2b,0x09,0x0a,0x09,0x81,0x04,0xcf,0x00, // 11968
0x74,0x04,0x53,0xfe,0x4f,0xff,0xd7,0x02, 0x1c,0xff,0xef,0xff,0x01,0x00,0x26,0x01, // 11984
0x16,0xfd,0x65,0xff,0x5c,0xff,0xaf,0xfd, 0xdf,0x00,0xa3,0xfd,0x36,0xfe,0x77,0x00, // 12000
0xb4,0x00,0x25,0xff,0xc0,0xfd,0x6c,0xf7, 0xc8,0xff,0x7e,0xfe,0x93,0x00,0xfa,0x02, // 12016
0x97,0xff,0x8a,0x03,0x38,0x00,0xc0,0x01, 0x19,0x00,0x88,0x01,0xeb,0x04,0xb4,0x00, // 12032
0xa1,0xfc,0xfa,0xfd,0x46,0x02,0x52,0xff, 0x15,0x00,0x3f,0x00,0xef,0xff,0xf5,0xfb, // 12048
0x11,0x0a,0x11,0xfc,0xb9,0xff,0x79,0xff, 0x21,0x01,0xd8,0xfe,0xbb,0xf7,0xd2,0xff, // 12064
0x2b,0x00,0xad,0xfe,0xb4,0xff,0x40,0x01, 0x7b,0x00,0x51,0x00,0x40,0x02,0x28,0xfe, // 12080
0x4c,0xff,0xf0,0xfe,0xbe,0xff,0xaf,0x00, 0xd4,0xff,0xa1,0xfe,0xbe,0xff,0x40,0x02, // 12096
0x6b,0x01,0x73,0x00,0x59,0x00,0xa7,0xfe, 0x82,0xfe,0x5d,0xfe,0x5a,0x07,0x85,0xfe, // 12112
0xb5,0xf8,0x07,0xff,0x85,0xff,0xaa,0xfe, 0x5a,0x00,0x18,0xfd,0xd1,0x00,0x11,0x01, // 12128
0x95,0xff,0xa6,0x00,0x79,0xfe,0xbd,0xff, 0xd5,0x00,0x3c,0xfd,0x8d,0x01,0x2c,0xfe, // 12144
0x20,0x00,0xe2,0xfe,0xef,0xfc,0x32,0xff, 0x33,0xff,0x1b,0xff,0x2d,0x05,0x5e,0x02, // 12160
0x4f,0x02,0xe5,0x00,0xa6,0x00,0xe2,0x05, 0x1e,0x00,0x07,0x00,0x6a,0x00,0x69,0x00, // 12176
0xc1,0x01,0x03,0xff,0x12,0x0a,0x70,0xff, 0xd1,0xf7,0x5c,0x00,0x1b,0xff,0x87,0xff, // 12192
0x76,0xff,0x5f,0x00,0x1d,0x01,0x7a,0xff, 0x7a,0xff,0xbb,0x00,0xe7,0x00,0xdf,0xff, // 12208
0x41,0x00,0x4f,0x00,0x53,0x00,0x13,0x01, 0x56,0x00,0x9a,0xff,0x7a,0xfe,0x34,0x01, // 12224
0x0d,0x04,0xe9,0xff,0xa9,0xff,0xee,0x00, 0xa5,0x00,0x90,0x00,0x80,0x02,0xb8,0xff, // 12240
0xf9,0x02,0x99,0x00,0x2d,0x00,0x9b,0x02, 0xc8,0xfe,0x58,0x00,0x02,0xff,0x66,0x00, // 12256
0x8e,0xff,0x50,0xff,0x6d,0xff,0xd7,0xff, 0x5a,0x00,0x28,0xff,0x9f,0xfb,0x4a,0x00, // 12272
0xa1,0x01,0x27,0x00,0x86,0xf7,0xd0,0x00, 0x88,0xfd,0xe5,0xff,0x30,0xfd,0xaa,0xff, // 12288
0x1c,0x00,0xe1,0xfe,0x7e,0x08,0x71,0x04, 0x05,0xf9,0x03,0x01,0x4b,0xff,0xc7,0xfe, // 12304
0x6c,0xff,0xd7,0xff,0xf5,0x00,0x08,0x0c, 0x28,0x00,0xe4,0xff,0xca,0xfe,0xf8,0xff, // 12320
0x5c,0x00,0x92,0x02,0x59,0xff,0xc0,0xff, 0xb0,0xff,0x30,0xff,0x5a,0x00,0xdb,0xfd, // 12336
0x6b,0x00,0x0b,0xff,0xb6,0x00,0x9a,0xff, 0xf9,0xff,0xf3,0xff,0xfa,0x00,0xf0,0x0b, // 12352
0x08,0xfe,0x0d,0x00,0x91,0xfd,0xac,0xfc, 0x9d,0xff,0x32,0xff,0xb2,0x00,0x9e,0xff, // 12368
0xcb,0x00,0x2e,0xfe,0xd2,0xfe,0x4c,0x02, 0xe8,0x00,0x08,0x01,0x8c,0xff,0xcd,0xff, // 12384
0x96,0x01,0xa9,0xff,0x31,0x00,0x8b,0xfb, 0x2a,0x00,0x4f,0x00,0x8c,0xff,0x2c,0x00, // 12400
0xdb,0xff,0x8c,0xfe,0x9f,0x06,0x02,0x01, 0x95,0xff,0x44,0xfe,0x24,0xff,0x41,0x07, // 12416
0x11,0x01,0x71,0xfe,0xc0,0x00,0xdf,0xff, 0x84,0xfb,0xea,0xfc,0x03,0xff,0x1c,0x03, // 12432
0x6d,0xff,0x92,0x00,0xaf,0xfc,0xa4,0x04, 0x72,0x05,0x51,0x00,0x10,0x00,0xec,0xff, // 12448
0x71,0x00,0xc5,0x01,0xd8,0x03,0x5c,0x00, 0xd9,0x05,0x81,0x00,0x71,0xff,0x3d,0x00, // 12464
0x5c,0xff,0x69,0x05,0xc9,0xff,0xff,0xfe, 0x48,0x01,0xcb,0x01,0xb1,0x00,0x8a,0xfe, // 12480
0x54,0xfd,0xd5,0xfe,0xf6,0xff,0x82,0xff, 0x24,0x04,0x55,0xfe,0x52,0xfc,0x49,0x00, // 12496
0x09,0x00,0xd8,0x03,0xff,0x01,0x61,0xff, 0x65,0x01,0x0e,0xf7,0xa3,0xff,0xf1,0xfe, // 12512
0x89,0x00,0x5c,0x00,0x32,0xfe,0xdd,0xff, 0xeb,0x01,0xc2,0x05,0xba,0x03,0x95,0x02, // 12528
0xa8,0xff,0x8f,0xf8,0x53,0xff,0xcd,0x00, 0x6a,0xff,0x7d,0x00,0xbf,0xff,0xe8,0xff, // 12544
0x02,0xff,0x0d,0x00,0xbd,0xfd,0xd9,0xfa, 0x6c,0x00,0x2a,0x00,0x70,0xff,0xaa,0xff, // 12560
0x9f,0xfe,0x07,0xff,0x02,0xfd,0xe1,0xfd, 0x7f,0x00,0xd1,0x00,0x6b,0xff,0xf1,0x00, // 12576
0x51,0xff,0x15,0xff,0xc0,0xff,0x57,0x05, 0xbd,0x04,0x2f,0x06,0xd6,0x03,0x32,0x01, // 12592
0x46,0xfe,0x6b,0xfd,0xfa,0x00,0x37,0xff, 0x42,0xff,0x1d,0x01,0x7a,0xfe,0xc9,0xfe, // 12608
0x63,0x01,0x3c,0x00,0xea,0xfd,0x22,0x00, 0xc7,0xfe,0x9c,0xfe,0xf1,0xfe,0x76,0x01, // 12624
0xf7,0x00,0x01,0xff,0xf5,0xff,0x55,0x00, 0x73,0xff,0xaf,0xfd,0x12,0xff,0xcd,0xff, // 12640
0x84,0xfd,0x9a,0xff,0xc3,0x00,0x83,0x00, 0x55,0x00,0xff,0xff,0x5c,0x00,0x86,0xff, // 12656
0x4c,0x00,0xde,0xff,0xee,0xfe,0xec,0xfe, 0xcf,0xff,0xc6,0xff,0x31,0x00,0xa4,0x00, // 12672
0xd0,0xff,0x9b,0xff,0xc4,0xff,0x5b,0xff, 0xc4,0xff,0xcf,0xff,0xb6,0x00,0x6c,0xff, // 12688
0x72,0xff,0xab,0xff,0x90,0xfe,0x3a,0x00, 0x5b,0x00,0xd6,0xff,0x45,0xff,0x59,0x01, // 12704
0x56,0xfe,0xd8,0xff,0x6e,0x00,0x36,0x00, 0xb3,0xff,0xe8,0xff,0x0a,0x01,0xf0,0xff, // 12720
0xc0,0xfe,0x4e,0x00,0x09,0x01,0x75,0x00, 0xd9,0xff,0xd8,0x00,0x4c,0x01,0xba,0xff, // 12736
0xd8,0xff,0x5d,0x00,0xc5,0x00,0x0c,0xff, 0x44,0x00,0xcd,0x00,0xa7,0xff,0x6c,0x00, // 12752
0x9f,0x01,0x5e,0x00,0x49,0x01,0x5a,0x00, 0x48,0xff,0x09,0xff,0xd2,0xff,0x1c,0x00, // 12768
0x37,0xff,0x45,0x00,0x2f,0x00,0xb6,0xff, 0xab,0xff,0xa6,0xff,0xe5,0xff,0x93,0x00, // 12784
0x19,0x00,0x62,0xff,0x08,0x01,0x07,0x01, 0xf5,0xff,0x49,0x01,0x45,0x00,0x34,0x00, // 12800
0x9b,0x00,0xf7,0xfe,0x2c,0x00,0x9d,0xff, 0x66,0xff,0xb3,0x00,0x28,0xff,0xef,0xff, // 12816
0xb9,0x00,0x83,0x00,0x46,0x00,0x78,0x00, 0x65,0x00,0xe7,0xff,0xc6,0xff,0x61,0x00, // 12832
0xb8,0xff,0x79,0xff,0xc4,0xff,0x87,0x00, 0x7f,0xff,0xa8,0xff,0xb0,0xff,0xf7,0xfe, // 12848
0xd0,0x00,0xc0,0xff,0xba,0xff,0xc1,0xfe, 0x59,0x00,0xd3,0xff,0xcc,0xfe,0x00,0x00, // 12864
0x8c,0x00,0xd0,0xff,0x02,0xff,0x8c,0xff, 0x8a,0x00,0x3b,0xff,0x60,0xff,0xf4,0xfe, // 12880
0x6a,0x00,0xb5,0xff,0xb5,0xfd,0xa6,0x00, 0x85,0x01,0xa7,0xff,0x19,0x00,0x0a,0x01, // 12896
0x9c,0x00,0x84,0x01,0x4e,0x00,0x66,0xff, 0x3e,0x02,0x2c,0x00,0xe0,0x00,0x56,0x00, // 12912
0xfb,0xff,0x23,0x00,0x86,0xfc,0x4d,0xff, 0x38,0x00,0xce,0xff,0xba,0xff,0x9b,0xff, // 12928
0xdd,0xff,0x81,0x01,0xff,0xfc,0x88,0x00, 0xab,0x02,0x5c,0x00,0x38,0x01,0x58,0x00, // 12944
0xc2,0xff,0xc0,0xff,0x87,0x02,0x14,0x01, 0x5f,0xfd,0x35,0xff,0xbd,0xff,0xd3,0xfe, // 12960
0x19,0x00,0xc5,0xff,0xe2,0x00,0x28,0x00, 0x48,0xff,0x6e,0xff,0x93,0x00,0x52,0x00, // 12976
0x30,0x00,0x8f,0xfc,0xd6,0x01,0x20,0x02, 0x02,0x00,0x5e,0xfe,0xcc,0xff,0x77,0x01, // 12992
0x7a,0x00,0xee,0xff,0x32,0x03,0xb4,0x00, 0x33,0x02,0xf5,0xff,0x9f,0xff,0xf8,0x01, // 13008
0xdc,0x00,0x77,0xff,0xa2,0xfb,0xbc,0x01, 0x13,0x01,0xe8,0xff,0x81,0x03,0x24,0x00, // 13024
0x77,0xfb,0x32,0xff,0xd8,0xfd,0x3a,0x03, 0x26,0x00,0x72,0x00,0x05,0x00,0xfa,0xff, // 13040
0xa5,0xff,0x40,0x01,0x43,0x01,0xa7,0x00, 0x23,0x04,0x09,0xfe,0x50,0xff,0x27,0x00, // 13056
0x98,0x00,0x55,0x02,0xdf,0x01,0xee,0x01, 0xd2,0xff,0x3c,0x00,0x1d,0x02,0x0e,0xff, // 13072
0x86,0x00,0x69,0x00,0xdc,0x00,0xf0,0x00, 0x6c,0x04,0xbd,0x00,0xdc,0x01,0xd8,0xff, // 13088
0xaf,0x01,0x7f,0xfd,0xd5,0xff,0x66,0x01, 0x6b,0x00,0xe6,0xff,0x53,0x00,0xa9,0xfc, // 13104
0xc4,0x00,0x2e,0xff,0x1b,0xff,0x4c,0x00, 0x74,0x00,0x45,0x00,0xd3,0xfe,0xa2,0x00, // 13120
0x15,0x00,0x3f,0x00,0x93,0x01,0xf0,0xfe, 0xf7,0xfe,0xef,0xfe,0xd6,0x04,0xe0,0x01, // 13136
0x6a,0xfc,0xdb,0xfd,0xf4,0xff,0x79,0x03, 0x0f,0x02,0xf4,0x00,0xac,0xff,0x1d,0x06, // 13152
0x62,0xfe,0xd1,0x02,0xb1,0x00,0x69,0x00, 0x1c,0x01,0xa0,0x00,0x55,0x00,0xb6,0x01, // 13168
0xf6,0xff,0xfb,0xfa,0xc0,0x00,0xa2,0xff, 0x49,0x05,0x67,0x03,0x11,0x00,0x55,0x00, // 13184
0x32,0x00,0xc1,0xfe,0xb0,0x00,0x66,0x06, 0x94,0xfe,0xc8,0x00,0x6f,0xfe,0xd2,0xfe, // 13200
0xb3,0x00,0x34,0xff,0x72,0x00,0xc5,0xff, 0xaf,0x06,0xa8,0xfd,0x94,0xff,0xeb,0xfe, // 13216
0x04,0x02,0x80,0x0d,0x28,0xff,0xf6,0xff, 0x58,0x02,0xf8,0x01,0xe9,0xff,0x9d,0xfd, // 13232
0x95,0xff,0xb5,0xff,0xe4,0xff,0x29,0x00, 0xef,0x00,0x18,0xff,0x83,0x06,0xd0,0x00, // 13248
0x6c,0xff,0x6d,0xf7,0x97,0x00,0xb1,0x03, 0x10,0x00,0xd7,0xff,0xe5,0xfc,0xd7,0x00, // 13264
0x39,0xfb,0xb0,0xfa,0x6d,0x00,0x9e,0x01, 0xf1,0xff,0x4d,0x01,0x60,0xfd,0xc8,0x01, // 13280
0xee,0x08,0x3f,0xfd,0x8f,0xff,0x62,0xff, 0x11,0x04,0xd0,0xff,0xe2,0x03,0x4b,0xff, // 13296
0xdb,0x01,0x31,0x00,0x4a,0xff,0x36,0xff, 0x1b,0xfd,0x67,0x0b,0xd0,0xfe,0xe5,0xfd, // 13312
0x93,0xff,0xf6,0x02,0x76,0x00,0xea,0xf7, 0x4b,0x01,0xdf,0xff,0x59,0xff,0x1f,0x00, // 13328
0x76,0x06,0xfa,0xfe,0x75,0x00,0x4a,0x00, 0xbf,0x00,0x2d,0x02,0x80,0x00,0x62,0xff, // 13344
0xd8,0xff,0x9f,0xf5,0xca,0xfe,0xd8,0xfe, 0x37,0xff,0x94,0xff,0xfe,0xff,0x20,0x00, // 13360
0x8a,0x04,0x6e,0x0b,0x27,0x07,0x39,0x00, 0x6a,0x01,0xed,0xfc,0x1f,0x00,0x92,0x00, // 13376
0x6e,0x00,0x52,0x00,0x3b,0xff,0x9f,0x01, 0xf2,0xfc,0x45,0x00,0xee,0x00,0x58,0xfb, // 13392
0x2b,0x00,0x19,0xfe,0xf6,0xff,0xb5,0x00, 0x6e,0x00,0x4c,0xff,0x67,0xfe,0xd7,0xf4, // 13408
0xd7,0x00,0xf8,0x00,0xf0,0xff,0xd7,0x00, 0x04,0x01,0xdf,0xff,0xbb,0x00,0x60,0x01, // 13424
0x99,0x02,0x2a,0x02,0xd4,0x0a,0x36,0x01, 0x20,0xff,0xaa,0xfc,0x89,0x01,0xc0,0xff, // 13440
0x57,0xff,0x31,0x00,0xa9,0x00,0xfb,0xfb, 0xba,0x04,0xdc,0xff,0x1b,0xff,0xfb,0xff, // 13456
0xb6,0xff,0x53,0xfe,0xb3,0xf8,0xf0,0xff, 0xa7,0xff,0x0c,0xff,0x35,0x01,0x46,0x01, // 13472
0x79,0xfa,0xfc,0xfe,0x32,0x05,0xbb,0xfe, 0xe4,0xff,0x91,0xfe,0x5f,0x00,0x52,0x00, // 13488
0x01,0x03,0xde,0xfb,0x72,0x06,0xef,0xff, 0x41,0x04,0x60,0x03,0xa6,0xff,0x22,0xfd, // 13504
0x21,0xff,0x88,0x03,0x0b,0x02,0x0e,0xfe, 0x76,0xfe,0x60,0xff,0x5e,0xf2,0xae,0xff, // 13520
0x7f,0x00,0x8c,0xfe,0x4f,0x03,0xb8,0x06, 0x48,0x00,0x53,0xfe,0x0d,0xfb,0x4a,0x02, // 13536
0xf6,0x01,0xa9,0x01,0xdd,0xfd,0x79,0xf7, 0x0f,0xfe,0xd9,0x01,0x96,0xfd,0x40,0xfc, // 13552
0x88,0xfe,0x84,0x00,0x62,0xff,0x9a,0x01, 0x49,0x04,0xc2,0xff,0x06,0x01,0x08,0x01, // 13568
0xa1,0x01,0x45,0x07,0x7d,0x04,0x09,0xfd, 0x49,0x01,0xd1,0xff,0x54,0xff,0x3b,0x01, // 13584
0x57,0xfa,0x72,0x04,0xf3,0xfd,0xb3,0xfc, 0xb6,0xff,0xf2,0xfc,0xd9,0xfd,0xd3,0xfd, // 13600
0xca,0x00,0xe6,0xff,0x01,0xfe,0x97,0xfa, 0x80,0xff,0xc4,0x04,0x01,0x00,0x24,0x01, // 13616
0xec,0x0c,0xf9,0xff,0x92,0xf9,0x4d,0xfe, 0x41,0x01,0x75,0xfa,0x61,0xff,0x83,0x03, // 13632
0x24,0xfc,0x06,0x00,0xed,0xfd,0x40,0x04, 0x4a,0x02,0x64,0x04,0xbf,0x00,0x86,0x03, // 13648
0x37,0xfb,0xf9,0xfe,0xb4,0xf7,0x11,0xfb, 0x1b,0x02,0xee,0x03,0xee,0xf5,0xd1,0x03, // 13664
0xd7,0xfd,0xc1,0x01,0x6b,0x00,0xa5,0xfd, 0x9e,0xff,0xc4,0x00,0x23,0xfe,0x7c,0xfc, // 13680
0x0a,0xff,0xa5,0xfe,0x79,0xfc,0x16,0xfd, 0x27,0x00,0xc5,0x00,0x20,0x00,0x7d,0xff, // 13696
0xf5,0xff,0xa8,0x04,0xcf,0x00,0x00,0x00, 0x4c,0xff,0x47,0x02,0x62,0x04,0xfd,0x00, // 13712
0xd0,0xf7,0xa7,0xfb,0x6c,0x00,0x4d,0xfb, 0x74,0xff,0x60,0x02,0x92,0x00,0x21,0xfd, // 13728
0xf5,0xfe,0xd1,0x00,0xd7,0xfe,0xb2,0xff, 0x88,0xfa,0x10,0xff,0x43,0xfb,0x6f,0xff, // 13744
0xcb,0xff,0xc8,0xf5,0x49,0xff,0x77,0xff, 0x54,0xfc,0x4f,0x00,0x26,0x06,0x50,0xff, // 13760
0xd1,0x00,0x39,0x00,0x83,0x00,0x25,0x00, 0x57,0x04,0x21,0xfa,0xd8,0x06,0x76,0xff, // 13776
0x5d,0x04,0xdc,0x04,0x1f,0xfe,0x56,0xfd, 0xc4,0xff,0x6f,0x03,0x92,0x03,0x0c,0x00, // 13792
0x6e,0xfe,0x68,0x00,0xb1,0xf2,0x6d,0x00, 0xe9,0x00,0x5a,0xfe,0xc3,0x01,0x09,0x06, // 13808
0x2a,0x00,0x09,0xfe,0xd4,0xfc,0xcd,0x00, 0x28,0x02,0x68,0xfe,0x75,0xfe,0xfd,0xf8, // 13824
0x39,0xfd,0x4e,0xfe,0xdc,0xfe,0x88,0xf9, 0xba,0xff,0x9f,0x00,0x74,0x00,0x95,0xff, // 13840
0x03,0x08,0x8a,0xfd,0x3c,0x00,0xbd,0x00, 0x2e,0x01,0xcc,0x03,0x10,0x04,0x0c,0xfe, // 13856
0x00,0x00,0x29,0xfe,0x1c,0x00,0x93,0xfe, 0x98,0xf7,0xec,0x05,0xcd,0xfb,0x3d,0xfa, // 13872
0xce,0xff,0xd1,0x00,0x7b,0xff,0xa8,0xfe, 0xcd,0x02,0xd5,0xff,0x14,0xff,0xc1,0xf9, // 13888
0x7a,0x01,0xee,0x01,0x8b,0x01,0x39,0x00, 0x53,0x0f,0xb4,0xfe,0x99,0xf5,0x58,0xfd, // 13904
0xf8,0xff,0x99,0xfc,0x9c,0xfe,0xd7,0x02, 0xf2,0xf7,0x12,0xff,0x7f,0x00,0xdf,0x04, // 13920
0x9a,0x05,0x37,0x05,0xfc,0x04,0x82,0x00, 0xdc,0xff,0xe0,0xff,0xe2,0xfb,0xe8,0xfc, // 13936
0x7c,0x01,0x9b,0x02,0x57,0xf6,0xe3,0x04, 0x06,0xfb,0xfe,0x01,0x1e,0x00,0x18,0x00, // 13952
0x05,0x00,0x7d,0xff,0x02,0xfe,0x9a,0xfd, 0xc8,0xff,0x16,0x00,0x5a,0xfe,0x04,0xfd, // 13968
0xf1,0xff,0x81,0xff,0xad,0xff,0x70,0x02, 0x79,0x00,0xe6,0x08,0x3e,0x01,0xf6,0xfd, // 13984
0x08,0x00,0x9f,0x00,0x7a,0x06,0x0d,0x01, 0x38,0xf9,0xc0,0xfd,0x85,0xff,0x18,0xfe, // 14000
0x86,0xff,0xa1,0x01,0xf0,0x00,0x32,0xf9, 0xeb,0x00,0x68,0x00,0x68,0x02,0xc2,0xff, // 14016
0xa5,0xfb,0x27,0xfc,0xeb,0xf9,0x9d,0xff, 0x9c,0xff,0x32,0xf7,0x6e,0xff,0xc5,0x01, // 14032
0xc0,0xff,0x0d,0x00,0x10,0xfa,0x26,0xfb, 0x69,0x00,0xd9,0xfe,0x9b,0xff,0x34,0x02, // 14048
0xdc,0xf5,0xd7,0x04,0x74,0xfc,0xc0,0x03, 0x44,0x03,0x36,0xf7,0x7e,0x02,0xb5,0xff, // 14064
0x5f,0xfd,0x1f,0x01,0x2f,0xff,0xd2,0xf1, 0x83,0x00,0x4d,0xfd,0x90,0x00,0xfb,0xfe, // 14080
0xd8,0xff,0x7c,0xfc,0x80,0x02,0x23,0x00, 0xda,0xfe,0x65,0x07,0x1d,0x00,0xbc,0x01, // 14096
0x77,0xff,0xa5,0xfd,0x93,0x01,0x8b,0x01, 0x8a,0xfe,0x4a,0xf7,0xc0,0xff,0x1e,0x03, // 14112
0xce,0xfe,0x5b,0xfe,0x84,0xfe,0x2c,0x08, 0x20,0x03,0x21,0xfe,0x7e,0x01,0xdf,0xff, // 14128
0x76,0xf8,0xf5,0xfe,0xdb,0xfb,0x03,0x02, 0xbc,0x07,0x8b,0x01,0x54,0x00,0x5f,0xfd, // 14144
0x92,0xfe,0x9d,0xfc,0xcb,0xff,0xfe,0x07, 0xa8,0xff,0xb3,0x03,0xc1,0x02,0x84,0x06, // 14160
0x62,0xf1,0x78,0x01,0x71,0xff,0xd7,0xff, 0xae,0x0b,0xf4,0xfc,0x67,0xfe,0xd3,0x01, // 14176
0x23,0x00,0xf2,0x11,0xc8,0x01,0x89,0x01, 0xef,0x02,0x07,0x00,0x61,0x03,0x95,0xfc, // 14192
0x57,0x05,0x42,0x00,0xba,0xfd,0x08,0xff, 0xca,0x04,0xfb,0xfe,0x68,0xff,0x2d,0x04, // 14208
0x56,0x06,0x5f,0xf7,0x52,0x00,0x61,0x03, 0xa2,0x00,0x3f,0xff,0xf6,0x00,0x9c,0xf9, // 14224
0xab,0x03,0xa2,0xff,0x69,0xfd,0xac,0xfd, 0xc4,0xfe,0xcb,0x02,0x0d,0xff,0xf7,0x00, // 14240
0xd4,0xfe,0x3b,0x02,0x9c,0x00,0x2f,0x07, 0x3a,0xff,0xb5,0xfe,0x4d,0x00,0x18,0x02, // 14256
0x07,0x00,0x31,0xfc,0x8e,0xff,0x42,0x10, 0xe0,0x06,0xa1,0x05,0x72,0xfb,0x8d,0x00, // 14272
0x81,0xfe,0x66,0x03,0xaa,0x05,0x94,0x00, 0x9a,0xff,0x4f,0x00,0x54,0x00,0x39,0x04, // 14288
0xea,0x00,0x0e,0xf3,0xee,0xfc,0x9b,0xfe, 0x12,0x07,0x3e,0x06,0xab,0x05,0x71,0x02, // 14304
0x7a,0xff,0x4a,0xff,0xf2,0xfe,0x4b,0x00, 0xad,0x01,0x0f,0xff,0x9d,0x03,0x2b,0x01, // 14320
0xa8,0xff,0x34,0x02,0x87,0xff,0xed,0xfe, 0x38,0xff,0x4e,0x02,0x04,0x01,0x4c,0xfe, // 14336
0x26,0xfc,0xfe,0xfe,0xe9,0xfe,0xbd,0xff, 0xb4,0xff,0x5f,0xff,0xe9,0xff,0xde,0x02, // 14352
0x91,0xff,0x72,0x01,0xf7,0xff,0xc4,0x01, 0x21,0x00,0xf2,0x01,0xb6,0xfa,0xe7,0xfe, // 14368
0xaa,0x00,0x55,0x01,0xd5,0x00,0x59,0xfb, 0x9e,0xfe,0x3e,0x02,0xf6,0xff,0x2f,0x00, // 14384
0x71,0x04,0x5d,0x04,0x2c,0x01,0x3c,0xff, 0xc8,0x01,0x38,0xff,0x05,0x01,0x92,0xfd, // 14400
0xb4,0xf6,0xaa,0x01,0xc0,0xfe,0xec,0xff, 0x1d,0xff,0xe8,0xff,0x3f,0xff,0x2f,0x00, // 14416
0x16,0xfe,0x26,0x01,0xa8,0xff,0x41,0x02, 0x42,0x02,0xd3,0xfb,0xa9,0xff,0x0e,0xff, // 14432
0x92,0x00,0x0d,0xfe,0x65,0xfe,0xde,0x01, 0x08,0x01,0x57,0xfe,0x3a,0x00,0x6e,0xff, // 14448
0xbc,0xf7,0xd9,0x01,0x61,0xff,0xb6,0xfe, 0xeb,0xfe,0xc9,0xfc,0xda,0xfe,0xbd,0x00, // 14464
0x88,0xfd,0xee,0x07,0x0c,0xfd,0xda,0x01, 0xd5,0xfe,0x69,0x01,0xef,0x00,0xa5,0xff, // 14480
0xb1,0xfa,0xed,0xfa,0x21,0xfd,0xa4,0xfb, 0x46,0xfd,0xca,0x04,0xf6,0x01,0xd9,0xfc, // 14496
0x0e,0x00,0xb7,0xff,0xbd,0xff,0x19,0x01, 0xef,0x00,0x94,0xff,0xe9,0x00,0x26,0x04, // 14512
0x57,0x00,0x9e,0x00,0xe4,0x00,0x32,0x00, 0x52,0x01,0xc6,0xff,0x43,0x02,0x9a,0x02, // 14528
0x24,0x01,0xf4,0xff,0x21,0xff,0x7f,0xfd, 0x5f,0x00,0xeb,0x00,0xf5,0xfe,0x53,0xfa, // 14544
0x62,0xfd,0x67,0xfd,0x4f,0xfc,0x3e,0xfe, 0x94,0x00,0x86,0x00,0x04,0xfc,0x69,0xff, // 14560
0x6e,0x00,0xad,0xff,0xdd,0xfe,0x67,0x00, 0x78,0xfd,0x19,0x07,0xa2,0x01,0xd3,0x01, // 14576
0x80,0xfe,0x95,0xfe,0xea,0x00,0x33,0xff, 0xcd,0x00,0xca,0x00,0x3f,0x01,0x47,0xff, // 14592
0x5d,0x02,0x44,0x00,0xc6,0xfd,0x1d,0x00, 0x80,0x00,0xfa,0x00,0x0c,0x01,0x1b,0xff, // 14608
0x1a,0x05,0xf1,0x01,0xfd,0xfe,0xf5,0x00, 0xa9,0x01,0x5a,0x07,0xcc,0x00,0x0c,0x00, // 14624
0x31,0x02,0x43,0x01,0x5f,0x01,0x07,0x00, 0x51,0xff,0x04,0x01,0x50,0xff,0xe7,0x02, // 14640
0xee,0xff,0x4d,0xff,0xd3,0x00,0x5e,0xff, 0xaa,0x01,0x79,0xf8,0xe7,0xff,0x9a,0xff, // 14656
0x7b,0xff,0x80,0xfe,0x2a,0x00,0x7e,0x00, 0xb8,0xfe,0xbb,0xfd,0xb1,0x00,0xbc,0xff, // 14672
0xfb,0xff,0x71,0xff,0x06,0x01,0x7d,0xff, 0xc4,0x05,0x8a,0xfa,0xda,0xfe,0x6c,0x00, // 14688
0xbc,0x00,0xb5,0xfd,0x3e,0xfd,0x90,0x00, 0xfc,0xfe,0x81,0x00,0xe5,0xff,0x6f,0xfd, // 14704
0x6d,0xff,0xbb,0x00,0xcb,0xfe,0x46,0x01, 0xcc,0xff,0x2f,0x02,0x3c,0x00,0xa4,0xf9, // 14720
0x1d,0x00,0x0f,0x00,0x1a,0xff,0x2a,0x00, 0xad,0x03,0xc3,0xff,0x6d,0x01,0xbc,0xff, // 14736
0x7b,0x00,0x12,0x01,0x92,0xfe,0x59,0x00, 0x77,0x00,0x96,0x00,0x34,0x00,0x60,0xff, // 14752
0xd8,0xff,0xc0,0xff,0x34,0x00,0x84,0x00, 0x6e,0x05,0x61,0x04,0x4f,0x03,0xd6,0xff, // 14768
0xef,0x03,0xbb,0xff,0xe9,0x01,0x8c,0x01, 0x46,0xff,0x89,0x00,0x7c,0xff,0x83,0xfe, // 14784
0xd0,0xfc,0x0a,0x00,0xc6,0x00,0x86,0x00, 0xb5,0x00,0x7b,0xfc,0x8f,0xff,0x21,0x00, // 14800
0x1c,0x00,0xbb,0xfe,0x01,0x01,0xe7,0xfa, 0x82,0x00,0x2a,0x00,0x17,0x01,0x4c,0x00, // 14816
0x1f,0x00,0xa6,0xff,0xce,0x00,0x5d,0x02, 0x0d,0xff,0x8a,0xfe,0xd0,0x01,0x6e,0x00, // 14832
0xa2,0xff,0x6e,0x00,0xd7,0x01,0xdf,0xff, 0xde,0xff,0x73,0xff,0xe6,0xff,0xc7,0xff, // 14848
0x3e,0x06,0x1b,0xfd,0x66,0x00,0xa2,0xff, 0x4f,0x03,0x0a,0x02,0x9f,0xfb,0x7a,0xff, // 14864
0x54,0xff,0xbc,0xff,0xac,0x00,0xde,0x00, 0xc7,0x00,0x79,0xfe,0x70,0xff,0x20,0x01, // 14880
0x94,0x00,0xf4,0xff,0x76,0xfe,0x44,0x00, 0xbc,0xff,0x7b,0x01,0x19,0xfe,0x05,0x02, // 14896
0x09,0x02,0xd2,0xfe,0xdd,0x00,0xdb,0xfd, 0xa8,0xfe,0x41,0xff,0x65,0x07,0x44,0xff, // 14912
0x67,0xf9,0x00,0xff,0xf9,0xff,0x32,0xff, 0x34,0xfe,0x44,0xfd,0xe5,0xff,0xca,0x00, // 14928
0x81,0x00,0x11,0x02,0x1f,0xfe,0x94,0xfe, 0x68,0xff,0x1f,0xfc,0x0b,0x01,0x5c,0xfd, // 14944
0x41,0x01,0xec,0xfe,0x38,0xfc,0xe7,0xfd, 0xc8,0xfe,0xbe,0xfd,0xd2,0x06,0x94,0x00, // 14960
0x1b,0x02,0xe9,0xfe,0x9a,0xff,0x9e,0x05, 0x5a,0xff,0xe1,0xff,0xfc,0xfc,0xaa,0x01, // 14976
0x09,0x00,0xf2,0xff,0x45,0x07,0xc2,0xfe, 0xf0,0xf8,0x3d,0xfd,0x74,0xfe,0x5e,0x01, // 14992
0x0a,0x00,0xb2,0x00,0xfd,0x00,0xf9,0x00, 0xed,0xff,0x68,0x00,0xa6,0x00,0xd9,0xff, // 15008
0x5c,0x01,0x0f,0xff,0x49,0x02,0xb0,0xff, 0x71,0x00,0x06,0x00,0x4c,0xff,0x9e,0xff, // 15024
0x2f,0x02,0x38,0x00,0x9b,0x01,0xb1,0xff, 0x80,0x01,0xe0,0x00,0x9d,0x00,0x67,0x00, // 15040
0xbd,0x04,0x96,0xfe,0xcb,0xfe,0x2b,0x01, 0x90,0x00,0x84,0x01,0x11,0x00,0x87,0xff, // 15056
0x35,0xff,0xeb,0xfe,0x5a,0x00,0xcb,0xfe, 0x99,0x00,0xf8,0xff,0x06,0xfd,0xc2,0x01, // 15072
0x67,0x01,0xe1,0x00,0x30,0xf9,0xb4,0x00, 0xd0,0xfe,0xe6,0x00,0x36,0xff,0xd2,0x01, // 15088
0x69,0x00,0x11,0xff,0x85,0x0a,0x12,0x04, 0x34,0xfb,0x83,0x00,0x8f,0x00,0x13,0x00, // 15104
0xc6,0xff,0xbf,0xff,0x3c,0xff,0xa5,0x0b, 0x55,0x00,0xfd,0x01,0x92,0xfe,0xc0,0x00, // 15120
0xd0,0xff,0xb5,0x02,0x03,0xff,0xad,0x00, 0xd3,0x00,0xab,0xfe,0xb2,0x00,0x87,0xff, // 15136
0xb0,0x02,0xfd,0x00,0x6c,0x01,0x54,0x00, 0x18,0x00,0xb3,0xff,0x99,0xff,0x46,0x0c, // 15152
0x4e,0xff,0x1b,0x01,0x79,0xfc,0xb4,0xff, 0xf1,0x00,0x5b,0x01,0xdc,0x05,0xc1,0xfe, // 15168
0x9e,0xff,0xad,0x07,0x2d,0xff,0x13,0xff, 0x84,0x02,0xd4,0xff,0x1d,0x0e,0xbb,0x00, // 15184
0x5c,0x01,0xc4,0x02,0x7b,0xff,0xcf,0xff, 0x94,0x00,0x6c,0x00,0xb8,0xff,0x43,0x00, // 15200
0x77,0x00,0xd1,0xfe,0x94,0x04,0xb1,0x00, 0xcf,0x01,0xf4,0xff,0xfc,0xfe,0xdd,0x01, // 15216
0x79,0x00,0x86,0xfe,0x3c,0xff,0x21,0x01, 0x89,0xf9,0xdc,0xfd,0x9d,0x00,0x8e,0x00, // 15232
0x54,0xff,0x30,0x04,0x47,0xff,0x4f,0x00, 0x98,0x03,0xdb,0xfc,0xc3,0xfe,0xe6,0xff, // 15248
0x71,0xfc,0xd2,0xfd,0x71,0xfb,0x92,0x00, 0x7a,0x00,0xf2,0x15,0x09,0x00,0x09,0x02, // 15264
0x5c,0xfe,0x09,0xff,0x43,0xff,0x9e,0x0b, 0xdd,0xfe,0x2e,0x00,0x17,0xff,0xbe,0xff, // 15280
0x74,0xff,0x71,0x00,0x4a,0xfe,0x46,0xff, 0xa6,0x03,0x5e,0xff,0xde,0x00,0xb4,0xfe, // 15296
0x7a,0x00,0xb5,0x01,0x8e,0x00,0x6c,0x00, 0x2e,0xff,0xa3,0xfe,0x5e,0xff,0xff,0x00, // 15312
0x57,0x00,0x80,0xfe,0x31,0xfd,0x52,0x01, 0x7f,0x05,0xd1,0x00,0x77,0xff,0x1a,0x00, // 15328
0x5a,0x05,0xb5,0xfe,0x4a,0xfe,0xeb,0x00, 0x63,0x09,0x11,0x01,0x33,0xff,0xb4,0xfa, // 15344
0x1e,0x07,0x24,0x00,0x7b,0x00,0x33,0xfd, 0x72,0xfc,0x79,0xfe,0xff,0xff,0xdc,0xff, // 15360
0x32,0x01,0xb8,0xfe,0xb5,0x01,0x81,0xff, 0x62,0x01,0x3e,0x03,0x74,0xff,0x16,0x00, // 15376
0x5e,0x03,0x70,0xff,0x5b,0x01,0xa4,0x02, 0x63,0x00,0xd1,0xff,0x74,0xfd,0x28,0x00, // 15392
0xba,0xfd,0x51,0x01,0xbf,0x10,0x37,0xff, 0x20,0xfe,0x7e,0xff,0x1d,0x02,0x75,0x01, // 15408
0xe8,0x01,0xd6,0xfc,0x64,0xfc,0x45,0xff, 0x9e,0x03,0x2a,0x03,0xc4,0x01,0x72,0xff, // 15424
0x7b,0xff,0x62,0xff,0x55,0xfc,0x39,0x00, 0xaf,0x01,0xfc,0xfe,0xfe,0xff,0x6d,0x01, // 15440
0x23,0x00,0x15,0x01,0x05,0xff,0x9f,0xff, 0xb9,0x01,0x3c,0x00,0xcf,0xff,0x30,0x00, // 15456
0x9c,0xfe,0x43,0x02,0x6f,0xff,0x3c,0x01, 0xe3,0xff,0xe5,0xfe,0xf0,0x01,0x97,0x01, // 15472
0x5e,0xfd,0xa6,0xff,0xa0,0x01,0xac,0x00, 0x9e,0xfd,0x1f,0xff,0x70,0xfd,0x48,0xfe, // 15488
0x65,0xff,0xa4,0xfe,0x95,0x01,0x8b,0xfd, 0x84,0xff,0x36,0xff,0x99,0x00,0x5b,0x00, // 15504
0xce,0x00,0x35,0xff,0xf5,0xff,0x04,0xff, 0x37,0x03,0xf3,0xff,0xb5,0x02,0x93,0xfe, // 15520
0x0a,0xfe,0x60,0xff,0xe8,0xfe,0x00,0x02, 0xe3,0x00,0xd0,0xfe,0x02,0xff,0xb7,0x00, // 15536
0x2f,0xfe,0x8c,0xff,0xfb,0x02,0x35,0xff, 0x42,0xfd,0xdc,0xfe,0x14,0x00,0x35,0x01, // 15552
0x09,0x01,0x95,0x00,0xb0,0xff,0x79,0xff, 0xa3,0x00,0x3c,0x00,0x45,0x01,0xc8,0x01, // 15568
0xb7,0xff,0x09,0xff,0xaa,0x02,0x68,0xff, 0xfa,0xfe,0x7a,0xff,0x6b,0xfe,0xe2,0x00, // 15584
0x34,0x00,0xe0,0x01,0x88,0x00,0x49,0xfe, 0x66,0xff,0x0e,0x02,0xc5,0x01,0x45,0xff, // 15600
0xfc,0xff,0x7a,0x00,0x0b,0x00,0x2d,0x00, 0x1a,0x01,0xe3,0x00,0x69,0x02,0xd8,0x00, // 15616
0xe2,0xff,0x53,0xff,0x2b,0x02,0x7b,0xff, 0x6c,0xff,0xc5,0xff,0xae,0xfe,0xe1,0x01, // 15632
0x3c,0xff,0xcf,0xfd,0x0f,0xff,0x90,0x00, 0x4d,0x00,0x6b,0xff,0xec,0x01,0xe9,0x00, // 15648
0x45,0x00,0xef,0xff,0x29,0x03,0x61,0x02, 0xb4,0xfe,0x4f,0x00,0x35,0xff,0xb9,0x00, // 15664
0x5c,0xff,0xf9,0xfe,0xef,0x00,0x8c,0x04, 0x5c,0x02,0x2d,0x01,0x8d,0xff,0xa5,0x01, // 15680
0xff,0x00,0x51,0x00,0x99,0xfe,0xd7,0x00, 0x6e,0x02,0x28,0x00,0xd8,0x01,0x24,0x00, // 15696
0xf5,0x00,0xe9,0xff,0x95,0xfe,0xa2,0xff, 0x66,0x00,0xdf,0x01,0x74,0x02,0x1f,0x04, // 15712
0xee,0xfe,0xbd,0xff,0x1f,0x04,0x1d,0x00, 0x75,0xff,0x4f,0x00,0x3a,0x00,0x9f,0xff, // 15728
0xeb,0x00,0x2f,0xf9,0x8f,0x02,0x66,0x01, 0x51,0xfd,0x9a,0x01,0xa4,0xfd,0x16,0x00, // 15744
0xac,0x00,0x17,0xfe,0xe0,0xfe,0xdc,0xff, 0x6d,0x00,0x14,0x00,0xbc,0xff,0x88,0xff, // 15760
0x05,0x00,0x0d,0x00,0x15,0xff,0xc8,0xfe, 0x60,0xff,0x26,0xff,0x9f,0xff,0x3a,0x00, // 15776
0xba,0x01,0xfc,0x01,0xd6,0xff,0x44,0xff, 0xa0,0xfe,0x08,0x02,0x84,0x00,0x7d,0xfe, // 15792
0x8d,0x00,0xdb,0xff,0x4b,0x00,0x8f,0xff, 0xdb,0xfe,0x9a,0x01,0xda,0xff,0xda,0xff, // 15808
0x43,0x01,0xb9,0x01,0x63,0x07,0x1f,0x00, 0x77,0xff,0xfd,0xfd,0x29,0xff,0x73,0x00, // 15824
0x82,0x02,0x9b,0x02,0x64,0x02,0x65,0xf7, 0xdb,0x00,0xf8,0xfe,0x87,0xfe,0xfa,0xfe, // 15840
0x89,0x01,0x8e,0xff,0x19,0x01,0xe8,0xff, 0xac,0xfb,0x74,0x01,0xac,0xff,0x09,0x00, // 15856
0x19,0x00,0x24,0xfd,0x4f,0x00,0xa6,0xff, 0x3a,0x00,0x09,0x00,0x6e,0xff,0x53,0x01, // 15872
0x20,0xff,0xdc,0xff,0x7f,0xff,0x89,0xff, 0x66,0xfb,0x2f,0x00,0x70,0x01,0x27,0x01, // 15888
0xaf,0xfa,0x69,0x01,0x22,0x00,0x0a,0xfc, 0x1d,0xff,0x59,0x00,0xac,0xff,0x75,0x06, // 15904
0x08,0xfe,0x33,0x00,0xca,0xff,0xf8,0xfe, 0x35,0x01,0xc2,0xff,0x8a,0x00,0x8c,0xff, // 15920
0x9f,0xff,0x9e,0xff,0x5c,0xfe,0xbe,0xfe, 0xf3,0xff,0x50,0x01,0x15,0xff,0x84,0xff, // 15936
0x64,0xff,0xcb,0x01,0x24,0xff,0x96,0xfb, 0xdb,0xfe,0x5a,0x00,0x8e,0x01,0xe7,0xfe, // 15952
0x4a,0x02,0x16,0xfc,0x64,0xfd,0x44,0x00, 0x7b,0x01,0x30,0xff,0x7d,0xff,0x86,0xfe, // 15968
0x82,0xfe,0xdc,0x08,0x95,0x00,0x93,0x00, 0xe3,0xf8,0x46,0xf9,0xc6,0xfe,0xb2,0x00, // 15984
0xc8,0x00,0xc5,0x00,0x2e,0x00,0xb4,0xfd, 0x73,0xfe,0x02,0x00,0xa9,0xff,0x9e,0xfc, // 16000
0x53,0xff,0x03,0xff,0x96,0xfe,0xc3,0xff, 0xa6,0x01,0x9a,0xf6,0x53,0xff,0xeb,0xff, // 16016
0x9a,0x00,0x59,0x02,0x26,0xfd,0x62,0x00, 0x87,0xff,0xf9,0xff,0xaf,0xfe,0x90,0xfd, // 16032
0xaf,0xff,0x76,0xfe,0x7e,0x00,0x74,0xff, 0x35,0x00,0x90,0xfe,0xba,0x03,0x6a,0x00, // 16048
0x7c,0xfe,0x09,0xfd,0x26,0x00,0x57,0x02, 0xfd,0x00,0x62,0xff,0x0d,0xff,0xc0,0x00, // 16064
0xc9,0xfc,0xf6,0xfd,0x5f,0x00,0x69,0x00, 0xac,0xff,0xf9,0x00,0x62,0xff,0xde,0x00, // 16080
0x20,0x05,0xa4,0x00,0x40,0x00,0x65,0xff, 0x04,0x01,0xe9,0x01,0x97,0x07,0xef,0xff, // 16096
0x97,0x01,0x80,0xfd,0x5c,0xff,0x28,0xfe, 0xcb,0xff,0x1f,0x08,0x03,0x00,0x58,0xf8, // 16112
0xb9,0x00,0x66,0x02,0xad,0x00,0xaa,0xfe, 0xd0,0xff,0x3d,0x00,0x4c,0xff,0xde,0x00, // 16128
0x4b,0x01,0x29,0x00,0x5f,0xfe,0xaa,0x00, 0xa3,0xff,0x73,0x00,0x2e,0x00,0x4f,0x00, // 16144
0x9b,0x00,0xe9,0xf6,0x4c,0x00,0xfe,0xfe, 0x77,0xff,0x10,0x00,0x06,0x00,0x08,0x00, // 16160
0x11,0x01,0x4b,0x04,0x13,0x05,0x48,0x01, 0x1f,0xff,0xe5,0xfe,0xe0,0xff,0x5b,0x00, // 16176
0xbf,0x00,0x86,0x00,0x88,0x00,0x71,0x04, 0x1d,0xfd,0x55,0x00,0xa2,0xff,0x54,0xfe, // 16192
0x07,0x01,0xfb,0x00,0x4c,0x00,0x4f,0x00, 0xa9,0xff,0x66,0x00,0x74,0xfc,0xcf,0xfd, // 16208
0xcb,0xff,0x89,0x00,0x97,0xff,0xc3,0x00, 0x05,0x00,0xdc,0xff,0xcb,0xff,0xa8,0x00, // 16224
0x84,0x01,0x92,0x03,0x68,0x07,0xcb,0xff, 0xcc,0xff,0x93,0xfd,0x77,0xfe,0x3d,0xff, // 16240
0xe8,0xff,0x73,0x00,0x2d,0xff,0x94,0xfe, 0xf6,0x00,0xcf,0x01,0xa7,0x00,0xcf,0xff, // 16256
0x5f,0xfd,0x2a,0xfb,0x1d,0xfc,0xc2,0x01, 0xe1,0xff,0x24,0x00,0x57,0x00,0x12,0x00, // 16272
0xb2,0xfe,0x97,0xff,0x9a,0x01,0xf7,0xfd, 0x7b,0xff,0xf1,0xfa,0x68,0xfe,0x81,0x00, // 16288
0xf5,0x00,0x42,0xfb,0xaa,0x01,0xd3,0x00, 0x1d,0x04,0x29,0x03,0xa0,0xfe,0x90,0xfe, // 16304
0x68,0x00,0x97,0xff,0x54,0x02,0x68,0xfd, 0x64,0xff,0xfd,0xfc,0x56,0xff,0xaa,0xfe, // 16320
0x45,0x00,0x77,0xfe,0xbe,0x05,0x02,0x02, 0x9f,0xfd,0x40,0xfd,0xc0,0xfe,0x9f,0x02, // 16336
0xcd,0xff,0xf1,0x00,0xd9,0xfd,0x8f,0xfc, 0xfc,0xfc,0xe4,0xff,0xd3,0xfd,0xde,0xfd, // 16352
0xef,0xfd,0x59,0xff,0x36,0xff,0xe9,0x02, 0x44,0x06,0x47,0x02,0xa9,0x00,0xe7,0x00, // 16368
0xb1,0x00,0xab,0x01,0xce,0x03,0xab,0x00, 0x21,0x03,0xd9,0xff,0x55,0x02,0xb0,0xfe, // 16384
0xb7,0xfb,0x13,0x03,0x63,0xff,0x00,0xff, 0x55,0x00,0xdf,0xfd,0x79,0x01,0xb6,0xfd, // 16400
0xdc,0x00,0xed,0x00,0x67,0x01,0xf2,0xfe, 0x6f,0x02,0xab,0x01,0xc0,0xfe,0x3d,0x04, // 16416
0xb3,0x01,0xd5,0x00,0x9c,0xff,0xc1,0xff, 0x2e,0x06,0xdd,0xfb,0x01,0x00,0x2b,0x01, // 16432
0x47,0xff,0x85,0xff,0x40,0xfd,0xaa,0xff, 0x14,0x03,0xfa,0x04,0x8a,0x01,0x18,0x04, // 16448
0x66,0xff,0xeb,0xff,0x9f,0xff,0xf5,0xff, 0x56,0xff,0x5a,0xfe,0xe0,0xfd,0x5b,0x01, // 16464
0x49,0x00,0x7b,0xff,0xc2,0xfb,0xa7,0xfc, 0x45,0x03,0x06,0x00,0x67,0xfd,0x40,0x00, // 16480
0xb3,0xfe,0x5a,0x01,0x0c,0xf9,0xd4,0xfb, 0x8d,0xfd,0x3e,0xff,0xc3,0x00,0xae,0x04, // 16496
0x97,0xff,0xa1,0x01,0x7a,0x00,0x58,0x01, 0x1f,0xff,0x6f,0x03,0x85,0x02,0xb4,0x01, // 16512
0x2d,0xff,0x8a,0xfa,0x9a,0x02,0x71,0x01, 0x5d,0x00,0x9a,0x01,0xe9,0x00,0x04,0xfd, // 16528
0x20,0x00,0xba,0x02,0x87,0xfe,0xc9,0xfa, 0x50,0xfd,0x84,0xfc,0x69,0xfd,0xac,0x00, // 16544
0x2f,0xff,0xcf,0xfd,0x6a,0xfe,0xf8,0x00, 0x7a,0xfe,0x6b,0x01,0xd6,0xfe,0xb8,0x00, // 16560
0x35,0x01,0xf6,0x02,0x9e,0x03,0x00,0xff, 0x8f,0xfd,0x9b,0x05,0x62,0x00,0x2d,0xfe, // 16576
0x7b,0xff,0x0c,0xfe,0x68,0x10,0x59,0xff, 0xae,0xff,0x47,0x03,0xb5,0xfe,0x34,0x00, // 16592
0xa8,0x01,0x54,0x00,0x2e,0xff,0xe2,0xff, 0x33,0x01,0xb0,0x00,0x2f,0x01,0xbe,0x01, // 16608
0x2f,0x02,0xa4,0x01,0x2c,0xfe,0xd5,0xff, 0x09,0x01,0xcc,0x00,0x33,0x00,0xa8,0x00, // 16624
0x7b,0xff,0xf6,0x01,0x8e,0x00,0x77,0x00, 0xe0,0xfe,0x32,0x02,0xe0,0xfe,0x78,0x00, // 16640
0x4d,0xfd,0x83,0xff,0xfd,0x00,0xd6,0xfe, 0x18,0xfd,0x42,0xff,0x1e,0xfe,0xcc,0xfd, // 16656
0x7b,0x00,0x5b,0x14,0x81,0xff,0x88,0x05, 0x17,0x02,0x4c,0xfd,0x83,0xff,0x8c,0x06, // 16672
0xd0,0xfd,0xc6,0xfb,0x72,0xfc,0x74,0x00, 0xe7,0xfe,0x73,0x00,0x07,0xfc,0x37,0xfe, // 16688
0xda,0xfd,0x4b,0x03,0xa9,0xfe,0x2a,0xfe, 0x17,0x01,0xa1,0xff,0x51,0xff,0x16,0xff, // 16704
0xe8,0xfe,0x76,0x01,0x6f,0xfc,0x32,0x03, 0x49,0x01,0x88,0xfe,0xa5,0xfd,0x3a,0x02, // 16720
0x12,0x00,0x65,0xfc,0x45,0xfb,0x1f,0xfe, 0xcd,0xff,0x97,0xff,0x9a,0xfd,0xcc,0xfd, // 16736
0xb2,0x0c,0xe1,0x00,0xeb,0xfe,0xdc,0xfb, 0xe0,0x07,0x17,0x01,0xde,0x00,0x7f,0xfe, // 16752
0xbf,0xfb,0x7e,0x00,0xb7,0x01,0x65,0xfc, 0x75,0x01,0x26,0xff,0xa9,0x03,0x57,0x01, // 16768
0xa8,0x03,0x83,0x04,0x2d,0xff,0x0b,0xfd, 0xca,0x02,0xd1,0xfe,0x25,0x01,0x9b,0xff, // 16784
0x4d,0x00,0xf1,0xff,0xad,0xfb,0x70,0xfe, 0x83,0xfd,0xab,0x01,0x82,0x09,0xc4,0xfb, // 16800
0x4a,0xfe,0x3c,0x00,0x15,0x01,0x83,0x01, 0x92,0xfd,0xa7,0xfe,0xe7,0xfd,0x56,0x01, // 16816
0xf1,0x01,0xcc,0x02,0x30,0x03,0x9a,0xfe, 0xe2,0xfe,0xbf,0xfe,0x5f,0xfc,0x77,0xff, // 16832
0xa0,0x00,0x9d,0x00,0xd6,0x07,0x51,0x00, 0xbf,0x00,0x52,0xff,0xba,0xff,0x20,0x00, // 16848
0x80,0x01,0x86,0xfe,0x97,0x09,0xcf,0xff, 0x6d,0x01,0xca,0x01,0x0a,0x00,0xb6,0xfc, // 16864
0x2d,0x00,0x1f,0x02,0x1d,0x04,0x84,0x01, 0x14,0xfd,0xc5,0xfe,0xdd,0xfc,0x4a,0xff, // 16880
0x2e,0x01,0xbe,0xfe,0xdf,0xff,0xc2,0x01, 0xb5,0x00,0x65,0xfe,0xe7,0xff,0xa2,0xfe, // 16896
0x89,0xff,0x1f,0xff,0xd2,0xfe,0x71,0xfa, 0xd3,0xff,0x4c,0x01,0x05,0xff,0x68,0xf7, // 16912
0xb1,0xff,0x6f,0xff,0x96,0x02,0xe0,0xff, 0x6f,0x02,0x04,0xff,0x46,0x00,0x29,0x03, // 16928
0x27,0x00,0xe1,0xfe,0xf9,0xff,0xa5,0xfe, 0xaa,0xfe,0xf4,0x00,0x06,0x03,0x90,0xff, // 16944
0x6e,0xf9,0x9e,0x01,0x3b,0xfa,0xfc,0xfd, 0x9d,0xff,0xdd,0xfe,0xcd,0xfe,0xef,0xff, // 16960
0xd7,0x03,0xa4,0xff,0x4d,0xff,0x61,0xfd, 0x49,0xfe,0xa8,0x03,0x1c,0x03,0x15,0x00, // 16976
0xe8,0x03,0xf8,0xfb,0x85,0xf4,0xa4,0xfe, 0xe2,0xff,0x47,0x00,0xdc,0xfe,0xd5,0x04, // 16992
0x80,0xfa,0x03,0xff,0x13,0x02,0x6b,0x01, 0x92,0x01,0xf4,0x00,0x91,0x01,0x20,0x00, // 17008
0x31,0xfe,0x26,0x04,0x7d,0xff,0x04,0xfd, 0xc7,0xff,0x85,0x01,0x96,0xfc,0x7a,0x03, // 17024
0x9f,0xfd,0xeb,0xff,0xa2,0xfe,0x53,0x01, 0x11,0x00,0x8d,0x00,0x9a,0xfc,0x16,0xff, // 17040
0x68,0xff,0xc2,0x00,0xfa,0xfe,0x65,0xff, 0xd0,0x00,0x02,0x00,0xa3,0x01,0xbd,0x03, // 17056
0x0d,0xff,0x2b,0x07,0x13,0x00,0x2b,0xfc, 0x50,0xfc,0xe4,0xfd,0xdd,0x00,0x0a,0x02, // 17072
0x1d,0xfe,0x2f,0x00,0x1f,0xff,0x29,0x00, 0x08,0x00,0xbb,0x02,0x0c,0x01,0xca,0xfb, // 17088
0xb1,0xff,0x1d,0x02,0x71,0x03,0x81,0xff, 0x9e,0xfe,0xeb,0xfe,0x52,0xfe,0x1c,0xff, // 17104
0xc8,0xff,0x01,0xfe,0x60,0x00,0x12,0x03, 0xbe,0x00,0xbf,0xff,0xf7,0xff,0xac,0x00, // 17120
0x65,0xff,0xf6,0xff,0xde,0xfe,0x05,0x00, 0x7f,0x02,0xcc,0x01,0x55,0xff,0xe9,0x00, // 17136
0xc6,0x01,0x0b,0x02,0x9f,0xff,0xbc,0xff, 0xdc,0xff,0x40,0x00,0x18,0x06,0x70,0x01, // 17152
0xe6,0xf8,0x85,0xff,0x41,0xff,0x59,0x00, 0x54,0xff,0x5e,0xfe,0xb7,0xfe,0x14,0x00, // 17168
0x17,0x01,0x19,0xfe,0x0b,0x01,0xf5,0xfe, 0xfb,0xff,0xf5,0xfc,0x48,0x01,0xd8,0xfe, // 17184
0x94,0xff,0xd6,0xfd,0xb4,0xff,0xba,0xff, 0x8f,0x01,0xed,0xff,0x22,0x03,0xe6,0xfe, // 17200
0x0e,0x04,0xd8,0xfc,0xdc,0x00,0x34,0x05, 0xd8,0xff,0x04,0xff,0x1a,0xfd,0x80,0x00, // 17216
0x2c,0xfe,0xc3,0xfe,0x89,0x07,0x3f,0xff, 0x6e,0xf6,0x99,0x00,0xae,0xfc,0x03,0x01, // 17232
0x97,0x00,0x46,0x02,0x14,0x00,0x7d,0xfe, 0x7c,0x00,0xf9,0xff,0x76,0x00,0x10,0xff, // 17248
0xbf,0x04,0x27,0xff,0x67,0x04,0x2a,0x00, 0xa8,0x00,0x79,0xff,0x1d,0xfe,0x56,0x00, // 17264
0xdc,0x00,0x9e,0x00,0x3e,0x01,0x69,0xff, 0x6a,0xff,0xbd,0x00,0x30,0x02,0x53,0x00, // 17280
0xf4,0x07,0x8f,0x02,0x24,0x03,0x21,0x00, 0xcd,0x02,0x4e,0xff,0x7a,0x00,0x99,0x00, // 17296
0x3c,0xff,0x41,0xff,0xd6,0x00,0xb2,0xfe, 0x96,0xff,0x39,0x00,0x4f,0xfe,0xb5,0x00, // 17312
0xee,0xff,0x2f,0x00,0xbf,0xfb,0xf5,0x00, 0x3c,0x00,0xbe,0x00,0xb8,0xff,0xb5,0xfe, // 17328
0x13,0xff,0xd1,0xfe,0xe9,0x06,0xe8,0x03, 0x09,0xfc,0x28,0x01,0xa1,0xff,0xf1,0x00, // 17344
0xcc,0xff,0x36,0xff,0x95,0x01,0x7d,0x0a, 0x66,0xff,0xff,0x00,0x85,0x01,0x5d,0x00, // 17360
0x8e,0x00,0x9d,0x02,0x60,0xff,0x95,0xff, 0x4d,0x02,0x5b,0xfc,0xd5,0x01,0x98,0xff, // 17376
0x88,0x02,0xa9,0x00,0x25,0xfe,0xec,0x00, 0xfa,0xff,0x5d,0xff,0x6d,0x01,0xd5,0x0c, // 17392
0xaf,0x06,0xe0,0x00,0xe6,0x02,0x28,0x02, 0x0a,0x00,0xdd,0xff,0x02,0xfe,0x0a,0x00, // 17408
0x8c,0x00,0xe1,0xfe,0x24,0x01,0xc2,0xff, 0x9a,0xfc,0xc4,0x01,0xa2,0xfb,0xef,0xfe, // 17424
0x67,0xff,0x6d,0xfe,0x16,0x00,0xbc,0x03, 0xf4,0xff,0x34,0xff,0x71,0x01,0x07,0x01, // 17440
0xcd,0x00,0x05,0x02,0xed,0xfd,0xb5,0xfe, 0xa1,0xff,0x8e,0xff,0xac,0x00,0x71,0xfe, // 17456
0x74,0xf8,0xb0,0x01,0x5e,0x00,0x92,0xff, 0xe2,0x02,0x88,0x07,0x68,0x00,0x77,0xfd, // 17472
0x41,0x00,0x1d,0xfd,0x8d,0x00,0x8c,0xfe, 0xc7,0xf9,0x53,0x00,0x17,0xff,0x07,0x01, // 17488
0xd6,0xfd,0x00,0xfe,0xe9,0xfe,0x4c,0x00, 0x04,0xfd,0xfb,0xfc,0xa9,0x00,0x26,0xfe, // 17504
0x9c,0x01,0x9d,0xfe,0xcb,0x00,0x69,0xfb, 0x4d,0xff,0x78,0xfa,0x80,0x01,0xd4,0x01, // 17520
0x62,0x03,0xe4,0x01,0x99,0x03,0x53,0xff, 0x24,0xfb,0xd8,0x01,0xc1,0x01,0x6d,0x00, // 17536
0x44,0xfe,0x94,0xf9,0x74,0xff,0xef,0x02, 0xc7,0xff,0xc4,0x01,0x88,0x01,0xca,0x00, // 17552
0xf1,0xfc,0x9f,0xff,0xd5,0xfe,0xec,0xfb, 0x3c,0xfa,0xdc,0xfb,0x0b,0xfc,0xc3,0xfc, // 17568
0x95,0x00,0x04,0x07,0xa3,0x03,0xd0,0x00, 0x6a,0xfa,0xc8,0xf8,0x7a,0xff,0x9c,0x03, // 17584
0xef,0xff,0x08,0xfd,0xe1,0xff,0x42,0x01, 0x94,0x04,0xf5,0xff,0xf8,0xff,0x85,0x02, // 17600
0x76,0x00,0x74,0x01,0x8f,0xff,0x00,0x02, 0x98,0xfe,0x96,0xfd,0x67,0x00,0x66,0xff, // 17616
0x05,0x00,0x41,0x01,0x51,0x00,0x3d,0xf6, 0xbb,0xf9,0x00,0xfe,0x83,0xff,0xbc,0xff, // 17632
0x9c,0x02,0x29,0x00,0x84,0xf8,0xc6,0x05, 0x69,0xff,0x11,0x00,0x27,0x01,0x9e,0xfc, // 17648
0x9b,0xfe,0xa8,0x0a,0x54,0x00,0x9e,0xfe, 0xf6,0xfe,0xec,0xfa,0x22,0xff,0xec,0xff, // 17664
