#if defined __ICCARM__
#define __ALIGNED(x) __attribute__((aligned(x)))
#else
#define __ALIGNED(x) __attribute__((aligned(x)))
#endif
const unsigned char model2[] __ALIGNED(16) = {
0x4e,0x4e,0x43,0x55,0x01,0x00,0x01,0x00, 0x01,0x0e,0x07,0x00,0x07,0x00,0x00,0x00, // 16
0x02,0x00,0x00,0x00,0x00,0x00,0x00,0x00, 0x18,0x01,0x00,0x00,0x02,0x00,0x00,0x00, // 32
0xe0,0x01,0x00,0x00,0xc8,0x00,0x00,0x00, 0x18,0x01,0x00,0x00,0x00,0x00,0x00,0x00, // 48
0x00,0x00,0x00,0x00,0x00,0x00,0x00,0x00, 0x00,0x00,0x00,0x00,0x00,0x00,0x00,0x00, // 64
0x00,0x00,0x00,0x00,0x08,0x00,0x00,0x00, 0xff,0xff,0xff,0xff,0xff,0xff,0xff,0xff, // 80
0x43,0x4d,0x44,0x00,0x20,0x00,0x80,0x00, 0x50,0x00,0x00,0x00,0x00,0xfe,0x00,0x00, // 96
0x73,0x6d,0x61,0x72,0x74,0x63,0x61,0x72, 0x5f,0x61,0x64,0x5f,0x64,0x65,0x6e,0x73, // 112
0x65,0x5f,0x64,0x72,0x6f,0x70,0x5f,0x30, 0x32,0x35,0x5f,0x61,0x64,0x53,0x69,0x7a, // 128
0x65,0x5f,0x31,0x5f,0x6e,0x6f,0x62,0x6e, 0x2e,0x68,0x35,0x0d,0x0a,0x4d,0x6f,0x6e, // 144
0x20,0x4a,0x75,0x6c,0x20,0x32,0x37,0x20, 0x31,0x32,0x3a,0x32,0x37,0x3a,0x34,0x34, // 160
0x20,0x32,0x30,0x32,0x30,0x0d,0x0a,0x31, 0x34,0x20,0x62,0x69,0x74,0x73,0x0d,0x0a, // 176
0x6e,0x6e,0x63,0x75,0x20,0x76,0x65,0x72, 0x20,0x30,0x2e,0x30,0x70,0x0d,0x0a,0x00, // 192
0x00,0x00,0x00,0x00,0x00,0x00,0x00,0x00, 0x00,0x00,0x00,0x00,0x00,0x00,0x00,0x00, // 208
0x43,0x4d,0x44,0x00,0x20,0x02,0x00,0x00, 0xd0,0x00,0x00,0x00,0x10,0x02,0x00,0x00, // 224
0x00,0x01,0x00,0x02,0x07,0x07,0x06,0x0c, 0x00,0x00,0x00,0x00,0x00,0x00,0x00,0x00, // 240
0x01,0x00,0x07,0x00,0x01,0x00,0x01,0x00, 0x8c,0x00,0x01,0x00,0x00,0x00,0x00,0x00, // 256
0x0c,0x00,0xff,0xff,0xff,0xff,0xff,0xff, 0x00,0x01,0x01,0x00,0x18,0x01,0x00,0x00, // 272
0x00,0x00,0x03,0x00,0x0e,0x00,0x00,0x00, 0x00,0x00,0x00,0x00,0x00,0x00,0x00,0x00, // 288
0x00,0x00,0x00,0x00,0x00,0x00,0x00,0x00, 0x00,0x00,0x00,0x00,0x00,0x00,0x00,0x00, // 304
0x00,0x00,0x00,0x00,0x00,0x00,0x00,0x00, 0x00,0x00,0x00,0x00,0x00,0x00,0x00,0x00, // 320
0x00,0x00,0x00,0x00,0x00,0x00,0x00,0x00, 0xa8,0x07,0x00,0x00,0x18,0x01,0x00,0x00, // 336
0x76,0x06,0x6a,0xf9,0x43,0x04,0x04,0x05, 0x19,0xf0,0xcc,0x04,0x92,0x01,0x49,0x0b, // 352
0xfa,0xfc,0x6f,0xfa,0xe8,0x05,0x37,0xf7, 0x1a,0x06,0x59,0x04,0x26,0x0d,0x44,0x01, // 368
0x93,0xf5,0x59,0xfd,0x27,0xf6,0x84,0xfa, 0xa0,0x09,0x36,0x0f,0x94,0xfe,0x05,0x01, // 384
0x10,0xff,0x78,0xef,0xfa,0x02,0x16,0xfc, 0x7d,0x00,0xa8,0x06,0x80,0xf3,0x52,0xff, // 400
0x3e,0x0e,0x81,0x08,0x3a,0xff,0x23,0x09, 0xb7,0x01,0x75,0xf9,0xe2,0x05,0xc1,0x04, // 416
0xaa,0xfa,0x98,0x09,0x67,0xfa,0xed,0xff, 0x97,0x16,0x08,0x03,0x2c,0xf1,0x0a,0xfe, // 432
0xb4,0x02,0xc0,0xfa,0xdd,0x02,0x2f,0x0b, 0x3d,0xfe,0xd7,0xfa,0x50,0x0a,0x49,0xf2, // 448
0xaa,0x0c,0x86,0x01,0x9c,0x01,0xc6,0xfe, 0x4d,0xf3,0x57,0xfe,0x76,0xfe,0x1f,0x0c, // 464
0x5b,0xfc,0x43,0xe5,0xfe,0x02,0xc3,0x00, 0x31,0xf9,0x4a,0x06,0x45,0xf3,0x9f,0x00, // 480
0xec,0xfd,0x38,0xfb,0x69,0x0e,0xf6,0xfd, 0x8e,0xfa,0x5b,0xfa,0x57,0xfe,0x8c,0xfd, // 496
0x20,0x02,0xd7,0xfb,0x33,0xf7,0x94,0x0c, 0xb1,0x0a,0x5e,0xfa,0x63,0xfd,0xe0,0xfe, // 512
0x28,0x05,0xfc,0xfd,0xd3,0x06,0xbe,0xf2, 0x82,0x02,0xe1,0x0a,0xdf,0xfd,0x63,0x0f, // 528
0x31,0x04,0xd2,0xf4,0x4e,0xf0,0x4d,0xff, 0x32,0x01,0xd8,0xff,0xd3,0x0f,0x41,0x00, // 544
0xdc,0x00,0x9a,0x06,0x7e,0xff,0x02,0xe5, 0xbe,0xfd,0xa7,0x0b,0xe7,0x00,0x6c,0x02, // 560
0x44,0x10,0xb3,0xff,0xce,0xf1,0xdf,0xfe, 0x34,0xf8,0x08,0xfa,0x33,0x06,0xba,0xf5, // 576
0x2b,0x02,0xc9,0x0a,0x02,0xff,0x37,0xfc, 0xf8,0xf5,0x50,0x04,0xdf,0xfc,0xdb,0x03, // 592
0xbd,0x01,0xd7,0xfb,0x6d,0x09,0x86,0xfa, 0x27,0x0b,0x8a,0x03,0x9e,0xf8,0x98,0x03, // 608
0xcc,0xfe,0x6f,0xee,0xed,0x01,0x9d,0xfd, 0x97,0x0d,0x29,0xfb,0x1d,0xfe,0x0a,0x03, // 624
0xab,0xf5,0xe6,0x08,0x1d,0xfb,0xe7,0x00, 0x86,0x05,0xd9,0x02,0x30,0x02,0x8c,0x04, // 640
0x2d,0xf7,0x51,0x0d,0x7a,0x01,0xce,0xfd, 0x7f,0xf4,0xc1,0xfb,0x2a,0x04,0x52,0x0c, // 656
0xbd,0xf1,0x45,0x0a,0x63,0xfa,0xad,0x01, 0xc3,0xfe,0xbd,0xff,0x5c,0x0a,0x96,0xfb, // 672
0xa2,0xfe,0x7f,0xfd,0xec,0xf8,0xf0,0xfa, 0xe6,0x07,0x0d,0x0a,0x6c,0xef,0x8b,0xfc, // 688
0x56,0x03,0x1b,0x15,0x88,0x01,0xec,0xf4, 0xb8,0x03,0xd9,0xf9,0x3c,0x0f,0x92,0x00, // 704
0x32,0xfd,0x72,0x01,0x56,0xee,0xaa,0x00, 0xa8,0x01,0xb8,0xfd,0x71,0xff,0xc6,0xf8, // 720
0x1b,0xfa,0xb6,0x07,0x97,0x0a,0xaa,0xee, 0x96,0xfc,0x49,0xfb,0xb3,0x0a,0x06,0x01, // 736
0x49,0xf4,0x5a,0xf6,0x59,0x00,0x82,0xf0, 0x28,0x00,0xe7,0xfe,0x97,0x00,0x61,0x10, // 752
0xc1,0x01,0x1a,0xff,0x4c,0xfc,0xad,0xff, 0x71,0xf7,0xb0,0xfc,0x52,0x03,0xae,0x09, // 768
0x64,0xf4,0xa6,0x06,0x4a,0x00,0x38,0x08, 0x4b,0x04,0xd1,0xf9,0xf1,0xf8,0xc7,0x0b, // 784
0x66,0xf3,0x9c,0xfe,0xc2,0xfe,0x72,0xff, 0x2f,0x11,0x76,0x00,0x02,0xff,0x22,0xfa, // 800
0x97,0x07,0xf4,0xff,0xe1,0xfd,0x21,0x0a, 0x9f,0x03,0xcf,0x02,0x21,0xfa,0x8f,0xfe, // 816
0xaf,0x00,0x4e,0x02,0x45,0xf1,0x85,0x03, 0xa9,0x03,0x36,0xf8,0x31,0x03,0xb0,0x19, // 832
0xde,0xfe,0xf0,0xfb,0xf9,0x00,0xd4,0xf5, 0x21,0xf2,0xf3,0x00,0xed,0x0e,0x16,0x02, // 848
0x28,0x06,0x55,0x06,0xe6,0xf7,0x65,0x0d, 0xd8,0xfe,0x74,0xf4,0x99,0xfe,0x72,0xf6, // 864
0x7a,0xfa,0x7d,0x06,0xd1,0xfd,0x51,0xfe, 0x69,0xf2,0x8a,0xfc,0x58,0x0d,0x14,0x07, // 880
0x2d,0xf9,0x41,0xf7,0x0d,0x06,0x7e,0xff, 0x4f,0x03,0x6b,0xfd,0x39,0xfc,0x9c,0xfe, // 896
0x26,0x11,0x30,0xff,0xeb,0xf8,0x76,0xfe, 0xe8,0xf6,0x97,0xf9,0x60,0x06,0xed,0x0f, // 912
0x84,0x00,0xc5,0xfe,0xe2,0xff,0xe2,0xef, 0x8f,0xff,0x48,0xff,0x3e,0x07,0x12,0xfd, // 928
0x75,0xe6,0xdd,0x01,0xce,0x04,0xce,0xf9, 0x30,0x0b,0xef,0xf3,0x82,0x00,0xb3,0x00, // 944
0xdb,0xfe,0x2c,0x12,0xee,0xfc,0xa3,0x01, 0x86,0x10,0x55,0x00,0x85,0xfe,0xfc,0xff, // 960
0x63,0xef,0x02,0xff,0x0c,0x02,0xa2,0x04, 0x5a,0xfb,0x77,0x00,0xe4,0xfe,0x54,0xf8, // 976
0xc0,0x0c,0xc4,0xf1,0xc0,0xf0,0xe7,0xfe, 0x3c,0x01,0xa5,0xff,0x16,0x11,0xbc,0x02, // 992
0x14,0xfd,0x6d,0x10,0xa6,0xff,0xb3,0x01, 0x87,0xff,0xdd,0xf0,0x58,0xff,0x9b,0xfe, // 1008
0x6e,0xf1,0xbf,0x00,0xef,0x0a,0xc8,0xff, 0xb7,0x07,0x47,0x04,0xc7,0xfa,0xf3,0xfd, // 1024
0x6d,0x04,0x02,0xf0,0x7a,0xfe,0x16,0x0e, 0xde,0xfe,0xbc,0x00,0xad,0xff,0x23,0x01, // 1040
0x6d,0xe8,0xbb,0xfe,0xb2,0x0e,0x7d,0x03, 0x0b,0x01,0x3b,0xef,0xab,0xff,0x83,0xfe, // 1056
0x29,0xff,0xfa,0x0b,0x05,0x01,0xcf,0xfa, 0x55,0xfd,0x3d,0x04,0xb0,0x00,0x7f,0x01, // 1072
0x9a,0x00,0xe0,0xf0,0x27,0x12,0xce,0x0e, 0xe8,0x00,0x36,0xfb,0x3e,0x00,0x5d,0xf0, // 1088
0xd4,0x01,0x01,0xff,0xcc,0x08,0xd4,0xf9, 0x8b,0xfc,0x9d,0x07,0xb8,0xeb,0x0e,0x02, // 1104
0x54,0x09,0x75,0xee,0x82,0x00,0x3a,0x00, 0x91,0xff,0x23,0x11,0x0c,0xff,0x2e,0x02, // 1120
0x25,0x0d,0xdc,0xff,0x28,0xf3,0x72,0xff, 0xcc,0xf6,0x0d,0xfa,0x11,0x08,0x2d,0xfc, // 1136
0x39,0x00,0x72,0xff,0xb5,0x03,0x85,0xf4, 0x8c,0xf3,0x71,0x0b,0x0a,0xf0,0x45,0xff, // 1152
0xe3,0x02,0x4d,0xff,0xac,0x11,0x42,0x00, 0x8e,0xff,0x01,0x05,0x65,0xfa,0xab,0xff, // 1168
0x25,0x01,0xc9,0xed,0x34,0xfa,0xf4,0x05, 0x4b,0x00,0xe5,0xfb,0x26,0xf2,0x12,0xfc, // 1184
0x3b,0x09,0xc7,0x00,0xd3,0x02,0x55,0x10, 0x1f,0x02,0x10,0xfb,0xd2,0xfc,0x7c,0xf6, // 1200
0x5a,0xfe,0xc3,0x04,0xe4,0x03,0x8a,0x03, 0xab,0x04,0x50,0x03,0xc4,0x03,0x2b,0xf6, // 1216
0xd8,0x08,0x31,0xf9,0x28,0x03,0x14,0x15, 0x0e,0x00,0x17,0xf6,0x38,0x07,0xec,0xf3, // 1232
0xd7,0x0e,0xb0,0xff,0x7c,0xff,0xeb,0xfe, 0x76,0xf1,0x3d,0xff,0x98,0xfe,0x4b,0xf0, // 1248
0x58,0xfe,0x0c,0x08,0x2f,0x03,0x2c,0x09, 0x5d,0x04,0xf5,0xf8,0xcc,0xf1,0x80,0xfe, // 1264
0x1c,0x01,0x3c,0xff,0x9e,0x11,0x3c,0x00, 0xdd,0xfe,0x17,0x11,0xb7,0x00,0x18,0xfb, // 1280
0xe3,0x00,0x87,0xf0,0xab,0x00,0x27,0xfe, 0x0a,0xfe,0xf1,0xfc,0x42,0xff,0xa4,0x01, // 1296
0x31,0xf1,0x6c,0xfe,0x39,0x04,0x6c,0x0c, 0xfe,0xf9,0x8a,0xec,0x04,0x04,0x79,0xfe, // 1312
0x78,0xfb,0xe5,0x05,0x54,0x07,0x0a,0xfc, 0x97,0x03,0xcf,0xff,0x6b,0xf8,0x82,0x0e, // 1328
0x4c,0xef,0xcd,0x00,0x4e,0x02,0x24,0x0a, 0xc5,0x02,0xf7,0xfb,0xe2,0xf7,0x18,0x0c, // 1344
0x9a,0x09,0xd7,0xfe,0xff,0xf7,0xa2,0x01, 0x8a,0xfd,0xa8,0x0d,0x80,0xf2,0x91,0xf4, // 1360
0x59,0x05,0x80,0x19,0xca,0xfe,0x14,0xfd, 0x53,0x05,0x65,0xf7,0xbc,0x0f,0xe0,0xff, // 1376
0x71,0xff,0xc5,0xff,0xad,0xf2,0x4f,0xff, 0x7b,0xfe,0xf6,0xfc,0x32,0x02,0x28,0x13, // 1392
0x15,0x03,0x05,0xf1,0xbf,0xff,0x4b,0x01, 0xe3,0x01,0x00,0x05,0x0b,0x05,0xbe,0xfd, // 1408
0x1e,0xef,0x99,0xfd,0x35,0x05,0xe2,0xec, 0x83,0xfd,0x4c,0x05,0x35,0xff,0x4d,0x0d, // 1424
0x0e,0x00,0xff,0xfa,0x49,0x06,0x13,0xfe, 0xc7,0xee,0x87,0xfe,0x29,0x0d,0x60,0xff, // 1440
0xbc,0x03,0x62,0x05,0xc0,0xfe,0x64,0xe6, 0x3b,0xfd,0xd2,0x0d,0xe2,0xfe,0xf7,0x03, // 1456
0xd9,0x02,0x49,0x04,0x56,0x05,0xf1,0x02, 0xfe,0xfd,0x95,0xf6,0x6c,0x0c,0xa2,0xff, // 1472
0x19,0x07,0x57,0x03,0xaf,0xfe,0xf6,0xed, 0x97,0xfe,0x45,0x07,0x2c,0x02,0x2b,0xfe, // 1488
0x49,0xf1,0x6f,0xff,0x5a,0x0c,0xe3,0x07, 0x36,0xf6,0x24,0xf7,0x0c,0x03,0x1e,0x16, // 1504
0x97,0x02,0xfd,0xf6,0xca,0xfb,0x07,0x03, 0x36,0xfb,0x53,0xfd,0x32,0xfb,0x64,0xfe, // 1520
0x7d,0xfd,0x62,0x0d,0xde,0xf2,0x1c,0xf3, 0x4b,0x06,0x83,0x02,0x6c,0xf9,0xa5,0x0a, // 1536
0xfb,0xfe,0x66,0x03,0x3e,0xef,0x3e,0x00, 0xa7,0xfe,0x53,0x00,0xb0,0x0f,0xaa,0x00, // 1552
0xf4,0x00,0xa4,0x02,0x52,0xfd,0x2d,0x13, 0x64,0xfd,0x2a,0xff,0x4e,0xfb,0xb9,0xf9, // 1568
0x31,0x0e,0xee,0xff,0x6c,0xf5,0x88,0xfd, 0x15,0xf8,0x2a,0xfb,0xbb,0x07,0x37,0xf4, // 1584
0x34,0x08,0x97,0xfb,0xa8,0xfd,0x63,0x09, 0x2c,0x04,0xe8,0xfd,0x8a,0xf2,0x84,0x00, // 1600
0xf4,0xfc,0x6b,0xff,0x6d,0x12,0x70,0x01, 0x81,0xff,0x20,0xfb,0xf4,0xfd,0x56,0x1b, // 1616
0x74,0x00,0x95,0xf1,0x8e,0x03,0xbb,0xf9, 0xa9,0xf5,0x33,0x03,0xb9,0x00,0xbe,0x00, // 1632
0x0e,0x10,0x0f,0xff,0xf4,0x02,0x9d,0xf2, 0xc4,0xfe,0x6f,0xff,0x93,0x00,0x84,0x0d, // 1648
0xde,0xff,0xf8,0x01,0x2e,0x05,0x57,0xfe, 0x1d,0xfc,0x89,0x00,0x9e,0xfe,0x37,0x10, // 1664
0xef,0xee,0xcc,0x04,0x4f,0xfb,0xdf,0xec, 0x8d,0xff,0x0f,0x00,0x00,0xf8,0x12,0x0c, // 1680
0xac,0xf9,0xd0,0x03,0x3e,0x1a,0xfa,0xfe, 0x20,0xfc,0xf6,0x03,0x10,0xf3,0x60,0xfd, // 1696
0x27,0x04,0xfe,0x0b,0x74,0x02,0xa7,0xf2, 0x34,0xf8,0xef,0x09,0xa1,0x0a,0xed,0xfe, // 1712
0x81,0xf8,0x57,0xfe,0xa6,0x09,0x7e,0x05, 0x4b,0xfb,0x39,0x04,0x15,0xfc,0x9a,0xf2, // 1728
0xbe,0xfe,0xfd,0x0e,0xcb,0x02,0x24,0xf9, 0xa6,0xf5,0xda,0x08,0xf2,0xfc,0x89,0xfb, // 1744
0x56,0x0f,0x76,0x02,0xeb,0xfc,0x00,0x09, 0x00,0xfd,0xb3,0xff,0x8d,0x01,0xce,0xfc, // 1760
0xfc,0x05,0x8d,0x04,0x73,0x04,0x02,0xfe, 0x03,0xf3,0x04,0x00,0x98,0x04,0x1c,0xf6, // 1776
0xde,0x00,0xf5,0xf5,0xea,0x02,0x73,0xfd, 0x41,0x00,0xbf,0x06,0x23,0xf4,0xeb,0x0f, // 1792
0x70,0x0a,0xa1,0xf9,0xef,0xf5,0x85,0x02, 0x83,0xf3,0x6e,0xf7,0x13,0x06,0xfd,0xf8, // 1808
0x44,0x05,0xbb,0x12,0x3f,0xfc,0x94,0x04, 0xa9,0x04,0x33,0xf2,0x69,0x10,0xad,0xff, // 1824
0x34,0x00,0xac,0x00,0x0f,0xee,0x4b,0xfe, 0x37,0x01,0x30,0xf7,0xb9,0xfd,0xd6,0xfd, // 1840
0x3c,0xfb,0x58,0x05,0xd8,0x08,0xee,0xf0, 0xe4,0xf9,0x0f,0x01,0xbe,0x05,0x8f,0x01, // 1856
0x1f,0xf3,0x5e,0xf5,0x47,0x05,0xd5,0xf3, 0x39,0x02,0x85,0x00,0xb9,0x01,0x58,0x0c, // 1872
0x3b,0xf8,0xe7,0x08,0x57,0x07,0xc7,0xf8, 0x2f,0x07,0x47,0x01,0x09,0xf3,0xf1,0x07, // 1888
0x9f,0x00,0x53,0x0e,0x11,0x00,0xc6,0xff, 0x78,0x00,0x24,0xef,0x8a,0x00,0x57,0x03, // 1904
0xb7,0x05,0xe6,0xfc,0xde,0xe6,0xcb,0x00, 0xe2,0x06,0x69,0xfb,0x0a,0x09,0x8d,0x04, // 1920
0xb6,0xfb,0x92,0xf0,0x9c,0xff,0x33,0x0b, 0xb9,0x06,0x3c,0xf8,0x56,0xee,0x53,0xff, // 1936
0x37,0x04,0xc8,0x00,0x9a,0x0b,0x72,0xfd, 0xa7,0xfd,0xbe,0x0b,0x50,0xfc,0x3c,0xe3, // 1952
0x51,0x01,0xaa,0x07,0xe2,0xfa,0x59,0x06, 0x51,0xf9,0x4d,0x05,0xd2,0x0c,0x3b,0xfb, // 1968
0xf7,0x09,0x63,0x07,0xc7,0xf6,0xa0,0xf1, 0xa9,0x00,0xbe,0x08,0x1c,0x01,0xc0,0x0a, // 1984
0x38,0x06,0xd1,0xf8,0x7a,0xfc,0xfe,0xfb, 0x16,0x09,0x6d,0x02,0x1b,0xf2,0x94,0xfa, // 2000
0x05,0x03,0xf8,0xf3,0x46,0x03,0xca,0x1a, 0xf5,0x01,0x1e,0xf5,0xe0,0x01,0xd1,0xff, // 2016
0xb1,0x0a,0x09,0x00,0x6d,0xfe,0xed,0x00, 0x07,0xef,0xc6,0x00,0x29,0x00,0xd6,0x0e, // 2032
0x28,0x01,0xfd,0xf7,0xe3,0xfc,0x89,0xf8, 0xda,0xf9,0x67,0x08,0xc2,0xff,0xca,0x01, // 2048
0x6b,0xfd,0x8f,0x00,0x96,0x09,0xaf,0xfc, 0xb3,0x0a,0x64,0xfc,0x9d,0x04,0x9a,0x08, // 2064
0xa8,0x01,0x82,0xf4,0x91,0xfc,0xf3,0x09, 0x65,0xf2,0xe3,0xfe,0x37,0x00,0xe3,0xff, // 2080
0xf9,0x0f,0x54,0x00,0xf1,0x02,0x20,0xff, 0x78,0x06,0x4e,0xf5,0xd0,0xff,0xc3,0x0e, // 2096
0x74,0xfd,0x4f,0x07,0x88,0xef,0xc1,0x06, 0x42,0x03,0x10,0xfc,0x19,0x03,0xc3,0x00, // 2112
0x2b,0x01,0x01,0x10,0x6d,0x01,0x6b,0xff, 0x4c,0x00,0x86,0xf0,0x89,0xfe,0xce,0xfe, // 2128
0x48,0xf4,0xc8,0x00,0x7a,0x11,0xce,0xfd, 0xe8,0x08,0xac,0x03,0x79,0xf7,0x3d,0x0e, // 2144
0xf7,0x00,0x61,0xf8,0xf6,0xfc,0x08,0xf8, 0x1e,0xfa,0x63,0x07,0xf8,0x0a,0x37,0xfa, // 2160
0xc4,0x00,0xf1,0x07,0xaf,0xf1,0x79,0xfe, 0x0a,0x08,0xb4,0x01,0x9a,0xf9,0xcd,0x02, // 2176
0x8c,0x00,0x3e,0xed,0xbf,0xfd,0xeb,0x03, 0xd9,0xfc,0x06,0x03,0x59,0x0e,0x4b,0xfd, // 2192
0xb8,0x01,0xfe,0x06,0x38,0xf1,0xdc,0xfe, 0x6b,0x02,0xc1,0x0f,0xc3,0x01,0xf8,0xf1, // 2208
0xdc,0xf9,0x4e,0x07,0x6d,0x0d,0xbc,0xf7, 0x2f,0x00,0x1e,0x03,0x1e,0xfb,0xf8,0x00, // 2224
0xb6,0x02,0xf5,0xfb,0x1e,0x03,0x33,0x15, 0xa8,0x03,0xa2,0xf1,0x19,0x03,0x9f,0x00, // 2240
0xe8,0xfc,0xaa,0xfe,0xe2,0x07,0x48,0xfc, 0xf7,0xf1,0xae,0x06,0x56,0xf5,0xb9,0x00, // 2256
0xe5,0x05,0x2a,0x03,0xbe,0x05,0xfe,0xf8, 0x28,0xfe,0x61,0x0d,0x7e,0xf1,0xbc,0xfe, // 2272
0x89,0x00,0x1b,0x00,0x11,0x0f,0xd7,0x00, 0x45,0xff,0x40,0x00,0xd9,0xfd,0x70,0xf8, // 2288
0xa8,0xfa,0xeb,0x05,0xc0,0x05,0x19,0xf2, 0x58,0xff,0xef,0x0a,0x35,0x00,0x94,0xfe, // 2304
0x9a,0x11,0x72,0x0e,0x6f,0xef,0xa6,0xf1, 0xe5,0xfb,0xa7,0x08,0x46,0xfa,0xac,0xfb, // 2320
0x15,0x19,0xb0,0x00,0x41,0x02,0x3b,0x12, 0x91,0x02,0xdb,0xeb,0xe3,0x0e,0x4b,0xf6, // 2336
0x25,0x08,0xd3,0x05,0x61,0x02,0xc3,0x13, 0x3d,0x01,0xb4,0xef,0xae,0xfe,0x81,0x00, // 2352
0x84,0xe9,0xb7,0x01,0xda,0xfc,0xa0,0x06, 0x6e,0x05,0x44,0x08,0x03,0xf2,0x80,0xed, // 2368
0xcc,0xfd,0x6c,0xff,0x8b,0x07,0x41,0xe7, 0xec,0x00,0xfc,0xfc,0x47,0x0f,0xdd,0x05, // 2384
0xa3,0xff,0xd3,0x00,0x67,0x03,0x8b,0xff, 0x92,0xfe,0xd8,0x08,0x16,0x0d,0xff,0xfb, // 2400
0x9f,0xfd,0xad,0xfd,0x5b,0xff,0x66,0x01, 0xb1,0xff,0xa8,0xee,0x90,0x02,0x8c,0xf5, // 2416
0xd7,0x0e,0x9f,0x00,0x7a,0x03,0x98,0xec, 0x9c,0xfe,0xfe,0xff,0x37,0x04,0xaf,0xfd, // 2432
0x42,0xf3,0x20,0x0d,0x9d,0xfe,0xd2,0x02, 0x58,0x04,0x51,0xef,0x5d,0xff,0xbe,0xf1, // 2448
0xc1,0xf9,0xbc,0xfe,0x2b,0x16,0x58,0x13, 0x38,0x01,0x5d,0xfa,0x65,0x06,0xc6,0xed, // 2464
0xa1,0xfc,0x7f,0x00,0xe8,0x00,0x19,0xfc, 0x06,0x02,0xbb,0xfa,0xaa,0x05,0xfe,0xee, // 2480
0xc8,0x07,0x2d,0x03,0x88,0x02,0x4e,0x0a, 0x24,0xef,0xcb,0xf7,0xcf,0x16,0x5b,0x0b, // 2496
0x9b,0xff,0x91,0x11,0x75,0xfe,0xcf,0x01, 0x6d,0xfd,0xaf,0xf4,0x6c,0xfc,0x7e,0xfa, // 2512
0x8e,0xe7,0x17,0x02,0x87,0x09,0x33,0x00, 0x57,0x0f,0x01,0x09,0x01,0xfd,0xb3,0x0f, // 2528
0xcf,0x00,0xc6,0x00,0x27,0xf0,0x82,0xec, 0xf8,0xf8,0x6e,0x01,0xe6,0x11,0xc1,0xf9, // 2544
0xd2,0x05,0x1c,0x0f,0xf2,0xf2,0x4a,0xfb, 0xc5,0xfd,0x4c,0x00,0x50,0x05,0x15,0xf4, // 2560
0xcb,0xf5,0x9d,0xf8,0xfe,0x10,0x2c,0xf2, 0xd1,0xec,0x9e,0xff,0x77,0x01,0x2f,0x01, // 2576
0x43,0x4d,0x44,0x00,0x20,0x03,0x80,0x00, 0x10,0x0a,0x00,0x00,0x10,0x0a,0x00,0x00, // 2592
0x01,0x01,0x00,0x02,0x0c,0x00,0x00,0x00, 0x00,0x00,0x00,0x00,0x00,0x00,0x00,0x00, // 2608
0x01,0x00,0x8c,0x00,0x01,0x00,0x01,0x00, 0x8c,0x00,0x01,0x00,0x00,0x00,0x00,0x00, // 2624
0x0d,0x00,0xff,0xff,0xff,0xff,0xff,0xff, 0x00,0x00,0x00,0x00,0x00,0x00,0x00,0x00, // 2640
0x00,0x00,0x00,0x00,0x00,0x00,0x00,0x00, 0x00,0x00,0x00,0x00,0x00,0x00,0x00,0x00, // 2656
0x00,0x00,0x00,0x00,0x00,0x00,0x00,0x00, 0x00,0x00,0x00,0x00,0x00,0x00,0x00,0x00, // 2672
0x00,0x00,0x00,0x00,0x00,0x00,0x00,0x00, 0x00,0x00,0x00,0x00,0x00,0x00,0x00,0x00, // 2688
0x00,0x00,0x00,0x00,0x00,0x00,0x00,0x00, 0x00,0x00,0x00,0x00,0x00,0x00,0x00,0x00, // 2704
0x43,0x4d,0x44,0x00,0x20,0x05,0x00,0x00, 0x90,0x0a,0x00,0x00,0x10,0x02,0x00,0x00, // 2720
0x01,0x00,0x00,0x02,0x0d,0x0b,0x0b,0x0a, 0x00,0x00,0x00,0x00,0x00,0x00,0x00,0x00, // 2736
0x01,0x00,0x8c,0x00,0x01,0x00,0x01,0x00, 0x64,0x00,0x01,0x00,0x00,0x00,0x00,0x00, // 2752
0x0c,0x00,0xff,0xff,0xff,0xff,0xff,0xff, 0x00,0x00,0x01,0x00,0xc8,0x00,0x00,0x00, // 2768
0x00,0x01,0x02,0x00,0x18,0x01,0x00,0x00, 0x00,0x00,0x00,0x00,0x00,0x00,0x00,0x00, // 2784
0x00,0x00,0x00,0x00,0x00,0x00,0x00,0x00, 0x00,0x00,0x00,0x00,0x00,0x00,0x00,0x00, // 2800
0x00,0x00,0x00,0x00,0x00,0x00,0x00,0x00, 0x00,0x00,0x00,0x00,0x00,0x00,0x00,0x00, // 2816
0x00,0x00,0x00,0x00,0x00,0x00,0x00,0x00, 0x60,0x6d,0x00,0x00,0xc8,0x00,0x00,0x00, // 2832
0x1b,0x00,0x3e,0x00,0xa1,0xff,0x72,0xff, 0xf1,0xff,0x5e,0xff,0x62,0x00,0xac,0x00, // 2848
0x72,0x00,0xc2,0xff,0x80,0x00,0xea,0xff, 0x06,0x00,0x93,0x00,0xd0,0xff,0x4c,0xff, // 2864
0x14,0x00,0x28,0x00,0xc5,0xff,0xb8,0xff, 0x10,0x00,0x8e,0xff,0xcf,0xff,0xc6,0x00, // 2880
0x7f,0xff,0x8c,0x00,0x6a,0xff,0x45,0xff, 0x3f,0x00,0xf6,0xff,0x75,0xff,0x4f,0x00, // 2896
0x27,0x00,0x6f,0x00,0x26,0x00,0xfe,0x00, 0x89,0x00,0x17,0x00,0xba,0xff,0x7d,0xff, // 2912
0xdb,0xff,0x0d,0x00,0x29,0xff,0xba,0x00, 0xd4,0xff,0x5c,0x00,0xc8,0xff,0x78,0x00, // 2928
0x6a,0x00,0x77,0x00,0xb3,0xff,0x7f,0xff, 0x3d,0xff,0x85,0x00,0xb6,0x00,0x3a,0x00, // 2944
0x2a,0x00,0x4a,0x00,0xae,0xff,0x46,0xff, 0xb4,0xff,0xe9,0xff,0x66,0x00,0x1c,0x01, // 2960
0x45,0x00,0x21,0xff,0x38,0x00,0x65,0x00, 0xe4,0xff,0xc8,0xff,0xf7,0xff,0x6e,0x00, // 2976
0x11,0x00,0xd0,0x00,0xec,0xff,0x9c,0x00, 0x82,0x00,0xb5,0x00,0xea,0xfe,0x57,0xff, // 2992
0xde,0xff,0x59,0x00,0x73,0xff,0x1e,0x01, 0xb3,0xff,0xa2,0xff,0x83,0x00,0xf8,0x00, // 3008
0xb1,0x00,0x96,0x00,0xee,0xff,0x06,0x00, 0x5c,0x00,0xa6,0xff,0xc0,0xff,0x7e,0xff, // 3024
0x94,0x00,0x04,0x00,0xfe,0xfe,0x43,0x00, 0x53,0x00,0x15,0x00,0x74,0xff,0x07,0xff, // 3040
0x45,0x00,0x95,0x00,0xb3,0xff,0x10,0x00, 0xd1,0xff,0x00,0x00,0xf8,0xff,0xb9,0xff, // 3056
0xa0,0xff,0xb3,0xff,0x5d,0x00,0x4a,0xff, 0xb8,0xff,0xe7,0xff,0x16,0x00,0x95,0x00, // 3072
0x84,0x00,0xea,0xff,0x4b,0x00,0x2f,0x01, 0xce,0xff,0x58,0x00,0x49,0x00,0x3e,0x00, // 3088
0x1c,0x00,0x2e,0x00,0x34,0x00,0x8a,0x00, 0x2b,0x00,0x93,0xff,0xb1,0x00,0x47,0x00, // 3104
0x76,0xff,0x4a,0x00,0x39,0x00,0xcc,0xff, 0xb0,0xff,0xe8,0xff,0x36,0x02,0xf8,0xff, // 3120
0x6e,0xfe,0xfe,0xfe,0x9e,0x00,0x5a,0x00, 0x16,0x00,0xd2,0xff,0xb1,0xff,0xc1,0xff, // 3136
0xb8,0xfe,0xec,0xfe,0x63,0x00,0x3b,0xff, 0x6a,0x01,0xa7,0x00,0x03,0x00,0x23,0x00, // 3152
0x6f,0xff,0xfc,0xff,0xc4,0x00,0x40,0xff, 0xf6,0xff,0x22,0x00,0x1d,0x00,0x56,0x00, // 3168
0x98,0x00,0x0e,0x00,0x7f,0x00,0xcc,0xff, 0x3f,0x00,0x1f,0x00,0xc4,0x00,0xdd,0xff, // 3184
0x7b,0xfe,0x3c,0x01,0xaf,0xff,0x22,0x01, 0x59,0x01,0x31,0x00,0xc0,0xff,0x7e,0xff, // 3200
0xbe,0xff,0x3b,0x00,0x0f,0x00,0x05,0x00, 0x00,0xff,0x92,0xff,0xa7,0xff,0xb2,0xff, // 3216
0xd7,0xff,0x9a,0xff,0xfc,0xff,0x76,0xff, 0xab,0x00,0xc4,0x00,0x17,0x00,0x3d,0x00, // 3232
0xd0,0xff,0xa5,0x01,0x91,0xff,0x5d,0x00, 0x30,0x00,0xb4,0xfe,0x60,0x00,0x17,0x00, // 3248
0x9d,0x00,0xc5,0xff,0x1e,0x00,0xfa,0xff, 0xf7,0xfe,0xd6,0xff,0x32,0x00,0x29,0x00, // 3264
0x81,0x00,0xe5,0xfe,0x82,0xff,0x6a,0xff, 0x85,0xff,0x6f,0xff,0x39,0x00,0x17,0x00, // 3280
0xbe,0x00,0xf7,0xff,0xb8,0xff,0xd5,0xff, 0xac,0x01,0x97,0x00,0xfb,0xff,0x0c,0x00, // 3296
0x7a,0x00,0x08,0x00,0xb8,0xff,0x1e,0x00, 0xda,0xff,0x30,0x00,0xec,0xfe,0xeb,0xff, // 3312
0xce,0x00,0xaf,0xff,0x76,0x00,0x7b,0x00, 0xb5,0x00,0xd6,0xff,0x20,0x00,0x14,0x00, // 3328
0x8a,0x01,0x3f,0x00,0x2e,0xff,0xa9,0x00, 0xf0,0xff,0x1b,0x00,0x28,0xff,0x9c,0xff, // 3344
0x62,0x00,0xf8,0xfd,0xd2,0xff,0x05,0x00, 0x94,0x00,0xd1,0x01,0x44,0xff,0x29,0x00, // 3360
0xbc,0xff,0x22,0x00,0x22,0x01,0xcf,0xff, 0x29,0xff,0xc7,0x01,0xb9,0xff,0x70,0x00, // 3376
0x3a,0x00,0x06,0x00,0x73,0xff,0x91,0x00, 0x6f,0x00,0x1a,0x00,0xed,0xff,0xba,0xff, // 3392
0x7f,0x00,0xf4,0xff,0xb1,0xff,0x7a,0xff, 0x50,0xff,0xef,0x00,0xdc,0x00,0x9d,0xff, // 3408
0xd8,0xff,0x56,0x00,0x5f,0x00,0xbc,0xff, 0xa0,0x01,0x0a,0x00,0xa1,0x00,0xfb,0xff, // 3424
0xfe,0xff,0x24,0xff,0x93,0xff,0xbb,0xff, 0x5d,0xff,0x04,0x00,0xd2,0xff,0x96,0x00, // 3440
0x26,0xff,0x2e,0x00,0x3b,0xff,0x92,0x00, 0xdb,0xff,0x26,0x00,0xfb,0xfe,0x02,0x00, // 3456
0x3d,0x00,0x72,0xff,0xed,0xfd,0x7a,0x00, 0xcf,0xff,0xf9,0xff,0x89,0x00,0x77,0xff, // 3472
0xdb,0xff,0xb6,0xff,0x92,0x00,0x30,0x01, 0xb2,0xff,0xab,0xff,0x92,0x00,0xf1,0xff, // 3488
0x52,0x00,0xcb,0xff,0xb3,0xff,0x0f,0x00, 0xba,0x00,0x20,0xff,0x51,0xff,0x43,0x00, // 3504
0xc8,0xff,0xa8,0xff,0xd5,0x00,0x9d,0xff, 0x54,0x00,0xac,0xff,0xce,0x01,0x56,0xff, // 3520
0xce,0xff,0xba,0xff,0x1a,0x00,0x4b,0xff, 0xb7,0xff,0x4e,0x00,0xe3,0xff,0x47,0x00, // 3536
0x6b,0xff,0xf1,0xff,0x5d,0xff,0x03,0xff, 0xa5,0xff,0x57,0x00,0xb5,0x00,0xe4,0xff, // 3552
0x2f,0x00,0x63,0xff,0x16,0x00,0x4b,0x00, 0xc9,0xff,0x68,0xff,0x28,0x00,0xe7,0x00, // 3568
0xc1,0xff,0xdc,0xfe,0x0f,0x00,0x59,0x00, 0x63,0x00,0x44,0x00,0xb5,0xff,0x64,0x00, // 3584
0x12,0x00,0x02,0x00,0x57,0x00,0x3e,0x00, 0x1c,0xfe,0x68,0x00,0x70,0x01,0x29,0x00, // 3600
0xcb,0xff,0x99,0xff,0xb2,0xff,0xd5,0xff, 0x6b,0xff,0x2f,0x01,0x32,0x00,0xfa,0xff, // 3616
0xd9,0xff,0x58,0x00,0x40,0x00,0xc6,0x00, 0xc4,0xff,0xd6,0xff,0x34,0xff,0x93,0xff, // 3632
0xac,0xff,0x18,0x00,0x17,0x00,0x62,0xff, 0xf9,0xff,0x45,0xff,0x4f,0xfe,0x5c,0xff, // 3648
0x1e,0x00,0x3f,0x00,0x43,0x00,0x7b,0xff, 0x4a,0x00,0xe0,0xff,0x17,0x02,0xa8,0xff, // 3664
0x19,0xff,0x59,0xff,0xaa,0x00,0x11,0xff, 0x68,0x00,0x65,0x00,0x6f,0x00,0x3b,0x00, // 3680
0x7a,0xff,0x39,0xfe,0xb4,0x00,0x54,0x00, 0xb9,0x00,0x6c,0x00,0x8a,0x00,0x87,0xff, // 3696
0x62,0xfe,0xda,0xff,0xef,0xff,0x9d,0xff, 0x3f,0x00,0x1a,0x00,0x40,0xff,0xd4,0xff, // 3712
0xe4,0x00,0x69,0xff,0x67,0x00,0x7e,0xff, 0x8b,0x00,0x55,0x00,0x35,0x00,0xd8,0xff, // 3728
0x73,0xff,0xfd,0xff,0x6c,0x00,0x6f,0x00, 0xe1,0xff,0x99,0xff,0xd6,0x01,0x27,0x00, // 3744
0x8a,0xff,0xf0,0xff,0x85,0xff,0x16,0x01, 0x36,0x00,0xf1,0xff,0x3a,0x00,0xb2,0xff, // 3760
0xad,0xff,0x6f,0x00,0xe3,0xff,0x45,0x00, 0xcd,0xff,0x2c,0x00,0x13,0x00,0x34,0x00, // 3776
0xe8,0xfe,0x5e,0x00,0xaf,0x01,0xc2,0xff, 0x9a,0x00,0x5c,0x01,0x00,0x00,0xa2,0x00, // 3792
0xb3,0xff,0x4b,0x00,0x42,0xff,0x6b,0x00, 0x47,0x00,0xd6,0xff,0x0f,0x00,0x72,0xff, // 3808
0x18,0x01,0xb6,0x00,0x06,0xff,0x8b,0xff, 0x0f,0x01,0x3c,0x00,0x07,0x00,0xb7,0x00, // 3824
0xd7,0x00,0x42,0x00,0xfa,0xfe,0x2c,0x00, 0x1f,0xff,0x7e,0x00,0xbc,0x00,0xd9,0xff, // 3840
0xaf,0x00,0xf1,0xff,0xff,0xff,0xe7,0xff, 0x04,0x00,0x54,0x01,0x9c,0xff,0x4b,0x00, // 3856
0xaf,0xff,0x31,0x00,0x1f,0x00,0x3d,0x00, 0xd1,0xff,0x65,0x00,0x24,0x00,0xe1,0xfe, // 3872
0xc4,0x00,0xb2,0xff,0x90,0x00,0x51,0x00, 0xb3,0xff,0x68,0xff,0x7d,0x00,0x31,0x00, // 3888
0xa4,0x00,0x22,0x00,0x65,0x00,0xc8,0x00, 0x42,0x00,0x83,0x00,0xea,0xff,0xde,0x00, // 3904
0x26,0xff,0xaa,0xff,0xdb,0x00,0x69,0x00, 0x3b,0x00,0xb1,0xff,0x50,0xff,0xe7,0x00, // 3920
0x63,0x00,0xf0,0xfe,0x23,0x01,0x14,0x00, 0x51,0xff,0x01,0x00,0x16,0x00,0x08,0x01, // 3936
0x80,0xff,0x88,0x00,0x9c,0xff,0x25,0x01, 0x9d,0x01,0x53,0x00,0x1e,0x00,0x3a,0x00, // 3952
0x97,0xff,0xba,0xff,0x08,0x00,0xd2,0xfe, 0x21,0x00,0xef,0xff,0x1f,0x00,0xa8,0x00, // 3968
0x87,0xff,0x39,0x00,0x22,0x01,0x4b,0x00, 0xd5,0x00,0xf0,0xff,0x1e,0x01,0x6d,0xff, // 3984
0x22,0x00,0x44,0x00,0x54,0xff,0x74,0xff, 0x23,0x00,0x57,0x00,0x1b,0x00,0xb4,0xff, // 4000
0x43,0xff,0xd3,0xff,0x7c,0xfe,0x21,0x00, 0x05,0x00,0x58,0x01,0x6d,0x00,0x25,0x00, // 4016
0x29,0x01,0x13,0x00,0x35,0x00,0xc6,0xff, 0x19,0x00,0xc7,0xff,0x9e,0xff,0xdf,0xff, // 4032
0x52,0x00,0x2b,0xff,0x66,0x00,0x79,0x01, 0x71,0xfe,0x16,0x00,0x3e,0x01,0x01,0xff, // 4048
0xbd,0xff,0xff,0xff,0x06,0x00,0xcc,0xff, 0xb9,0x00,0x07,0xff,0x14,0x00,0x2d,0x01, // 4064
0xe7,0xff,0xbc,0x00,0xfe,0x00,0xae,0xff, 0x88,0xff,0xf9,0xff,0x32,0x00,0xea,0xff, // 4080
0x0a,0xff,0xfe,0xff,0x23,0x01,0x05,0xff, 0x56,0x00,0x65,0xff,0xdf,0xff,0x27,0x00, // 4096
0x9b,0x00,0xf7,0xff,0x41,0xff,0xac,0xff, 0x28,0x00,0x00,0x00,0x57,0xff,0xd2,0xff, // 4112
0x3f,0x00,0x4e,0x00,0x11,0x00,0x07,0x00, 0x5b,0xff,0xb3,0x00,0xf3,0x00,0x5a,0xff, // 4128
0xc8,0xff,0x95,0x00,0x13,0x01,0x33,0x00, 0x66,0x00,0x6a,0x00,0x9f,0xff,0x68,0x00, // 4144
0xd8,0xff,0x34,0x00,0xd0,0xff,0xce,0xff, 0x65,0x00,0x8d,0x00,0xb9,0xff,0xff,0xff, // 4160
0xb1,0x00,0x08,0x00,0xac,0xfe,0x00,0x00, 0x16,0x00,0x66,0x00,0x83,0xff,0x86,0xfe, // 4176
0x10,0x00,0xab,0xff,0x57,0x00,0xe6,0xff, 0x80,0xff,0x79,0xff,0xe1,0xff,0xfb,0xff, // 4192
0x7b,0xff,0x40,0x00,0xd5,0xfe,0xc0,0x00, 0x0a,0x01,0xd2,0xff,0x85,0x00,0xc8,0xfe, // 4208
0xaf,0xff,0x38,0x00,0xc4,0xff,0x92,0x00, 0xcb,0xff,0x9b,0x00,0x1f,0xff,0x44,0x00, // 4224
0x69,0x00,0x7a,0xff,0x94,0x00,0x66,0xff, 0x34,0xff,0x12,0x00,0x18,0x00,0x4b,0x00, // 4240
0x19,0x01,0x33,0x00,0x02,0x00,0x7a,0x00, 0x9c,0x00,0x0f,0x00,0x75,0xff,0x22,0x00, // 4256
0xa1,0x00,0x44,0x00,0x5e,0xff,0x0f,0x00, 0x4e,0x00,0xe2,0xff,0x00,0x00,0x53,0x00, // 4272
0x08,0x00,0xec,0xff,0x92,0xff,0x8c,0x00, 0x19,0xff,0xf8,0xff,0x61,0x00,0x17,0x00, // 4288
0x72,0xff,0x7e,0xff,0x74,0xff,0x10,0x00, 0x6b,0xff,0x4c,0xff,0x9c,0xff,0x3a,0xff, // 4304
0x19,0x00,0xec,0xff,0xac,0xff,0x59,0xff, 0x52,0x00,0x53,0x00,0x75,0x00,0xf2,0xff, // 4320
0x80,0x00,0x06,0x00,0x38,0xff,0x44,0x00, 0xbf,0xff,0x4e,0x00,0x15,0x00,0x58,0xff, // 4336
0x27,0x00,0x97,0x00,0x11,0xff,0x6c,0xff, 0xe7,0xff,0x03,0xff,0xbc,0xff,0x81,0xff, // 4352
0xae,0xff,0x11,0x00,0x50,0x00,0xd9,0xff, 0xcd,0x00,0xd6,0xff,0x5d,0xff,0xc3,0x00, // 4368
0xd7,0xff,0x08,0x00,0x7d,0x00,0xe6,0xff, 0x08,0x00,0x31,0xff,0x86,0x00,0xbb,0xff, // 4384
0x1d,0x00,0xda,0xff,0x7b,0x00,0xa6,0xff, 0x98,0x00,0x54,0x00,0x16,0x00,0x2f,0x00, // 4400
0x60,0xff,0x6a,0x00,0x27,0xff,0x76,0x00, 0x5a,0x00,0x2e,0x00,0xcd,0xff,0xdc,0xff, // 4416
0x9e,0xff,0x25,0xff,0x16,0x00,0x6d,0x00, 0xb0,0xff,0x59,0x00,0x55,0x00,0xc8,0xff, // 4432
0x70,0x00,0x6f,0x00,0x00,0xff,0xda,0xff, 0x9b,0xff,0x3a,0x00,0x78,0x00,0x70,0xff, // 4448
0x98,0xff,0x15,0x00,0x73,0x00,0xcb,0x00, 0x5a,0x00,0xea,0xff,0xb9,0xff,0xac,0xff, // 4464
0x36,0x00,0xe0,0xff,0x69,0xfe,0xf6,0xff, 0x5b,0x00,0x11,0x00,0xaf,0xff,0x21,0x00, // 4480
0x7e,0xff,0x3d,0x00,0xe6,0xff,0xb5,0x00, 0xfb,0xff,0xf2,0xff,0xc8,0xfe,0x53,0xff, // 4496
0xf1,0xff,0xea,0xff,0x86,0x00,0x5b,0xff, 0xbe,0xff,0x1f,0xff,0x5e,0xff,0x18,0x00, // 4512
0x98,0xfe,0x90,0xff,0x4a,0xfe,0x4c,0xff, 0x7e,0x00,0x07,0x00,0x09,0xfe,0x0d,0xfe, // 4528
0xa3,0xff,0x49,0x02,0x2b,0x01,0x4d,0x02, 0x2f,0xff,0xa5,0x00,0x3f,0x00,0xb1,0x01, // 4544
0x79,0xfe,0x47,0x00,0x69,0x00,0xc6,0xfe, 0xcb,0xfb,0xa5,0x00,0xfd,0xff,0xb5,0xfd, // 4560
0x9b,0xfe,0xc2,0xfd,0x1a,0xff,0x24,0xff, 0x5b,0x01,0x1f,0x01,0xc4,0x00,0x08,0x00, // 4576
0x72,0x00,0xfd,0xff,0x1e,0x00,0xad,0xfd, 0x28,0x01,0x65,0xfe,0xd6,0xff,0x0e,0x02, // 4592
0xf8,0xfc,0x03,0xff,0x5a,0x02,0x0c,0x01, 0xdf,0xfe,0xce,0xfd,0x82,0x00,0x3a,0xff, // 4608
0xfa,0x01,0x20,0x02,0x61,0x01,0xf8,0x04, 0xcc,0x01,0xde,0xfe,0x29,0xfe,0x45,0x01, // 4624
0x74,0xfe,0xc3,0x00,0xb1,0x00,0x13,0x00, 0x58,0x01,0x4a,0xfb,0xab,0xff,0xff,0xfd, // 4640
0xdc,0xff,0x68,0x03,0x20,0x00,0x15,0xff, 0x51,0x00,0x2b,0x00,0xbe,0xfb,0xdb,0xff, // 4656
0xa6,0xfd,0x50,0xfe,0xb1,0xfe,0x96,0xff, 0x60,0x00,0x1b,0x07,0x46,0x01,0x98,0x01, // 4672
0xc2,0x00,0x3c,0x00,0xd0,0xff,0xb7,0xfe, 0x85,0xff,0xfb,0x00,0x40,0x01,0x1f,0xfd, // 4688
0xda,0xfd,0x6d,0x01,0x45,0x01,0x67,0xfd, 0xe2,0x00,0x46,0x01,0x6c,0xfd,0x8f,0x02, // 4704
0x44,0xfe,0xb7,0x00,0x1f,0xff,0x79,0xff, 0x85,0x01,0x15,0xfe,0x26,0x02,0xd4,0x03, // 4720
0xff,0x00,0x0e,0xfe,0xc4,0xfe,0x6b,0xff, 0xcb,0x00,0x7b,0x07,0xdb,0xfd,0x54,0xff, // 4736
0x68,0x02,0xa7,0xff,0xe6,0x06,0x7a,0x02, 0xea,0xfd,0xcd,0x00,0xf4,0xff,0xca,0xfe, // 4752
0xe8,0xfe,0x72,0xfe,0x7b,0x00,0x5e,0x01, 0xc2,0x01,0x16,0x02,0x40,0x02,0x78,0xff, // 4768
0x2a,0x00,0xe1,0xfc,0x59,0xff,0x00,0x00, 0x75,0xfd,0xa9,0xff,0x54,0xfe,0x23,0xff, // 4784
0x36,0xfe,0xb7,0x00,0x25,0x01,0x2d,0xff, 0x23,0xff,0xa9,0xff,0x63,0x00,0x04,0x00, // 4800
0x6d,0x01,0x41,0x00,0x8a,0xff,0x48,0xff, 0x8f,0x00,0x54,0x00,0x14,0xff,0x3a,0xff, // 4816
0xbd,0x01,0x17,0x00,0xda,0xff,0x74,0x00, 0x49,0x00,0xbd,0xff,0x69,0x00,0x1f,0x00, // 4832
0x7c,0x00,0x4f,0x00,0xbb,0xff,0xc5,0x00, 0x2b,0x00,0x26,0x00,0x96,0x00,0xcd,0xff, // 4848
0x58,0xff,0xf2,0xff,0x9c,0x00,0x06,0x00, 0x8c,0xff,0x8b,0x00,0xfd,0xfe,0x89,0xff, // 4864
0x25,0x00,0x81,0xff,0xed,0xfe,0x67,0xff, 0x1a,0x00,0x4d,0x00,0xf1,0xff,0x88,0xff, // 4880
0x4b,0x00,0xb8,0xff,0xce,0xff,0xb7,0x00, 0xf2,0xff,0x31,0x00,0xc3,0xff,0xaf,0xff, // 4896
0xd9,0xff,0x71,0x00,0x37,0xff,0xbc,0xff, 0xd7,0xff,0x2b,0xff,0x4e,0xff,0xf3,0xff, // 4912
0xe3,0xff,0xb2,0x00,0x68,0x00,0x6f,0xff, 0x18,0x00,0xc5,0xff,0x8f,0xff,0xff,0xff, // 4928
0xd5,0xff,0x11,0x00,0x2b,0x00,0xd4,0x00, 0x71,0xff,0xae,0xff,0x07,0x00,0x7b,0x00, // 4944
0x1c,0x03,0xda,0xff,0xfa,0xff,0x67,0x00, 0x22,0x00,0x15,0x04,0x92,0xff,0xa9,0xff, // 4960
0x6e,0xff,0x7e,0x00,0xb8,0xff,0x24,0x00, 0x2d,0x00,0x99,0x00,0x6a,0xff,0xc6,0xff, // 4976
0x1b,0x00,0x60,0xff,0xdb,0xff,0x41,0x00, 0x40,0x00,0xa2,0x00,0xde,0x00,0x86,0xfe, // 4992
0x0c,0x00,0x87,0x01,0x0f,0xff,0x3a,0x00, 0x73,0x00,0xeb,0xff,0x12,0x00,0x80,0xff, // 5008
0xba,0xff,0x61,0xff,0x4e,0x00,0xa3,0x00, 0x9e,0x00,0x8a,0xff,0x27,0x00,0x83,0x00, // 5024
0x85,0x00,0x9b,0xff,0x98,0xff,0xac,0xff, 0x84,0x00,0x3f,0x00,0x9b,0xff,0x6d,0x01, // 5040
0x9e,0xff,0x65,0x00,0x4f,0x00,0xa1,0x00, 0x39,0x00,0x7d,0x00,0x65,0xff,0xd5,0xff, // 5056
0x5c,0x00,0x33,0x01,0x03,0x00,0x58,0x00, 0x3e,0x00,0x4d,0x00,0xc9,0xff,0xfe,0xff, // 5072
0x46,0xff,0x71,0x00,0x56,0xfe,0x5b,0xff, 0x23,0x01,0x50,0xff,0xdf,0xfe,0xf7,0xfd, // 5088
0x1a,0xff,0xdc,0x01,0x11,0x01,0xc9,0x00, 0x76,0xfe,0xa1,0x00,0x13,0x00,0x81,0x01, // 5104
0x2a,0xfd,0xd0,0xff,0x3e,0x00,0x73,0xfe, 0x4a,0xfd,0xe2,0xff,0xb9,0xff,0xeb,0xfe, // 5120
0x73,0xff,0x82,0xfe,0x9f,0xff,0xf5,0xff, 0xa7,0xff,0x64,0x00,0x86,0x00,0x8b,0xff, // 5136
0x45,0x00,0xf9,0x00,0x8a,0x01,0x24,0xfd, 0x4f,0x01,0x2e,0xfd,0x37,0xff,0x7b,0x01, // 5152
0x98,0xfa,0x5e,0xff,0x36,0x02,0xf1,0x00, 0x36,0xff,0xcc,0xff,0x59,0x00,0x09,0xff, // 5168
0x03,0x03,0xe3,0x01,0x0f,0x01,0x97,0x04, 0x4e,0x01,0x21,0xff,0x3e,0xff,0x78,0x00, // 5184
0x6c,0xfd,0xc4,0x00,0xec,0x00,0x4a,0x00, 0x57,0x01,0x8d,0xf9,0xb3,0xff,0x58,0xfe, // 5200
0x4a,0xff,0xea,0x03,0xc2,0x00,0x78,0xff, 0x10,0x02,0x06,0x00,0x89,0xfd,0x49,0xff, // 5216
0x12,0xfe,0x8f,0xfd,0x16,0x00,0x17,0xff, 0x87,0x00,0x18,0x07,0xc3,0x01,0x10,0x02, // 5232
0x4b,0x00,0x66,0x00,0x81,0x00,0x68,0xfe, 0x83,0x00,0x50,0x01,0x09,0x01,0x07,0xfd, // 5248
0x95,0xfd,0x47,0x03,0x3e,0x01,0x21,0xfd, 0xa7,0x00,0xc8,0x00,0x21,0xff,0x80,0x02, // 5264
0xee,0xfd,0x07,0x00,0x74,0xfe,0x6b,0xff, 0x78,0x02,0x9d,0xff,0x8e,0xff,0x0b,0x03, // 5280
0xf0,0xff,0xe4,0xfd,0xc5,0xff,0x51,0x00, 0xa7,0x00,0x54,0x05,0x64,0xfe,0x41,0xff, // 5296
0x76,0x02,0x31,0x00,0xf0,0x05,0x72,0x02, 0x61,0xff,0x89,0x01,0xec,0xff,0x66,0xff, // 5312
0xf4,0xfe,0xfc,0xfc,0x86,0x00,0x3a,0x00, 0x7e,0x01,0x52,0x02,0x89,0x01,0x2a,0xff, // 5328
0xcc,0x00,0x0b,0xfd,0x87,0xff,0xe4,0xff, 0xa1,0xfd,0x15,0x00,0xb5,0xff,0x81,0xff, // 5344
0xf9,0xfe,0x89,0x00,0xe1,0x00,0x09,0x00, 0xe9,0xff,0x4c,0xff,0x02,0x00,0x67,0x00, // 5360
0x89,0x00,0x35,0xff,0x39,0xff,0x93,0xff, 0x5b,0x00,0x6e,0x00,0x6a,0xff,0xeb,0xff, // 5376
0x9d,0x00,0x2e,0x00,0xe4,0xff,0x58,0x00, 0x88,0x00,0x77,0xff,0xb0,0x00,0x38,0x00, // 5392
0xfb,0xff,0x26,0x00,0x93,0xff,0xeb,0x00, 0x47,0x00,0xdc,0xff,0x63,0x00,0xf8,0xff, // 5408
0x56,0xff,0x90,0xff,0xd7,0xff,0xd1,0x00, 0x85,0xff,0xb6,0xff,0x86,0xff,0xcd,0x00, // 5424
0x28,0x00,0xd3,0xff,0x51,0xff,0xd5,0xfe, 0x6c,0x00,0xec,0xff,0xfa,0xff,0xc1,0xff, // 5440
0xe0,0xff,0xdb,0xff,0xd5,0xff,0xf0,0xff, 0x20,0x00,0x91,0xff,0x02,0x00,0x05,0x00, // 5456
0xc8,0xff,0x16,0x00,0xb4,0xff,0x8e,0xff, 0x2d,0x00,0x33,0xff,0x65,0xff,0xf9,0xff, // 5472
0x3e,0xff,0xf5,0xff,0x48,0x00,0xf7,0xff, 0x3a,0x00,0xb6,0xff,0x3c,0xff,0x06,0x00, // 5488
0x9e,0xff,0xec,0xff,0x37,0x00,0xf3,0x00, 0xbf,0xff,0x1e,0x00,0xfd,0xff,0x03,0x00, // 5504
0xd6,0x00,0xd0,0xff,0xdb,0x00,0x3c,0x00, 0xc9,0xff,0x67,0x01,0x27,0xff,0x16,0x00, // 5520
0xed,0xfe,0xe1,0xff,0x6f,0xff,0xbf,0x00, 0xf8,0xff,0x37,0x00,0x92,0xff,0x08,0x00, // 5536
0xd3,0xff,0x67,0xff,0x56,0xff,0xa5,0xff, 0x00,0x00,0x9b,0x00,0x1b,0x00,0x79,0xff, // 5552
0x1f,0x00,0xae,0x00,0x88,0xff,0x81,0xff, 0x2b,0x00,0xd4,0xff,0xc7,0xff,0x19,0xff, // 5568
0x91,0xff,0x3d,0x00,0x61,0x00,0xac,0x00, 0x6e,0xff,0xd2,0xff,0x5d,0xff,0xc6,0xff, // 5584
0x22,0x00,0x12,0x00,0xb4,0xff,0x70,0xff, 0x11,0x00,0x69,0x00,0xaf,0xff,0xe1,0x00, // 5600
0xf0,0xff,0x4a,0xff,0x93,0xff,0xd8,0x00, 0x6d,0xff,0xbf,0xff,0xd7,0xff,0x82,0xff, // 5616
0x74,0x00,0x8c,0x00,0x9c,0x00,0xe3,0xff, 0x38,0x00,0x67,0x00,0xbc,0xff,0xfd,0xff, // 5632
0xc1,0xff,0x5f,0x00,0x70,0x00,0x19,0x00, 0xb7,0xff,0x65,0x00,0x72,0xff,0xaf,0xff, // 5648
0xa9,0xff,0x50,0x00,0xb2,0xff,0xc9,0xff, 0x5e,0x00,0x80,0xff,0xe3,0xff,0x0f,0x01, // 5664
0xc1,0x00,0x1b,0x00,0x13,0x00,0xcf,0xff, 0x55,0x00,0xc5,0xff,0x0e,0x00,0xd0,0x00, // 5680
0x6f,0x00,0x97,0xff,0x94,0xff,0x3c,0x00, 0x0d,0xff,0x8c,0xff,0x75,0x00,0x16,0xff, // 5696
0xd1,0xff,0x03,0x00,0x07,0x00,0x5e,0xff, 0x91,0xff,0x31,0x00,0x85,0x00,0xa7,0xff, // 5712
0x37,0x00,0x1e,0x00,0xa8,0x00,0x65,0x00, 0x88,0xff,0x16,0x00,0x2a,0x00,0xfa,0xff, // 5728
0xe0,0xff,0x8d,0xff,0x27,0x00,0x5b,0x00, 0xd9,0xff,0x85,0xff,0xce,0xff,0xb0,0x00, // 5744
0xd5,0x00,0xe0,0xff,0x79,0x00,0x6d,0x00, 0xd6,0xff,0x2a,0x00,0x1a,0x00,0x4b,0xff, // 5760
0x1f,0x00,0x19,0x00,0x24,0x00,0xc7,0xff, 0xab,0xff,0xbe,0x00,0xd2,0xff,0x7f,0xff, // 5776
0xd6,0xff,0xb0,0xfe,0xc9,0xff,0x3c,0x00, 0xf7,0xff,0x37,0x00,0xda,0x00,0x18,0x01, // 5792
0x77,0x00,0x71,0xff,0xee,0xff,0x0c,0xff, 0xe6,0xff,0xf2,0xff,0xbb,0xff,0x9b,0xff, // 5808
0x57,0xff,0xea,0xff,0x21,0x00,0x95,0xff, 0xd8,0xff,0xa7,0xff,0x37,0x00,0x31,0x00, // 5824
0x7c,0xff,0xd3,0x00,0x70,0x00,0xac,0xff, 0xce,0xff,0x7f,0xff,0x18,0x00,0x33,0x00, // 5840
0x3e,0x00,0x8b,0xff,0x95,0xff,0xed,0xff, 0x45,0x00,0xb3,0xff,0x01,0x00,0x8f,0xff, // 5856
0x73,0x00,0x33,0x00,0x67,0x00,0x85,0x00, 0x53,0x00,0x02,0x00,0x00,0x00,0xfe,0xfe, // 5872
0x19,0x00,0xae,0x00,0xc3,0xff,0x84,0x00, 0xc4,0x00,0xcb,0xff,0xd0,0xff,0x81,0xff, // 5888
0xcf,0xff,0x2e,0x00,0x31,0x00,0xf8,0xff, 0x0a,0x00,0x2b,0x00,0xff,0xff,0x96,0xff, // 5904
0xfe,0xff,0x51,0xff,0x86,0xff,0xdf,0x00, 0x66,0xff,0x18,0x02,0xcb,0xff,0x6e,0x01, // 5920
0x7a,0x07,0x5d,0x01,0x08,0xfe,0xda,0x02, 0x3e,0x00,0x86,0xff,0xc9,0xfe,0xb0,0xfc, // 5936
0xfd,0x02,0x99,0x00,0x35,0xff,0x61,0x03, 0xb7,0xff,0x20,0xfc,0x46,0x01,0x56,0xfe, // 5952
0x20,0x04,0xed,0x00,0x4a,0x04,0x30,0x04, 0x18,0x01,0x94,0x00,0x62,0x00,0x99,0x02, // 5968
0x93,0xf8,0xbe,0xfe,0xa4,0x01,0x58,0xff, 0x76,0xff,0x33,0x04,0x17,0xfc,0x58,0xff, // 5984
0x1a,0x00,0x6c,0x00,0x7b,0xff,0x67,0xfb, 0xeb,0xff,0x35,0x00,0x38,0xff,0x97,0xff, // 6000
0x74,0x01,0x72,0x02,0x2d,0x00,0x4c,0x01, 0x57,0xff,0x03,0x01,0x52,0x00,0x00,0xff, // 6016
0xb0,0xfb,0xfc,0x00,0x08,0xfe,0x66,0xff, 0x9f,0xff,0xe3,0xf8,0x34,0xff,0x12,0xfe, // 6032
0x2b,0x00,0x2a,0x01,0x76,0xff,0xa8,0x00, 0x13,0x01,0x10,0xff,0xaa,0xff,0x00,0x01, // 6048
0x45,0xfc,0xd3,0xff,0xa9,0x02,0xeb,0xfd, 0x22,0x06,0xa1,0x00,0x2a,0x01,0xf3,0xff, // 6064
0xe6,0xff,0xca,0xfd,0x11,0x01,0x60,0x02, 0x6f,0xff,0x51,0x00,0x12,0x00,0x33,0xfd, // 6080
0x63,0x02,0xc0,0xff,0x0f,0xff,0x25,0xfe, 0x6a,0x00,0xed,0x01,0x22,0x00,0x25,0xfe, // 6096
0xce,0xff,0xf8,0xfe,0xe0,0x05,0x6b,0xfe, 0xc3,0x01,0x2c,0x00,0x4e,0x06,0x5e,0x00, // 6112
0xc1,0x02,0xe1,0x02,0xba,0xfe,0xf6,0xfc, 0xad,0xfc,0xbe,0x01,0xa8,0x00,0xb7,0xff, // 6128
0x96,0xf9,0xff,0xfd,0x17,0x02,0x0f,0x01, 0x66,0xff,0xdf,0xff,0xe3,0xfc,0x91,0xff, // 6144
0x9d,0x02,0xd0,0x00,0x3a,0xf9,0xbc,0xfd, 0x45,0x00,0x1d,0x00,0xe5,0x01,0xc7,0x00, // 6160
0x66,0xff,0x08,0x01,0x47,0xff,0x50,0x00, 0x2b,0x00,0x99,0xff,0xd8,0x00,0x84,0xfb, // 6176
0x95,0x02,0xa0,0xff,0x48,0x01,0x8d,0x00, 0xf4,0xfe,0x4c,0x01,0x61,0xff,0x18,0x00, // 6192
0x9a,0x00,0xaf,0xff,0xe7,0xff,0x63,0x00, 0x3a,0xff,0x0c,0x00,0xeb,0xff,0xef,0xff, // 6208
0x37,0x01,0xd4,0xff,0x0d,0x00,0xe0,0xff, 0x86,0x00,0x27,0x00,0x1a,0xff,0xb9,0xff, // 6224
0x0e,0x00,0xc2,0xff,0x4e,0x00,0x68,0x00, 0xd8,0x00,0x85,0x00,0xc0,0xff,0xe2,0xff, // 6240
0x3f,0x00,0x61,0x00,0xd4,0x00,0xb7,0xff, 0x24,0x00,0x1d,0xff,0x28,0xff,0xc1,0xff, // 6256
0x65,0xff,0xd9,0xff,0x4f,0xff,0x53,0x00, 0xfa,0xff,0xcb,0xff,0xbc,0xff,0x20,0x00, // 6272
0x31,0x00,0x92,0x00,0xeb,0xff,0xc1,0xff, 0xc8,0x00,0x16,0x01,0x40,0xff,0xa6,0x00, // 6288
0x10,0x00,0xcd,0xff,0x37,0x00,0x6d,0xff, 0x16,0x00,0xff,0x00,0x36,0x00,0x33,0xff, // 6304
0xfb,0xff,0xf6,0xff,0x18,0xff,0x2e,0xff, 0x05,0x00,0x16,0x00,0xf4,0xff,0xd6,0xff, // 6320
0xba,0x00,0xea,0xff,0x7e,0xfe,0xfd,0xff, 0xe9,0xff,0x13,0x00,0x4e,0x00,0x3c,0x00, // 6336
0x94,0x00,0x19,0x00,0xcb,0x00,0x74,0x00, 0xde,0xff,0xfc,0xff,0x10,0x00,0xf4,0xff, // 6352
0xe6,0xff,0xc9,0xff,0x4f,0x00,0xcc,0xff, 0x27,0x00,0x6f,0xff,0x6a,0xfe,0x85,0x00, // 6368
0x0e,0x00,0x84,0xff,0xc8,0xfe,0x43,0x00, 0x37,0x00,0x75,0xff,0xcd,0xff,0xf6,0xff, // 6384
0x81,0x00,0xe8,0xff,0x50,0x00,0x72,0x00, 0xfe,0xff,0x78,0x00,0x37,0x00,0x95,0xff, // 6400
0x53,0x00,0xcc,0xff,0xc6,0x00,0x8d,0xff, 0x14,0x00,0x46,0xff,0xec,0xff,0xfc,0x00, // 6416
0xa8,0xff,0x21,0x00,0xf6,0xff,0xac,0xff, 0x97,0x00,0xe6,0xff,0x66,0x00,0xae,0xff, // 6432
0x6b,0x00,0x1b,0x00,0x14,0x00,0xfe,0xff, 0x84,0xfe,0xfb,0xff,0x1f,0xff,0x17,0x01, // 6448
0xc5,0xff,0x3e,0x00,0x1c,0x00,0xfa,0xff, 0x1d,0x00,0xe9,0xff,0x28,0x00,0x76,0x00, // 6464
0x28,0x00,0x1e,0x00,0x29,0xff,0x7f,0xff, 0x48,0x00,0x9d,0xff,0x7b,0xfc,0xd0,0xff, // 6480
0x42,0xfe,0x23,0xfd,0x62,0x00,0x99,0x00, 0xe8,0xfe,0x8a,0x00,0xa1,0x01,0x3e,0x01, // 6496
0x7f,0xfb,0x30,0x02,0x1e,0x00,0x80,0x01, 0xfa,0xfc,0xb7,0x00,0x83,0xfc,0x99,0x01, // 6512
0xdb,0xff,0x24,0xfc,0x85,0x02,0x3c,0xfe, 0x9b,0x01,0x69,0xff,0xbf,0xff,0x33,0x00, // 6528
0x53,0x03,0x8b,0x00,0x69,0x01,0xf0,0xfd, 0xa9,0x00,0x64,0xfd,0x88,0x04,0x55,0xfe, // 6544
0xe2,0x01,0xac,0xfd,0x8c,0x00,0x6a,0x03, 0x8a,0xfc,0xd5,0xff,0x82,0x01,0x92,0xff, // 6560
0x3e,0x00,0x14,0x01,0xda,0xff,0x78,0xff, 0x6c,0x01,0xf4,0x00,0x58,0x00,0x77,0x04, // 6576
0x35,0xfe,0x39,0x00,0x07,0x03,0xff,0xff, 0xd5,0xfd,0x76,0x02,0x1e,0x00,0x98,0x00, // 6592
0x62,0x01,0x8b,0xfa,0x1a,0xfd,0xfe,0xff, 0xe6,0xff,0x48,0x05,0x07,0x00,0x17,0x00, // 6608
0xa6,0x03,0x40,0x01,0x71,0x00,0xfc,0xfc, 0x21,0xff,0xcf,0xfe,0x9a,0xff,0x1c,0x00, // 6624
0x07,0x00,0xe4,0x05,0xc8,0xfe,0x1c,0x00, 0x41,0xfd,0xae,0x00,0x29,0x00,0x68,0xff, // 6640
0x45,0x02,0xd1,0xfe,0xb9,0x00,0x33,0xfe, 0x23,0xfd,0x07,0x00,0xdd,0x00,0xbe,0xff, // 6656
0x9b,0xff,0xf1,0x00,0x76,0x00,0x8d,0x01, 0xcf,0xff,0x71,0x00,0x6d,0xfd,0x7b,0xff, // 6672
0xe4,0xfd,0x27,0xfe,0xd7,0x01,0xba,0xff, 0xe9,0x00,0xab,0xfe,0x5d,0x00,0x1c,0x03, // 6688
0x57,0x02,0xa1,0x00,0x70,0xff,0x2f,0x00, 0x6c,0x00,0x10,0x00,0xc6,0x04,0x1e,0x01, // 6704
0x0f,0xff,0xc3,0x02,0x15,0x03,0xa3,0xff, 0x88,0xff,0xe6,0xfb,0x8d,0xfe,0x9d,0xff, // 6720
0xf3,0xff,0x98,0xfe,0x97,0x01,0xbe,0xff, 0x23,0x01,0x7f,0xfb,0xe9,0xff,0x16,0x02, // 6736
0x72,0xfe,0x62,0x00,0x8b,0xff,0x26,0xff, 0xa7,0x01,0x7b,0xfe,0xf9,0xff,0x7b,0x01, // 6752
0x25,0x02,0x01,0x01,0xd9,0xfe,0x10,0x01, 0x1d,0x00,0x00,0x00,0x69,0x02,0x66,0x04, // 6768
0xc8,0xff,0x01,0xfe,0x68,0x00,0xd3,0xfc, 0x64,0xfe,0xb8,0x01,0x7c,0xff,0xdc,0xfe, // 6784
0xe4,0xfe,0x94,0x00,0xd0,0xfe,0xd2,0xff, 0x48,0x00,0x37,0x00,0x78,0x00,0x2c,0x01, // 6800
0xdf,0x00,0xf1,0x04,0x85,0x00,0x1b,0x01, 0xc5,0x00,0x6f,0xff,0x2d,0x00,0x66,0xff, // 6816
0xa3,0xff,0x78,0x01,0x53,0xfc,0x22,0x03, 0x27,0x01,0x38,0xff,0x8b,0xfd,0x58,0x00, // 6832
0x46,0xff,0x7e,0x00,0x39,0xfb,0x89,0xff, 0x0d,0x01,0xc3,0x00,0x80,0xff,0xb6,0x01, // 6848
0x89,0xff,0x52,0xfe,0x78,0xfa,0xbc,0xff, 0x9a,0xfd,0xa6,0x00,0x25,0xfb,0xce,0xff, // 6864
0xa6,0xfe,0x5d,0xfd,0x8c,0x00,0xbd,0xff, 0x73,0xfd,0x66,0xff,0x82,0x00,0xa9,0x06, // 6880
0x08,0x01,0x49,0x01,0x3a,0xff,0x3f,0x00, 0x55,0xfc,0x26,0xfe,0x13,0x02,0x2f,0xff, // 6896
0xbd,0x00,0xe8,0x04,0x02,0x01,0xca,0x03, 0x3b,0x00,0xdd,0x00,0x97,0xf9,0x04,0xfd, // 6912
0x62,0xff,0x04,0x01,0x6a,0xfe,0x03,0x01, 0xa2,0x00,0x00,0xff,0x75,0xff,0x33,0x02, // 6928
0x41,0xff,0xf6,0xfe,0x1b,0xff,0x96,0x03, 0xe3,0xff,0x15,0x00,0x0d,0x01,0x6b,0xfb, // 6944
0x30,0x06,0xd9,0x01,0x01,0x01,0x11,0xfe, 0xaa,0x01,0x6c,0x00,0x95,0xfe,0x3c,0xfd, // 6960
0xec,0xfd,0xb6,0x05,0x7f,0x00,0xb7,0x00, 0x5a,0xff,0x1e,0xff,0x03,0x02,0x3c,0x00, // 6976
0x18,0xfb,0xca,0xfd,0x4f,0x00,0x04,0xfd, 0x1e,0x03,0x11,0x01,0x7a,0xfe,0xcf,0x01, // 6992
0x7a,0x00,0x3d,0xff,0x94,0xfe,0xcf,0x00, 0x09,0x00,0xc8,0xfd,0x2a,0xff,0x93,0x00, // 7008
0xb0,0x01,0x52,0xff,0x2e,0x00,0x20,0xfd, 0xf0,0x04,0x39,0x02,0xd5,0xff,0xfd,0x02, // 7024
0x5d,0x01,0x0d,0xff,0x4d,0xff,0x3e,0x00, 0x07,0x01,0xe2,0xfe,0xaf,0xfe,0xd7,0x00, // 7040
0x91,0xfe,0x54,0xf7,0xfb,0xfe,0x55,0x07, 0xf1,0x00,0xc9,0xfe,0x88,0x00,0x55,0xfc, // 7056
0x10,0xf9,0x58,0x02,0x66,0xff,0xac,0xff, 0x67,0xfe,0x51,0x00,0xee,0xf6,0x4f,0x04, // 7072
0xd3,0x01,0xb6,0xf5,0xf1,0x07,0xb0,0x00, 0x11,0x0a,0x84,0x01,0x1d,0x00,0x8d,0x0c, // 7088
0x41,0x01,0xf4,0xff,0x12,0x08,0x1d,0xf8, 0xaa,0x00,0x83,0xfc,0x5e,0x01,0xa3,0x02, // 7104
0xcb,0x00,0xb7,0xff,0x41,0x01,0x71,0x02, 0xb9,0xfe,0x8c,0xff,0x45,0xfb,0x0c,0xff, // 7120
0xdc,0xff,0x67,0x09,0xcb,0xff,0x4b,0x00, 0x82,0x00,0x74,0xff,0xe9,0x00,0x7f,0x01, // 7136
0x0f,0xf3,0x72,0x00,0x03,0xfe,0xfd,0xff, 0x9a,0xfd,0xb8,0xfb,0x9f,0xff,0x31,0x01, // 7152
0x86,0xfe,0x17,0xfe,0x8e,0xfa,0x4b,0x05, 0xd5,0xff,0x0b,0x01,0x1a,0xff,0x1a,0x00, // 7168
0x96,0x01,0x55,0xfd,0xc8,0x09,0xef,0xf7, 0x3b,0x07,0x5d,0x02,0xde,0xff,0x2f,0xff, // 7184
0xb9,0xff,0x47,0x02,0x94,0xfc,0xf4,0xfe, 0xcd,0xf8,0xae,0xff,0x5e,0x01,0x57,0xfe, // 7200
0xb4,0x0b,0xcd,0xfc,0x16,0x00,0xdb,0x00, 0x51,0xff,0x8f,0xff,0x8d,0xff,0xe7,0x02, // 7216
0xb2,0xfe,0x7c,0xfe,0x0b,0x0b,0x8d,0xfc, 0xba,0x04,0x45,0xff,0xcc,0xfe,0x28,0x00, // 7232
0xf7,0xfe,0xe9,0xfd,0xff,0xff,0x64,0xf9, 0x3b,0x00,0x87,0x03,0x73,0x00,0xf7,0x07, // 7248
0x7e,0xff,0x11,0xfd,0xb8,0x01,0xae,0xff, 0xea,0xfc,0xc0,0x00,0x99,0x00,0x7e,0xfd, // 7264
0x63,0x01,0xec,0x01,0x76,0x00,0x98,0xff, 0x15,0x01,0x34,0xfe,0x21,0xf8,0xf4,0xfd, // 7280
0x58,0xfe,0xf9,0xfb,0x44,0x00,0xf0,0x00, 0xdc,0x00,0x29,0xff,0x33,0xfd,0xd8,0x01, // 7296
0xa9,0x04,0xbb,0xfe,0x26,0xfe,0x2a,0xff, 0xa4,0x08,0x83,0xf9,0x78,0x00,0x89,0x08, // 7312
0x28,0x00,0x60,0x00,0x1a,0xff,0xed,0xff, 0x65,0x00,0xe1,0xff,0xd7,0xff,0x8c,0xff, // 7328
0xf4,0xff,0xcc,0xff,0xeb,0xff,0x4f,0x00, 0xbd,0x00,0x7f,0x01,0xca,0xff,0x60,0x00, // 7344
0x2e,0xff,0x92,0xff,0xb9,0x00,0x77,0xff, 0xa6,0x00,0x22,0x00,0x67,0xff,0x23,0x00, // 7360
0xee,0xff,0x6a,0xff,0x97,0xff,0xb4,0xff, 0x09,0x00,0x4c,0x00,0xa0,0xff,0x87,0x00, // 7376
0x37,0x00,0x4d,0x00,0xb3,0xff,0x26,0x00, 0xeb,0x00,0x01,0xff,0x8a,0x00,0x1a,0xff, // 7392
0x0a,0xff,0xf7,0xff,0x01,0x00,0x5d,0x00, 0xce,0xff,0x0e,0x00,0xfe,0xff,0x3a,0x00, // 7408
0x6c,0x00,0x4a,0x00,0x96,0x00,0x64,0x00, 0x58,0xff,0xf2,0xff,0xe7,0xff,0x35,0x00, // 7424
0x33,0xff,0x17,0x00,0xdb,0xff,0x26,0xff, 0x73,0x00,0x51,0xff,0x5b,0x00,0x30,0x00, // 7440
0xb6,0xff,0xf6,0x00,0x34,0x00,0x97,0xff, 0x5c,0xff,0x03,0x00,0x7a,0x00,0x03,0x00, // 7456
0x61,0x00,0x5d,0x00,0x93,0xff,0x0f,0xff, 0x1b,0x00,0x75,0x00,0x74,0xff,0x39,0x00, // 7472
0xaa,0xff,0x1a,0x00,0xf4,0xff,0x2e,0x00, 0x33,0x00,0xdf,0xff,0xd5,0xff,0x34,0x00, // 7488
0xd8,0xfe,0xdc,0xff,0xba,0xff,0x6a,0x00, 0x4e,0x00,0x30,0x00,0x58,0x00,0x76,0x00, // 7504
0x34,0x00,0x5a,0x00,0x83,0x00,0xa5,0x00, 0x2f,0x00,0xa9,0x00,0x27,0x00,0x04,0x00, // 7520
0xbe,0xff,0xae,0xff,0x21,0x00,0x03,0x00, 0xdd,0xfe,0x85,0x00,0x50,0x00,0xbe,0xff, // 7536
0x34,0x00,0x0c,0x00,0x6f,0x00,0xef,0xff, 0x2f,0x00,0x6e,0x01,0xb5,0xff,0x88,0xff, // 7552
0xc7,0xff,0x09,0xff,0x43,0x00,0xa6,0xff, 0xef,0xff,0x9a,0x00,0xfc,0xfe,0xe7,0xff, // 7568
0x11,0x01,0x7a,0xfe,0x93,0x00,0x93,0xfe, 0x02,0x00,0xd3,0xff,0x29,0x01,0x59,0xff, // 7584
0x30,0xff,0xf8,0xff,0x55,0x00,0x09,0x00, 0x76,0xff,0x8d,0x00,0xa1,0x00,0x7e,0xff, // 7600
0xbc,0x00,0xc2,0xfd,0x13,0xff,0x16,0x01, 0x69,0x00,0xfb,0x00,0xb0,0x00,0x55,0xff, // 7616
0xc8,0xff,0x14,0x00,0x6a,0xff,0x9d,0x00, 0xff,0xff,0x1a,0x00,0x1e,0x00,0xc8,0xff, // 7632
0x1a,0x00,0x7f,0x00,0x50,0x01,0xac,0x00, 0xef,0xff,0x6a,0xff,0x13,0x00,0xc3,0x00, // 7648
0x67,0xff,0xc5,0xff,0x8c,0x00,0x09,0xff, 0xce,0xff,0xc0,0xff,0x57,0x00,0xa1,0xff, // 7664
0x19,0x00,0xb4,0xff,0xf1,0x03,0x52,0xff, 0x87,0x00,0xdb,0xff,0x45,0xff,0xf6,0xff, // 7680
0xc0,0x00,0x2e,0x00,0xe2,0xff,0xe4,0xff, 0x62,0x00,0xb7,0x00,0x91,0x01,0x5c,0x00, // 7696
0x87,0xff,0xaa,0x00,0xcb,0xfd,0x0f,0xff, 0xc1,0xff,0x51,0xfe,0xb3,0xff,0x6f,0xff, // 7712
0x85,0x00,0x23,0x00,0x50,0xff,0x01,0x00, 0xeb,0xff,0x40,0x00,0xce,0xff,0xd0,0xff, // 7728
0x05,0xff,0xa5,0xff,0xb2,0x00,0x1d,0xff, 0x44,0xff,0xc7,0xff,0x98,0xff,0x9d,0xff, // 7744
0x0b,0xff,0x5b,0x00,0x56,0x01,0xba,0x00, 0x60,0xff,0x6e,0xfe,0xfa,0x04,0x2c,0xff, // 7760
0xbe,0x00,0xf1,0xfe,0xd2,0xff,0xe4,0xff, 0x51,0xff,0x51,0x01,0x82,0x00,0xfb,0xff, // 7776
0x62,0x00,0x1f,0x00,0xaa,0x00,0xeb,0xff, 0x1f,0x00,0x56,0xf9,0x69,0x00,0x25,0x03, // 7792
0x2d,0x01,0xf5,0xff,0x65,0x00,0x14,0x00, 0x11,0x00,0xe2,0x00,0xa0,0xff,0xb3,0x01, // 7808
0xb1,0xff,0x9c,0xff,0xfd,0xff,0xdd,0xff, 0x35,0x00,0xb1,0x04,0x54,0x00,0x74,0xff, // 7824
0x86,0x00,0xb8,0x00,0xf7,0xfe,0x71,0xff, 0xd4,0xff,0x54,0x00,0x01,0xff,0x7f,0xfd, // 7840
0x3a,0xff,0x47,0x00,0x92,0x00,0x23,0x00, 0x41,0x00,0x84,0xff,0x0e,0xfe,0xac,0xff, // 7856
0xbf,0x00,0x69,0xfb,0x7e,0xff,0x82,0xff, 0x76,0x00,0x74,0xff,0x21,0x01,0xd5,0x00, // 7872
0xd1,0xfd,0x78,0xfd,0x39,0x00,0x31,0x00, 0x2e,0xff,0x31,0xff,0x14,0x00,0x30,0x00, // 7888
0x6a,0x00,0x00,0x00,0xb1,0x01,0xa6,0x00, 0xab,0xfe,0x3b,0x00,0x32,0x00,0x34,0x00, // 7904
0xfe,0xff,0xa8,0x00,0xe9,0xff,0x0b,0x00, 0xcb,0xfe,0x19,0x00,0xb4,0x00,0xf1,0xfd, // 7920
0xd2,0x00,0x91,0x00,0xf2,0xff,0x45,0x01, 0x92,0x00,0x54,0x00,0xeb,0x01,0x5e,0xff, // 7936
0x1d,0x00,0xcf,0x00,0x61,0x01,0x87,0x00, 0xc9,0x00,0x55,0x00,0x4d,0x01,0x84,0x02, // 7952
0x65,0xff,0x36,0x00,0xbf,0x00,0x18,0x00, 0xbc,0xff,0x88,0x00,0x9a,0xff,0x14,0xff, // 7968
0xb1,0xff,0x0d,0x00,0x3d,0x00,0x8f,0x00, 0x13,0x01,0x04,0x00,0x98,0xfd,0x44,0x00, // 7984
0xd7,0xff,0xd7,0x00,0x5e,0x00,0xc8,0x00, 0xa9,0x00,0x3f,0xff,0xee,0xfe,0x5b,0x00, // 8000
0xa9,0xff,0xc4,0xff,0x94,0x00,0x80,0xff, 0xfb,0x00,0x47,0xff,0x6a,0xff,0xde,0xfe, // 8016
0xc9,0xff,0x1d,0x00,0x41,0xff,0xb2,0xff, 0x9d,0xff,0xf9,0x00,0xc9,0xff,0x7d,0x00, // 8032
0x85,0xff,0x91,0xff,0xab,0xff,0x63,0xff, 0xce,0x01,0xf3,0x01,0x76,0x00,0x55,0xff, // 8048
0xae,0xff,0x1f,0x02,0xc7,0xff,0x29,0x00, 0xe4,0xff,0x41,0x00,0x48,0x00,0xd7,0xff, // 8064
0x71,0xff,0x7b,0xff,0x43,0xfe,0x26,0x00, 0xd4,0x00,0xae,0xfd,0x56,0x00,0x16,0x01, // 8080
0x34,0x00,0xcc,0xff,0x08,0x00,0xd9,0x00, 0x27,0x01,0xd2,0xff,0x1d,0xff,0xbd,0xff, // 8096
0x03,0x00,0xd2,0xff,0xa2,0x00,0xf8,0xff, 0xf1,0xff,0xf7,0xff,0x02,0x01,0x11,0x00, // 8112
0x5a,0x00,0x88,0xff,0x52,0xff,0x84,0xff, 0xc9,0x00,0x35,0x00,0x1a,0x02,0xd0,0xff, // 8128
0xe0,0xff,0x60,0xff,0x05,0xfe,0x9d,0x00, 0xe0,0xff,0x23,0x00,0xef,0xfc,0xf5,0xff, // 8144
0x2e,0x01,0x45,0xff,0xf7,0xff,0xf6,0xff, 0xfd,0x00,0x20,0x00,0x9b,0xff,0x40,0x00, // 8160
0xdb,0xff,0x4b,0x00,0xf0,0xfe,0x05,0x00, 0xcd,0xff,0x0a,0x01,0x60,0x00,0x7d,0xff, // 8176
0x0d,0x00,0x91,0x00,0x32,0x00,0x20,0x02, 0x4f,0x00,0xaa,0xff,0x7f,0x00,0x4a,0x00, // 8192
0x21,0x00,0x65,0x00,0x49,0x00,0xc5,0xff, 0x82,0x00,0xd5,0xfe,0x19,0x00,0x2d,0x00, // 8208
0xac,0xff,0x58,0x00,0xbf,0x00,0xd5,0xff, 0xf1,0xff,0xe1,0xff,0x37,0x00,0x83,0xff, // 8224
0x32,0xff,0x29,0x00,0x07,0x00,0x87,0xff, 0x7c,0x00,0x12,0x00,0xff,0xff,0xbe,0xff, // 8240
0x7f,0xff,0x5d,0x00,0x95,0xff,0xab,0xff, 0x20,0xff,0xf4,0xff,0x1e,0x00,0xde,0xff, // 8256
0xd7,0xff,0x8a,0xff,0xab,0xff,0x4c,0x00, 0xe0,0xff,0x5d,0xff,0xdf,0xff,0xdd,0xff, // 8272
0xb6,0x00,0x1b,0x00,0x59,0x00,0xb2,0xff, 0xdc,0xff,0x73,0xff,0x01,0x00,0x85,0xff, // 8288
0x78,0xff,0x5c,0x00,0xac,0xff,0x68,0xff, 0x4e,0x00,0x03,0x00,0xcb,0xff,0x4c,0xff, // 8304
0x00,0x00,0xfb,0xff,0x79,0x00,0x84,0x01, 0x0d,0x00,0x56,0xff,0x12,0x00,0x19,0xff, // 8320
0xa7,0xff,0xb7,0xff,0x35,0x00,0x4f,0x00, 0x59,0x00,0x8b,0x00,0x13,0x00,0x78,0xff, // 8336
0x3a,0x00,0x10,0x00,0x6d,0x00,0xe1,0xff, 0xd6,0xfe,0x7c,0xff,0x7a,0x00,0xe8,0x00, // 8352
0xf1,0xff,0x99,0xff,0x0f,0x00,0x75,0xff, 0xd6,0xff,0x55,0xff,0xbf,0xff,0xf2,0xff, // 8368
0x94,0xff,0xd5,0xff,0x0a,0x00,0xc5,0xff, 0x6f,0x00,0xed,0x00,0xcd,0xff,0xa2,0x00, // 8384
0xea,0xfe,0x5c,0xff,0x10,0x00,0x5d,0xfe, 0x2d,0x00,0x53,0x00,0x3b,0xff,0x84,0xff, // 8400
0x5d,0x00,0xc9,0xff,0xb5,0xff,0xdb,0xff, 0x66,0xff,0x82,0x00,0xf6,0xff,0x7b,0xff, // 8416
0x54,0xff,0xae,0xff,0xd3,0xff,0x00,0xff, 0xec,0xff,0xc1,0x00,0x9a,0x00,0xb6,0x00, // 8432
0xab,0xff,0x2f,0xff,0x17,0xff,0x26,0x00, 0x8a,0xfe,0xf3,0xff,0x71,0x00,0xf4,0x00, // 8448
0x76,0x00,0x33,0xff,0x60,0x00,0x1b,0x00, 0x18,0xff,0x16,0x01,0xf9,0xfe,0xde,0xfe, // 8464
0x05,0x00,0x71,0x00,0x5f,0xff,0x3c,0x01, 0xd6,0xff,0x6b,0xff,0x1a,0x00,0xa9,0xff, // 8480
0xcc,0xff,0x83,0x00,0x64,0xff,0x0f,0x01, 0x9a,0x01,0x94,0xff,0x1e,0x00,0x1d,0xff, // 8496
0x28,0x00,0x4b,0xff,0x4d,0xfe,0x21,0x01, 0x4d,0x00,0x5a,0xff,0x69,0x00,0xb8,0x00, // 8512
0x83,0xff,0xfd,0xff,0x61,0xfe,0x6c,0xff, 0x7a,0x00,0x36,0x00,0x04,0x00,0x79,0x00, // 8528
0x53,0x00,0xeb,0xff,0x29,0xff,0x6e,0x00, 0x7b,0x00,0x30,0x00,0xb0,0xfe,0x39,0x00, // 8544
0xe5,0xff,0x61,0x00,0x47,0xff,0x6a,0xff, 0x8c,0xff,0x84,0xff,0x00,0x00,0x19,0x01, // 8560
0x69,0x00,0x63,0x00,0xec,0xff,0x22,0x00, 0xda,0xff,0x9f,0xff,0xb1,0xff,0x66,0xff, // 8576
0x4c,0x00,0x76,0x00,0x1d,0x00,0x76,0x00, 0x4b,0x00,0xb2,0x00,0x90,0xfe,0x8f,0xff, // 8592
0x2c,0x00,0xc0,0xff,0xc5,0xff,0x5f,0x00, 0x74,0xff,0x39,0xff,0xe4,0xff,0x58,0x02, // 8608
0x68,0xff,0x6c,0xff,0x89,0xff,0x39,0x01, 0x6b,0xff,0x35,0xff,0x2c,0x00,0x47,0xfe, // 8624
0x1c,0x02,0xe6,0xff,0x3d,0x00,0xe5,0xff, 0x1d,0xff,0xc7,0xff,0x32,0x01,0x86,0x00, // 8640
0xfb,0xff,0x56,0x02,0x4a,0x00,0xcc,0x00, 0x76,0x00,0xce,0xfe,0x58,0xff,0xdf,0xff, // 8656
0xe2,0xfe,0x75,0xff,0xd8,0xfe,0x06,0xff, 0x95,0x00,0x6a,0x00,0xba,0x00,0x12,0x01, // 8672
0xfb,0xff,0xa5,0xff,0x93,0xfe,0x77,0xff, 0x13,0x00,0x91,0xff,0x28,0xff,0x57,0x00, // 8688
0x4d,0x00,0xd2,0xff,0xca,0xff,0x43,0xff, 0xc3,0x00,0x52,0xff,0x6d,0xff,0x03,0x00, // 8704
0x9c,0xff,0xee,0xff,0xb1,0xff,0x00,0x01, 0xee,0xff,0xb2,0xff,0xbf,0xff,0xda,0x01, // 8720
0x5e,0xff,0x69,0xff,0x13,0x00,0xd8,0xff, 0x53,0x01,0xfc,0xff,0x29,0x00,0x1c,0x00, // 8736
0x4c,0x00,0x8e,0x00,0xe8,0xfd,0x16,0x00, 0xfe,0xff,0xaf,0xff,0x9d,0xff,0xbb,0xff, // 8752
0x7c,0xff,0xc6,0xff,0xe5,0xff,0xc6,0x00, 0x98,0x00,0x2f,0xff,0xad,0x01,0x2b,0x00, // 8768
0x96,0xff,0xae,0xfd,0x26,0x00,0xb4,0xff, 0x68,0xfe,0x3c,0xff,0xb0,0xff,0x7b,0x00, // 8784
0x79,0x00,0xe4,0xff,0x4c,0x00,0x85,0xff, 0xc8,0xff,0x0f,0x03,0xd3,0xff,0x8b,0xff, // 8800
0x36,0x02,0xe0,0xff,0x4e,0xfe,0x0a,0x02, 0x04,0x00,0x21,0x00,0xf1,0xff,0x0b,0x00, // 8816
0x9e,0xff,0x2b,0x02,0x96,0x00,0x46,0xfe, 0x08,0x00,0xea,0xff,0xbf,0xfd,0x86,0xff, // 8832
0xda,0xff,0x52,0x00,0xcc,0xff,0xfc,0xff, 0xb9,0x01,0x0e,0x00,0x88,0xfe,0x2b,0x02, // 8848
0x2c,0x00,0x55,0x00,0x9e,0xff,0x42,0xff, 0x0f,0x00,0x06,0x00,0x0e,0x01,0xba,0xff, // 8864
0xa4,0xff,0x7f,0x00,0x2d,0x00,0x84,0xff, 0xfd,0xfe,0x96,0xff,0x82,0x00,0x85,0xff, // 8880
0xde,0xff,0x36,0x00,0x42,0xfe,0x00,0x01, 0xd3,0xff,0x67,0xff,0x80,0xfe,0x30,0x00, // 8896
0xcb,0xff,0xd5,0xfe,0x0d,0x00,0xab,0xff, 0x82,0x00,0x66,0xff,0x0a,0x00,0xe6,0x00, // 8912
0xbf,0xff,0x6b,0x00,0x10,0x00,0x00,0x01, 0x3b,0x00,0x23,0x00,0x4f,0x02,0x96,0x00, // 8928
0xeb,0xff,0xc8,0xff,0xc4,0x00,0x3f,0x01, 0xf0,0xff,0x6f,0x00,0x81,0x00,0x22,0x00, // 8944
0x86,0xff,0x04,0x00,0x36,0x00,0x77,0xff, 0xdc,0x00,0xe6,0xff,0x3d,0x00,0xbc,0xff, // 8960
0x35,0xfe,0xfb,0xff,0xac,0xff,0x20,0x02, 0x6f,0x00,0xf8,0xff,0x17,0x00,0xa9,0x00, // 8976
0x14,0x00,0x1a,0x00,0x88,0x00,0x88,0xff, 0x61,0xff,0xc8,0xff,0x22,0xfe,0x9a,0x00, // 8992
0x70,0xff,0x3a,0xff,0x00,0x02,0xc4,0xff, 0xe1,0xff,0xb1,0xff,0x38,0x00,0xb8,0x00, // 9008
0x34,0x00,0x68,0x00,0x95,0xff,0xf2,0xff, 0x90,0xff,0x30,0xff,0xb8,0xff,0x19,0x00, // 9024
0x0f,0x01,0x5a,0x01,0x1d,0x00,0xc7,0xff, 0x56,0xff,0xd5,0xff,0x2a,0x00,0xbf,0xff, // 9040
0x59,0x00,0x7a,0x00,0x1e,0x00,0xd3,0x00, 0x98,0x00,0x97,0xff,0x43,0x00,0xc6,0xff, // 9056
0x23,0x00,0xe2,0xff,0x80,0x00,0x0e,0x00, 0xf9,0xfe,0x96,0x01,0xa3,0xff,0xa6,0x00, // 9072
0xd4,0x00,0x66,0x00,0x45,0x00,0xd2,0xff, 0x53,0x00,0xff,0xff,0x7c,0xff,0x68,0x00, // 9088
0xc5,0xfe,0x7e,0xff,0xe1,0xff,0x04,0x00, 0xb9,0x00,0x21,0x00,0x86,0xfe,0x96,0xff, // 9104
0x90,0x01,0x85,0x00,0x61,0xff,0xee,0x00, 0x56,0x00,0x71,0x01,0xe4,0xff,0xa3,0xff, // 9120
0xee,0xff,0x99,0xfe,0xd3,0xff,0xb2,0x00, 0x9f,0x00,0x68,0xff,0x4d,0xff,0x41,0x00, // 9136
0x44,0xff,0x5a,0x00,0x51,0x00,0xb4,0x00, 0x64,0x00,0x11,0xff,0xde,0xfe,0xbf,0xff, // 9152
0x16,0x00,0x29,0x00,0xf5,0xff,0xf2,0xff, 0x2b,0x00,0xd7,0x00,0xf8,0xff,0x32,0x00, // 9168
0xe8,0x00,0x5c,0x00,0x17,0x00,0x2c,0x00, 0xa8,0xff,0xe3,0xff,0x5b,0xff,0x75,0xff, // 9184
0xba,0x00,0x51,0x00,0x8e,0xff,0xeb,0xff, 0xbe,0x01,0x6c,0xff,0x29,0x00,0x86,0x00, // 9200
0x30,0x01,0xeb,0xff,0xd8,0xff,0x35,0x00, 0x17,0x01,0x8d,0xff,0x35,0xff,0x22,0x00, // 9216
0x32,0x00,0xae,0xff,0xca,0xff,0x9e,0xff, 0x2e,0x00,0x17,0xff,0xc3,0xff,0xf5,0xff, // 9232
0x48,0x00,0x5b,0x01,0x7e,0xff,0x6a,0x00, 0x7f,0xff,0x54,0x00,0x73,0x00,0xeb,0x00, // 9248
0x63,0xff,0x68,0x01,0xb7,0xff,0xbe,0x00, 0x56,0x00,0x97,0xff,0xda,0xfe,0x30,0x00, // 9264
0xec,0x00,0xea,0xff,0xff,0xff,0x04,0x00, 0xb2,0xff,0x0d,0x00,0x52,0x00,0xa8,0x00, // 9280
0xfe,0xff,0x3e,0xff,0x04,0x00,0xcd,0x00, 0x3b,0x00,0xd1,0xff,0x65,0xff,0xac,0xff, // 9296
0x72,0xfe,0x6b,0xff,0x97,0xff,0xc7,0xff, 0x87,0x00,0x9a,0x00,0xed,0xff,0xc6,0x00, // 9312
0x15,0x00,0x82,0xff,0x7a,0x00,0xca,0xff, 0x51,0x00,0x23,0x00,0x90,0x00,0x4f,0x00, // 9328
0xbc,0x00,0xcf,0xff,0x84,0x01,0xca,0xff, 0x88,0xff,0xab,0xff,0x6d,0x01,0x07,0x00, // 9344
0x98,0xff,0x3f,0x00,0x5b,0x00,0x90,0x01, 0x0f,0x00,0x0f,0x00,0x73,0x00,0x9c,0xff, // 9360
0x2f,0x00,0xbe,0xff,0x3d,0xff,0x46,0x00, 0x98,0xff,0xf0,0xff,0x21,0x00,0x13,0x00, // 9376
0x51,0x00,0xe6,0xff,0x0a,0x01,0x4d,0xff, 0xb2,0x00,0x9a,0x00,0x40,0x00,0x5b,0x00, // 9392
0x83,0xff,0x23,0x00,0x59,0xff,0x8a,0x00, 0x7a,0x00,0xcb,0xff,0xc0,0xff,0x89,0x00, // 9408
0xfa,0x00,0x19,0x00,0xb0,0x00,0x64,0xff, 0xf9,0xff,0x02,0x00,0x3f,0x00,0x57,0x00, // 9424
0x3e,0x00,0xf2,0xff,0xa9,0xff,0x07,0x00, 0xd9,0xff,0x2c,0x00,0xc0,0xff,0x8b,0xff, // 9440
0x5c,0x00,0x35,0x00,0x57,0x00,0x49,0xfe, 0x56,0x00,0x8a,0x02,0xa6,0xff,0x75,0x00, // 9456
0x60,0xff,0xbc,0xff,0x08,0x00,0x9c,0xff, 0xe1,0xff,0xe8,0xff,0xf0,0xfe,0xdd,0xff, // 9472
0xf2,0x01,0xf7,0xff,0x10,0x00,0x42,0xff, 0x2b,0x00,0x43,0x00,0x1f,0x00,0xbc,0xff, // 9488
0xab,0x00,0xde,0xff,0x23,0x00,0x0b,0x00, 0xf0,0xff,0x6f,0x00,0x39,0x00,0x28,0x00, // 9504
0x46,0xff,0x5f,0xff,0x05,0x00,0x56,0x00, 0xd3,0xff,0x89,0x00,0x5f,0xff,0x97,0x00, // 9520
0xb7,0xff,0x91,0x00,0x42,0x01,0x59,0x00, 0xf9,0xff,0x4b,0x00,0xa1,0xff,0x8b,0x00, // 9536
0xaa,0xff,0xe8,0xff,0xa2,0xfe,0x7d,0x00, 0xc8,0x00,0xa5,0x00,0x7e,0xff,0x80,0xff, // 9552
0xe5,0xff,0x25,0x00,0x85,0x00,0x1f,0x00, 0xae,0x01,0x53,0xfe,0x16,0xff,0x00,0x00, // 9568
0x7b,0x00,0x31,0xff,0x1d,0xff,0x66,0xff, 0xae,0x00,0x29,0x00,0x32,0x00,0x04,0x01, // 9584
0xc6,0xff,0x28,0x00,0xf8,0xff,0x7d,0x00, 0x8d,0xff,0xcf,0xff,0xbb,0x00,0x54,0x00, // 9600
0x95,0x01,0x2f,0xff,0xec,0xff,0xc3,0x01, 0xf0,0xfe,0x33,0x00,0x07,0x01,0x44,0xfe, // 9616
0x76,0x00,0xe1,0xff,0x07,0xff,0xe4,0xff, 0x03,0x00,0x2d,0x01,0xcb,0x03,0x7e,0xff, // 9632
0x1f,0x00,0xd4,0xff,0x2b,0x00,0xda,0xff, 0xdb,0xff,0x5b,0x00,0x3e,0x00,0xd9,0xff, // 9648
0xd1,0xff,0x2a,0x00,0xa0,0x00,0xff,0xff, 0x02,0xff,0x5a,0x00,0x23,0xfe,0x61,0x00, // 9664
0xc8,0xff,0xec,0xfe,0x8c,0xff,0xbe,0xff, 0xed,0xff,0x17,0x00,0xff,0xfe,0xb1,0xff, // 9680
0xf9,0xff,0x11,0x00,0xa2,0xff,0x4d,0x00, 0x8e,0xff,0xb5,0xff,0x26,0x00,0x56,0xfe, // 9696
0x2c,0x00,0x90,0xff,0xf3,0x00,0xfb,0xfe, 0xec,0xff,0xa7,0xff,0x31,0x01,0xd7,0x00, // 9712
0xc4,0xfe,0x46,0xff,0xae,0x03,0xbd,0xff, 0x1a,0x00,0x02,0x01,0x54,0xff,0x10,0xff, // 9728
0x7c,0xff,0x7e,0x00,0xc4,0x00,0x12,0xff, 0x61,0xff,0xd3,0xff,0xbd,0x00,0xbf,0xff, // 9744
0xa0,0xff,0x00,0xfb,0xc9,0x00,0x1a,0x02, 0x7a,0x01,0xe7,0xff,0xae,0x00,0x75,0x00, // 9760
0x3b,0x00,0x06,0x01,0x48,0x00,0xd7,0x01, 0x6f,0xff,0x65,0xff,0x2d,0xff,0x39,0x00, // 9776
0x11,0x00,0xd7,0x03,0x8d,0xff,0x3e,0x00, 0xad,0x00,0x72,0x00,0x9f,0xfe,0x0e,0x00, // 9792
0x69,0x00,0xb6,0xff,0x11,0x00,0x03,0xfe, 0x8d,0xff,0x4f,0x00,0x0f,0x01,0xc2,0x00, // 9808
0xfa,0xfe,0xe7,0xff,0xa9,0xff,0xee,0xff, 0x6b,0x00,0xdd,0xfb,0xfc,0xff,0x6f,0xff, // 9824
0xba,0x00,0x52,0xff,0xa0,0xff,0x40,0x01, 0x06,0x00,0x61,0x00,0x03,0x00,0xae,0xff, // 9840
0x97,0xff,0xd5,0xff,0xa5,0x00,0x7d,0x00, 0xe1,0xff,0x77,0xff,0xcb,0xff,0x10,0x00, // 9856
0x6c,0xff,0x30,0x00,0x9f,0x00,0x83,0xff, 0xad,0xff,0x76,0x00,0x97,0xff,0x9f,0xff, // 9872
0x93,0x00,0xdb,0xff,0x3c,0xff,0x1b,0x00, 0x00,0x00,0xa8,0x00,0x77,0x00,0x90,0xff, // 9888
0x61,0x00,0xb7,0xff,0x51,0x00,0xab,0xff, 0x8c,0x00,0xcf,0x00,0xfa,0xff,0xfc,0x00, // 9904
0x38,0x00,0x0f,0x00,0xc2,0xff,0x38,0x00, 0xd2,0xff,0xc7,0xff,0xb3,0xfe,0x0d,0x00, // 9920
0xc3,0xff,0x47,0xff,0xd6,0xff,0x06,0x00, 0x20,0x00,0xad,0x00,0xb3,0xff,0xbf,0xff, // 9936
0xa6,0x00,0x42,0x00,0xa7,0xff,0x6b,0x00, 0xf5,0xff,0x91,0x00,0x45,0x00,0x4f,0xff, // 9952
0x4c,0x00,0xb4,0xff,0x93,0x00,0xc6,0xff, 0x0c,0x00,0xae,0xff,0x68,0x00,0x4e,0x00, // 9968
0xf7,0xff,0xc5,0xff,0x9c,0xff,0x0a,0x00, 0xb1,0xff,0x1b,0x01,0x7d,0xff,0xfd,0xff, // 9984
0x42,0x00,0x3d,0x00,0x65,0xff,0x28,0x00, 0x78,0x00,0x2d,0x00,0x43,0x00,0x98,0x00, // 10000
0x7d,0x00,0xd2,0xff,0x4b,0xff,0x29,0x00, 0x6b,0x00,0xb5,0xff,0xe0,0xff,0x9a,0x00, // 10016
0x5c,0xff,0x41,0x00,0x8d,0xff,0x6c,0xff, 0x04,0x01,0x61,0x00,0xa1,0xff,0xc9,0xff, // 10032
0x6a,0xff,0x52,0x00,0xd7,0xff,0xba,0xff, 0x91,0xff,0x43,0x00,0xe7,0xff,0xb4,0x00, // 10048
0xf1,0xff,0xfe,0xff,0x4d,0x00,0xad,0x00, 0x06,0x00,0xf4,0xff,0x9e,0xff,0x99,0xff, // 10064
0x8e,0x00,0x48,0x00,0xc3,0x00,0xc2,0x00, 0x37,0x00,0x40,0x00,0x8d,0xff,0x43,0x00, // 10080
0x34,0x00,0xbc,0xff,0xa5,0xff,0x3b,0xff, 0x04,0x00,0x51,0xff,0x2e,0x00,0x6a,0x00, // 10096
0x8a,0x00,0x8d,0xff,0xe3,0xff,0x93,0x00, 0x04,0x00,0x2c,0x00,0x13,0x00,0xc4,0xff, // 10112
0x0b,0xff,0x8a,0xff,0xd6,0xff,0xe5,0x00, 0x4c,0xff,0x13,0xfe,0xd1,0x00,0x11,0x00, // 10128
0x17,0x00,0xe0,0xff,0x7e,0xff,0xba,0x00, 0xae,0xfb,0xb3,0xff,0xc1,0xff,0x25,0x00, // 10144
0xb3,0x00,0xf2,0xff,0x2a,0xfe,0x10,0x01, 0x5b,0x00,0x6c,0xff,0x8a,0x00,0x12,0xff, // 10160
0xfe,0x00,0xae,0x00,0x64,0x00,0x9d,0xff, 0x66,0x01,0x75,0xff,0x78,0x01,0xdf,0xfe, // 10176
0x53,0xff,0x74,0xff,0x08,0x03,0xdc,0xff, 0xd3,0xff,0xf2,0xff,0x36,0xff,0x99,0x01, // 10192
0x09,0x00,0xc7,0xff,0xc2,0xff,0x5f,0xff, 0x8a,0xff,0xc2,0xff,0x2e,0x00,0xde,0xff, // 10208
0xa2,0xff,0x0c,0x00,0xb1,0xff,0x96,0x00, 0xc6,0xff,0x75,0x00,0xf2,0x01,0xdc,0xff, // 10224
0xbf,0xff,0x59,0x02,0x7a,0xff,0x6a,0x01, 0xc6,0xff,0xfb,0xff,0xe0,0xfe,0x9f,0x00, // 10240
0x39,0x00,0x1b,0x00,0x44,0xff,0x11,0x00, 0xa9,0x01,0xb8,0xff,0xbd,0x00,0x81,0xfe, // 10256
0x24,0xff,0x6c,0x00,0xe7,0xff,0xeb,0x00, 0xd4,0x01,0xbe,0xff,0x04,0xfe,0xca,0xff, // 10272
0xbe,0xfe,0xf3,0x01,0x65,0xff,0x97,0xff, 0x18,0x00,0x6d,0x00,0x76,0xff,0xea,0xff, // 10288
0xce,0xff,0x6c,0x01,0xfc,0xff,0xfd,0x00, 0x08,0xff,0x0a,0x00,0x4f,0xff,0xc0,0xff, // 10304
0xa6,0xff,0x5d,0x00,0x9c,0xfe,0x3b,0xfe, 0x8c,0x01,0x47,0xff,0x0f,0x00,0x82,0xff, // 10320
0x79,0x00,0xd6,0xff,0x4e,0x00,0x7c,0x01, 0x03,0x02,0x69,0xff,0x7d,0xff,0xa6,0xff, // 10336
0xd4,0xfe,0x3a,0x00,0xc0,0xff,0x58,0xff, 0xb7,0xff,0x8b,0xff,0x33,0x01,0x45,0x00, // 10352
0x84,0x00,0xde,0xff,0x21,0xfe,0xc4,0x00, 0x1f,0xff,0x7d,0xff,0x08,0x02,0x00,0x00, // 10368
0xeb,0xff,0x46,0xff,0x6c,0xff,0x91,0x02, 0x80,0xff,0x4e,0x00,0x3f,0xfe,0x57,0x00, // 10384
0x3a,0x04,0x60,0xff,0x45,0xff,0x3d,0x00, 0x69,0xff,0x17,0x00,0x0f,0x00,0x46,0xff, // 10400
0xf1,0xff,0x74,0x00,0x6c,0x00,0xa2,0x00, 0x4e,0xff,0x52,0x00,0xd0,0x00,0xab,0xff, // 10416
0x67,0xff,0x5f,0x00,0x3a,0x01,0xab,0xff, 0xe4,0xff,0xb7,0xff,0x37,0x00,0xdd,0x00, // 10432
0xc4,0x00,0x07,0x00,0x1a,0x00,0x80,0x00, 0x4f,0xff,0x0e,0x00,0x10,0xfe,0x21,0xff, // 10448
0x03,0x00,0x74,0x01,0x7f,0x00,0xbd,0xff, 0x04,0x02,0xa0,0xff,0xdb,0xff,0x2f,0x00, // 10464
0xf2,0xff,0xef,0xff,0xb3,0xff,0x5a,0x00, 0x5b,0x00,0xb9,0xfe,0x8e,0xff,0xb2,0x00, // 10480
0x07,0xfe,0xe0,0xff,0x8f,0x01,0x58,0xff, 0xcf,0xff,0xeb,0xff,0x3e,0x00,0x63,0x00, // 10496
0x5d,0xff,0xa2,0xff,0x9d,0xff,0x3a,0x01, 0xcc,0xff,0xde,0xff,0xaa,0x01,0x7c,0x00, // 10512
0xdc,0xff,0x32,0x00,0x75,0xff,0xea,0xff, 0xc3,0xfe,0x01,0x00,0x79,0x01,0xd6,0xfe, // 10528
0x11,0x00,0x37,0x00,0x84,0x00,0xe9,0xff, 0x44,0x00,0x01,0x00,0xef,0xfe,0xf5,0xff, // 10544
0x20,0x00,0xee,0xff,0xa6,0xff,0xcd,0xff, 0x4c,0x00,0x43,0x00,0xb2,0xff,0x3b,0x00, // 10560
0x9c,0xff,0x7c,0x00,0x14,0x01,0x2d,0xff, 0xb7,0xff,0x9c,0x00,0x02,0x01,0x67,0x00, // 10576
0x91,0xff,0xf8,0x00,0xa1,0xff,0x0d,0x00, 0x0b,0x00,0x0c,0x00,0x25,0x00,0xdf,0xff, // 10592
0x7a,0x00,0xe0,0xfe,0x04,0x00,0xcc,0xff, 0xd1,0xff,0xee,0xff,0x65,0xfe,0xf2,0xff, // 10608
0x9e,0xff,0x82,0xff,0x83,0xff,0x60,0xfe, 0x02,0x00,0xb2,0xff,0xfb,0xff,0x15,0x00, // 10624
0x49,0xff,0xd7,0xff,0x1f,0x00,0xe7,0xff, 0x05,0xff,0xeb,0xff,0xf1,0xff,0xed,0xff, // 10640
0x6c,0x00,0x84,0xff,0x99,0x00,0xc1,0xfe, 0x9a,0xff,0xc5,0xff,0x18,0xff,0xb0,0x00, // 10656
0xdd,0xff,0x1c,0x00,0xa3,0xfe,0x15,0x00, 0x9d,0xff,0xc4,0xff,0x50,0x01,0xaa,0xff, // 10672
0xf9,0xfe,0x50,0xfd,0x9b,0xff,0xa6,0x00, 0xbd,0xff,0x66,0xf9,0xa2,0xff,0x55,0x08, // 10688
0x41,0x01,0x7c,0xfe,0x16,0x01,0x71,0xfb, 0x5f,0xfc,0x34,0x02,0x22,0xff,0xd4,0x00, // 10704
0x02,0x00,0x7a,0xfe,0x8a,0xf9,0xc1,0x03, 0xbd,0x02,0x75,0xf9,0x22,0x09,0xbf,0x02, // 10720
0xc4,0x07,0xc6,0x00,0xef,0xff,0x97,0x0b, 0x93,0x01,0x76,0xff,0xd0,0x08,0x5a,0xf8, // 10736
0xf6,0xff,0xf2,0xfd,0x02,0x00,0x3c,0x03, 0x6e,0x01,0x3d,0x00,0x63,0x01,0xf0,0xff, // 10752
0x12,0x00,0xdf,0xff,0xeb,0xfc,0x63,0xff, 0x7c,0x00,0x00,0x0b,0x1d,0x00,0x19,0x00, // 10768
0x4f,0x00,0xf2,0xff,0xf1,0x00,0x97,0x00, 0x49,0xf3,0xa5,0x00,0x2c,0xfc,0x63,0xff, // 10784
0x6f,0xff,0xf9,0xf9,0xf6,0xff,0x39,0x01, 0x5d,0x00,0x69,0x00,0x39,0xf9,0x2c,0x06, // 10800
0xaf,0x00,0xfe,0xff,0xd5,0xff,0x82,0x00, 0xa0,0x00,0x3c,0xfe,0x58,0x0d,0xba,0xf8, // 10816
0xe4,0x08,0x03,0x02,0x50,0x00,0xbb,0xfe, 0xc7,0xff,0x44,0x00,0xfe,0xfe,0x56,0xff, // 10832
0x3a,0xfb,0xdb,0xff,0x64,0x00,0x1d,0xfd, 0xca,0x08,0x9f,0x00,0xff,0xfe,0x2f,0x02, // 10848
0x27,0xff,0x3f,0x02,0xe0,0xff,0xce,0x03, 0x45,0xfe,0xef,0xfe,0x93,0x0c,0x9d,0xfc, // 10864
0x7a,0x04,0xdd,0xfe,0xb3,0x01,0xab,0x00, 0x99,0x01,0x5a,0xfe,0xbf,0xfe,0x7b,0xf6, // 10880
0x55,0xff,0xe0,0x05,0x26,0x00,0xde,0x04, 0x1f,0xfd,0xca,0xfb,0xe9,0xff,0x32,0x00, // 10896
0xfa,0xfd,0x61,0x00,0xed,0xff,0x80,0xfd, 0x0f,0x02,0x38,0x00,0x87,0xff,0xef,0xfe, // 10912
0x2f,0x00,0x41,0xff,0xca,0xf8,0x70,0xfe, 0x9d,0xfe,0x30,0xfd,0x7e,0xff,0x87,0x00, // 10928
0x29,0x01,0xc7,0xff,0xab,0xfc,0xa0,0x02, 0x28,0x06,0xe7,0xff,0x30,0xfe,0x34,0xfe, // 10944
0x90,0x07,0xed,0xfa,0x79,0xff,0x02,0x05, 0x75,0xff,0x15,0x00,0x2a,0x00,0x34,0x01, // 10960
0x32,0xff,0xa9,0x00,0xf3,0xff,0x86,0xff, 0xa5,0x01,0x08,0x00,0x36,0x01,0x10,0x00, // 10976
0x63,0x00,0x78,0x00,0x84,0xff,0xf9,0xff, 0xe9,0xff,0xee,0xff,0xd5,0xff,0x12,0x00, // 10992
0x26,0x00,0x83,0xff,0x30,0xff,0xe3,0xff, 0x6a,0xff,0xdb,0xff,0xdc,0x00,0xe0,0xff, // 11008
0x0a,0x00,0xd2,0xfe,0xf3,0xff,0xb2,0x00, 0xee,0xfe,0x39,0x00,0x17,0x00,0x36,0x00, // 11024
0x34,0x00,0x33,0x00,0x52,0x00,0x3e,0xff, 0x3b,0x00,0x64,0x01,0x18,0x00,0x5c,0xff, // 11040
0x07,0x01,0xba,0xff,0x5f,0xff,0x98,0x01, 0x39,0x00,0x3b,0x00,0x03,0x00,0x7a,0xff, // 11056
0xf3,0xff,0x45,0x01,0x43,0x00,0x5f,0xfe, 0xf8,0xff,0x9a,0xff,0xd3,0xfe,0x53,0x00, // 11072
0x21,0x00,0xfe,0xff,0x83,0x00,0x09,0x00, 0x4b,0x01,0xe6,0xff,0xd7,0xfe,0xb8,0x01, // 11088
0x6a,0x00,0x07,0x00,0x69,0x00,0xb8,0xff, 0x59,0x00,0x87,0x00,0xe4,0x00,0xb0,0xff, // 11104
0xf4,0xff,0xac,0xff,0x60,0x00,0x02,0x00, 0x74,0xff,0xc7,0xff,0x93,0x00,0x61,0x00, // 11120
0x40,0xff,0x84,0xff,0xad,0xfe,0x98,0x00, 0xd4,0xff,0xf5,0xfe,0xc1,0xfe,0x5e,0x00, // 11136
0xb0,0xff,0x00,0xff,0x09,0x00,0xae,0xff, 0x23,0x00,0xde,0xff,0xe7,0x00,0xba,0x00, // 11152
0x04,0xff,0xcd,0xff,0x88,0x00,0x75,0xff, 0x42,0x00,0xd4,0xff,0x25,0x01,0xcc,0xff, // 11168
0xea,0xff,0x59,0x00,0x92,0xff,0x85,0x01, 0xa4,0xff,0x33,0x00,0x68,0xff,0x4d,0x00, // 11184
0x37,0x00,0xcc,0xff,0xc2,0xff,0xdb,0xff, 0x1e,0x01,0x58,0x00,0x4b,0xff,0x68,0xff, // 11200
0xd6,0xfe,0x59,0x00,0xd5,0xfe,0x64,0x01, 0x41,0x00,0x31,0x00,0x18,0x00,0xfd,0xff, // 11216
0x24,0x00,0xf0,0xff,0xe6,0x00,0x57,0xff, 0x05,0x00,0xf0,0xfe,0xb9,0xfe,0x6a,0x00, // 11232
0xcc,0xff,0x3e,0x00,0x95,0x00,0xe5,0xff, 0x07,0xff,0xbe,0xff,0x9f,0xff,0x16,0x00, // 11248
0xa4,0xff,0x35,0x00,0x6a,0x00,0x96,0xff, 0xc5,0xff,0xbc,0xff,0x28,0x00,0xeb,0x00, // 11264
0x5a,0x00,0x9c,0xff,0xaf,0x00,0x47,0x00, 0xec,0xff,0x66,0xff,0x1d,0x00,0x0f,0x00, // 11280
0x2b,0x00,0x1b,0xff,0x4c,0xff,0x63,0x00, 0x40,0x00,0xa9,0xff,0xed,0xff,0x12,0x00, // 11296
0xe8,0xff,0xab,0xff,0xb1,0xff,0x5e,0xff, 0x01,0x00,0xca,0xff,0x89,0xff,0x3a,0x00, // 11312
0xf7,0xff,0xbd,0xff,0xc7,0x00,0x40,0x00, 0xcd,0xff,0x37,0x00,0xf0,0xff,0x93,0xff, // 11328
0x59,0xff,0x46,0x00,0x9b,0x00,0xee,0xff, 0x86,0xff,0x52,0x00,0x1e,0x00,0x09,0x00, // 11344
0xb1,0x00,0x76,0xff,0x05,0x00,0xa5,0xff, 0x7d,0x00,0x85,0x00,0x6c,0xff,0xaf,0xff, // 11360
0xae,0xff,0x43,0x00,0x8c,0x00,0x41,0x00, 0x03,0x00,0xea,0xff,0xde,0xff,0x0b,0x00, // 11376
0x4f,0x00,0x53,0x00,0x9e,0x00,0x50,0xff, 0x74,0x00,0x0e,0x00,0x0b,0x00,0xf4,0x00, // 11392
0x43,0x00,0xae,0xff,0x4c,0x00,0x0f,0xff, 0x8e,0xff,0xad,0xff,0xb9,0xff,0x1d,0x00, // 11408
0xda,0xff,0x61,0xff,0xfb,0xff,0x28,0xff, 0xc5,0xff,0xab,0xff,0xe6,0xff,0x4e,0x00, // 11424
0x50,0xff,0xfa,0xff,0x85,0x00,0xf9,0xff, 0xf8,0xff,0x4a,0x00,0xe6,0xff,0xeb,0xff, // 11440
0x9b,0x00,0xa8,0xff,0xd1,0xff,0xd8,0xff, 0x19,0xff,0xa4,0xff,0x39,0xff,0xb2,0xff, // 11456
0x5f,0x00,0x7c,0xff,0x69,0x00,0x00,0x01, 0xa5,0xff,0xc9,0xff,0x55,0x00,0xfa,0xfe, // 11472
0x76,0x00,0xc6,0xff,0x97,0xff,0x26,0x00, 0x23,0x00,0xec,0xff,0x3b,0xff,0x78,0x00, // 11488
0x24,0x00,0xc2,0x00,0xf8,0xff,0x93,0xff, 0xd8,0x00,0x1b,0x00,0x3e,0x00,0xcb,0xff, // 11504
0x4a,0x00,0xac,0xff,0xff,0x00,0x7e,0x00, 0x6b,0xff,0xb5,0xff,0x19,0x00,0xb1,0x00, // 11520
0xf7,0x00,0xd0,0xff,0x61,0x00,0x25,0x00, 0xa7,0x00,0xec,0xff,0x2c,0xff,0x8d,0xff, // 11536
0x75,0x00,0xe4,0xff,0x8c,0xff,0xab,0x00, 0x22,0x00,0x19,0x00,0x0d,0x01,0xe6,0xff, // 11552
0x59,0x00,0x0c,0x01,0x1b,0x00,0x3f,0x00, 0xd1,0xff,0x83,0xff,0x4e,0x00,0x6b,0x00, // 11568
0xda,0xfe,0x56,0x00,0x71,0x00,0x3a,0x00, 0xf8,0xff,0xeb,0xff,0x61,0xff,0x1c,0x00, // 11584
0x72,0xff,0x42,0x00,0x50,0xff,0xd3,0xfe, 0x28,0x00,0xf1,0xff,0x73,0xff,0xdf,0xff, // 11600
0x85,0x00,0xea,0xff,0x04,0x00,0x81,0x00, 0xca,0xff,0x37,0xff,0x28,0xff,0xa0,0xff, // 11616
0xbd,0xff,0xcc,0x00,0x8e,0xff,0x62,0xff, 0x32,0x00,0xeb,0xfe,0xa2,0xff,0xbb,0x00, // 11632
0x14,0x00,0x44,0x00,0xf2,0xff,0x81,0xff, 0xe3,0xff,0xe4,0xff,0x09,0x00,0x03,0x00, // 11648
0x91,0xff,0x12,0x00,0xf4,0xff,0x76,0x00, 0x11,0x00,0x25,0xff,0x0b,0x00,0x7c,0x00, // 11664
0x76,0x04,0xde,0xff,0x2b,0x00,0x9a,0x00, 0x58,0x00,0xe6,0x04,0x93,0xfe,0xe1,0xff, // 11680
0xee,0xff,0xbb,0x00,0xcf,0xff,0x95,0x00, 0x45,0x00,0xd2,0xff,0x2b,0x00,0x08,0x00, // 11696
0x55,0xff,0xa3,0xff,0x6d,0x00,0xd1,0xff, 0x73,0xff,0xee,0x00,0xb2,0x00,0x2a,0xfe, // 11712
0xd9,0xff,0x30,0x00,0xc5,0xff,0x65,0xff, 0xa7,0xff,0x30,0x00,0xed,0xff,0x7f,0xff, // 11728
0x41,0xff,0x98,0xff,0x47,0xff,0x08,0x00, 0xb3,0x00,0x87,0xfe,0x22,0x00,0xca,0xff, // 11744
0x76,0x00,0xf3,0xff,0x7a,0xff,0x84,0xff, 0x23,0x00,0xf0,0xff,0xef,0xff,0x68,0x01, // 11760
0x78,0xff,0x4b,0x00,0xe7,0x00,0x1d,0x00, 0x6f,0xff,0xdc,0xff,0xa3,0xfe,0x8f,0x00, // 11776
0x3a,0x00,0x04,0x01,0x41,0xff,0x37,0x00, 0x78,0x00,0x0e,0x00,0xa3,0xff,0x38,0x00, // 11792
0x01,0x00,0x53,0xff,0xf0,0xff,0x17,0xff, 0xb9,0xff,0xb3,0xff,0x5e,0x00,0x7e,0xff, // 11808
0xa6,0xff,0x2e,0x00,0x1b,0x00,0x1f,0x00, 0xd4,0x01,0x42,0x00,0x9b,0x00,0xc2,0xff, // 11824
0xfc,0xff,0x6f,0x00,0x53,0x00,0x0f,0x02, 0xc2,0xff,0x86,0xff,0xf3,0xff,0xce,0x00, // 11840
0x80,0x00,0x31,0xff,0x96,0xff,0x97,0xff, 0x9d,0x00,0x2d,0x00,0x94,0xff,0x49,0x00, // 11856
0xcc,0x00,0x86,0xfe,0xc4,0xff,0xff,0x00, 0x63,0x00,0x08,0x00,0xd0,0xff,0x37,0xfe, // 11872
0x1a,0x00,0xe3,0xff,0x4e,0x00,0xbe,0x00, 0x97,0xff,0xcb,0xff,0x90,0x00,0x05,0x00, // 11888
0x41,0x00,0x82,0xff,0xa7,0xff,0x61,0x00, 0xc4,0x00,0xbc,0xfe,0x45,0xff,0xbd,0x00, // 11904
0x9d,0xff,0xf5,0xff,0xbe,0x00,0x37,0x00, 0x0c,0x00,0x3a,0x00,0x28,0xff,0x8c,0xff, // 11920
0xf5,0xff,0x59,0x00,0x1b,0x01,0x77,0xff, 0x6d,0x00,0x17,0x00,0x05,0x00,0x32,0x00, // 11936
0xf0,0xff,0x3e,0xff,0x32,0x00,0xca,0xff, 0xb9,0xff,0x37,0x00,0x15,0x01,0x1b,0x00, // 11952
0x95,0x00,0xd7,0xff,0xfd,0xff,0x7f,0xff, 0xa2,0xff,0xc3,0x00,0xf5,0xff,0x3d,0x01, // 11968
0x9b,0xff,0x1b,0x00,0x0d,0x00,0xeb,0xff, 0x28,0x01,0x03,0x00,0x0f,0xff,0x92,0xff, // 11984
0xfe,0xff,0x2a,0x00,0xd1,0x00,0xd7,0x00, 0x1e,0x00,0x8b,0x00,0xd9,0xff,0xfd,0x00, // 12000
0xc2,0x00,0xca,0xff,0xfc,0xff,0x3a,0xff, 0x66,0x00,0xb5,0x00,0xee,0x00,0x87,0xff, // 12016
0xea,0xff,0x42,0x00,0x25,0x00,0x89,0xff, 0x52,0xff,0xcb,0xff,0xf3,0x00,0x17,0xff, // 12032
0xe7,0xfe,0xa7,0xff,0x01,0x00,0x76,0xff, 0xd0,0x00,0x8e,0x00,0x64,0x00,0xcb,0xff, // 12048
0xa1,0x00,0x4c,0x00,0x10,0xff,0x6b,0x00, 0x27,0x00,0xa8,0xff,0xf6,0x00,0x9f,0xff, // 12064
0x12,0x00,0x97,0xff,0x71,0x00,0x1d,0x00, 0xf7,0xfe,0x5f,0x01,0x23,0x00,0xb7,0xff, // 12080
0x97,0x03,0xfa,0x00,0x97,0xfe,0xc2,0xff, 0x1c,0x00,0xb2,0xff,0x01,0x00,0x05,0xff, // 12096
0xb7,0x02,0x5d,0x00,0x0c,0x00,0xeb,0xff, 0xce,0xff,0xe7,0xfe,0xdc,0x00,0x84,0xfe, // 12112
0x1d,0x00,0xfa,0x00,0x9e,0xff,0x94,0x01, 0x4d,0xff,0x6b,0xff,0xc7,0xff,0x22,0xff, // 12128
0xb1,0xfc,0x79,0x00,0x8a,0xff,0x4b,0x00, 0xa0,0x00,0x76,0x01,0xf9,0xfe,0x7f,0xff, // 12144
0xf7,0xff,0x5f,0xff,0xea,0xff,0xf5,0xfe, 0xc8,0xff,0x25,0xff,0x34,0x00,0x78,0x00, // 12160
0xd1,0xff,0x93,0xff,0x2b,0x00,0xba,0xff, 0x32,0x00,0xfb,0x00,0x88,0x00,0xca,0xff, // 12176
0xcd,0xff,0x39,0x00,0xc6,0xfe,0x7d,0x00, 0xbd,0xff,0xfe,0xfd,0x5e,0x00,0x6b,0xfd, // 12192
0xfb,0xff,0x76,0x00,0x76,0xff,0x97,0xfe, 0xa6,0xff,0xbb,0x00,0xa0,0xff,0x22,0x00, // 12208
0x05,0xfe,0xc6,0xff,0x24,0x00,0x2b,0x00, 0x16,0x00,0x25,0x00,0xc2,0xff,0x1e,0xff, // 12224
0xc0,0xfe,0x50,0x00,0x28,0x01,0xc9,0x00, 0xc5,0x00,0x77,0xff,0x5a,0x00,0xbc,0xff, // 12240
0xbf,0xff,0xe1,0x00,0x1f,0x00,0xd9,0xff, 0xa6,0xff,0x3b,0x01,0xf7,0xff,0x68,0xfe, // 12256
0x0e,0x01,0x50,0x00,0x3a,0x00,0xaa,0xff, 0xce,0xff,0x7c,0xff,0x50,0x02,0x28,0x00, // 12272
0x27,0x02,0xc7,0x01,0x58,0xfe,0xd8,0x00, 0xa8,0xfe,0xe7,0xff,0x5c,0xff,0x08,0xff, // 12288
0x4a,0xfc,0x54,0x00,0xb1,0x00,0xee,0xff, 0xff,0xff,0xbc,0xff,0xd8,0xff,0xbe,0x00, // 12304
0x08,0x01,0xf0,0xff,0x42,0xfd,0xb5,0xff, 0xad,0xfe,0xe0,0xff,0x7b,0x02,0x71,0x00, // 12320
0x69,0x00,0xb5,0x01,0x57,0x00,0xad,0xff, 0x3b,0x00,0x12,0xff,0xb7,0x00,0x06,0xfe, // 12336
0x79,0xff,0xd1,0xff,0x7e,0x00,0xb1,0xff, 0x37,0xfe,0xf0,0x00,0x33,0x00,0xb5,0xff, // 12352
0x41,0x01,0x75,0x00,0x3a,0xfe,0xa8,0xff, 0xdf,0xff,0x9a,0x00,0x5e,0x00,0x93,0xff, // 12368
0x08,0x00,0x70,0xff,0x1b,0x00,0x41,0x00, 0xe4,0x00,0xa9,0x00,0x1a,0x00,0x49,0x00, // 12384
0x2f,0xff,0xb1,0xff,0x45,0x00,0xbf,0xff, 0xd2,0x00,0x74,0x00,0xdb,0xff,0xc1,0x00, // 12400
0xe0,0xff,0x06,0x00,0x2f,0x00,0x5a,0x00, 0x06,0xff,0xd0,0xff,0xde,0xff,0x2f,0x00, // 12416
0x0b,0x00,0x2a,0xff,0x67,0x00,0x2d,0x00, 0x06,0x01,0x56,0xfe,0x93,0xff,0x3d,0xff, // 12432
0xe7,0xfe,0x3b,0x00,0x64,0x00,0xf6,0xff, 0x2b,0xff,0x0f,0x00,0x03,0x00,0x0f,0x00, // 12448
0x1a,0x01,0x1d,0x00,0xac,0x00,0x9e,0x00, 0x1f,0xff,0xe0,0xff,0x6d,0x01,0x1a,0x00, // 12464
0xad,0xfe,0x03,0xff,0x24,0x00,0x68,0xff, 0x6d,0x00,0x00,0xff,0x79,0x00,0x3c,0x00, // 12480
0x8d,0xff,0xb5,0x01,0xec,0xff,0xfb,0xff, 0x91,0xff,0xcb,0x00,0xfd,0xff,0x09,0x00, // 12496
0x56,0xff,0xd2,0xff,0x33,0x00,0xe2,0xff, 0x0e,0x00,0x64,0x01,0x34,0x01,0x75,0x00, // 12512
0xdb,0xff,0x91,0xff,0xda,0xff,0x9a,0xff, 0x00,0x00,0xac,0xff,0x29,0x00,0xf9,0xff, // 12528
0x32,0xff,0x08,0xff,0x32,0x00,0x40,0x00, 0x73,0x00,0x0e,0x00,0x29,0x00,0xa0,0x00, // 12544
0xb4,0xff,0x8a,0xff,0xbb,0x00,0x6e,0x00, 0xd1,0xfe,0x9a,0x01,0x69,0xff,0x43,0xff, // 12560
0xc0,0xff,0x7d,0xff,0x9d,0xff,0x5e,0x00, 0x6e,0xff,0x66,0x00,0x6b,0x01,0xf8,0xff, // 12576
0x33,0x00,0xb0,0x00,0x29,0x01,0x54,0x00, 0x35,0x00,0xe9,0x01,0x6f,0xff,0x55,0x00, // 12592
0x3d,0xff,0x76,0xfe,0x70,0x00,0xd7,0xff, 0x89,0x00,0x7e,0xff,0x7e,0xfe,0xce,0xff, // 12608
0x39,0x01,0xdf,0xfd,0x4c,0x00,0x77,0xff, 0xfa,0xff,0x0e,0x00,0x5d,0x01,0x36,0x00, // 12624
0x4a,0xff,0x06,0x00,0x46,0x00,0xbb,0xff, 0xba,0xff,0xbb,0xfe,0xb2,0x01,0xfb,0xff, // 12640
0xe2,0xff,0xe5,0xff,0x06,0x00,0x78,0x00, 0x08,0x00,0x13,0x00,0xfa,0xff,0xdc,0xff, // 12656
0x07,0xff,0x84,0xff,0x75,0xff,0xce,0xff, 0x2d,0x01,0xb6,0x00,0xda,0x00,0xbf,0x00, // 12672
0x58,0xff,0x0e,0x00,0xc8,0xff,0x39,0xff, 0xb0,0x00,0xbc,0x00,0xc1,0xff,0xce,0xff, // 12688
0xc0,0x00,0x30,0x00,0x88,0x00,0x49,0x00, 0xfe,0xff,0x93,0x00,0x05,0x00,0x2d,0x00, // 12704
0xa6,0xfe,0x79,0x01,0x6d,0x00,0x5a,0x00, 0x2e,0x01,0xa0,0x00,0xfa,0xff,0xbf,0xff, // 12720
0xfa,0xff,0x60,0xff,0x10,0x00,0x5d,0x00, 0xf9,0xfe,0xc3,0x00,0xf9,0xff,0xeb,0xff, // 12736
0x04,0x00,0xf8,0xff,0x85,0xfe,0x48,0x00, 0x2a,0x01,0x1f,0x00,0x27,0x00,0x58,0x00, // 12752
0xce,0xff,0xb9,0x00,0xe6,0xff,0xe4,0x00, 0x89,0x00,0xf5,0xfd,0x88,0xff,0x77,0x00, // 12768
0xf0,0xff,0xaa,0xff,0x44,0x00,0xeb,0xff, 0xe5,0xff,0x11,0x00,0x74,0x00,0xea,0xff, // 12784
0x4f,0x00,0x95,0xfe,0x62,0xff,0xc9,0xff, 0x06,0x00,0x5f,0x00,0xfd,0xff,0x39,0x00, // 12800
0x55,0x00,0xf5,0x00,0xc8,0xff,0xa0,0xff, 0xa5,0x01,0xf6,0x00,0x68,0x00,0x52,0x00, // 12816
0x98,0xff,0x99,0xff,0xe6,0xff,0xf7,0xff, 0x50,0x00,0xec,0xff,0x28,0xff,0xb3,0xff, // 12832
0xb0,0x01,0xdb,0xfe,0xeb,0xff,0x88,0xff, 0x32,0x00,0x0c,0x00,0x09,0x00,0x39,0x00, // 12848
0x9b,0x01,0xb9,0xfe,0xe5,0xff,0x28,0x00, 0xe3,0xff,0x1c,0x00,0xf2,0xfe,0x81,0x00, // 12864
0x20,0x00,0x99,0xfe,0xc0,0x00,0x30,0x00, 0x70,0x00,0xae,0x01,0xb8,0xff,0x16,0x00, // 12880
0xaa,0xff,0x83,0x00,0x10,0x00,0x7b,0x00, 0x7c,0xff,0xf0,0x00,0x6a,0xff,0x9f,0xff, // 12896
0x27,0x00,0x4e,0xff,0xd9,0xfe,0x1c,0x00, 0xe7,0xff,0x30,0x00,0xc3,0xff,0xa5,0xff, // 12912
0x63,0xfe,0x5a,0xff,0xd2,0xff,0x30,0x00, 0x65,0x03,0x47,0x00,0x00,0xff,0x86,0x00, // 12928
0xd9,0xff,0x8b,0xff,0xad,0xff,0xb1,0xfe, 0xe3,0x00,0x31,0x00,0xf2,0xff,0x05,0x01, // 12944
0xef,0xff,0xfc,0xfe,0x3e,0x01,0xcf,0xfd, 0x24,0x00,0x25,0x01,0x5c,0x00,0xa9,0x00, // 12960
0x70,0x00,0xd2,0x00,0x2b,0x00,0x47,0x00, 0x80,0xfc,0x1f,0x00,0x6e,0x00,0x04,0x00, // 12976
0x39,0x00,0x46,0x02,0xe2,0xfe,0x5a,0x00, 0xe3,0xff,0x8f,0xff,0xd4,0x00,0x0a,0xff, // 12992
0xb9,0xff,0xed,0xff,0x82,0x00,0x23,0x00, 0xa9,0xff,0xf7,0xff,0x01,0x00,0x2d,0x00, // 13008
0xa4,0x00,0x68,0x00,0x50,0x01,0x0b,0xff, 0x37,0x00,0xe1,0xff,0xad,0xfb,0xdb,0xff, // 13024
0x9a,0xff,0x61,0xfd,0xe0,0xff,0xc9,0xfd, 0xc5,0xff,0x84,0x00,0x54,0x00,0x26,0x00, // 13040
0xae,0xff,0xb2,0x00,0x80,0x00,0xab,0x00, 0x91,0xfd,0x47,0xff,0xd9,0xff,0x23,0x00, // 13056
0xa8,0x00,0x8d,0x00,0x54,0x00,0x19,0x00, 0xda,0xfe,0xdc,0xff,0x1b,0x00,0x52,0x00, // 13072
0xe9,0xff,0xa2,0xfe,0x4e,0x00,0x70,0xff, 0xc8,0xff,0x7d,0x02,0xee,0xff,0x4a,0xff, // 13088
0x83,0xff,0xf7,0x01,0x58,0x00,0x02,0xff, 0xef,0xff,0x89,0x00,0x25,0x01,0x08,0xff, // 13104
0x25,0x00,0xad,0xff,0xdc,0x01,0x09,0x00, 0x0c,0x04,0x4b,0x01,0xec,0xfd,0xc9,0xff, // 13120
0xe5,0xfd,0x68,0x01,0xd4,0xff,0x39,0xff, 0x12,0xfd,0x63,0xff,0x2a,0xff,0x32,0x00, // 13136
0xdc,0xff,0x0a,0x00,0xb6,0xff,0x27,0x00, 0x97,0x01,0x88,0x00,0x8a,0xfc,0x30,0x00, // 13152
0xdb,0xff,0xa9,0xff,0x46,0x01,0x48,0x01, 0xe8,0xff,0x1a,0x02,0xf9,0x00,0x5d,0x00, // 13168
0x90,0x00,0xa6,0xff,0x6f,0xfe,0x1b,0xfd, 0xe6,0x00,0x4c,0x00,0xcd,0xff,0x62,0x00, // 13184
0xd9,0xfe,0x22,0x01,0x6c,0xff,0x50,0xff, 0x78,0xff,0x9c,0xfe,0x4c,0xff,0x95,0x00, // 13200
0x60,0xff,0x00,0x00,0x98,0x00,0x7b,0x00, 0x45,0x00,0x71,0xff,0x44,0x00,0x9d,0xfe, // 13216
0x74,0xfe,0xb2,0x00,0xf4,0xff,0x96,0xff, 0x80,0xff,0xbf,0x00,0x85,0xff,0x5c,0x00, // 13232
0x9a,0xff,0xdd,0xff,0x76,0x00,0x94,0xfe, 0x0f,0x00,0xe8,0x00,0xd1,0xff,0x14,0x00, // 13248
0x7a,0x01,0x01,0x00,0x4e,0x00,0x06,0x00, 0x46,0x00,0x81,0xfe,0xaa,0xfe,0xec,0x01, // 13264
0x11,0x00,0xd0,0xff,0x0c,0x00,0x17,0x01, 0x19,0x00,0x1e,0x00,0x45,0xff,0x65,0x00, // 13280
0xbb,0x00,0x08,0x00,0x34,0x00,0x8e,0x00, 0x4f,0xff,0xb0,0xff,0x8c,0xff,0xae,0x00, // 13296
0x39,0x00,0xb5,0x00,0x0c,0xfe,0xd9,0xfe, 0x9f,0xff,0x94,0x00,0xb9,0xff,0xff,0xff, // 13312
0xc9,0xfe,0x14,0x00,0x61,0x00,0x2f,0x02, 0x12,0x00,0x26,0x00,0x1e,0x00,0x79,0x00, // 13328
0x48,0xff,0x27,0xff,0xcf,0xff,0xae,0xff, 0x75,0xff,0x95,0x01,0x6a,0x00,0x85,0x00, // 13344
0x7d,0x00,0x9d,0x00,0xa8,0xfe,0xe0,0xfe, 0xf8,0x00,0xf9,0xff,0xf2,0xfe,0xd9,0xff, // 13360
0x83,0xff,0xf9,0xfe,0x9d,0xff,0xdd,0x00, 0x2e,0xff,0xf0,0xff,0x22,0x00,0x43,0x01, // 13376
0xb1,0xff,0xd1,0xff,0x4c,0x00,0x3f,0xff, 0x0f,0x02,0xaa,0xff,0x1d,0x00,0x84,0xff, // 13392
0xa1,0x00,0x5c,0xff,0xbb,0x00,0x64,0xff, 0x7e,0x00,0xb6,0x01,0x00,0x00,0xb3,0x00, // 13408
0x26,0x01,0xa5,0xff,0x1c,0xff,0x37,0x00, 0x18,0xff,0x75,0xff,0x6e,0x00,0x10,0xff, // 13424
0x1a,0x01,0x30,0x00,0xb8,0xff,0x49,0xff, 0x3c,0x00,0x86,0xff,0xf8,0xff,0xf0,0xff, // 13440
0xe5,0xff,0xc0,0xff,0x44,0x00,0x72,0x00, 0x04,0x01,0xc4,0xff,0x8f,0xfe,0x49,0xff, // 13456
0xa4,0x00,0xfd,0xff,0x08,0xff,0xf2,0x00, 0x45,0x00,0xc0,0xff,0x4c,0xff,0xc5,0xff, // 13472
0x98,0xfc,0x7d,0xfb,0x01,0x01,0x42,0x00, 0xf7,0xfe,0xf1,0x00,0x97,0x00,0xa3,0xfe, // 13488
0x52,0x01,0x3a,0x00,0x93,0x00,0x4d,0x02, 0x22,0xff,0xf5,0xfe,0x7a,0xff,0x67,0x00, // 13504
0x5e,0x01,0x48,0x04,0x49,0x03,0xdf,0xfe, 0x24,0xfc,0x48,0x04,0x8d,0xfd,0x73,0xfa, // 13520
0x30,0xfc,0x9e,0xfe,0xa0,0x00,0x82,0xfd, 0x00,0x01,0x5d,0xff,0xa6,0xfe,0xc5,0x00, // 13536
0x1c,0xff,0xfb,0x00,0x7b,0x01,0xc5,0xfe, 0x57,0xff,0x49,0x01,0xf8,0xfe,0x0a,0x03, // 13552
0x30,0x01,0x4f,0x00,0x1e,0x02,0xb7,0xff, 0xbd,0x00,0x55,0xfd,0x34,0xfe,0xa6,0xff, // 13568
0x39,0xfe,0xd5,0x00,0xfd,0xff,0x74,0xff, 0x75,0x06,0x22,0x00,0x5e,0xfa,0xa6,0xff, // 13584
0x1e,0x01,0x20,0x04,0x11,0x00,0xb9,0x01, 0xf7,0xff,0x2d,0x01,0xce,0x00,0xcd,0xfd, // 13600
0x7e,0x00,0x1d,0xff,0x6b,0xfe,0x71,0x00, 0x2e,0x01,0x9f,0xff,0xfb,0xfb,0x4d,0x01, // 13616
0x1a,0xfc,0xc9,0xfe,0x36,0x00,0x2e,0x01, 0xbf,0x00,0x0a,0xff,0xb4,0xff,0x1f,0x01, // 13632
0x81,0x04,0x95,0x00,0xc5,0xfd,0x1c,0x01, 0xb0,0xfb,0x48,0x05,0x83,0xff,0x39,0x00, // 13648
0xfa,0xff,0x5e,0x02,0xe8,0xff,0x98,0xfe, 0x92,0xff,0x4a,0x00,0x31,0xfc,0xde,0x01, // 13664
0x10,0xff,0x98,0x01,0x88,0xfc,0xd9,0xfe, 0x1f,0x04,0xe1,0xfc,0xce,0x00,0x85,0x03, // 13680
0x25,0x01,0xe3,0xfe,0x1e,0x01,0xfb,0xfd, 0x14,0x04,0x56,0x01,0x14,0xfc,0x82,0x00, // 13696
0xc4,0x00,0x4f,0xfd,0x4d,0x00,0xe2,0x00, 0x78,0xfe,0xb4,0xfe,0x55,0x00,0x51,0x00, // 13712
0x8b,0x00,0xdb,0x00,0x79,0x00,0x84,0x01, 0xbb,0xff,0x01,0x02,0xf1,0x04,0xcd,0x00, // 13728
0xc8,0xfe,0x78,0x00,0x13,0xfe,0x27,0x00, 0x67,0xfe,0x8a,0x00,0xea,0xfb,0xc1,0xff, // 13744
0xa9,0xfe,0x22,0x01,0x2d,0xff,0x26,0xfe, 0xa3,0x00,0x90,0xff,0xba,0xff,0x1d,0x00, // 13760
0x2f,0xfc,0x5a,0xff,0xfa,0x00,0x05,0x00, 0x63,0x00,0x08,0x00,0x0c,0x00,0x8b,0x00, // 13776
0x8a,0xfd,0xf1,0xfe,0x0f,0x00,0xaa,0xff, 0x25,0x00,0x4d,0x01,0x61,0xfe,0x53,0x02, // 13792
0x83,0x00,0xd3,0xfe,0x61,0x00,0x04,0xff, 0xe4,0xff,0x5e,0x00,0x63,0x00,0xb7,0x00, // 13808
0xda,0x02,0x50,0x00,0xd2,0xff,0xbf,0xff, 0x14,0x00,0x35,0xfe,0x46,0x01,0x47,0x00, // 13824
0xcb,0xff,0x24,0x00,0x99,0xff,0x3e,0x02, 0x7a,0x00,0x88,0x00,0xee,0xff,0x9d,0xff, // 13840
0x33,0x00,0xf1,0xff,0x25,0x00,0x28,0x00, 0x7c,0xff,0x30,0xff,0x2e,0xff,0xe4,0x00, // 13856
0x95,0x00,0x18,0x00,0xff,0x01,0x52,0xff, 0x86,0x00,0x3c,0x02,0xc6,0xff,0x09,0x02, // 13872
0xbf,0xff,0x03,0x00,0x89,0xff,0x98,0x00, 0x40,0x00,0x27,0x00,0x72,0xff,0xe5,0xff, // 13888
0x4e,0x02,0x95,0x00,0x3b,0x00,0x68,0xff, 0xc2,0xfe,0x06,0x00,0x27,0x00,0x29,0x01, // 13904
0xb6,0x00,0x08,0x00,0xfa,0xfe,0x4b,0xff, 0x80,0xff,0xa2,0x00,0xf2,0xff,0xed,0xff, // 13920
0x7a,0x00,0x04,0x00,0xf6,0xff,0x55,0x00, 0xc3,0xff,0x2f,0xff,0xfc,0xff,0x0e,0x01, // 13936
0x48,0xff,0x7c,0xff,0x18,0xff,0x2c,0x01, 0x1e,0x01,0x69,0x00,0xb4,0xfe,0xba,0xff, // 13952
0x14,0xfe,0x0d,0xff,0xc8,0x00,0xea,0xfe, 0x97,0x01,0x0e,0x00,0xa5,0x00,0xfd,0x00, // 13968
0x13,0x02,0x29,0x00,0xdb,0xff,0xfe,0xff, 0x9d,0xff,0xdc,0xff,0xe2,0xff,0xcd,0xff, // 13984
0x84,0xff,0x76,0xff,0x27,0x02,0xa7,0x00, 0x15,0x00,0x71,0x00,0x8b,0xfe,0x90,0xff, // 14000
0x0c,0x00,0x17,0xff,0x63,0xff,0xee,0xff, 0x90,0xff,0xe3,0xff,0xe2,0xff,0xe0,0x02, // 14016
0xb5,0xff,0xf1,0xff,0x0f,0x00,0x3e,0x00, 0x00,0x02,0xba,0xfe,0xa0,0xff,0x9f,0x00, // 14032
0x61,0xff,0xc9,0xff,0x5c,0x00,0x0b,0x00, 0xe1,0x00,0xcd,0xff,0x5a,0xff,0x12,0x00, // 14048
0x65,0x00,0x6b,0x00,0x8a,0xff,0x6c,0xff, 0xa9,0x00,0x67,0x00,0x50,0xff,0x03,0x00, // 14064
0xf8,0xff,0x22,0x00,0xda,0xff,0x78,0x00, 0x7c,0xff,0x70,0xff,0x5d,0x00,0xc8,0x00, // 14080
0x21,0x00,0xb0,0xff,0x4b,0x00,0xda,0x00, 0x75,0xff,0x3a,0x00,0xbe,0x00,0x7b,0xff, // 14096
0xcf,0xff,0x11,0x00,0xb5,0xff,0xc1,0xff, 0x3f,0x00,0xac,0xff,0xd1,0x02,0xbb,0xfe, // 14112
0x47,0xff,0x5f,0x00,0x67,0x00,0xf4,0xff, 0x9a,0xff,0x9e,0xff,0x1b,0x00,0x04,0x00, // 14128
0x07,0x00,0x1d,0x00,0x53,0x01,0x26,0x00, 0xe6,0xff,0x1b,0x00,0x93,0xfe,0x5e,0xff, // 14144
0x51,0xff,0xc8,0xfe,0xf6,0xff,0x0d,0xff, 0x67,0x00,0x7b,0xff,0x43,0x00,0xa3,0xff, // 14160
0x28,0x00,0xd5,0xff,0xfc,0xff,0x81,0x00, 0x60,0xff,0xed,0xff,0x18,0x00,0xe2,0xff, // 14176
0xf4,0xff,0x40,0xff,0x13,0x00,0x4e,0xff, 0xa0,0xff,0x34,0x00,0x9b,0x00,0xb3,0x00, // 14192
0x88,0x00,0x05,0x00,0x54,0x03,0x2d,0xff, 0xc5,0x00,0xfa,0xff,0x30,0x00,0x21,0xff, // 14208
0x83,0xff,0x7b,0x00,0xf1,0xff,0x09,0x00, 0xb8,0xff,0x04,0x00,0xa6,0xff,0xf4,0xff, // 14224
0x4a,0xff,0xbb,0xfb,0x24,0x00,0x71,0x02, 0x18,0x00,0x83,0x00,0x83,0xff,0x73,0xff, // 14240
0xa4,0xff,0xea,0xff,0x19,0x00,0xf5,0x00, 0xeb,0xfe,0x8b,0x00,0x8d,0xff,0xde,0xff, // 14256
0x40,0x00,0x8e,0x03,0xe5,0xff,0x59,0x00, 0x31,0x00,0xcf,0xff,0x4a,0xfe,0xf5,0xff, // 14272
0x89,0xff,0x61,0xff,0x6b,0xff,0xb1,0xfe, 0x32,0x00,0xbd,0xff,0x95,0x00,0xa5,0x00, // 14288
0x39,0x00,0xd1,0xff,0x3e,0xff,0xb8,0xff, 0xaf,0x00,0x1f,0xfc,0x8e,0xff,0xc8,0xff, // 14304
0x4e,0x00,0x82,0xff,0x31,0x00,0x79,0x00, 0xcf,0xff,0xe3,0xff,0x35,0x00,0x3f,0x00, // 14320
0x44,0x00,0x69,0x00,0x2f,0x00,0x75,0x00, 0x1a,0x00,0x10,0x00,0x45,0x00,0x11,0x00, // 14336
0x5c,0x00,0xe8,0xff,0x58,0xff,0x1b,0x00, 0xcb,0xff,0xb3,0xff,0x98,0x00,0x4d,0x00, // 14352
0xc1,0xff,0x94,0x00,0x06,0x00,0xdd,0x00, 0xd8,0xff,0xe2,0xff,0xa3,0x00,0x30,0x00, // 14368
0xdf,0xff,0x8c,0xff,0x0a,0xff,0x2f,0x00, 0x98,0xff,0x3a,0x00,0x32,0xff,0xf8,0xff, // 14384
0x2c,0x00,0xa1,0xff,0x0d,0x00,0xfa,0xfe, 0xc7,0xff,0x6a,0x00,0x3c,0x00,0x92,0xff, // 14400
0x35,0x00,0x88,0xff,0x0e,0x00,0x5b,0x00, 0x1e,0x00,0xdb,0xff,0xfc,0xff,0x7a,0xff, // 14416
0x34,0x00,0x90,0x00,0x40,0xff,0xbd,0xff, 0xf3,0xff,0x85,0xff,0xfe,0xfe,0x47,0x00, // 14432
0x14,0x00,0x46,0x00,0x9c,0xff,0x8f,0x00, 0x6f,0x00,0x3a,0x00,0x45,0xff,0xb9,0xff, // 14448
0x81,0xff,0xdb,0xff,0xe8,0xff,0x05,0x00, 0xb6,0xff,0x8b,0xff,0xb4,0x00,0x54,0xff, // 14464
0x38,0x00,0x17,0x00,0x61,0x00,0x66,0x00, 0x68,0x00,0xed,0xff,0x61,0xff,0x9a,0xff, // 14480
0xa7,0xff,0xe9,0xff,0x76,0xff,0xc9,0x00, 0x2b,0x00,0x06,0x00,0x02,0x00,0xd4,0xff, // 14496
0x06,0x00,0x56,0xff,0x77,0x00,0x54,0x00, 0xfb,0x00,0x89,0x00,0x4f,0x01,0xf5,0xff, // 14512
0xc4,0xff,0xe0,0x00,0x8c,0xff,0xb2,0xff, 0x34,0x00,0x7b,0xff,0xf6,0xff,0x61,0xfe, // 14528
0xa4,0xfe,0xab,0xff,0x09,0x01,0x51,0x00, 0xe6,0xff,0xbe,0xff,0x4e,0xff,0xd4,0xff, // 14544
0xa9,0x00,0xf3,0xff,0x6a,0xff,0x24,0x00, 0x5f,0x00,0xeb,0xff,0x34,0x00,0xb7,0xff, // 14560
0xf9,0xff,0x03,0x00,0xbb,0x00,0x9b,0x00, 0x1f,0x00,0xdb,0xff,0x87,0xff,0xf6,0xff, // 14576
0xe1,0xff,0xcd,0xff,0xcd,0xff,0x2a,0x00, 0x11,0x00,0x91,0x00,0xb3,0xff,0xee,0xff, // 14592
0x25,0x00,0xa3,0x00,0x51,0x00,0x0e,0x00, 0x06,0x00,0x8b,0xff,0xd0,0xff,0x88,0x00, // 14608
0x85,0x00,0x5d,0x00,0x95,0xff,0x64,0x00, 0xcc,0xff,0x0e,0x00,0x2a,0xff,0x04,0x00, // 14624
0x3e,0x00,0xa5,0xff,0xa2,0xff,0x62,0x00, 0x90,0x00,0x60,0x00,0xaa,0xff,0x38,0x00, // 14640
0x07,0x00,0x0a,0x00,0xcf,0x00,0xa5,0xff, 0xbc,0x00,0x29,0xff,0x2f,0x00,0xc1,0x00, // 14656
0xd5,0xfe,0x81,0xff,0xa5,0xff,0x35,0x00, 0xe6,0xff,0x72,0xff,0x23,0x00,0xbe,0xff, // 14672
0x48,0x00,0x61,0x01,0xae,0xff,0x75,0xff, 0xc5,0x00,0x63,0x00,0xdd,0xfe,0x78,0x01, // 14688
0xcd,0xff,0x03,0x00,0x66,0x00,0xaf,0xff, 0xd8,0xff,0x26,0x01,0xcf,0xff,0xb6,0xfe, // 14704
0x0f,0x00,0xbf,0xff,0x53,0xfe,0xa6,0xff, 0x04,0x00,0x7a,0x00,0x62,0x00,0xd4,0xff, // 14720
0x1f,0x01,0x2a,0x00,0xe8,0xfe,0x5e,0x01, 0xd8,0xff,0x0d,0x00,0x2e,0x01,0x17,0x00, // 14736
0x08,0x00,0xd7,0xff,0xcd,0x00,0x25,0x00, 0xf0,0xff,0xc4,0xff,0x5f,0x00,0x44,0x00, // 14752
0x8c,0x00,0xdf,0xff,0x29,0x00,0xf2,0xff, 0x22,0x00,0x30,0xff,0x2f,0xff,0xac,0xff, // 14768
0xc8,0xff,0xc0,0xff,0xac,0xfe,0x06,0x00, 0xd6,0xff,0xb5,0xff,0x44,0x00,0x34,0x00, // 14784
0xbb,0xff,0xee,0xff,0x31,0x00,0x03,0x00, 0x0b,0xff,0xd0,0xff,0x26,0x00,0xa3,0xff, // 14800
0x5f,0xff,0x0f,0x00,0x20,0x01,0xc8,0xff, 0xf8,0xff,0x20,0x00,0x65,0x00,0x9e,0x01, // 14816
0x0b,0x00,0xf4,0xff,0xd0,0xff,0xe8,0xff, 0x0f,0x00,0x1b,0x00,0xef,0xff,0xc3,0xff, // 14832
0x5d,0x00,0x43,0x00,0x68,0x00,0x73,0xff, 0x61,0xff,0xd7,0xff,0xa6,0xff,0x5a,0x01, // 14848
0xe3,0xff,0xef,0xff,0x1b,0x00,0xed,0xff, 0x09,0x00,0xb7,0xff,0x6e,0x00,0x2c,0x00, // 14864
0x03,0x00,0x85,0xff,0xeb,0xfe,0x8b,0x00, 0x9b,0xff,0x43,0xff,0x95,0xff,0x85,0x00, // 14880
0xc2,0x00,0xb0,0x00,0xdc,0xfe,0xca,0xff, 0xba,0xff,0xb4,0x00,0xf9,0xff,0xaa,0xff, // 14896
0x0d,0x01,0x38,0x00,0x64,0xff,0x75,0x00, 0x86,0x00,0x15,0xff,0x64,0x00,0xde,0xff, // 14912
0xb1,0x00,0x7a,0xff,0xdf,0x00,0x25,0x00, 0x62,0xff,0x1b,0x00,0xbe,0x00,0xe7,0x00, // 14928
0x4a,0x00,0xee,0xff,0x1e,0x00,0x4f,0x00, 0xc9,0xff,0x82,0xff,0x99,0xff,0x72,0xff, // 14944
0x20,0xff,0x38,0x00,0xc3,0xff,0xab,0xff, 0x7c,0x00,0xed,0xff,0x40,0x01,0xe7,0xff, // 14960
0x3a,0x00,0x6b,0x00,0x9c,0x00,0xef,0xff, 0x51,0x00,0x19,0x01,0x6b,0x00,0xdb,0xff, // 14976
0x55,0x00,0x9b,0xff,0x6d,0x00,0xff,0xff, 0xc2,0xff,0x95,0xff,0xc3,0xff,0xe9,0xff, // 14992
0x74,0x00,0x10,0x00,0x18,0x00,0x3f,0xff, 0x25,0x00,0x95,0xff,0x5d,0xff,0x71,0xff, // 15008
0xda,0xff,0x28,0x01,0xd0,0xff,0x1d,0xff, 0x8f,0xff,0x84,0xff,0xa7,0xff,0xd1,0xff, // 15024
0x89,0x00,0xf1,0xff,0xe0,0x00,0x61,0x00, 0xd8,0xff,0x40,0x00,0x5e,0x00,0x86,0x00, // 15040
0xe0,0xff,0xb0,0xff,0x5b,0x00,0x19,0x00, 0xa2,0x00,0xc7,0xff,0x2a,0x00,0xea,0xff, // 15056
0x3b,0x00,0x2b,0x00,0xd8,0xff,0x74,0x00, 0xfc,0xfe,0xc9,0xff,0x5f,0x00,0x45,0x00, // 15072
0x1f,0x00,0xbb,0xff,0x91,0x00,0x5f,0x00, 0xbe,0x00,0x96,0xff,0xd9,0xff,0xed,0xff, // 15088
0x10,0x00,0x4e,0x00,0xa3,0xff,0xbc,0xff, 0xf9,0x00,0xf1,0xfe,0xf8,0xff,0x68,0x01, // 15104
0x1d,0x00,0x5a,0xff,0x67,0xff,0x92,0xfe, 0xbf,0xff,0xf6,0xff,0x8a,0x00,0xcd,0xff, // 15120
0xce,0xff,0xe3,0xff,0xbf,0xff,0x4e,0x00, 0x19,0x00,0x5a,0xff,0xe3,0xff,0x43,0x00, // 15136
0xf4,0xff,0x51,0x00,0x67,0xff,0x4f,0xfe, 0x26,0x00,0xbe,0xff,0xb8,0xff,0x90,0x00, // 15152
0x80,0x01,0x3c,0x03,0xb7,0xff,0x76,0xff, 0xfa,0xff,0xa5,0x05,0x40,0x00,0xda,0xfd, // 15168
0x2a,0x00,0x6c,0x00,0x13,0xfe,0x53,0xff, 0xe2,0x04,0xaf,0xfe,0x38,0x00,0x74,0x00, // 15184
0x0e,0x00,0x57,0xfd,0xc7,0xff,0xb2,0xfe, 0x44,0x02,0x3e,0x02,0x05,0xfe,0x47,0x02, // 15200
0x14,0xfe,0x93,0xff,0xf7,0xff,0x1d,0xfd, 0x5f,0xff,0x10,0x00,0x3f,0xfd,0x31,0x03, // 15216
0xe4,0xff,0xc1,0xfe,0xd7,0xfd,0xca,0xfe, 0xdb,0xff,0xe2,0xff,0xdd,0xfd,0x01,0xfd, // 15232
0xe6,0xff,0x11,0x00,0xa6,0x01,0x6f,0x00, 0xe5,0xff,0x79,0xff,0x5e,0x00,0x9c,0x00, // 15248
0x39,0x00,0x61,0xff,0xb5,0xff,0x0b,0xfe, 0x26,0x00,0x90,0xff,0xd9,0x03,0xe1,0xff, // 15264
0x82,0x00,0x43,0xfe,0x6d,0xff,0x48,0xff, 0x5f,0xff,0xf1,0x00,0x44,0x02,0x40,0xfe, // 15280
0x91,0x00,0xfd,0xff,0xcc,0xff,0x94,0xff, 0x7a,0xfe,0x14,0x02,0x9d,0x00,0x85,0x01, // 15296
0x6a,0x01,0x6b,0xfe,0x8c,0xff,0x22,0x00, 0x4b,0x00,0x69,0xff,0x21,0x03,0x68,0x00, // 15312
0xdc,0x02,0x6b,0x00,0xc1,0xff,0xb3,0x00, 0x5e,0xfc,0xf5,0xfc,0x6b,0x00,0x72,0x01, // 15328
0x01,0x00,0xca,0xfb,0xeb,0xff,0x74,0xfe, 0xae,0x01,0x2e,0x00,0x31,0x00,0xde,0x00, // 15344
0x74,0xfe,0x88,0x01,0x91,0x02,0x20,0x00, 0x20,0xfe,0x63,0x02,0xe1,0xff,0x86,0xff, // 15360
0x2e,0x00,0xe8,0xfe,0xd7,0x00,0x05,0xfd, 0x1e,0xfe,0x9e,0x00,0x72,0x02,0x46,0x00, // 15376
0xfd,0x01,0x18,0x00,0xfb,0xff,0x00,0x02, 0xfc,0xfe,0xd2,0xff,0x36,0xff,0x78,0xff, // 15392
0x88,0xff,0x24,0x00,0xdb,0x01,0xcc,0x00, 0x7d,0x00,0x9e,0x00,0xa1,0xfa,0x3c,0x00, // 15408
0xdb,0xff,0x81,0x00,0x65,0x03,0x1e,0xff, 0xbe,0xfe,0xaf,0x00,0x85,0x05,0xc4,0xff, // 15424
0xee,0xfb,0x9b,0x02,0x96,0x00,0x03,0xfe, 0x2d,0x00,0xba,0x00,0x4a,0x00,0x67,0xff, // 15440
0xcd,0xff,0x8a,0xff,0xe4,0xff,0x0a,0x00, 0x8b,0xff,0x08,0x00,0xda,0xff,0xfa,0xff, // 15456
0xd4,0xfe,0x7a,0x00,0x3d,0x00,0x05,0x00, 0xb2,0xff,0xe0,0xff,0xe2,0xff,0x2f,0x00, // 15472
0xe2,0xff,0x0e,0x00,0xd9,0xff,0xee,0xff, 0x7f,0x00,0x13,0x00,0x7e,0xff,0x88,0x00, // 15488
0x06,0x01,0x1a,0x00,0x69,0x00,0x04,0x00, 0x40,0x00,0xa2,0xff,0xa3,0x00,0x22,0x00, // 15504
0xc7,0xff,0x74,0xff,0x6b,0x00,0x0d,0x01, 0x14,0x00,0x90,0xff,0x8e,0xff,0x84,0x00, // 15520
0xe5,0xff,0xe8,0xff,0x78,0x00,0xf3,0xff, 0xf6,0xff,0x5c,0x00,0x88,0x00,0x82,0x00, // 15536
0x23,0xff,0x91,0xff,0x8f,0x01,0x35,0x00, 0x2d,0x00,0x3b,0x00,0x59,0x00,0x46,0x00, // 15552
0x5e,0x00,0xa7,0xff,0xc2,0xff,0x2d,0x00, 0xb2,0xff,0x4a,0x00,0x65,0x00,0x73,0xff, // 15568
0xea,0x00,0xc7,0xff,0x71,0x00,0x22,0xff, 0x56,0x00,0x7f,0xff,0xa5,0xff,0x73,0xff, // 15584
0xef,0xff,0xfa,0xff,0xe4,0xff,0x04,0x00, 0xf1,0xff,0x83,0xff,0x61,0x00,0xf1,0x00, // 15600
0x23,0x00,0x21,0xff,0xc6,0x00,0x13,0xff, 0xd3,0xff,0xa1,0xff,0x75,0x00,0x34,0xff, // 15616
0x9c,0xff,0x6f,0x00,0xf9,0xff,0x9f,0xff, 0x38,0xff,0xa6,0xff,0xfc,0xfe,0xb4,0xff, // 15632
0xd5,0xfe,0x44,0x00,0x7b,0x00,0xa3,0xff, 0x2b,0x00,0x47,0xff,0x1b,0xff,0x78,0x00, // 15648
0x6c,0x01,0xf6,0xff,0x28,0x00,0x70,0xff, 0x04,0x00,0xe3,0x00,0x61,0x00,0x4d,0xff, // 15664
0xc6,0xff,0xfd,0xff,0x1e,0x01,0x18,0x00, 0xd3,0xff,0xc8,0xff,0x09,0x00,0xc9,0xff, // 15680
0x84,0x00,0xa6,0xff,0x75,0x00,0x54,0x00, 0x50,0xff,0xbe,0xff,0x27,0x00,0xd6,0x00, // 15696
0x33,0xff,0xe5,0xff,0xf2,0xff,0x19,0x00, 0xd9,0x00,0x86,0x00,0x85,0x00,0x1e,0x00, // 15712
0xcc,0xff,0x81,0x00,0x80,0xff,0xb6,0xff, 0x72,0xff,0x01,0x00,0x20,0x01,0x67,0x00, // 15728
0xfd,0xff,0x79,0xff,0x85,0xff,0x71,0xff, 0x6b,0x00,0x72,0x00,0x5f,0x00,0x57,0xff, // 15744
0x62,0xff,0xa9,0xff,0x27,0xff,0x5b,0x00, 0x8d,0xff,0x36,0x00,0x60,0x00,0x7d,0xff, // 15760
0x77,0xff,0xb4,0x00,0x0a,0x00,0xb6,0xff, 0x29,0x00,0x96,0x00,0x7a,0x00,0x43,0x00, // 15776
0x45,0x00,0xd2,0xff,0x05,0x01,0xbb,0x00, 0xcb,0xff,0x24,0x00,0x42,0xff,0xbe,0xff, // 15792
0x06,0x00,0x07,0x00,0xff,0xff,0x1f,0x00, 0x36,0x00,0x44,0x00,0xbd,0xff,0x4c,0x00, // 15808
0x5b,0x00,0x32,0x00,0x60,0x00,0x38,0x00, 0xb3,0xff,0xfa,0xff,0xcf,0x01,0xd0,0xff, // 15824
0xc9,0xff,0x67,0x00,0xf3,0xff,0x28,0x00, 0x70,0xff,0x5a,0xff,0xb9,0x00,0x96,0x00, // 15840
0xf9,0xff,0xd3,0xff,0x34,0x00,0x0f,0x00, 0x13,0x00,0x2b,0x00,0xe3,0xff,0xc3,0xff, // 15856
0x68,0x00,0x9e,0x00,0xca,0xff,0xf7,0xff, 0x04,0x00,0x3b,0x00,0xd0,0xfe,0x1c,0xff, // 15872
0x02,0x01,0xe9,0x00,0xc7,0xff,0x3f,0x00, 0xbc,0x00,0xaa,0xff,0x99,0xff,0x53,0xff, // 15888
0x36,0x00,0x4f,0x00,0x84,0x00,0x73,0x01, 0x6f,0x00,0x1d,0x00,0x4d,0xff,0x8e,0xff, // 15904
0x72,0x00,0xe8,0xff,0xda,0xff,0x3f,0xff, 0x81,0xff,0x7d,0xff,0x26,0x00,0x18,0x00, // 15920
0xd1,0xff,0x05,0x00,0x41,0xff,0xdf,0xff, 0x43,0x00,0x81,0x00,0xd1,0xff,0x44,0x00, // 15936
0xbb,0xff,0x0c,0x00,0x66,0x00,0xc0,0xff, 0x13,0x00,0x15,0x00,0xda,0xff,0x68,0x00, // 15952
0xde,0xff,0x72,0x00,0x14,0x00,0x32,0x00, 0x77,0x00,0x80,0x00,0x3f,0x00,0xf4,0xff, // 15968
0x2d,0x00,0x99,0xff,0x51,0x00,0x8a,0x00, 0x44,0x01,0x5b,0x00,0x47,0xff,0xd6,0x00, // 15984
0x5a,0x00,0x33,0x01,0x57,0x00,0x87,0xff, 0x2c,0x00,0x1d,0x00,0x27,0x00,0xef,0xff, // 16000
0xaf,0x00,0x03,0x00,0x40,0x01,0xca,0xff, 0x25,0x00,0xc2,0xff,0x3e,0x00,0xea,0xff, // 16016
0xd9,0xff,0x3e,0x00,0xe9,0xff,0x56,0xff, 0x45,0x00,0xfd,0xff,0xe1,0xff,0xcd,0xff, // 16032
0xd0,0xff,0xb8,0xff,0x43,0xff,0xb4,0xff, 0x09,0x00,0x45,0x00,0x2e,0x00,0x7d,0xff, // 16048
0x4a,0x00,0x5c,0x00,0x9b,0xfe,0xa1,0x00, 0x26,0x00,0x3b,0x00,0xc1,0x00,0x71,0x00, // 16064
0x74,0x00,0x08,0x00,0x38,0xff,0x73,0x00, 0x91,0x00,0x09,0x00,0x62,0xff,0xb3,0xff, // 16080
0xe8,0xff,0xd0,0xff,0x4c,0x00,0x05,0x00, 0xc7,0xff,0xf6,0xff,0xbe,0xff,0xe8,0xff, // 16096
0xea,0xff,0x31,0x00,0x50,0x00,0x97,0x00, 0x16,0x00,0x03,0x01,0xa3,0x00,0xa7,0xff, // 16112
0x71,0xff,0x35,0x00,0xc2,0xff,0xcc,0x00, 0xa0,0xff,0x3b,0x00,0x0c,0x00,0x33,0x00, // 16128
0xab,0xff,0xf0,0xff,0x5d,0x00,0x9c,0xff, 0x7e,0xff,0x5d,0x00,0x65,0x00,0xc8,0x00, // 16144
0x23,0x00,0x29,0x00,0x68,0x00,0x95,0xfe, 0x9c,0x00,0x85,0x00,0xe3,0xff,0x55,0x00, // 16160
0x89,0x00,0x0b,0x00,0xb8,0x00,0x06,0x00, 0xba,0xff,0xeb,0xff,0x81,0xff,0x63,0x00, // 16176
0xb6,0xff,0xfc,0xff,0x24,0x00,0x5f,0xff, 0xe9,0xff,0xc0,0x00,0x9f,0xff,0x42,0xff, // 16192
0x8c,0x00,0xa0,0x00,0x21,0xff,0x67,0x00, 0x61,0xff,0xb3,0xff,0xcd,0xff,0x6a,0x00, // 16208
0x60,0x00,0x77,0x00,0x80,0xff,0xb4,0xff, 0x16,0xff,0x1a,0x00,0x24,0x00,0x85,0xfe, // 16224
0xfb,0xff,0xeb,0xff,0x1c,0x00,0xde,0x00, 0xdb,0xff,0xb6,0xff,0x1d,0x00,0xc5,0x00, // 16240
0xce,0xff,0x31,0x00,0x02,0x00,0x06,0x00, 0xe6,0xff,0xf0,0xff,0x87,0x00,0x2c,0x00, // 16256
0x33,0x00,0x53,0x00,0x91,0xff,0x1e,0x00, 0xde,0xff,0x44,0x00,0x96,0xff,0xf0,0xff, // 16272
0x97,0x01,0x86,0x00,0xa1,0x00,0xee,0xff, 0x74,0xfc,0x5e,0xff,0xe2,0x00,0x7d,0x00, // 16288
0x18,0x00,0xd1,0x00,0x29,0x00,0x86,0x01, 0xa6,0xff,0x68,0xff,0x66,0xff,0x4f,0xff, // 16304
0x04,0x00,0x6c,0x00,0x04,0xfe,0xa0,0x01, 0x2e,0x00,0xab,0xfe,0x06,0xff,0xeb,0xff, // 16320
0x9b,0xff,0x40,0x00,0x3e,0x00,0x4d,0xff, 0xc5,0x02,0xeb,0xff,0x38,0xff,0xe5,0xff, // 16336
0x45,0x00,0xa9,0xfd,0x82,0x02,0x03,0x00, 0x22,0x00,0x53,0x00,0x56,0xff,0x91,0x00, // 16352
0xe0,0x00,0x9a,0xff,0xd9,0x00,0x0f,0x00, 0x61,0x00,0x5c,0x01,0xba,0xff,0xce,0xff, // 16368
0x91,0xff,0xdc,0xfe,0x23,0xff,0xbb,0x00, 0x16,0x00,0xfb,0xff,0xab,0x04,0x7b,0xff, // 16384
0x35,0x00,0x0f,0x03,0x4e,0x00,0x21,0x02, 0xed,0xff,0x5d,0xff,0x77,0x00,0xfa,0xff, // 16400
0xf7,0xff,0xe3,0xff,0x04,0x00,0xb5,0xff, 0xd6,0x02,0xcf,0x00,0x2e,0xff,0xc6,0xff, // 16416
0xb1,0xff,0x73,0x00,0xd2,0xff,0x5b,0x00, 0x99,0x00,0xe6,0xff,0x8f,0xff,0x59,0xff, // 16432
0xd4,0xff,0xc5,0x01,0xfd,0xff,0xd7,0x00, 0xde,0x00,0xe5,0xfe,0xc6,0xff,0xa1,0xff, // 16448
0x00,0x00,0xcf,0xfd,0xfb,0xff,0xe8,0x01, 0x49,0x00,0x51,0x00,0x2b,0x00,0x3a,0x01, // 16464
0x4f,0x00,0x9c,0x00,0x14,0xfd,0xcf,0xff, 0x41,0xfc,0xee,0xff,0x2f,0x01,0x16,0x00, // 16480
0x8d,0x01,0x90,0xfe,0x7e,0x00,0xa8,0x00, 0xcc,0x02,0x81,0x00,0x22,0x01,0x49,0x00, // 16496
0x4c,0xff,0x0b,0x00,0x6a,0x00,0xc7,0xff, 0xc3,0xfe,0x80,0xff,0xba,0x02,0xba,0x00, // 16512
0x39,0x00,0x4d,0x00,0x05,0xff,0x0e,0x00, 0x59,0x00,0xfa,0xfd,0xa6,0xfe,0x7d,0xff, // 16528
0xf1,0xff,0x3c,0x00,0x72,0x01,0x63,0x04, 0x16,0xff,0x02,0x01,0x67,0x01,0x54,0x00, // 16544
0x8c,0x01,0x1a,0xff,0xe9,0xff,0x2e,0x00, 0x3b,0xff,0x75,0xff,0x90,0xff,0xde,0x00, // 16560
0x6e,0x00,0x49,0x00,0xe1,0x00,0x34,0x00, 0x2a,0x00,0x48,0x00,0x6d,0xff,0xec,0xfe, // 16576
0x34,0x01,0xa0,0xff,0x95,0xff,0x9a,0xff, 0x11,0x00,0x5c,0x00,0x21,0x00,0xa7,0x00, // 16592
0x4e,0x00,0xd9,0xff,0x9b,0x00,0xa5,0x00, 0x81,0xff,0xab,0xff,0xc6,0x00,0x83,0x00, // 16608
0xb7,0xfe,0xb4,0xff,0x6d,0xff,0x6d,0xff, 0xff,0xff,0xa9,0x00,0x5a,0xff,0xe5,0xff, // 16624
0xc2,0xff,0xfc,0xff,0x2d,0xff,0xcf,0xfe, 0x31,0x00,0x69,0x00,0x03,0x00,0x0b,0x00, // 16640
0xf7,0xff,0x44,0x00,0x36,0xff,0x26,0x00, 0xfb,0xff,0x53,0x00,0x72,0xff,0x7b,0x00, // 16656
0xbc,0x00,0x43,0x00,0x99,0xff,0xcf,0xff, 0x28,0x00,0x22,0xff,0xe9,0xff,0x69,0x00, // 16672
0xb2,0xff,0x2f,0x00,0x84,0xff,0x79,0xff, 0x36,0x00,0x07,0x00,0x95,0xff,0xa5,0x00, // 16688
0xa4,0xff,0xfa,0xff,0xd0,0xff,0x71,0x00, 0xe7,0xff,0xa1,0xff,0x54,0x00,0x79,0x01, // 16704
0x9d,0x03,0xf1,0xff,0x2c,0x00,0x11,0x00, 0x03,0x00,0xce,0x03,0xa6,0xfe,0x02,0x00, // 16720
0x5c,0x00,0xa3,0x00,0x0c,0x00,0x7d,0x00, 0x08,0x00,0xcb,0xff,0xce,0xff,0x7a,0xff, // 16736
0x84,0xff,0x6c,0xff,0xe5,0xff,0x29,0x00, 0x06,0x00,0xaf,0x00,0x8f,0x00,0x8c,0xfe, // 16752
0xb1,0xff,0x7e,0x00,0x72,0xff,0x11,0x01, 0x4f,0x00,0x08,0x00,0x11,0x00,0xa3,0xff, // 16768
0x59,0xff,0xde,0xff,0xa4,0xff,0x85,0x00, 0xc2,0xff,0xe9,0xfe,0xef,0xff,0x9a,0xff, // 16784
0x88,0xff,0xf6,0xff,0xd5,0xfe,0x40,0xff, 0xaa,0x00,0x0c,0x00,0x3b,0x00,0xea,0x00, // 16800
0x23,0xff,0xc4,0x00,0x83,0xff,0xce,0xff, 0xb2,0xff,0xc2,0xff,0x63,0xff,0x05,0x00, // 16816
0x9c,0x00,0xe6,0x00,0x79,0x00,0xd8,0xff, 0x60,0x00,0xae,0x00,0xf3,0xff,0x1f,0x00, // 16832
0xb9,0x00,0x07,0x00,0xd6,0xff,0x89,0xff, 0xc8,0xfe,0x88,0xff,0x51,0x00,0x50,0x00, // 16848
0x90,0xff,0xb3,0xff,0x94,0x00,0x6c,0x01, 0xaa,0xfe,0x32,0x00,0x64,0x00,0x92,0xff, // 16864
0x82,0xff,0x5d,0x00,0x68,0xff,0x76,0xff, 0x00,0x00,0xa9,0xff,0xff,0xfe,0x8b,0xff, // 16880
0x93,0x00,0xcd,0xff,0xf6,0xff,0xe8,0xff, 0xbe,0x01,0x1e,0x00,0x77,0x00,0x71,0xff, // 16896
0x87,0x00,0xba,0xff,0x86,0xff,0x75,0x00, 0x99,0x00,0xc2,0xff,0x7d,0x01,0x4f,0x00, // 16912
0xb6,0xff,0xad,0xff,0xca,0xff,0x67,0x00, 0xce,0xff,0x8f,0xff,0xed,0xff,0x96,0xff, // 16928
0x26,0x00,0xee,0xff,0x33,0x00,0x7a,0x00, 0xc7,0xff,0xb6,0xff,0x22,0x01,0x3f,0x00, // 16944
0xbd,0xff,0x26,0x01,0x14,0x00,0x66,0xff, 0xe0,0xff,0x28,0x00,0x64,0x00,0x08,0x00, // 16960
0x95,0xff,0xdf,0xff,0x12,0x00,0x88,0xff, 0x2f,0x00,0xf5,0xff,0xf0,0xff,0xad,0xff, // 16976
0xce,0xff,0x67,0x00,0xe3,0xff,0x9d,0xff, 0x39,0xfc,0x2b,0x00,0xd7,0xff,0xa9,0xff, // 16992
0x96,0xff,0x99,0xfb,0x30,0x01,0xa6,0x00, 0xbe,0xff,0xca,0xfe,0x34,0x00,0xa2,0xff, // 17008
0xdd,0xff,0x16,0xff,0x8e,0x00,0x78,0x00, 0x9e,0x00,0x05,0x00,0xb3,0xff,0x66,0x00, // 17024
0xc7,0x00,0xa7,0xff,0x28,0xff,0x56,0x01, 0x37,0xff,0x4e,0xff,0x3a,0x00,0x25,0x00, // 17040
0xff,0xff,0x12,0x00,0xad,0xff,0x7b,0x00, 0x81,0x00,0x28,0x00,0x88,0xff,0xef,0xff, // 17056
0xe0,0xff,0x0e,0x01,0x12,0x00,0x47,0x00, 0x42,0x00,0x49,0x00,0xee,0x00,0x0c,0x00, // 17072
0x39,0xff,0xdc,0xff,0xaa,0xff,0x4e,0xfe, 0xbe,0xff,0x86,0xff,0xa0,0xff,0xcf,0xff, // 17088
0x30,0x00,0x06,0x00,0xbf,0x00,0xb8,0x00, 0x53,0x00,0xd2,0xfe,0x3c,0x00,0x5a,0xff, // 17104
0xbc,0xff,0xee,0xff,0x71,0x00,0x31,0x00, 0xc0,0xfc,0xe2,0xfb,0xb6,0xff,0x40,0xfd, // 17120
0x28,0xfe,0xfd,0x00,0xe5,0xff,0xf6,0xfb, 0xab,0xff,0x44,0x01,0x75,0x01,0xff,0x01, // 17136
0xb8,0xff,0xb9,0xff,0x72,0x00,0x57,0xff, 0xc5,0xff,0xdd,0x02,0xde,0x02,0x15,0xff, // 17152
0xc2,0xf9,0x6a,0x02,0x44,0xfc,0x22,0xfc, 0x10,0xfe,0x54,0xff,0x2d,0xff,0xd5,0xfd, // 17168
0x14,0x02,0x0f,0x01,0x46,0xfe,0x6f,0x01, 0x7b,0x01,0x1d,0xff,0x22,0xfe,0x16,0x00, // 17184
0x70,0x00,0xfb,0xff,0xfc,0xff,0x4b,0x03, 0x10,0x00,0x83,0xfe,0x49,0x01,0x9e,0x01, // 17200
0xac,0xfe,0xb6,0xfa,0xe8,0x00,0x62,0xfe, 0xea,0xff,0xad,0x00,0xea,0x00,0x9f,0x00, // 17216
0x59,0x05,0xae,0xfe,0x0d,0xfd,0xed,0x01, 0xea,0xff,0x85,0x03,0xed,0x01,0xfb,0xff, // 17232
0xe7,0xff,0xcb,0xff,0x4d,0x01,0x0c,0xfe, 0x0c,0xff,0xb1,0xff,0xbe,0x00,0x8f,0xfe, // 17248
0xe0,0x00,0xe4,0xff,0x89,0xf7,0x28,0x01, 0xbc,0xf8,0x3a,0x00,0xf7,0xfe,0xc5,0xff, // 17264
0x55,0xff,0x81,0x01,0x53,0x00,0xf1,0xff, 0xdb,0x01,0x48,0xff,0x40,0x00,0xf3,0x00, // 17280
0xfe,0xfc,0x16,0x01,0xbf,0x01,0xde,0x00, 0xea,0xff,0x70,0x00,0xb9,0x00,0xb3,0xfd, // 17296
0x53,0x01,0xe3,0x00,0x6c,0xf9,0x03,0x02, 0x99,0xff,0xc7,0x00,0x7a,0xfd,0xfb,0xff, // 17312
0x89,0x02,0x64,0xfd,0xe1,0x02,0x8f,0x06, 0xa2,0x01,0xe6,0xff,0x2a,0xfe,0xbb,0xfe, // 17328
0x8f,0x02,0x8a,0x05,0x25,0xfb,0x24,0xff, 0x56,0x01,0x95,0xff,0xf4,0x01,0x1c,0xff, // 17344
0x80,0xfe,0xd1,0xff,0xab,0x01,0x86,0x00, 0x45,0xff,0x0e,0x00,0xb3,0x01,0xc3,0x00, // 17360
0xbe,0x01,0x20,0x01,0xc8,0x01,0x39,0xff, 0x04,0x00,0xf5,0xff,0x1f,0xfe,0x4b,0xff, // 17376
0x9b,0xfe,0x39,0x00,0x81,0xfd,0x30,0xff, 0x3d,0xfc,0x1f,0x00,0xc7,0x00,0x5c,0xfe, // 17392
0x62,0xff,0x10,0xff,0xca,0xff,0x14,0x00, 0xf2,0xff,0x8b,0xff,0xd4,0xfe,0x54,0xff, // 17408
0x1d,0x00,0x14,0x00,0x4f,0x00,0xc9,0xff, 0x8d,0x00,0x97,0xff,0xf0,0xff,0x9c,0x00, // 17424
0xc7,0xff,0xd1,0xfe,0xa7,0xff,0x3d,0x00, 0xc1,0xff,0xe6,0xff,0x6f,0x00,0xe1,0xff, // 17440
0xd3,0xff,0x3f,0xff,0x2f,0x00,0x4f,0x00, 0xb6,0xff,0x4f,0x00,0x98,0xff,0x7c,0xff, // 17456
0xe7,0xff,0x2a,0x00,0x92,0xff,0x5b,0xff, 0x28,0x00,0x3d,0xff,0x9f,0x00,0xe0,0xff, // 17472
0xa7,0xff,0x10,0x00,0xcd,0xff,0xad,0xff, 0x59,0x00,0xbf,0xff,0xf9,0xff,0xea,0xff, // 17488
0xcf,0xff,0x61,0xff,0xe3,0xff,0x31,0x00, 0xe5,0xff,0xae,0xff,0x92,0xfe,0x20,0x00, // 17504
0xd8,0x00,0x23,0x00,0x1b,0x00,0x07,0x00, 0x67,0xff,0x7a,0xff,0xf3,0xff,0x2d,0xff, // 17520
0x26,0x00,0x6c,0xff,0x7d,0x00,0x3c,0x00, 0x7e,0xff,0x09,0x01,0xe7,0xff,0x02,0x00, // 17536
0xa1,0x00,0x72,0xff,0xff,0xff,0xdc,0xff, 0x2e,0x00,0x29,0xff,0xd4,0xff,0xc7,0x00, // 17552
0x0c,0x00,0x32,0xff,0xcd,0xff,0x6f,0xff, 0x12,0x00,0x5f,0x00,0x93,0xff,0x73,0x00, // 17568
0x07,0x00,0x0b,0x00,0xd9,0xff,0xf1,0xff, 0x61,0xff,0xf6,0xff,0xb7,0xff,0x60,0x00, // 17584
0x9e,0xff,0x42,0x00,0x67,0x00,0x88,0x00, 0xe6,0xff,0x52,0xff,0x9c,0x00,0xeb,0xff, // 17600
0x22,0x00,0x7c,0xff,0x1c,0x00,0xd2,0x00, 0xcb,0xff,0x7b,0x00,0xd2,0xff,0x18,0x00, // 17616
0xfc,0x00,0x98,0x00,0x94,0xff,0x32,0x00, 0x5e,0xff,0xdd,0xff,0xea,0xff,0x17,0xff, // 17632
0x94,0x00,0xf8,0xff,0x56,0x00,0x2e,0x00, 0x21,0x00,0x0e,0x00,0x2d,0x00,0xd2,0xff, // 17648
0xb3,0xff,0x03,0x00,0x6a,0xff,0xf5,0xff, 0xf1,0xff,0x4a,0xff,0x61,0x00,0x0e,0xff, // 17664
