#if defined __ICCARM__
#define __ALIGNED(x) __attribute__((aligned(x)))
#else
#define __ALIGNED(x) __attribute__((aligned(x)))
#endif
const unsigned char model1[] __ALIGNED(16) = {
0x4e,0x4e,0x43,0x55,0x01,0x00,0x01,0x00, 0x01,0x0e,0x05,0x00,0x07,0x00,0x00,0x00, // 16
0x02,0x00,0x00,0x00,0x00,0x00,0x00,0x00, 0x18,0x01,0x00,0x00,0x02,0x00,0x00,0x00, // 32
0xe0,0x01,0x00,0x00,0xc8,0x00,0x00,0x00, 0x18,0x01,0x00,0x00,0x00,0x00,0x00,0x00, // 48
0x00,0x00,0x00,0x00,0x00,0x00,0x00,0x00, 0x00,0x00,0x00,0x00,0x00,0x00,0x00,0x00, // 64
0x00,0x00,0x00,0x00,0x00,0x00,0x00,0x00, 0xff,0xff,0xff,0xff,0xff,0xff,0xff,0xff, // 80
0x43,0x4d,0x44,0x00,0x20,0x00,0x80,0x00, 0x50,0x00,0x00,0x00,0x00,0xfe,0x00,0x00, // 96
0x72,0x65,0x73,0x75,0x6c,0x74,0x2e,0x68, 0x35,0x0d,0x0a,0x57,0x65,0x64,0x20,0x4d, // 112
0x61,0x79,0x20,0x32,0x30,0x20,0x30,0x38, 0x3a,0x30,0x30,0x3a,0x32,0x36,0x20,0x32, // 128
0x30,0x32,0x30,0x0d,0x0a,0x31,0x34,0x20, 0x62,0x69,0x74,0x73,0x0d,0x0a,0x6e,0x6e, // 144
0x63,0x75,0x20,0x76,0x65,0x72,0x20,0x30, 0x2e,0x30,0x70,0x0d,0x0a,0x00,0x00,0x00, // 160
0x00,0x00,0x00,0x00,0x00,0x00,0x00,0x00, 0x00,0x00,0x00,0x00,0x00,0x00,0x00,0x00, // 176
0x00,0x00,0x00,0x00,0x00,0x00,0x00,0x00, 0x00,0x00,0x00,0x00,0x00,0x00,0x00,0x00, // 192
0x00,0x00,0x00,0x00,0x00,0x00,0x00,0x00, 0x00,0x00,0x00,0x00,0x00,0x00,0x00,0x00, // 208
0x43,0x4d,0x44,0x00,0x20,0x01,0x01,0x00, 0xd0,0x00,0x00,0x00,0x10,0x02,0x00,0x00, // 224
0x00,0x01,0x00,0x04,0x07,0x0a,0x05,0x0d, 0x00,0x00,0x00,0x00,0x00,0x00,0x00,0x00, // 240
0x01,0x00,0x07,0x00,0x01,0x00,0x01,0x00, 0x8c,0x00,0x01,0x00,0x00,0x00,0x00,0x00, // 256
0x0a,0x00,0xff,0xff,0xff,0xff,0xff,0xff, 0x00,0x01,0x01,0x00,0x18,0x01,0x00,0x00, // 272
0x00,0x00,0x03,0x00,0x0e,0x00,0x00,0x00, 0x00,0x00,0x00,0x00,0x00,0x00,0x00,0x00, // 288
0x00,0x00,0x00,0x00,0x00,0x00,0x00,0x00, 0x00,0x00,0x00,0x00,0x00,0x00,0x00,0x00, // 304
0x00,0x00,0x00,0x00,0x00,0x00,0x00,0x00, 0x00,0x00,0x00,0x00,0x00,0x00,0x00,0x00, // 320
0x00,0x00,0x00,0x00,0x00,0x00,0x00,0x00, 0xa8,0x07,0x00,0x00,0x18,0x01,0x00,0x00, // 336
0xa6,0x02,0xe5,0x00,0xed,0xfe,0xcb,0xfc, 0x9c,0xfe,0x3c,0x04,0xbd,0x01,0x0e,0x07, // 352
0x1b,0xff,0x42,0xfb,0xf5,0x00,0x95,0x07, 0x64,0x06,0x27,0x0e,0xf8,0xfc,0x8f,0xfb, // 368
0x55,0x02,0x5a,0x00,0xf0,0x06,0x23,0x03, 0x6c,0xfa,0xd8,0x06,0xbd,0xf8,0xb6,0x00, // 384
0x9c,0x01,0xbb,0x00,0x68,0xf6,0xf8,0xfe, 0xac,0x05,0x7f,0x01,0x52,0x04,0x35,0xf9, // 400
0x55,0x07,0x5f,0x02,0x05,0x0a,0x96,0x01, 0x1d,0xfc,0xc1,0xf8,0x1f,0x06,0x2b,0x04, // 416
0xab,0xfc,0xbe,0xff,0x66,0xfd,0xc1,0x05, 0xf9,0x01,0xd7,0x01,0xcc,0xfd,0x79,0x05, // 432
0x05,0x04,0xe7,0xfd,0xc4,0xfa,0x50,0x00, 0x6b,0xfe,0x66,0x08,0xd9,0x00,0xfd,0xfe, // 448
0x8b,0xfa,0xa5,0x01,0x3b,0x00,0xd7,0x05, 0xdf,0xfe,0x39,0x01,0x60,0xfb,0x94,0xfa, // 464
0xd5,0xfc,0xc7,0x01,0x71,0x03,0x8b,0xf9, 0x21,0x00,0x51,0x06,0xde,0xff,0x04,0x01, // 480
0x9b,0x04,0x33,0xfd,0x7c,0xfb,0x40,0xff, 0x41,0xfe,0xd7,0xfc,0x60,0xfe,0xe6,0x02, // 496
0x65,0x01,0x8d,0xfb,0x74,0xfe,0x8a,0xfc, 0x1d,0x06,0x0c,0x04,0x7e,0xfb,0x0d,0x01, // 512
0xed,0xfe,0x6c,0xf8,0x03,0xf6,0xd5,0x08, 0x12,0x00,0x05,0xfb,0x33,0x03,0x69,0xfb, // 528
0x5e,0xff,0x55,0xfa,0x7b,0x05,0xe6,0x01, 0x61,0xfe,0x06,0xfe,0x5e,0xfb,0xea,0xff, // 544
0xd4,0x00,0xe1,0xfc,0x14,0x04,0xb1,0xfe, 0xa5,0x03,0x77,0x04,0x12,0x06,0x57,0xfb, // 560
0x3f,0x02,0x2f,0xfe,0xce,0xfd,0x38,0xfe, 0x5f,0xf9,0x34,0x00,0xe5,0x07,0xd5,0xfd, // 576
0x6a,0xff,0x4e,0x04,0xf7,0xf9,0xa1,0xfe, 0x08,0xff,0x91,0xff,0x83,0xfc,0xc5,0xfd, // 592
0xb2,0x02,0x73,0x03,0xe4,0xfe,0xf7,0x02, 0x3f,0xfc,0x8d,0x06,0xa1,0x02,0xd6,0xf8, // 608
0x58,0x01,0x65,0x0b,0xe3,0x02,0x29,0x03, 0xcc,0xf8,0x28,0x02,0x9a,0x01,0x72,0x00, // 624
0xc9,0xff,0xe2,0xff,0xbc,0xfc,0x1f,0xfc, 0x61,0xfc,0x0a,0x02,0x4e,0xfc,0xc0,0x06, // 640
0x43,0xff,0xc8,0x02,0xe4,0x02,0x79,0x02, 0x12,0x0a,0x26,0xfe,0x07,0x05,0x23,0xfd, // 656
0x95,0xfc,0x32,0xff,0x4e,0x04,0x8b,0xfe, 0xa8,0x00,0xcb,0x05,0x3b,0x07,0xf8,0xf9, // 672
0x41,0x00,0xaa,0x07,0x2a,0x03,0xf7,0x04, 0x94,0x09,0xf2,0xf9,0xce,0x00,0xb7,0xfe, // 688
0x90,0xfb,0x7b,0x00,0x4e,0xff,0x4e,0x08, 0xb0,0xfe,0x44,0xfc,0x3a,0x01,0x1f,0x03, // 704
0xda,0x06,0x8e,0xff,0x27,0xfb,0x66,0xf6, 0x83,0x06,0x3b,0xff,0x54,0xfb,0xc3,0x02, // 720
0x88,0xfc,0xa3,0xfb,0x03,0xfe,0x73,0x05, 0xb5,0x04,0x0c,0xff,0xb6,0x09,0xcd,0x06, // 736
0xc4,0xfa,0xb6,0xfc,0x9a,0x00,0x4c,0xfa, 0x1c,0xfe,0xbd,0xff,0x58,0xfe,0xcf,0x04, // 752
0xde,0xfd,0x6e,0xfc,0x77,0xfe,0xef,0xf9, 0x9b,0x00,0x1e,0x01,0xad,0xfe,0xc1,0xf8, // 768
0xce,0x0a,0x32,0xfe,0x14,0x06,0x77,0x03, 0xf5,0x05,0x8d,0x00,0x4f,0x06,0xd1,0xfd, // 784
0x15,0xfb,0xf4,0x08,0xec,0xfa,0xbd,0x00, 0x0a,0x06,0xc8,0xff,0x53,0x0e,0xfe,0x04, // 800
0x54,0x01,0xfa,0x01,0x9a,0xf9,0x4b,0x01, 0xaa,0xfe,0x43,0xfa,0x7a,0x07,0xf6,0xfa, // 816
0xbc,0xfe,0x59,0x00,0xd3,0x00,0xed,0x01, 0xfd,0x08,0x68,0xfd,0x9f,0x08,0x48,0x06, // 832
0xc5,0x07,0x88,0x05,0x58,0x02,0xe0,0xfa, 0x3d,0xf8,0x0c,0x03,0x44,0x02,0x92,0x01, // 848
0x9d,0xfc,0x1f,0x01,0xac,0x01,0x65,0x02, 0xe6,0x05,0x1d,0x09,0xec,0x08,0xa9,0x02, // 864
0x6f,0xfc,0xe5,0x03,0xdc,0x01,0xf9,0x03, 0x18,0x03,0x88,0xfd,0x2c,0x03,0x05,0x06, // 880
0x07,0xfe,0x09,0x03,0x40,0xf7,0x06,0x02, 0x02,0x04,0xe6,0xfd,0x4c,0xff,0xd5,0x05, // 896
0x23,0xfc,0x39,0x06,0x9d,0xff,0xa9,0x01, 0xe5,0x0a,0x34,0xfd,0x55,0x00,0x67,0x05, // 912
0x77,0x02,0x91,0xf9,0xdd,0x02,0x49,0x05, 0x2d,0x06,0xd0,0xfc,0x98,0x01,0xd1,0xfc, // 928
0x8a,0xff,0x2d,0xfe,0x64,0x05,0xe3,0x00, 0xde,0xf7,0x1f,0xfc,0x4b,0x04,0x38,0xfe, // 944
0xc6,0xfb,0x2e,0x01,0xfc,0xff,0x6b,0x05, 0xbc,0xff,0x75,0x03,0x0f,0x02,0x5b,0x09, // 960
0x7e,0x02,0x97,0x06,0x77,0xf5,0x8e,0x00, 0x0e,0xfb,0x93,0x02,0x86,0xff,0xec,0x03, // 976
0xce,0x00,0xf6,0xf9,0x61,0x02,0x77,0xfe, 0x43,0xfc,0x6a,0x03,0x22,0x04,0xb7,0x02, // 992
0xc2,0xfa,0xc7,0x07,0xf5,0xfc,0x69,0x03, 0x6a,0x03,0x37,0xfe,0xb0,0x09,0xdc,0x05, // 1008
0xab,0x01,0xf5,0xfe,0x85,0xfb,0x49,0x02, 0xb7,0x03,0xe2,0x01,0x99,0xfd,0xa4,0xf8, // 1024
0xf3,0x06,0x34,0x00,0xb1,0xfe,0x1a,0x00, 0x30,0x00,0xd6,0x04,0x50,0x00,0x4f,0x07, // 1040
0x95,0x04,0x95,0x05,0xaa,0x00,0x85,0x08, 0xb3,0x03,0x4c,0x00,0x84,0xfa,0x6f,0xfe, // 1056
0x87,0x00,0x97,0x08,0x74,0xfd,0x8d,0xf9, 0x25,0xfe,0x6c,0xfd,0xba,0xfd,0xce,0x01, // 1072
0x2b,0xfd,0xdc,0xfc,0xdc,0x02,0x73,0x00, 0xf8,0xfc,0x11,0xfd,0x9a,0x04,0x3e,0xfd, // 1088
0x52,0x03,0x9d,0x00,0x56,0xf7,0x5f,0xf9, 0x74,0x03,0xac,0x01,0x42,0x06,0x3c,0xff, // 1104
0x5f,0x02,0xf8,0xf8,0x61,0xfb,0xe5,0xff, 0x2d,0xff,0x63,0x01,0x48,0x01,0x2c,0x06, // 1120
0xea,0x00,0x00,0xff,0x43,0x04,0xec,0xfa, 0x3e,0xff,0x36,0xff,0xc3,0xfb,0xc6,0xfe, // 1136
0xbb,0xfa,0x5a,0xfd,0x57,0x04,0xcd,0xfc, 0xcb,0xfa,0xb1,0x02,0x99,0x06,0x46,0x03, // 1152
0x24,0xfb,0x54,0xfa,0x50,0xfc,0x20,0xfe, 0x36,0x03,0x83,0xfb,0xbb,0x04,0xac,0xff, // 1168
0x61,0x00,0xbd,0xff,0x45,0xf9,0x83,0x05, 0x76,0x02,0x0d,0x05,0x81,0x06,0xd9,0x02, // 1184
0xfe,0x0a,0x50,0x03,0x99,0xf4,0xf3,0x00, 0x2f,0x01,0x5b,0xfa,0x0b,0x03,0x1d,0xfc, // 1200
0x68,0xfe,0x39,0x01,0x9a,0x00,0xa9,0xfd, 0x30,0xfc,0x4f,0x06,0xd2,0xfc,0x15,0xfe, // 1216
0x99,0xfd,0xcb,0xfd,0xda,0x03,0xcc,0xfb, 0x6d,0x02,0x24,0xfa,0x9d,0xfd,0x06,0x06, // 1232
0xe1,0x05,0x73,0xfb,0xf7,0xfb,0x3b,0x03, 0xd7,0x04,0x71,0xfb,0x55,0xf8,0x59,0x06, // 1248
0xd6,0xfe,0x76,0x00,0x7c,0xfe,0x66,0xff, 0x7f,0x01,0x57,0xf8,0x19,0xfe,0x6e,0x04, // 1264
0x2e,0xfc,0x96,0xfc,0x31,0xfc,0xac,0xfd, 0x91,0x08,0x91,0x00,0x19,0xff,0xca,0x01, // 1280
0xf9,0xf7,0x7c,0xff,0x03,0x00,0x84,0x0a, 0x5b,0x02,0x76,0x00,0x08,0xfd,0x24,0x03, // 1296
0xc7,0x00,0x01,0xfe,0xf8,0x07,0x3f,0xfb, 0x78,0x05,0x3c,0x07,0x27,0xff,0x28,0xfe, // 1312
0xd3,0xf7,0xd1,0x07,0x16,0x03,0x73,0x01, 0xe5,0xf5,0x9f,0x01,0x05,0x09,0x2e,0xf8, // 1328
0xae,0x04,0xd6,0x00,0x26,0x04,0xd6,0xfa, 0x07,0x05,0x89,0xfe,0x06,0xfd,0x60,0x07, // 1344
0x9c,0x02,0x9c,0xff,0x4d,0xff,0xd5,0xfa, 0x12,0x06,0xba,0x01,0x88,0xfb,0x49,0xfc, // 1360
0xbb,0x07,0x41,0x05,0x87,0x06,0xc8,0x08, 0x7b,0xf9,0x73,0x02,0x8b,0x04,0x2e,0x01, // 1376
0x56,0xfc,0x0d,0xfb,0x68,0x0b,0xbe,0x00, 0x10,0x06,0x11,0x02,0x65,0x02,0x2c,0x04, // 1392
0xd8,0x08,0xc2,0xfb,0xab,0xf8,0x3e,0x08, 0x37,0xf9,0xaa,0xfb,0xdf,0x02,0xb8,0xfe, // 1408
0xa3,0x06,0xb7,0x00,0xfc,0xfe,0xfd,0xfc, 0xf5,0x00,0xeb,0xfc,0xd8,0x05,0x2c,0xff, // 1424
0xf6,0x00,0xb3,0xfc,0x0d,0xff,0xda,0xff, 0x12,0xff,0x4e,0x00,0x7e,0x05,0xf3,0xfe, // 1440
0x88,0xfc,0x56,0xfe,0x8f,0x02,0xf6,0xff, 0x39,0xfa,0xec,0xfc,0xaf,0xfe,0x0a,0x06, // 1456
0x71,0x07,0xfe,0xf9,0xd1,0x0a,0xa0,0x05, 0xce,0x05,0x7c,0x02,0x30,0x02,0xba,0x00, // 1472
0xb0,0x01,0xdf,0xf9,0x55,0x02,0x9e,0xfd, 0x53,0xfb,0x17,0x0c,0x28,0x01,0x02,0x01, // 1488
0xb7,0x00,0xc2,0xf7,0x12,0x09,0xc1,0xfd, 0xcb,0x01,0xaa,0xfb,0x01,0x04,0xc8,0x01, // 1504
0x80,0x02,0xcf,0xfd,0x39,0x01,0x87,0xfc, 0xec,0x00,0x07,0x0a,0xe4,0xfd,0xde,0x05, // 1520
0x57,0x0a,0x6c,0xf8,0x01,0x01,0xe0,0x00, 0x06,0x00,0x9e,0x04,0x44,0x08,0x60,0xf8, // 1536
0x3f,0xfa,0x2f,0x09,0x4d,0xf8,0xc1,0x01, 0xe4,0x01,0x75,0x01,0xdb,0xfb,0x1b,0x00, // 1552
0x7c,0xfe,0xe2,0xfd,0xcb,0x05,0x79,0x07, 0x95,0x07,0x82,0x03,0x0a,0xf7,0x56,0x06, // 1568
0x4e,0x04,0x06,0xfb,0x6f,0xfd,0xb9,0xfd, 0x01,0x06,0x17,0x03,0x8b,0xfc,0xc9,0x00, // 1584
0x81,0xfc,0x38,0xfe,0xdc,0xfc,0x40,0x08, 0xa8,0x01,0xa4,0xf9,0xc9,0x04,0x26,0x01, // 1600
0xbc,0x02,0x70,0xf9,0x38,0x0a,0xdf,0xfc, 0x75,0x05,0x9e,0xfc,0xd7,0x07,0x9c,0x00, // 1616
0xf3,0xfe,0xfa,0xfd,0x6c,0x00,0x59,0xfe, 0x98,0x01,0xcd,0x05,0xb4,0xff,0x8f,0x02, // 1632
0x3c,0xf9,0x61,0xf7,0xa6,0xfe,0x67,0xfb, 0x8f,0xfa,0x07,0x04,0x84,0x03,0x45,0xff, // 1648
0x78,0xf8,0xa9,0x0a,0xe5,0xf9,0x74,0x05, 0x47,0x00,0xfb,0x01,0x3d,0xfc,0xdc,0x00, // 1664
0xd8,0x03,0x82,0xff,0xf1,0xff,0x38,0x02, 0x8d,0xf5,0xe9,0x05,0x8f,0xff,0x21,0x07, // 1680
0xf4,0xf9,0x39,0x04,0x62,0xff,0x32,0xfe, 0xed,0xfd,0x0d,0x00,0x82,0x05,0xfa,0xfd, // 1696
0x3f,0x05,0x82,0x03,0x17,0x04,0x07,0xfb, 0x30,0x01,0xe3,0xfa,0x96,0xf7,0x31,0x02, // 1712
0x23,0xff,0x8b,0x00,0x78,0x04,0x93,0x01, 0xf2,0xfc,0x1d,0x03,0x21,0xff,0xc9,0xff, // 1728
0xcd,0xfc,0xdc,0xfd,0x54,0x00,0x22,0xff, 0xa0,0xfb,0x1f,0x09,0x52,0x01,0xec,0xff, // 1744
0x39,0x05,0x31,0xfd,0xb1,0x05,0x91,0x02, 0xa1,0xff,0x89,0xf6,0x6d,0x00,0x0d,0x09, // 1760
0x84,0xf9,0x52,0x01,0x7d,0x05,0x5a,0xfc, 0x12,0x04,0x99,0x00,0x99,0x04,0x0f,0x09, // 1776
0x7e,0x08,0xf4,0x01,0x01,0x00,0xa1,0xfa, 0xa2,0xfc,0x29,0xff,0xcc,0xfc,0xb0,0x06, // 1792
0x36,0x06,0x8e,0xfa,0x89,0x00,0x5f,0x00, 0x29,0xff,0x05,0xfa,0xe5,0xf8,0x2f,0x01, // 1808
0xcd,0xfe,0x6f,0x00,0xe6,0xf6,0xea,0x06, 0xcc,0xfe,0x3c,0x03,0x1b,0xf8,0xc2,0x01, // 1824
0x77,0xff,0xb0,0xff,0xff,0x06,0x4b,0x02, 0x0f,0xfc,0xf9,0x00,0x05,0xff,0xe8,0x02, // 1840
0x73,0xfa,0x34,0xff,0xba,0xff,0xd3,0x01, 0x96,0xf8,0x1f,0xfc,0xaf,0x02,0xaf,0xfe, // 1856
0xbc,0x01,0xc8,0xff,0x23,0x00,0x59,0xfd, 0xf8,0xfa,0xbb,0xf9,0xdd,0x03,0x9b,0x04, // 1872
0x64,0xfe,0xee,0x03,0xa6,0xfa,0x7f,0xfe, 0xa0,0x01,0xb3,0x00,0xf1,0xfd,0xe9,0x00, // 1888
0xfe,0xfd,0xb5,0xff,0x29,0xfe,0xf7,0x02, 0xfc,0xf9,0x90,0xf9,0xec,0xfe,0xe6,0x05, // 1904
0x24,0x03,0x50,0xff,0x9f,0xff,0xc9,0xfa, 0xc7,0xfc,0x83,0xff,0x73,0x00,0xf6,0x06, // 1920
0xa1,0x03,0xb6,0x03,0xd8,0x00,0x5e,0xfd, 0x37,0x02,0xde,0x06,0x3d,0xf8,0x15,0x05, // 1936
0xa1,0x01,0xa2,0xff,0x74,0x01,0x3d,0x04, 0xc8,0x02,0x26,0x03,0x87,0x03,0x9d,0x05, // 1952
0x55,0x04,0xf6,0x09,0xc4,0x00,0x26,0xf6, 0x24,0x02,0x32,0xf9,0x65,0xff,0x83,0x04, // 1968
0x85,0x00,0x36,0x04,0xaa,0xfe,0xb5,0xfe, 0xa9,0x00,0xa7,0x0a,0xa6,0xfb,0x33,0x03, // 1984
0x71,0xfe,0xdd,0x06,0x3e,0xff,0x34,0x00, 0x03,0x05,0x5f,0x06,0x29,0xff,0x25,0xf9, // 2000
0xf1,0x09,0xf9,0x01,0xec,0x05,0xd4,0x05, 0x3e,0x02,0xf5,0x08,0xe1,0x01,0xdb,0xf9, // 2016
0x62,0x07,0xa2,0xfd,0x5c,0xff,0x6e,0xfb, 0xd0,0xfe,0x2c,0xff,0xe8,0xfb,0xa9,0xfc, // 2032
0x4d,0x05,0xd6,0xfd,0x04,0x01,0x4b,0x03, 0x09,0x02,0x0b,0x12,0x6f,0x01,0x32,0x00, // 2048
0xd8,0xff,0xe2,0xfc,0x30,0xfa,0x87,0xfe, 0xc5,0x05,0x3a,0x03,0xd1,0xfe,0xac,0xfa, // 2064
0x55,0xfd,0x05,0x04,0x28,0xff,0x4d,0xfc, 0xd5,0x06,0xaa,0x00,0xe3,0xfd,0x37,0xfc, // 2080
0x14,0xfc,0xe0,0xfe,0xf5,0xfc,0xa3,0x00, 0x5b,0x00,0x35,0x00,0xb6,0xfb,0x3b,0xfa, // 2096
0x9b,0xfe,0x44,0x07,0x10,0x02,0x43,0xff, 0x62,0x04,0xf3,0x04,0xcb,0xf7,0x59,0x00, // 2112
0xc2,0xfa,0xc0,0xff,0xef,0xfc,0x33,0xfc, 0x0f,0x04,0x8f,0x01,0x79,0xfa,0xf9,0xfb, // 2128
0x2a,0x00,0x42,0xfc,0xa2,0xfb,0x96,0x06, 0x34,0x06,0x11,0x06,0x88,0xff,0xa8,0x02, // 2144
0x8e,0x06,0x5e,0x01,0x63,0xfc,0x01,0x04, 0x9a,0xff,0x7f,0xfc,0xed,0xfa,0xa4,0xfe, // 2160
0x08,0x04,0x87,0x05,0xd5,0xfb,0x64,0x01, 0x59,0xf9,0x26,0xf8,0x4d,0x02,0x46,0x00, // 2176
0x16,0x06,0x2a,0x05,0xdd,0x02,0x21,0xfa, 0xb5,0xf9,0x4a,0xfc,0x1e,0x02,0x06,0xff, // 2192
0x95,0x02,0x8b,0x00,0xce,0xff,0xde,0xfe, 0xda,0x06,0xf3,0x01,0x4e,0xfe,0x69,0x09, // 2208
0x21,0x04,0xf7,0x02,0x38,0x01,0x9f,0x05, 0xa3,0x00,0xc6,0x01,0x34,0xfc,0x1d,0xf6, // 2224
0x9f,0xf8,0xc3,0xfd,0x7d,0xfd,0xea,0x00, 0x23,0x02,0x4b,0x00,0xaf,0xf2,0x11,0x03, // 2240
0xdb,0x03,0x99,0xf9,0x96,0x02,0x17,0x03, 0xed,0xfb,0xc1,0x01,0xf8,0xf9,0xf7,0x00, // 2256
0xd6,0xff,0x2d,0xfe,0x38,0xfe,0x0c,0xf9, 0x39,0xfd,0xdf,0x03,0x09,0xf8,0x94,0x02, // 2272
0x1f,0x00,0x6c,0xff,0x47,0x05,0xbd,0x00, 0x82,0xfe,0x61,0xfc,0x9c,0xfa,0xae,0xff, // 2288
0xb5,0xff,0xa2,0x04,0x4a,0x02,0x63,0xff, 0x4f,0xf6,0x9e,0xfb,0x05,0xf6,0x20,0xfd, // 2304
0xb5,0x0a,0xda,0xfe,0x67,0xfc,0xdf,0xfb, 0x51,0xf8,0xc8,0xf3,0xc8,0xf8,0x72,0xef, // 2320
0x70,0xf6,0xed,0xf7,0x15,0xfd,0x45,0xf8, 0x66,0xf8,0xe8,0xf4,0xdd,0xf3,0xc8,0x01, // 2336
0x1f,0xf2,0x43,0xff,0xcc,0xf3,0xe3,0xf2, 0x5a,0x06,0xd4,0xfc,0xf3,0xf7,0x48,0xf6, // 2352
0xc1,0x03,0x16,0xee,0xb9,0xfc,0x25,0xf8, 0x09,0x05,0xdc,0xfc,0xd1,0x04,0xf9,0xf2, // 2368
0xbd,0xf5,0xa1,0x00,0xb2,0xfb,0x38,0xfb, 0x52,0x0e,0x71,0xfd,0xc5,0xf1,0x79,0xfd, // 2384
0xf4,0xf2,0x8f,0xf7,0x17,0xfd,0xe7,0xf9, 0x39,0xfd,0x4f,0x01,0x09,0xfd,0x31,0xf6, // 2400
0xfa,0xf4,0xb7,0xf1,0x1a,0xfd,0x88,0xf2, 0x96,0xf5,0x25,0xf1,0x2c,0xfc,0x79,0x07, // 2416
0xd3,0xee,0xca,0xf6,0x78,0xf4,0x72,0xf4, 0x2a,0xf5,0xea,0xf6,0x01,0xfb,0x4f,0xfe, // 2432
0xc2,0x07,0x2c,0xfb,0xc7,0xfd,0xd8,0x02, 0x59,0xfa,0x2e,0x05,0xe3,0x03,0x49,0x05, // 2448
0xc3,0xf6,0x01,0xf7,0x7f,0x00,0x25,0xfb, 0xba,0xfe,0x88,0xfd,0x6a,0x00,0x2e,0xf6, // 2464
0xc9,0xfb,0xa9,0xfe,0x6f,0xed,0x6b,0xfd, 0x8d,0xf6,0xd1,0xf2,0x6e,0x01,0x38,0xf7, // 2480
0x94,0x02,0x6a,0xf4,0x83,0xfb,0x18,0x00, 0x21,0xf9,0x38,0xfa,0x7e,0xf3,0x28,0xf6, // 2496
0x44,0x04,0x9b,0xf7,0xf1,0x02,0xcc,0xfa, 0x9b,0xf2,0x8a,0xfe,0x0e,0xf6,0xfd,0xfd, // 2512
0x4f,0xee,0x05,0xf9,0xe6,0xec,0xf0,0xf5, 0xd6,0xf2,0x65,0xfb,0x83,0xf7,0x00,0xfe, // 2528
0x2a,0xf6,0xb5,0xfd,0xf4,0x07,0xf3,0xf5, 0x44,0xf5,0x51,0x03,0xe8,0xfa,0xbd,0xf3, // 2544
0x1b,0xf4,0x3d,0xfa,0x3f,0xfa,0x66,0xef, 0xb3,0xfc,0x86,0x04,0x1b,0xf0,0x89,0xff, // 2560
0x60,0xf1,0x48,0x05,0xcb,0xfb,0xe3,0xf7, 0x1c,0xf2,0xfd,0xf2,0xcb,0xfa,0xb5,0xf0, // 2576
0x43,0x4d,0x44,0x00,0x20,0x03,0x01,0x00, 0x10,0x0a,0x00,0x00,0x10,0x02,0x00,0x00, // 2592
0x01,0x00,0x00,0x04,0x0a,0x0d,0x08,0x0d, 0x00,0x00,0x00,0x00,0x00,0x00,0x00,0x00, // 2608
0x01,0x00,0x8c,0x00,0x01,0x00,0x01,0x00, 0x64,0x00,0x01,0x00,0x00,0x00,0x00,0x00, // 2624
0x0a,0x00,0xff,0xff,0xff,0xff,0xff,0xff, 0x00,0x00,0x01,0x00,0xc8,0x00,0x00,0x00, // 2640
0x00,0x01,0x02,0x00,0x18,0x01,0x00,0x00, 0x00,0x00,0x00,0x00,0x00,0x00,0x00,0x00, // 2656
0x00,0x00,0x00,0x00,0x00,0x00,0x00,0x00, 0x00,0x00,0x00,0x00,0x00,0x00,0x00,0x00, // 2672
0x00,0x00,0x00,0x00,0x00,0x00,0x00,0x00, 0x00,0x00,0x00,0x00,0x00,0x00,0x00,0x00, // 2688
0x00,0x00,0x00,0x00,0x00,0x00,0x00,0x00, 0x60,0x6d,0x00,0x00,0xc8,0x00,0x00,0x00, // 2704
0x67,0x00,0xb5,0xf8,0x80,0x04,0x4e,0xf4, 0xb2,0xf9,0x77,0xff,0x87,0xf8,0x74,0x02, // 2720
0x9f,0xfe,0xbf,0x03,0xe9,0xf9,0xde,0x07, 0x1a,0xee,0x46,0xf6,0x43,0xfd,0x21,0x02, // 2736
0x80,0x00,0x98,0x00,0x46,0x01,0x7d,0xf7, 0x44,0x01,0xaf,0x00,0x29,0xfc,0x2d,0x02, // 2752
0xa2,0x07,0x85,0x06,0x16,0xf9,0x06,0xfc, 0xeb,0xfc,0x2f,0x04,0x37,0xf6,0x6d,0xfe, // 2768
0x81,0xf2,0xfc,0xfc,0x24,0xf5,0x1d,0xfd, 0x4f,0xfa,0x7d,0x03,0x2e,0xfc,0xa8,0xfb, // 2784
0x04,0x04,0x5f,0xfc,0x66,0x02,0x5c,0xfb, 0x55,0x06,0x93,0x01,0xb5,0xff,0x77,0xfc, // 2800
0x2d,0x00,0x95,0xf1,0x43,0xfc,0xb0,0x02, 0x80,0x03,0x59,0x02,0x1f,0x03,0x1e,0x01, // 2816
0xa0,0xfc,0x1d,0xff,0x67,0xff,0xb5,0xf6, 0xf8,0xfd,0x44,0x00,0x35,0xfc,0x6f,0xfa, // 2832
0x40,0x01,0xa2,0x00,0x31,0xfd,0xaf,0xff, 0xfe,0xff,0x74,0xfe,0x38,0xf9,0x28,0xff, // 2848
0x41,0xff,0xb6,0x02,0x0f,0x00,0x60,0xfc, 0x59,0x05,0xa2,0x00,0xad,0x00,0xf8,0xfe, // 2864
0xf2,0x00,0x11,0xf8,0xd8,0x04,0xa6,0xfd, 0xce,0xff,0x8e,0xf8,0x1c,0x08,0xaf,0x04, // 2880
0xdf,0xff,0x2f,0xfe,0x08,0xff,0x58,0xfb, 0x03,0xf1,0x57,0xfc,0xf9,0xf8,0xa4,0x01, // 2896
0x82,0xff,0x45,0xff,0x34,0x01,0x67,0xfe, 0xae,0xfa,0xe5,0xfa,0x9c,0xf8,0x97,0xfc, // 2912
0x2c,0xf3,0x10,0xff,0x5e,0xfe,0xf0,0xfa, 0x2a,0x03,0xa6,0xff,0x15,0x00,0x07,0x00, // 2928
0x7e,0xfa,0xee,0xfc,0xc4,0xf8,0x5d,0x03, 0xd8,0x01,0x08,0xff,0x06,0xff,0x3b,0xfb, // 2944
0x65,0xf5,0xf6,0xf5,0x79,0x02,0x7c,0xfd, 0xd4,0x00,0xa5,0x01,0xaf,0xf8,0xe5,0x01, // 2960
0xf6,0x04,0xe4,0xfd,0x40,0x01,0xf8,0xff, 0xb2,0x03,0xab,0xf8,0xed,0xf5,0x3d,0xf9, // 2976
0x21,0x00,0xbb,0x02,0x98,0x01,0x47,0x09, 0xee,0xfb,0x81,0xf9,0x0d,0x00,0xe0,0x01, // 2992
0xdc,0x02,0xe3,0xf2,0xbe,0xfe,0x56,0xff, 0x05,0xff,0x4c,0xf2,0x8d,0xff,0xc8,0x00, // 3008
0xb9,0x04,0x43,0xfd,0xa8,0xfe,0xd3,0x02, 0x74,0xfb,0x0b,0x00,0x78,0x03,0x31,0xfd, // 3024
0xab,0xff,0xbb,0xfa,0x3c,0x00,0x97,0xfe, 0xfa,0xf6,0xf7,0xf9,0x10,0xfe,0x55,0x00, // 3040
0xa2,0xfe,0x64,0xfe,0x4e,0xfb,0x52,0xff, 0x29,0x00,0x0f,0x00,0xe0,0xfe,0x59,0xfc, // 3056
0xb8,0xff,0xc0,0xfd,0xae,0x02,0xb7,0x01, 0x99,0xfe,0x48,0xfe,0x4b,0x0a,0x07,0x05, // 3072
0x4a,0xf6,0xd4,0x00,0xfd,0x01,0x7e,0x00, 0x4b,0x04,0x46,0xff,0xe0,0xff,0x20,0xf6, // 3088
0xe5,0x01,0x38,0x02,0x1b,0xfa,0x1c,0xf9, 0x0f,0x01,0x93,0xff,0xeb,0x03,0x69,0x05, // 3104
0x23,0xf0,0x58,0x03,0xf9,0xf7,0x85,0xff, 0x7c,0xfc,0x9b,0xfd,0x7e,0x06,0x57,0xff, // 3120
0x0c,0xf8,0xae,0x02,0x66,0xfc,0xa5,0xfb, 0x5d,0x02,0x6f,0xf5,0xbb,0xfe,0x46,0xf9, // 3136
0xd5,0xf6,0x02,0x02,0x86,0x03,0x87,0xff, 0x89,0xfd,0xf8,0xf7,0x33,0xfa,0x89,0x01, // 3152
0x5b,0x00,0x6c,0xf3,0x31,0xff,0xd1,0xf3, 0x4f,0x03,0x6e,0x05,0xe0,0xfd,0xac,0xff, // 3168
0x7c,0x01,0xf3,0xf4,0x30,0x00,0xdb,0xff, 0x02,0x03,0x2e,0x00,0xdd,0x01,0x77,0xff, // 3184
0x78,0xfc,0x8a,0xfa,0x85,0xf8,0xdd,0x00, 0xab,0x02,0xd2,0xf9,0x17,0x06,0x8c,0x01, // 3200
0x94,0xfe,0x67,0xf4,0xb6,0x02,0xb8,0x01, 0x7b,0x00,0x74,0xff,0x8a,0xff,0xe4,0xed, // 3216
0x03,0x02,0xc6,0x00,0x95,0xf7,0xa4,0xfa, 0xb9,0x00,0xc3,0xf8,0x8b,0x03,0x1b,0x06, // 3232
0x73,0x04,0xb8,0x02,0xdb,0xff,0xd5,0x00, 0xdb,0x01,0x8d,0x01,0xfa,0xff,0xa9,0xfd, // 3248
0x0a,0xf9,0x83,0xfd,0xd9,0x01,0x21,0x01, 0xf9,0xfd,0x53,0x01,0x3e,0xfe,0xd8,0x04, // 3264
0x3b,0x03,0x71,0x05,0xe8,0x00,0x2b,0x01, 0xcd,0x03,0xbb,0xfe,0xc9,0xfe,0xa2,0x02, // 3280
0x9d,0xfa,0x60,0xf6,0xa9,0xff,0x65,0xfd, 0xba,0xfe,0x07,0x00,0x6c,0xfc,0x55,0xfd, // 3296
0xd2,0xfd,0x78,0x00,0xd8,0xf6,0x40,0x03, 0x2b,0x00,0x59,0xff,0x58,0x03,0xe4,0x04, // 3312
0x82,0xfe,0x0e,0x03,0x87,0x03,0xd3,0x00, 0x7d,0x03,0x19,0xfb,0xa0,0x02,0xbf,0xf4, // 3328
0x71,0x08,0x73,0x01,0x3c,0x03,0x6e,0xfb, 0x88,0x00,0x9b,0xfb,0xfe,0xfe,0x72,0xfa, // 3344
0x0c,0x02,0x60,0x04,0x36,0x03,0xbf,0x03, 0xcd,0x01,0xc9,0x05,0xcb,0xfd,0x1c,0xff, // 3360
0xed,0x03,0x0a,0x01,0x42,0x00,0xbf,0xfd, 0x7d,0xfd,0x57,0xfd,0xdb,0xfc,0x9b,0xfd, // 3376
0x66,0x00,0xc4,0xfb,0x40,0xfe,0x5d,0x01, 0xb9,0xfd,0x99,0xfb,0x9b,0xfc,0x06,0xfa, // 3392
0x37,0x03,0xf0,0xfd,0x0e,0x02,0x58,0x02, 0x04,0x02,0x77,0x01,0x0a,0x08,0x48,0x04, // 3408
0x03,0x06,0x44,0xff,0xa5,0x00,0x19,0x02, 0x3b,0xfd,0x5a,0xfd,0x26,0x02,0xce,0x01, // 3424
0xdb,0x01,0x9e,0x00,0x25,0x07,0x74,0xfb, 0x2a,0xfc,0xdc,0xfc,0x99,0xfc,0x79,0x02, // 3440
0xf5,0x02,0x3f,0x00,0x87,0x01,0x16,0xfd, 0xf8,0xfe,0xda,0xff,0x5f,0xfe,0x71,0x04, // 3456
0x11,0x03,0x3d,0xfd,0x65,0xfc,0x0a,0xfd, 0x4f,0x04,0xf0,0x07,0x5c,0x03,0x0b,0x01, // 3472
0x9c,0x01,0xa8,0x07,0x81,0x01,0xca,0x00, 0x72,0x01,0x1f,0x02,0xdb,0xff,0xc7,0xff, // 3488
0x25,0xfe,0xa3,0xfa,0x06,0x00,0x72,0x05, 0xd8,0xf9,0x08,0x00,0x2d,0xfd,0x4a,0xf7, // 3504
0x9e,0xff,0x04,0x02,0x61,0xfd,0xe6,0x00, 0xf3,0xfd,0xaf,0x01,0x10,0xfd,0xb4,0xfc, // 3520
0x86,0x00,0x68,0xfe,0x36,0xfa,0x59,0xfe, 0xa7,0xfc,0x34,0xfd,0xe1,0xfe,0x5b,0x00, // 3536
0x8b,0x00,0x60,0xfb,0x68,0x02,0x8e,0x00, 0x85,0x04,0x29,0x02,0x50,0xf7,0xaf,0x01, // 3552
0xdb,0x03,0x56,0x00,0x0b,0x02,0x9b,0xf2, 0x97,0xfe,0xd1,0x04,0x2f,0x00,0xb4,0x03, // 3568
0x59,0x01,0x0b,0xfa,0xc8,0x03,0xc3,0xfa, 0xbd,0xfc,0xd4,0xfe,0x8a,0xea,0xf8,0x00, // 3584
0x72,0xf9,0xd4,0xfc,0xdb,0xf7,0xdb,0xfd, 0x2a,0xf6,0xbc,0xfe,0x29,0x02,0xf7,0x00, // 3600
0x5b,0xf8,0x5b,0x04,0xbe,0x02,0x5a,0x00, 0xa4,0xf5,0x30,0xfc,0x8c,0xf6,0x37,0xfc, // 3616
0xd8,0xfb,0xe4,0xfa,0xb8,0xfd,0xab,0xf6, 0x24,0x01,0x4f,0xfb,0x8d,0x00,0xe4,0x00, // 3632
0xe2,0xfa,0x1e,0xfd,0xba,0xf8,0xd2,0x01, 0x72,0xf9,0x94,0xfb,0x0e,0x00,0x87,0x01, // 3648
0xb6,0x03,0x6b,0xfa,0x87,0x03,0x04,0xff, 0xf4,0xfd,0x61,0x00,0xb3,0x00,0x2c,0x02, // 3664
0xef,0x03,0x76,0x02,0x96,0x03,0x36,0x01, 0x75,0x01,0xbb,0xff,0x9a,0xfd,0x9a,0x01, // 3680
0x09,0x00,0x9b,0x03,0x36,0xfe,0xfe,0xfa, 0xbb,0x01,0x05,0xfd,0x4b,0xf7,0x61,0xfa, // 3696
0x5c,0x02,0x0d,0x00,0xcd,0xf9,0x2c,0x02, 0x12,0xff,0x0f,0xff,0xe8,0xf9,0x20,0xf4, // 3712
0xd5,0xfa,0xc0,0xfd,0x55,0xf6,0xd8,0xff, 0x24,0xfc,0xc1,0xfc,0x58,0xf7,0x3e,0x01, // 3728
0x41,0x03,0xad,0x03,0x73,0xfe,0xc8,0xfe, 0x2b,0xff,0x08,0xf2,0x6d,0xf6,0xec,0xff, // 3744
0xa9,0xfe,0xa7,0xfa,0x70,0xff,0x5a,0xff, 0xc5,0x05,0x54,0xf8,0xfb,0xe8,0x07,0x02, // 3760
0x36,0x0b,0x2b,0x01,0x30,0xed,0x86,0x01, 0x7e,0x01,0xea,0xfb,0x56,0xfd,0x8d,0xf9, // 3776
0x82,0xf9,0xe2,0x03,0xe7,0xff,0x49,0xff, 0x6c,0xfc,0x7a,0xfb,0x90,0xfe,0xdf,0x04, // 3792
0xff,0x03,0x14,0xff,0x24,0xf5,0x68,0x04, 0x71,0xff,0xea,0xf3,0x27,0xfd,0xf7,0xff, // 3808
0xf7,0x00,0x21,0x01,0x63,0x01,0x35,0xff, 0xdb,0xf5,0x2d,0x00,0xce,0xef,0x24,0xf7, // 3824
0x39,0x03,0xbc,0xfe,0xe5,0x01,0x35,0xff, 0x7f,0x05,0xba,0xfe,0xe0,0xff,0x89,0xfc, // 3840
0x32,0xff,0x8c,0xfa,0xde,0xff,0x89,0xfe, 0x0c,0xff,0x31,0x00,0xaa,0x01,0x78,0x03, // 3856
0x69,0xfd,0x9a,0xff,0x9d,0x03,0xaa,0xfc, 0x93,0x00,0x19,0xfb,0x5a,0x00,0x18,0xfb, // 3872
0xa5,0x02,0x45,0x00,0x81,0x02,0x4b,0x00, 0x50,0x01,0x74,0x05,0x50,0x07,0xbb,0xf9, // 3888
0x28,0xf7,0x4e,0x00,0x0b,0x02,0x46,0xfa, 0xec,0xfe,0xc4,0xff,0xc3,0x00,0xcb,0xfd, // 3904
0x4a,0xf9,0x79,0x01,0xd1,0x04,0x7a,0xfd, 0x33,0xf3,0x03,0xfe,0xe1,0x01,0x49,0xff, // 3920
0x48,0x01,0x15,0xfe,0xab,0xfb,0x99,0x02, 0x8a,0x03,0x62,0xf9,0xdc,0x03,0xed,0xff, // 3936
0x49,0x02,0x89,0x05,0x5c,0xff,0xfc,0xfe, 0xdd,0xfe,0x3b,0xfe,0x13,0xfc,0x3e,0x06, // 3952
0xfe,0xfc,0x54,0x01,0x87,0x00,0xb8,0xff, 0x44,0xff,0xb7,0x00,0xda,0xfe,0xfa,0xfd, // 3968
0x93,0xfc,0x0a,0xf7,0x47,0xfc,0xc3,0x04, 0x98,0xfd,0x8a,0xfe,0x04,0x03,0x05,0x00, // 3984
0x15,0x00,0x73,0xfd,0x0c,0x01,0x9a,0xfe, 0xb8,0xff,0xfd,0xfd,0xfc,0x03,0x8d,0xfd, // 4000
0x39,0x02,0x53,0x00,0xc9,0xfc,0x58,0xff, 0xb4,0xff,0x2e,0xf9,0x39,0xfc,0xe8,0xfd, // 4016
0x57,0x02,0x2b,0xff,0x0c,0x02,0x98,0x01, 0x34,0xfd,0x94,0xf9,0x73,0x02,0x92,0x02, // 4032
0x93,0xfe,0x24,0xfb,0x84,0x03,0x08,0x02, 0x21,0x00,0xd8,0xff,0x67,0x00,0xe6,0x01, // 4048
0x1f,0xff,0xdf,0x02,0x7e,0xfe,0x3b,0xfd, 0xa2,0xfc,0x3e,0xfe,0x03,0xf6,0x51,0xfd, // 4064
0xa6,0xfe,0xb3,0xf9,0x6b,0x01,0xc7,0xfb, 0x32,0xff,0x7d,0xff,0x9b,0xfe,0xab,0x04, // 4080
0x43,0x02,0x23,0x02,0xb6,0xfe,0x50,0x01, 0x83,0xfe,0x52,0xfc,0x93,0xff,0x58,0xfe, // 4096
0x20,0xfb,0x77,0x01,0xc2,0x04,0xc7,0xfc, 0xa2,0x03,0x70,0xfd,0xe9,0x02,0x52,0x07, // 4112
0xf9,0x01,0xb4,0xfc,0x40,0xff,0x86,0xfa, 0xe5,0x04,0xc4,0xfd,0x7a,0x02,0x05,0xfe, // 4128
0x92,0xfd,0xb9,0xf4,0x42,0xfc,0xb0,0x02, 0xe3,0xf6,0x05,0x01,0x7e,0xff,0x5d,0xf8, // 4144
0xd3,0x02,0x11,0xfc,0x84,0xfe,0xa4,0x00, 0x0b,0xfb,0x48,0xf8,0xc0,0x02,0x69,0x00, // 4160
0x2a,0xff,0x59,0xff,0x37,0xf9,0x5c,0xfe, 0x9f,0xfc,0x77,0xff,0x92,0xff,0x74,0xf6, // 4176
0xde,0x03,0x6c,0xfd,0xa9,0xff,0xe0,0x02, 0x03,0xfb,0x54,0xfb,0xa4,0xf7,0xe3,0xfd, // 4192
0xf3,0xf5,0x2d,0xfa,0x15,0xfa,0x88,0xf4, 0xa8,0xf5,0x89,0x02,0xe2,0xfc,0x6c,0xff, // 4208
0x54,0x01,0x89,0xfe,0x26,0xfb,0xa7,0xfc, 0xb2,0xff,0xd2,0xff,0x5f,0xfe,0xae,0xff, // 4224
0x34,0xed,0x04,0xfa,0xf1,0xff,0x33,0xfd, 0xa7,0xf8,0x7e,0xfd,0x4e,0x03,0x1f,0x01, // 4240
0xdd,0xfd,0xe8,0x00,0x72,0xf6,0xd5,0xf8, 0x5e,0xfe,0x78,0xfa,0xea,0xfc,0xd3,0xfd, // 4256
0x45,0xf8,0x65,0xfe,0x2f,0xf5,0x86,0x01, 0x95,0x00,0x79,0xf7,0x71,0xf8,0xb1,0x03, // 4272
0x2e,0x02,0x3c,0xfb,0xd2,0x01,0x74,0xfd, 0x21,0xfe,0xdc,0xfa,0x46,0x00,0x06,0x01, // 4288
0x8c,0xfc,0x98,0xfa,0xba,0xfe,0xbe,0xfd, 0x89,0x01,0xf2,0x00,0x26,0x05,0x16,0xfc, // 4304
0xe0,0xfc,0x41,0xfc,0x6e,0xf3,0xad,0xfc, 0x10,0x03,0x91,0xf7,0xd6,0x05,0xfc,0x00, // 4320
0x00,0xff,0xbe,0xff,0x05,0x04,0xdd,0x00, 0x38,0x01,0xf1,0x04,0x7a,0xfd,0xbc,0xf4, // 4336
0xd2,0xf7,0x57,0x01,0x50,0xfa,0xdc,0xf4, 0xdf,0xf5,0x72,0xfb,0x3f,0xff,0xd0,0xf6, // 4352
0x13,0xfa,0x74,0x01,0x84,0xff,0x25,0x00, 0xd8,0xf9,0x68,0xff,0xe6,0x00,0x9f,0x02, // 4368
0x5d,0xfe,0xaf,0xfd,0x86,0xfc,0x6c,0x00, 0xff,0xf3,0xd4,0xf9,0xc8,0x06,0xdc,0xfb, // 4384
0xca,0x02,0x78,0x02,0x62,0x02,0xa8,0x05, 0x91,0xf8,0xbf,0xf9,0x58,0x04,0x44,0xfb, // 4400
0xcd,0x02,0xfb,0x03,0xcf,0xff,0x46,0x01, 0x24,0xff,0x37,0xf7,0xe4,0xfc,0x69,0xff, // 4416
0xd7,0x02,0x6d,0x01,0x26,0x02,0xba,0xfd, 0x15,0x00,0xfd,0xfe,0x59,0xfc,0x01,0xfe, // 4432
0xa5,0xfb,0x88,0xf9,0x34,0xfd,0x23,0x04, 0xb6,0xfc,0xa4,0xfa,0x77,0x02,0xfc,0x00, // 4448
0xda,0xfc,0x51,0xff,0x3a,0xfc,0xa4,0xf8, 0xce,0x01,0xc9,0xf8,0xad,0xfc,0x65,0x03, // 4464
0xb8,0xff,0xb9,0xfc,0x0a,0x04,0x43,0x03, 0x72,0xfb,0x99,0xfb,0x67,0xf9,0xe1,0x00, // 4480
0xd7,0xfa,0xf4,0xfd,0xc5,0x01,0x0f,0xff, 0x44,0x04,0xc1,0x01,0x23,0x00,0xbb,0xff, // 4496
0x8d,0xfd,0x0a,0x00,0x55,0xfe,0xb3,0xfc, 0x2a,0xfa,0x2f,0xff,0x61,0xfd,0x7c,0x03, // 4512
0x11,0x00,0x9b,0xfe,0x20,0x01,0xdc,0xfe, 0xf9,0x00,0x22,0xfc,0x35,0xfc,0x53,0xf8, // 4528
0x58,0xfb,0x20,0xfd,0x80,0x01,0x32,0xfc, 0x56,0xfc,0x5a,0x00,0x4c,0xfa,0x9d,0x01, // 4544
0x17,0xfc,0x7b,0xfb,0x3b,0x00,0xfd,0xfd, 0x47,0xf9,0x96,0x03,0x46,0x00,0x87,0xfe, // 4560
0x9c,0xfc,0x53,0xfc,0xce,0xfe,0xec,0xfa, 0x69,0x00,0xf7,0xfd,0x15,0x02,0x9c,0xff, // 4576
0xae,0x01,0x85,0x01,0x1d,0x04,0x53,0x00, 0x2a,0xf9,0xed,0xfc,0x96,0xff,0xf8,0xfe, // 4592
0x46,0xfc,0x66,0xfe,0xfc,0xfd,0x27,0xfe, 0xc7,0xff,0xad,0xf7,0xcd,0x02,0xe2,0x02, // 4608
0xb0,0xfd,0x89,0x02,0xc7,0x00,0x83,0xf7, 0x88,0xfd,0xfe,0xfc,0x61,0x01,0xc6,0xfe, // 4624
0x12,0x01,0x65,0xfe,0xfa,0x02,0x7f,0x00, 0x87,0xfa,0x6a,0x04,0xcf,0x01,0x68,0x02, // 4640
0x17,0xfd,0xb5,0xf6,0x1e,0x00,0x87,0x01, 0x6e,0xfd,0xd8,0xf9,0xca,0xff,0xff,0x01, // 4656
0x98,0xfc,0x39,0xff,0x03,0xfe,0x5d,0x00, 0x32,0xfe,0x38,0xfe,0x0e,0x02,0x33,0xfe, // 4672
0x69,0x04,0x22,0x03,0x96,0xfc,0x56,0x04, 0xd0,0xff,0x4d,0xfd,0xf0,0xfd,0xff,0x00, // 4688
0x84,0x01,0xad,0x02,0xa0,0xfd,0x4a,0x02, 0x3a,0xff,0x85,0xfe,0x84,0xfc,0x4f,0xfe, // 4704
0xae,0xfe,0xcb,0xfd,0x72,0x01,0x08,0x00, 0x33,0xfb,0xfa,0x01,0xf1,0xfa,0xcb,0xfa, // 4720
0x61,0x05,0xd6,0x03,0x88,0x00,0x8e,0xfd, 0x58,0x01,0x94,0xfa,0x03,0x00,0x7e,0xfe, // 4736
0xc0,0x00,0x92,0xff,0xb0,0x00,0xd7,0xfb, 0x08,0x07,0xbf,0xff,0xba,0x00,0x97,0xff, // 4752
0x1f,0x06,0x6e,0x05,0x76,0x02,0x68,0xff, 0xee,0xff,0x2d,0xff,0xf0,0x01,0xd9,0x04, // 4768
0x95,0x00,0x28,0x03,0x68,0xff,0x19,0x00, 0x6c,0xfc,0x77,0x03,0x52,0xfb,0xb3,0x00, // 4784
0x6c,0xfe,0x84,0x04,0x3b,0x06,0x24,0x00, 0xec,0x00,0xce,0xfb,0x16,0x00,0x67,0x02, // 4800
0x02,0xff,0x13,0xfe,0x1c,0x00,0x85,0xfd, 0x89,0x00,0x54,0xfe,0x68,0x04,0xcf,0x04, // 4816
0x79,0x02,0x39,0xff,0xef,0x03,0x68,0xfd, 0x62,0x01,0xbd,0x00,0x6c,0x01,0xe4,0xfc, // 4832
0x9d,0xf7,0xb3,0x04,0x0d,0xfd,0x56,0xfc, 0xe7,0xfc,0x8c,0x01,0x8d,0xfe,0x92,0xfc, // 4848
0x71,0x00,0xe5,0xff,0x08,0x00,0xf5,0x01, 0x20,0xfe,0x2b,0x00,0x17,0xff,0xf1,0xfb, // 4864
0xd3,0x00,0xef,0xfd,0x87,0xfd,0x38,0x04, 0x64,0xff,0x27,0x04,0x07,0x00,0xdc,0xfb, // 4880
0xfc,0x04,0x42,0x03,0xf5,0xfc,0xc6,0xfe, 0xc0,0xf5,0x96,0xfd,0xaa,0x00,0x43,0x04, // 4896
0xf9,0x00,0x73,0xff,0x3d,0x00,0x4a,0xfb, 0xa0,0xf7,0x73,0xff,0x93,0xfb,0xe8,0x03, // 4912
0xc2,0xfa,0x82,0xf8,0x82,0xfd,0xdb,0x05, 0xdd,0xfc,0x9c,0x03,0x63,0x04,0x6b,0x01, // 4928
0xe7,0x06,0x9f,0xfe,0x20,0x01,0xfd,0xff, 0x02,0x04,0x22,0xfd,0xa9,0xfe,0xed,0x04, // 4944
0x78,0xff,0x93,0xfa,0xc2,0xff,0xe0,0x04, 0x83,0x03,0xae,0xfb,0x3b,0x00,0xf1,0xf6, // 4960
0xdb,0x01,0xfb,0xf8,0xc1,0xff,0x5d,0xfe, 0x3e,0x01,0x07,0xf8,0x71,0xfb,0x93,0x02, // 4976
0xf4,0xf7,0xe9,0x02,0x3d,0x00,0xae,0x05, 0x41,0x06,0x7e,0xfc,0xcc,0xfb,0xed,0x03, // 4992
0x26,0x09,0xa2,0xf8,0xa1,0x01,0xb0,0x01, 0x90,0xfb,0x14,0x01,0x78,0x00,0x54,0xff, // 5008
0x53,0xfb,0x93,0xfb,0x78,0xfb,0x17,0x01, 0xd3,0x01,0x1c,0x03,0x48,0xff,0x60,0xfe, // 5024
0x67,0xfe,0x92,0x03,0xf2,0xf9,0xfd,0x00, 0x3d,0xfc,0x01,0xfa,0xb3,0xff,0x3d,0xfc, // 5040
0xae,0x02,0x6a,0x02,0x56,0xfd,0x12,0xfa, 0x7a,0x03,0xcf,0xf7,0x8b,0xfc,0x28,0xf8, // 5056
0x5b,0x01,0xbb,0x03,0xb1,0xfe,0xca,0xff, 0xbf,0x00,0x49,0xfe,0x82,0xf8,0x2f,0x00, // 5072
0x0e,0xf9,0x0b,0xf9,0xb8,0x00,0x9d,0xf9, 0x68,0xf7,0x2d,0xfd,0xbb,0xf8,0x51,0xfe, // 5088
0x72,0xff,0x48,0x03,0xa3,0xfc,0x0a,0xf7, 0xe8,0xfd,0x53,0xff,0x24,0x00,0x70,0x00, // 5104
0x20,0xfe,0x80,0xf3,0x11,0xfe,0x3b,0x00, 0xa8,0x06,0xc7,0xfd,0x20,0x08,0xd5,0xfb, // 5120
0x26,0xfe,0xfc,0xfe,0x46,0x01,0x21,0xff, 0x5a,0x00,0x76,0x00,0x65,0x00,0x89,0xfd, // 5136
0x81,0x03,0x3d,0xff,0xb9,0x04,0x61,0xf4, 0xcb,0xfc,0x6a,0xf3,0x68,0xf9,0xfb,0xff, // 5152
0xe1,0x05,0xea,0xf9,0x58,0x03,0xcd,0xfe, 0x76,0xfe,0x6e,0xf8,0xf1,0x00,0xa8,0xff, // 5168
0x7d,0xfe,0xd5,0x03,0x8a,0xff,0xb1,0xfc, 0xaf,0xfa,0x3d,0xfe,0x9d,0xfe,0x68,0x01, // 5184
0x78,0xf4,0xc6,0xf8,0x79,0x01,0xfa,0xfa, 0x4a,0xf9,0xa0,0xff,0x95,0xfd,0x2b,0xff, // 5200
0xeb,0x00,0x12,0xfb,0x72,0x00,0x09,0x05, 0x8f,0xfa,0x2c,0xfa,0x56,0x00,0x98,0x00, // 5216
0x29,0xf4,0xe2,0xff,0x0e,0x05,0xea,0xf6, 0x99,0xfd,0xc2,0xfa,0x70,0x02,0x9f,0xfa, // 5232
0x8d,0x00,0xad,0xff,0xab,0xf8,0x1f,0x07, 0x9c,0x02,0x15,0x00,0xa4,0xfd,0x72,0x05, // 5248
0x72,0xf1,0xa7,0xf9,0x50,0xf9,0x57,0x03, 0xce,0x00,0x25,0xff,0x57,0x01,0xb3,0xfe, // 5264
0x1d,0x04,0x1d,0xfe,0x09,0xfd,0xb8,0xff, 0x7e,0xfe,0xfe,0xff,0xed,0xee,0x57,0x06, // 5280
0x1a,0xf9,0xe4,0x04,0x63,0xf4,0x06,0x02, 0xde,0xf8,0x76,0xfd,0xe6,0xf4,0x1f,0xfe, // 5296
0xb7,0xfd,0xdf,0x01,0x6a,0xfc,0x27,0xfb, 0xc7,0x00,0xdb,0xfe,0xc6,0x01,0xc3,0xfb, // 5312
0xd1,0x05,0x55,0xff,0x25,0xff,0x5f,0xf7, 0x8d,0x02,0x8b,0xf4,0x9e,0xfc,0xd6,0xfe, // 5328
0x7a,0xfe,0x45,0x05,0x9f,0x01,0xe4,0xfc, 0xe6,0x00,0x22,0x01,0xc6,0xfb,0x4d,0xf3, // 5344
0x83,0xff,0xd5,0x00,0x59,0x01,0x55,0x02, 0x12,0x02,0x8b,0xfb,0x77,0xf8,0x18,0xff, // 5360
0xa4,0xff,0xc3,0xf4,0x37,0xfb,0x0b,0x00, 0x9e,0x00,0x86,0x03,0xce,0x02,0xe6,0xfe, // 5376
0x11,0x01,0xb2,0xfd,0x51,0xfe,0x2c,0x00, 0x70,0x04,0x30,0x01,0x9a,0xfc,0xb8,0xfd, // 5392
0xe2,0xff,0x16,0xfa,0xf0,0x02,0xc4,0xfe, 0x7f,0xff,0x16,0x03,0x98,0xfd,0x6c,0xff, // 5408
0xbd,0xf5,0x2e,0xf9,0xca,0xf8,0x81,0x01, 0xce,0xfd,0x7a,0xfb,0xdc,0x01,0xff,0xfd, // 5424
0x34,0xfd,0xa8,0xfc,0x57,0xfb,0x77,0xfb, 0x42,0xf3,0xbf,0xfc,0x54,0xff,0xe6,0x03, // 5440
0xa9,0x05,0xe7,0x00,0x42,0x00,0x18,0x00, 0x02,0xff,0x6a,0x01,0xfa,0xfa,0x99,0x01, // 5456
0xb8,0x01,0x4d,0x01,0x41,0xfb,0x70,0xfc, 0x56,0xfc,0x56,0xf9,0xac,0x03,0x55,0x01, // 5472
0x7a,0xfd,0xfe,0x00,0xbf,0xfe,0x63,0xfe, 0x9a,0x01,0x2d,0xfd,0xeb,0xff,0x76,0x00, // 5488
0x0d,0x07,0x95,0xfd,0x12,0xf6,0x0d,0xf8, 0x5b,0x01,0x41,0x01,0xc8,0xff,0x98,0x02, // 5504
0xca,0xfe,0xdb,0xff,0xc3,0x01,0x47,0xf9, 0x2f,0x00,0xd0,0xf4,0xf8,0x01,0xd1,0x01, // 5520
0x47,0xfd,0x9c,0xf9,0x94,0x03,0xc7,0x02, 0xd3,0xfe,0xd7,0xff,0x5b,0xff,0xf5,0xf9, // 5536
0xb7,0x01,0x6f,0xff,0x33,0x02,0xce,0x00, 0x61,0xf8,0x41,0xff,0x31,0xfb,0xa9,0xfa, // 5552
0xf9,0xff,0xe4,0x00,0x5f,0xfd,0x8f,0xfe, 0x09,0xfa,0x22,0xfe,0xf0,0x03,0x34,0xfb, // 5568
0xb4,0xfb,0x72,0x02,0x8c,0xfc,0x4a,0xfe, 0x95,0xf5,0x3f,0xff,0x45,0x03,0xfa,0x01, // 5584
0x6f,0xf8,0x38,0x01,0x80,0x0a,0x1e,0xff, 0x33,0xfa,0x8a,0x00,0x1e,0x03,0x59,0x06, // 5600
0x2b,0x02,0x8f,0x04,0x24,0x01,0x65,0xfc, 0x96,0xfe,0x4b,0xfd,0x44,0xfc,0x90,0xf7, // 5616
0x7f,0x03,0xd1,0x00,0x32,0x00,0xb7,0x08, 0x97,0x01,0xf5,0x01,0x10,0xf2,0x38,0x00, // 5632
0xb5,0x00,0x4c,0x00,0x04,0xfe,0xc6,0xf9, 0xb3,0xf9,0x80,0x04,0x08,0x01,0x3c,0x01, // 5648
0x18,0x00,0xc6,0xfc,0x20,0xfe,0x70,0xfd, 0xd0,0xfd,0xb5,0xfd,0x63,0x04,0x13,0x00, // 5664
0xb8,0x00,0x91,0xf9,0xbb,0xf8,0x41,0xf6, 0xc2,0xfe,0xa9,0x01,0x1b,0xf1,0x41,0xfc, // 5680
0xdf,0x03,0x4b,0x06,0x3f,0xfc,0x7a,0x00, 0xf2,0x00,0x6a,0xfe,0x4e,0x06,0x6d,0xfd, // 5696
0xab,0xfb,0x35,0xf9,0x96,0xff,0xf5,0x03, 0x7d,0xfe,0xba,0xf8,0x75,0xff,0xa1,0x02, // 5712
0x5f,0xff,0xc3,0xfb,0x6f,0x03,0xad,0xfd, 0xae,0xfd,0xe0,0xf8,0x74,0xfd,0xcd,0xfe, // 5728
0x1b,0x03,0x5e,0x03,0x02,0xf5,0x8d,0x04, 0x3f,0x03,0x2e,0xfc,0x45,0xfc,0xfe,0x03, // 5744
0x1c,0x06,0xee,0xff,0xaf,0x00,0x58,0x06, 0x08,0x03,0xa9,0xfd,0xa7,0x00,0x15,0xff, // 5760
0x4b,0x01,0x9e,0xfc,0x5e,0xfc,0x2b,0xff, 0x61,0xfa,0x65,0x01,0xdf,0xfe,0x7e,0x01, // 5776
0x87,0x03,0x7e,0xff,0x8c,0xfd,0x6c,0x00, 0x25,0x01,0x8e,0xfe,0xb6,0x00,0x3a,0xfa, // 5792
0xc9,0xfe,0x56,0x02,0x70,0xfa,0xe4,0x04, 0x7c,0x02,0x65,0x02,0x6b,0xfc,0x1f,0x06, // 5808
0x83,0x02,0x02,0x01,0x0f,0x02,0xb3,0x03, 0x48,0xfe,0xf3,0xfd,0xa0,0x02,0x21,0xfc, // 5824
0xe5,0x05,0x5e,0x04,0x31,0xfc,0xa0,0x01, 0xee,0xff,0x5d,0x06,0x2c,0xfd,0xea,0xfa, // 5840
0x5a,0xf9,0xfd,0x01,0xaa,0xfa,0x5f,0xfe, 0x69,0x00,0x86,0xfd,0xe7,0x01,0xa5,0xfc, // 5856
0xb4,0xf9,0xe5,0xfe,0x04,0xf6,0xa2,0x00, 0x9c,0xfe,0x6a,0x03,0x7a,0xff,0xc0,0xfc, // 5872
0x40,0xfe,0xcc,0xff,0x49,0x00,0x9a,0x01, 0x68,0xfd,0xa1,0xf9,0xd6,0x06,0xc3,0x01, // 5888
0xd7,0x01,0x95,0xfe,0x72,0xfe,0xb7,0x01, 0x6a,0xf7,0x17,0x02,0xb7,0x00,0x72,0xfc, // 5904
0x6c,0x02,0xd2,0x01,0x9d,0x04,0xa2,0x00, 0xbe,0x03,0x65,0xfd,0x47,0xf9,0x18,0xf9, // 5920
0x8b,0xfe,0xc4,0xfe,0x41,0xfc,0x48,0xfa, 0x4f,0xfc,0xf4,0xfa,0x09,0xfe,0xd2,0xf7, // 5936
0xa0,0x01,0x3d,0x03,0x65,0xfb,0xed,0xff, 0x69,0xf8,0x49,0xfb,0x4f,0xfe,0x25,0xfa, // 5952
0x2d,0x01,0x5b,0xfc,0xa4,0x08,0x7b,0x01, 0xfe,0xfe,0xca,0xfe,0xf9,0x01,0x32,0xfd, // 5968
0x05,0xfd,0xbb,0xf9,0x8b,0xf9,0xfb,0xfd, 0xb1,0xf8,0xf1,0xf5,0x0f,0xfe,0xad,0xfd, // 5984
0x97,0x01,0x12,0xfa,0xc2,0xfe,0x70,0xfa, 0x99,0xfd,0xc2,0xfb,0x4a,0xff,0x29,0xfa, // 6000
0x9e,0x06,0x3a,0x00,0x9a,0xfe,0x64,0xff, 0x32,0xff,0x53,0xfc,0x1c,0xf9,0xa7,0x00, // 6016
0x0b,0x05,0x62,0x01,0x21,0xfb,0xfd,0xf8, 0xcb,0xf9,0x25,0x05,0xc3,0x00,0xd3,0xff, // 6032
0x5c,0x01,0xc2,0xfb,0xab,0xf8,0x90,0x03, 0xc1,0x03,0xdf,0xf9,0x7b,0x01,0x58,0x02, // 6048
0x2e,0x0b,0x15,0xfe,0x23,0xfc,0xf8,0xfc, 0xcf,0x00,0x6c,0x01,0x1d,0xff,0x7d,0x00, // 6064
0xfb,0xff,0x16,0x01,0xa4,0xfd,0xd2,0xf5, 0xe2,0xf6,0xaa,0xff,0x60,0x00,0x6b,0x06, // 6080
0x75,0xff,0x42,0xfe,0x1b,0xf9,0xd6,0x04, 0xdd,0xf8,0x03,0xff,0x53,0xf9,0x0f,0x00, // 6096
0x27,0xfe,0x75,0xf7,0x79,0xfe,0xa9,0xfb, 0x08,0x02,0xf6,0xfe,0xac,0xfe,0xf0,0x06, // 6112
0xfe,0xfa,0x10,0xfd,0xc2,0xf5,0x0d,0xff, 0xa1,0x01,0x02,0x04,0x64,0xff,0x53,0x03, // 6128
0x66,0xf9,0x3a,0xfa,0xb8,0xfa,0xf5,0x00, 0x19,0x00,0xa1,0xfb,0xb5,0xf6,0xa9,0x01, // 6144
0x91,0xfc,0xee,0xfd,0x36,0x0b,0xed,0xf9, 0x2e,0x02,0x13,0x04,0x1f,0x01,0xcc,0x02, // 6160
0x61,0x01,0x76,0xf6,0x91,0xff,0xce,0x01, 0xf3,0x00,0x6f,0xff,0xab,0xfe,0x98,0x00, // 6176
0xea,0xfd,0x6e,0x02,0x22,0xf5,0x7f,0x01, 0x09,0x03,0xfe,0xfb,0x16,0x01,0xdf,0x01, // 6192
0x6c,0x00,0x81,0xff,0x95,0xfc,0xee,0xfe, 0x21,0xfc,0xfd,0xf7,0x25,0xfb,0x12,0xfb, // 6208
0x5b,0xfc,0x5b,0xff,0xd2,0xfd,0x9a,0xfe, 0x72,0x00,0x2b,0x02,0x9d,0xff,0xe5,0xf7, // 6224
0x85,0xfc,0xe7,0xfc,0xb3,0xf6,0xf0,0x00, 0xca,0x05,0x59,0x02,0x2f,0x01,0xbb,0xfb, // 6240
0x02,0x08,0xfe,0x05,0xa7,0xfb,0xd7,0xff, 0x13,0xfd,0xe8,0xfe,0xb6,0xfd,0x9a,0xf9, // 6256
0x1a,0xfd,0x40,0x02,0x1a,0xfe,0x51,0x00, 0xc6,0xf6,0x91,0xf8,0x59,0xfc,0xf2,0xfa, // 6272
0x58,0xf8,0xd5,0xf9,0xd9,0xfd,0xb1,0xf9, 0x47,0x04,0x8c,0xff,0xfb,0x03,0x55,0xf9, // 6288
0xd0,0xfe,0x8f,0x03,0x98,0xff,0x35,0xff, 0x63,0x03,0xbb,0xf7,0x58,0x02,0xda,0xfd, // 6304
0xd2,0xf6,0xe0,0xfc,0x05,0xfa,0x0d,0x01, 0x49,0xfa,0x7d,0xfe,0xaf,0x03,0x18,0x00, // 6320
0x06,0xff,0x25,0x00,0xf1,0xfe,0xc0,0xff, 0x89,0x03,0x4d,0xf7,0xbe,0xfd,0x6a,0xf9, // 6336
0x8b,0xfe,0x24,0xfc,0xbe,0x01,0x2a,0xfd, 0x69,0x02,0x2a,0xf8,0xe8,0xfd,0xb7,0xff, // 6352
0xf9,0x03,0x70,0xfe,0xd4,0x00,0xa8,0x04, 0x06,0x02,0xaf,0xfd,0x6a,0xfe,0xe1,0x02, // 6368
0x68,0xfe,0x45,0xfc,0xb6,0xf8,0x01,0xfd, 0xcd,0xf8,0x92,0xff,0xd4,0x03,0xc2,0xfb, // 6384
0xdc,0x00,0x00,0xff,0x24,0x01,0x51,0x01, 0x11,0xfd,0xbd,0x01,0xe3,0x01,0xd6,0xff, // 6400
0x7c,0x00,0xdf,0xfd,0xe7,0x05,0x0e,0xfe, 0x9e,0xf6,0xb1,0xff,0xa4,0x03,0xfb,0xf5, // 6416
0x1d,0xfe,0xb4,0xfc,0xac,0xfe,0xe7,0xfa, 0x6d,0xfd,0x62,0xfc,0x63,0xfd,0x81,0xfc, // 6432
0x4b,0xf7,0x6c,0xfb,0x84,0xfa,0x5e,0xff, 0x19,0xf8,0xcf,0xff,0xa7,0xfe,0x34,0x00, // 6448
0x10,0x00,0xb0,0x00,0xca,0xf8,0x6c,0xfe, 0x5e,0xfe,0x7a,0x08,0xf2,0x01,0xe9,0x00, // 6464
0xd8,0xfb,0x6b,0x06,0x95,0xfc,0x0d,0x06, 0x59,0x02,0x0e,0xff,0x4c,0x01,0xee,0xfe, // 6480
0xa6,0xf8,0xd3,0xff,0xbf,0xf8,0x22,0xfb, 0xa5,0xfe,0x32,0xf8,0x41,0x02,0xc0,0xf9, // 6496
0xe0,0xf8,0x31,0xfc,0xcc,0x02,0xe4,0xfd, 0x99,0xfd,0xc8,0xf6,0x19,0x03,0x1d,0x01, // 6512
0x46,0xfe,0xb9,0x01,0x2c,0x00,0x29,0xf7, 0x93,0x05,0xb0,0x04,0x04,0x01,0x47,0xfe, // 6528
0x16,0x01,0xca,0xfe,0xf3,0x00,0x34,0x00, 0xb8,0xfe,0xca,0x01,0x4f,0x04,0xc7,0x00, // 6544
0x03,0xfd,0xc3,0xf3,0x54,0x00,0x59,0x04, 0xa1,0x00,0xba,0xff,0x4d,0x04,0x94,0x01, // 6560
0x5c,0x00,0xd2,0xfd,0x2e,0x05,0x14,0x00, 0x5b,0x00,0xa7,0xfe,0xcc,0xff,0xbd,0xfb, // 6576
0x63,0xfe,0xf0,0xff,0xf3,0xf6,0xdf,0xfa, 0x77,0xfe,0x42,0xf9,0xbf,0xfe,0x59,0x01, // 6592
0xd3,0x00,0x18,0xfe,0xe6,0xff,0xad,0x05, 0x81,0x03,0x17,0x01,0x1d,0x00,0x5d,0x02, // 6608
0xf1,0x01,0xfe,0xf5,0x88,0xff,0xbc,0xff, 0xbb,0xff,0xaa,0x00,0x46,0x00,0xff,0xfb, // 6624
0x80,0x01,0x9b,0x01,0x89,0xfd,0x12,0x01, 0x85,0x00,0x9b,0xf6,0x8f,0x00,0x8c,0x01, // 6640
0xa0,0xf6,0xfb,0xff,0x0c,0x02,0x36,0xfd, 0x6e,0xfe,0xb8,0xfc,0xfc,0x00,0xc6,0xfb, // 6656
0x49,0xfe,0xda,0x01,0x86,0xf7,0x31,0xfc, 0xe7,0xff,0x5c,0x01,0x2f,0xff,0x27,0xf9, // 6672
0xad,0xfe,0xae,0xfe,0xed,0x04,0xff,0x01, 0x00,0x03,0xcc,0xff,0xe0,0x02,0x2d,0x01, // 6688
0xf8,0xff,0x1a,0xfe,0xf5,0x02,0x93,0xfe, 0x6d,0x03,0x74,0xf6,0xdb,0x00,0x60,0x06, // 6704
0x25,0xf8,0x2b,0x01,0x3d,0x00,0xd7,0xff, 0x4b,0xfd,0x97,0xff,0xa5,0xf7,0x1d,0xfc, // 6720
0x07,0xfb,0xfb,0x03,0x38,0x01,0xb5,0xf5, 0x76,0x00,0x57,0x00,0x16,0x00,0xf8,0x00, // 6736
0xaf,0x02,0x5a,0xfd,0x0e,0x01,0x18,0x00, 0x3b,0xf4,0xc9,0x02,0xf1,0xfa,0xec,0x01, // 6752
0xa8,0x01,0xf6,0xfd,0xc3,0x01,0x22,0x02, 0x9e,0xfe,0xe0,0x06,0xb7,0xf6,0x8a,0xff, // 6768
0x10,0xfb,0xb4,0xf8,0x31,0x00,0x38,0xfb, 0xe1,0x01,0x6a,0xfb,0xc4,0xf7,0x67,0x00, // 6784
0xb7,0xfb,0x54,0xfe,0x1a,0x00,0x45,0xff, 0xef,0xfe,0xd6,0xff,0x16,0xfc,0x92,0xfb, // 6800
0x37,0xff,0xd8,0xfc,0xda,0xfc,0x62,0xfe, 0x18,0x00,0x63,0x04,0x50,0xff,0xa8,0x01, // 6816
0xcc,0x03,0x35,0x01,0xa1,0xfa,0xc2,0x03, 0x34,0xfb,0xfd,0xf4,0x7a,0xfd,0x81,0x04, // 6832
0x58,0xff,0xbd,0x00,0x9b,0xfe,0xe2,0x03, 0x53,0x01,0x1a,0xfe,0x45,0xff,0x02,0x04, // 6848
0xb0,0x04,0x09,0x04,0x8b,0xfc,0xae,0xf5, 0xb7,0x01,0xde,0x01,0x4c,0x02,0xe8,0xf9, // 6864
0x46,0x00,0xec,0x00,0x57,0x05,0x4a,0xfb, 0xca,0x03,0x16,0x07,0xbb,0x01,0x35,0xfe, // 6880
0x56,0x00,0xee,0xfd,0x03,0xfb,0xd2,0xf3, 0xf4,0x01,0x53,0xfe,0x76,0xfc,0x3d,0xff, // 6896
0x47,0xfe,0x92,0x02,0x34,0xfe,0x58,0xff, 0x87,0xfd,0x38,0xfc,0x03,0x00,0x85,0xf4, // 6912
0x00,0x01,0x51,0x00,0x99,0xf3,0x89,0xfc, 0xd9,0x01,0x8b,0x00,0x09,0xfe,0x27,0x0c, // 6928
0x99,0xfa,0x0d,0x03,0x47,0x01,0xff,0xfe, 0x3f,0xfb,0xbb,0xfa,0x04,0xfa,0x9e,0x01, // 6944
0x0d,0x02,0x4a,0xfe,0x0a,0x00,0x4b,0x06, 0x8b,0x00,0x3f,0x01,0x4b,0xf9,0x27,0x03, // 6960
0x2d,0xf9,0x0b,0x07,0xeb,0xf3,0xc7,0xf8, 0xf0,0xff,0x78,0xfe,0x70,0x00,0xcd,0xfe, // 6976
0xc1,0xf3,0x84,0xfe,0xe3,0xf9,0x78,0xfb, 0x01,0x03,0x03,0xfe,0x05,0xff,0x2c,0xfc, // 6992
0x9a,0xf8,0x29,0x01,0x4c,0x04,0x3b,0x01, 0x7e,0xff,0x1f,0xfe,0xa0,0xfb,0xae,0xff, // 7008
0x90,0x00,0x61,0x01,0x60,0x00,0xd9,0x01, 0x6d,0xf8,0xda,0x00,0x6b,0x00,0x3b,0xfa, // 7024
0x0b,0xfd,0x5a,0x03,0xa0,0xfd,0x20,0xfc, 0xd8,0x03,0x12,0x02,0x6e,0xff,0x7f,0xfc, // 7040
0xfd,0xfe,0xf4,0xfb,0x64,0xfa,0xfd,0xff, 0x93,0xfd,0xa8,0xfd,0xae,0x01,0x31,0x01, // 7056
0x07,0xfd,0xff,0xff,0x16,0x02,0x4e,0x02, 0xc4,0xfb,0xb5,0xff,0x4f,0xfe,0x20,0xfd, // 7072
0x93,0xfd,0x1b,0xf7,0x70,0x0b,0x53,0x02, 0x91,0xff,0x1a,0x02,0xb5,0xff,0x35,0x01, // 7088
0x0d,0xf9,0x2a,0xf9,0xbf,0xff,0x15,0xfa, 0x74,0xfb,0x71,0xf9,0x5f,0x04,0x40,0xfe, // 7104
0xd7,0x03,0x75,0x01,0x3c,0xfc,0xda,0xf9, 0x84,0xf2,0x89,0x03,0x69,0x02,0x46,0xf9, // 7120
0x7f,0x0b,0x8f,0xff,0x6e,0xfc,0x86,0x01, 0x93,0xfd,0xcf,0xfb,0xfa,0xf7,0xe2,0xfe, // 7136
0xa2,0x00,0x74,0x05,0xbf,0xff,0x3a,0xfc, 0xd4,0xf3,0x7e,0xfc,0x16,0x00,0xdc,0xff, // 7152
0x3c,0xff,0x5b,0xf7,0xaf,0xf6,0x70,0x02, 0xfc,0x03,0x15,0x06,0x64,0xfc,0xbd,0xfd, // 7168
0x8c,0x02,0xa6,0xfb,0xe7,0xf7,0xf8,0xf4, 0xa6,0x01,0xa6,0x01,0xd9,0xfd,0x38,0x02, // 7184
0x99,0x01,0xe7,0xf7,0x7e,0xfe,0xb3,0x03, 0xef,0xf9,0x17,0x00,0x0a,0x04,0x3f,0x00, // 7200
0x4f,0x00,0x37,0xff,0x08,0xff,0xa2,0x01, 0x2e,0x00,0xa4,0x02,0xc6,0x02,0xb8,0xf1, // 7216
0x34,0xff,0xc0,0x01,0xf9,0x00,0x4e,0xfa, 0x7d,0xea,0x13,0xfe,0x2a,0xfa,0x6c,0xf4, // 7232
0xeb,0xfd,0x47,0x04,0x63,0xfb,0x32,0x03, 0xb1,0xfc,0x7f,0x02,0x68,0x00,0xf2,0xff, // 7248
0xf5,0xfc,0xe7,0x02,0xfb,0xfa,0xd2,0xfa, 0xf1,0xfe,0xf1,0xff,0x14,0xff,0x06,0xff, // 7264
0x25,0xfc,0x2c,0xfc,0x25,0x01,0xc8,0x01, 0x83,0xfc,0x0f,0x03,0xaa,0xfe,0x2e,0x03, // 7280
0x73,0xfc,0x99,0x00,0xfd,0x02,0x8b,0x03, 0x6c,0x00,0xb3,0xfe,0x36,0x01,0xde,0xf5, // 7296
0x4e,0xfe,0xbb,0xff,0xa2,0x00,0x3a,0xfa, 0x4d,0xfc,0xc4,0xff,0x5b,0x00,0x9a,0x09, // 7312
0x92,0x01,0xd6,0x00,0x58,0x01,0x58,0xfc, 0x09,0xfe,0xe7,0x05,0x77,0xf4,0x66,0xff, // 7328
0xac,0x02,0xb0,0xf8,0xe2,0xf8,0x56,0xf4, 0x11,0xff,0xc0,0xff,0x67,0x02,0x43,0x01, // 7344
0x89,0xfb,0x04,0xf3,0x20,0xfd,0xa2,0xf2, 0xa4,0xf8,0xfc,0xf2,0x52,0xe9,0xcc,0xfd, // 7360
0xb6,0x00,0x8b,0x01,0x6a,0xfe,0x06,0x03, 0x06,0x02,0x91,0xf9,0x5c,0x00,0xca,0xfc, // 7376
0x22,0x01,0xd8,0xfc,0xc2,0xf8,0xb8,0xff, 0xaa,0x00,0xcc,0xf8,0x5e,0x00,0x5f,0xf5, // 7392
0x81,0x01,0xba,0xfe,0xcf,0xe4,0xab,0x01, 0xb0,0xf4,0x51,0x00,0x99,0xf3,0x65,0x00, // 7408
0xde,0xff,0x8e,0xfa,0xbe,0xfc,0xaa,0xf9, 0x60,0x00,0xaa,0xfd,0x0e,0xfe,0x9d,0xfd, // 7424
0xf1,0x02,0x89,0xfd,0x29,0x01,0x77,0xfe, 0xbb,0xff,0xf1,0xfe,0x86,0x00,0xc1,0x00, // 7440
0xc7,0xff,0xd3,0xf7,0xf8,0x00,0xf3,0xff, 0xaf,0xf6,0xef,0xff,0x70,0x03,0x3e,0x01, // 7456
0x2e,0x01,0xf6,0x00,0x00,0xe6,0xa1,0xf2, 0x81,0xfe,0x93,0xff,0x04,0x02,0xa6,0x01, // 7472
0xb0,0x03,0x57,0x03,0x03,0x00,0x75,0xff, 0xa3,0xfb,0xca,0xfe,0x52,0xff,0x3c,0xff, // 7488
0x7f,0xfd,0xe4,0xf8,0x63,0xfd,0x49,0xfc, 0x5e,0xfd,0x5a,0xfd,0x2c,0x02,0x35,0xf9, // 7504
0xf8,0xfa,0xc2,0x00,0xe0,0xfe,0x19,0x0b, 0x68,0x02,0xaa,0x02,0x5b,0x02,0x92,0xfe, // 7520
0x8e,0xfd,0xc9,0x06,0x22,0x03,0x31,0x04, 0x0f,0x00,0x21,0xfb,0xac,0xfb,0xed,0xfe, // 7536
0xf5,0x02,0x0c,0x01,0x01,0xfd,0xcd,0x05, 0x7a,0x00,0x7d,0xfc,0x0e,0x01,0x58,0xf6, // 7552
0x95,0xfc,0x62,0xfc,0x84,0xfd,0x8d,0x04, 0x41,0x02,0x17,0xf6,0xa4,0x06,0xbe,0x02, // 7568
0x4d,0x02,0x5b,0xff,0xe8,0x02,0x7b,0xfe, 0xa9,0xff,0x9a,0x03,0xb4,0xfc,0xdd,0x00, // 7584
0xb1,0x02,0x3b,0xfd,0x3d,0xff,0x3e,0xff, 0xa7,0x04,0x22,0x02,0xf5,0xf4,0x7c,0xfd, // 7600
0xc6,0x01,0x4a,0xfd,0xe4,0xfb,0x46,0x03, 0xef,0xfb,0xf4,0xfa,0x86,0xfc,0xf7,0x01, // 7616
0x24,0x01,0x2b,0xff,0xed,0x02,0xab,0xf8, 0x8a,0xf9,0x32,0x04,0x27,0xf9,0x7a,0xfc, // 7632
0x4f,0x00,0xc1,0x03,0xe5,0xfb,0x79,0xfd, 0x19,0x07,0xac,0x01,0x7f,0xf7,0xeb,0xfb, // 7648
0xeb,0xfc,0xe1,0x07,0x40,0x01,0x25,0xfd, 0x48,0xf1,0x4c,0x02,0x0d,0x04,0x04,0xfc, // 7664
0x1d,0xf7,0x70,0xfb,0xe4,0xfe,0x47,0x00, 0x10,0xfb,0x06,0xfd,0x89,0x00,0x49,0xfd, // 7680
0x95,0x03,0x74,0x00,0x7f,0x03,0xc8,0xfb, 0x22,0x02,0xc6,0x04,0x4c,0x03,0x7f,0xfc, // 7696
0x35,0xff,0x79,0xff,0x1d,0x08,0xa2,0xfb, 0x36,0xff,0x7a,0xff,0x8f,0xf6,0x7d,0xf6, // 7712
0x4e,0x02,0xcb,0xfb,0xd5,0x01,0x87,0x01, 0xab,0x02,0xba,0xfe,0x59,0xfd,0xc8,0xfe, // 7728
0x79,0x02,0x7e,0xfe,0x0d,0xfd,0x12,0x01, 0x59,0x02,0x41,0xfb,0xf2,0x00,0x9d,0xfb, // 7744
0x74,0xfe,0x68,0xfa,0xfd,0x05,0x58,0x02, 0xad,0x01,0x62,0x01,0x97,0xf8,0x8b,0xfe, // 7760
0xb4,0xfd,0xcb,0xfb,0x1b,0xfe,0x75,0x00, 0xd3,0xf4,0x36,0xf4,0xd7,0xfb,0x59,0x01, // 7776
0x37,0xfe,0x5c,0x00,0xf4,0x02,0x32,0xfb, 0xd5,0xfd,0xfb,0xff,0x3d,0xfe,0xc4,0xfe, // 7792
0x53,0xfb,0xee,0x01,0xec,0xfd,0x44,0xfc, 0x5e,0x01,0xd1,0x06,0x04,0xfe,0xe4,0xfd, // 7808
0x43,0xfd,0xd1,0xff,0x0b,0x05,0xd0,0xfb, 0xbb,0xfb,0xe2,0x00,0xdb,0x01,0x07,0xfd, // 7824
0xec,0xfd,0xf5,0xfc,0x32,0xfd,0x8a,0xfb, 0x64,0xff,0xf6,0x00,0x53,0xff,0x04,0xfa, // 7840
0x84,0xfa,0xf1,0xf6,0x53,0xf7,0x36,0x01, 0xbc,0x03,0x50,0x05,0x5c,0xff,0xd1,0xfd, // 7856
0xea,0xff,0x00,0x02,0xd9,0xfe,0x35,0xff, 0x8a,0xfe,0x0f,0x01,0x80,0x01,0xd2,0x03, // 7872
0xe0,0xf9,0xd4,0xfb,0xc4,0xf7,0xd2,0x01, 0x1b,0xf9,0x7a,0xfd,0xee,0xfd,0x17,0xfd, // 7888
0x63,0x01,0x2e,0xff,0x93,0x01,0x76,0xfb, 0xc6,0x00,0x8f,0x02,0x6b,0xfe,0xe6,0xff, // 7904
0x64,0xfd,0xff,0xfd,0xbb,0xfd,0x79,0xfb, 0x3f,0xfa,0x53,0xf9,0x3e,0x00,0xf9,0x01, // 7920
0xf7,0x01,0x11,0x03,0x2a,0x02,0xf5,0xfa, 0x38,0xff,0x8b,0x02,0x90,0xfa,0x12,0x03, // 7936
0x04,0xf9,0x09,0xff,0x2d,0xfd,0x19,0xfd, 0x33,0xfe,0xb2,0x01,0xe3,0xff,0x49,0xfe, // 7952
0x37,0xff,0xbc,0xfe,0x5f,0x02,0xad,0x02, 0x86,0xff,0xad,0xfd,0xdc,0x04,0xed,0xff, // 7968
0x34,0xfe,0x59,0xfc,0x6e,0xff,0x53,0x02, 0x02,0xfb,0x29,0x01,0xff,0xfc,0x7b,0xfe, // 7984
0x84,0xfd,0xe4,0xfe,0x2f,0xff,0x69,0xfb, 0x00,0xfc,0x08,0xf9,0xf6,0xf4,0x5f,0x01, // 8000
0x4f,0x01,0x64,0x06,0x4f,0x01,0x91,0xff, 0xea,0xfe,0x0b,0x03,0x4f,0xfe,0x30,0xfd, // 8016
0x5d,0xff,0x8b,0x01,0x18,0x00,0xa3,0xfd, 0xdc,0x02,0x2f,0x00,0x0f,0x03,0x05,0xff, // 8032
0xbd,0xff,0xf9,0xff,0xf8,0xfc,0x30,0x04, 0x58,0xfe,0x94,0x00,0xe4,0xf6,0xa0,0x06, // 8048
0x79,0xff,0xab,0xf4,0x06,0xf6,0x17,0xff, 0xd4,0xf9,0x53,0xfe,0xb2,0x02,0xf0,0xf7, // 8064
0x0f,0x02,0x94,0x03,0x6c,0x00,0x27,0x02, 0xf1,0xfd,0xf6,0x00,0x0f,0xff,0x37,0x00, // 8080
0xff,0x00,0xa3,0x06,0x9c,0x00,0x13,0xff, 0x25,0xfb,0x40,0xf8,0x74,0xfa,0x6c,0xfd, // 8096
0x7d,0x02,0xe2,0xf9,0xe3,0xfb,0x69,0x00, 0x20,0xfe,0x19,0x01,0x54,0x07,0x1b,0xf2, // 8112
0x72,0x08,0x84,0x02,0x22,0xfe,0xb3,0x02, 0x0e,0xfe,0xec,0xef,0xf4,0x02,0x4b,0x02, // 8128
0xd9,0x00,0xc3,0xfb,0x7b,0xff,0x91,0xff, 0xfa,0xfe,0x5b,0x00,0x8c,0xf6,0xc0,0xff, // 8144
0xf4,0xfd,0xd2,0xff,0xea,0xff,0x13,0x03, 0x6d,0xfe,0x02,0xff,0xd6,0xfd,0xe9,0xfe, // 8160
0xd5,0xff,0x94,0xf9,0xf1,0xfe,0x60,0x01, 0x46,0xfd,0x8a,0xfa,0xbb,0xfb,0x5c,0x01, // 8176
0x93,0x02,0xb9,0xfe,0x9a,0x03,0xde,0xfc, 0xde,0xf7,0xd7,0x00,0x9b,0xf9,0x2b,0xff, // 8192
0x9a,0xfd,0xb0,0xfe,0x88,0xfb,0xcf,0xf9, 0xde,0x00,0x47,0x02,0xd7,0xfe,0x52,0xf4, // 8208
0x90,0x01,0xe9,0xff,0x60,0xff,0xfe,0xfa, 0x6d,0xee,0x74,0x01,0x10,0xff,0xc4,0xfb, // 8224
0x88,0x00,0xc9,0x00,0x52,0x00,0xa7,0x01, 0x61,0xff,0xe7,0xf6,0x41,0x03,0x67,0xff, // 8240
0x0b,0x01,0x1a,0x00,0x28,0x06,0xcc,0xfe, 0x77,0xf8,0xd7,0xff,0x0e,0xfe,0xa9,0xfc, // 8256
0x88,0x01,0x06,0xfd,0x12,0x02,0x1e,0xf8, 0x98,0xfa,0x82,0x00,0xef,0xfa,0xf1,0x02, // 8272
0x6d,0xf4,0x81,0xf9,0x54,0xfa,0x5a,0xff, 0x5c,0xfd,0xe0,0xff,0xb7,0xfc,0x42,0x00, // 8288
0xca,0xfd,0x83,0xff,0x8e,0x02,0xdf,0x00, 0x19,0x03,0xce,0x01,0xb2,0x03,0x97,0xfe, // 8304
0x1f,0xfc,0xf7,0xfa,0x28,0x07,0xf5,0xfe, 0xc6,0xfd,0xcd,0xf5,0x29,0xfd,0xde,0xff, // 8320
0x5a,0xf8,0xe4,0xfc,0xb5,0x03,0x9f,0xfc, 0x88,0x02,0x76,0xff,0x77,0x01,0x82,0xff, // 8336
0xbd,0xfe,0x30,0x02,0x9d,0x02,0x19,0xf5, 0xf7,0xfa,0x63,0xfe,0xb7,0xfb,0xee,0xfb, // 8352
0x3b,0x05,0x1e,0xfd,0x21,0x00,0xb8,0xff, 0x7f,0xfc,0xb5,0x05,0x84,0xfb,0x88,0xfb, // 8368
0x5a,0xfe,0xd0,0xfe,0x98,0x02,0x41,0xfe, 0xb7,0x03,0xa7,0xfa,0x48,0x01,0xb9,0xff, // 8384
0x2c,0xfb,0x5e,0xff,0xc0,0x02,0x89,0xff, 0x7d,0xfc,0x96,0x02,0x78,0xfa,0x55,0x02, // 8400
0x6f,0xf9,0x83,0xff,0x49,0xfc,0x4c,0xf9, 0xa0,0x01,0xc3,0xff,0x9c,0xf8,0x53,0x02, // 8416
0x81,0x00,0xeb,0xfc,0x8a,0x01,0xdd,0xff, 0x69,0xf7,0x5d,0xfc,0x05,0xfe,0x56,0x04, // 8432
0x4f,0xfc,0xe6,0x02,0x3d,0xfd,0xf1,0xfd, 0xe8,0xf9,0xed,0xff,0x02,0xf9,0x36,0xfe, // 8448
0xbc,0x02,0x71,0xf6,0xb9,0xfe,0x8c,0x00, 0x56,0xf6,0x8a,0xf6,0xb8,0xff,0x92,0xff, // 8464
0x1d,0xfc,0x95,0xfb,0xd7,0xf9,0x84,0x01, 0xe9,0x01,0x55,0xfb,0x53,0xf9,0xc6,0x00, // 8480
0xd0,0x03,0x16,0x04,0xc3,0xfa,0x42,0x01, 0x53,0x01,0xf1,0xf7,0x56,0x05,0xd7,0xf8, // 8496
0x7b,0xff,0x1e,0x02,0x3d,0xf9,0x73,0x06, 0xf9,0xfb,0x22,0xf6,0x38,0xff,0xb3,0x04, // 8512
0xa6,0x00,0x5c,0xfc,0xfc,0xfb,0x9b,0xff, 0x52,0xfc,0x9d,0xfa,0x8e,0xfb,0xb8,0xff, // 8528
0x99,0x02,0x6b,0x06,0x7b,0x05,0x85,0xf1, 0x1a,0x00,0x72,0xf8,0x47,0xf8,0xfd,0xfc, // 8544
0x06,0x07,0xbf,0xfd,0xb6,0xfd,0x4c,0x01, 0x65,0xfe,0x89,0x00,0x1f,0x02,0xf7,0xfe, // 8560
0xec,0xf8,0x1b,0x00,0x2c,0xfe,0xb4,0xf7, 0x4a,0xf8,0x7f,0xfd,0xfb,0x00,0x91,0x02, // 8576
0xdb,0xfe,0xa3,0x00,0x30,0xf9,0xac,0xfe, 0x44,0xff,0x71,0xfc,0xaf,0x05,0xe2,0xf4, // 8592
0xae,0xf5,0xfe,0xff,0x85,0xfa,0x9f,0x03, 0x71,0xfc,0x3a,0xfe,0xf1,0xf7,0x10,0x07, // 8608
0xf7,0xee,0xfd,0xf9,0x08,0xff,0x62,0x01, 0x48,0x02,0x79,0xfc,0xc8,0x01,0xad,0xfb, // 8624
0x7d,0x06,0x59,0x01,0x95,0xff,0x96,0x06, 0x66,0x04,0x2a,0x01,0x01,0xfb,0x7d,0xfc, // 8640
0x13,0xfd,0xcc,0x05,0xc1,0xfb,0xed,0xff, 0xad,0xf8,0x12,0xf8,0x54,0xf7,0x91,0x03, // 8656
0x67,0xfb,0x09,0xfe,0x03,0xf7,0xec,0xfe, 0xbd,0xf9,0x9c,0x05,0x0c,0xfe,0x69,0xfa, // 8672
0x38,0x00,0xff,0x02,0xef,0xfc,0xb8,0xfa, 0x11,0x02,0x91,0xf0,0x2a,0xf9,0x20,0xff, // 8688
0x09,0x02,0x77,0xff,0x96,0x04,0x58,0x03, 0xe2,0xf7,0xb8,0xfd,0x01,0x00,0x71,0xfb, // 8704
0xee,0xfa,0xb5,0x02,0x92,0x00,0x86,0xfa, 0xd4,0x00,0x58,0xfe,0x4b,0xfb,0xa7,0xfc, // 8720
0xbb,0xfc,0x47,0xf8,0xc5,0xfb,0x04,0xfe, 0x7f,0xfe,0xda,0xff,0x41,0xfc,0x8f,0x02, // 8736
0x0e,0x01,0x94,0xfd,0xe6,0xfb,0x56,0xfe, 0xc2,0xf8,0x1f,0xfa,0x68,0x00,0x0a,0xfe, // 8752
0x2d,0x02,0x40,0xfc,0xfb,0x06,0x2d,0xfc, 0x88,0x03,0xea,0x00,0x01,0xfc,0x6a,0xfb, // 8768
0x39,0xf0,0x57,0xfa,0x28,0xf6,0x8f,0xfa, 0x00,0xfa,0x19,0xf7,0x93,0xfc,0xd9,0x01, // 8784
0x95,0xfb,0x9f,0xfd,0xb0,0xf9,0x90,0xfd, 0x26,0xf9,0xd7,0x02,0x5c,0xfd,0xa3,0xf6, // 8800
0x44,0x07,0xe0,0x00,0xd6,0xff,0x32,0xff, 0x48,0xfd,0x41,0xfe,0xc4,0xf5,0xb6,0xf9, // 8816
0x33,0x01,0x7d,0xfd,0x70,0xfe,0x57,0xf8, 0xc0,0xf9,0x47,0xf8,0x57,0xff,0xcc,0x00, // 8832
0x3c,0x01,0xbc,0xfb,0x07,0xef,0x09,0x03, 0x23,0x03,0x89,0xf8,0xb4,0x04,0x51,0x02, // 8848
0x4a,0x06,0xd8,0xf5,0x9c,0xfa,0xbe,0xf9, 0xe1,0xfd,0xaf,0xfc,0x59,0x03,0x76,0x07, // 8864
0x00,0x00,0xaf,0xfe,0x47,0x04,0xa4,0xff, 0x53,0x01,0x68,0x03,0x73,0xfd,0x51,0xff, // 8880
0x84,0xfe,0x01,0xfd,0xc0,0xfd,0x55,0xfa, 0x61,0xf5,0x60,0x02,0x81,0xff,0x77,0x00, // 8896
0xea,0xfb,0x4f,0xfe,0x2b,0x04,0x89,0xff, 0x7a,0x04,0xe0,0x01,0xfd,0x05,0x94,0x02, // 8912
0xa3,0xfe,0x73,0xfb,0xa7,0xfe,0xcf,0x00, 0x45,0xff,0x64,0x01,0x14,0xf6,0xb1,0xfd, // 8928
0x4e,0xfb,0xd3,0xfb,0xd9,0xfa,0x7b,0xfa, 0xd1,0xfb,0xfe,0xfe,0xbe,0x00,0xfc,0xf9, // 8944
0x67,0x04,0xc6,0x00,0x26,0x02,0x4b,0xf9, 0xc5,0xfa,0x7d,0x04,0x3e,0x02,0x3d,0xf7, // 8960
0xe6,0x01,0x10,0xf5,0x3c,0xfe,0xd1,0x03, 0x5f,0xfd,0x2a,0x03,0x9a,0x00,0x91,0x01, // 8976
0x1d,0xfd,0x96,0xff,0x0e,0x03,0x4d,0xfd, 0xdc,0xfa,0x39,0xfe,0xe8,0x02,0x5e,0x03, // 8992
0x09,0xfb,0x90,0xff,0x9d,0xfa,0xa9,0x02, 0x00,0xf9,0x47,0xf8,0xc8,0xfc,0x13,0xfa, // 9008
0x95,0xff,0xff,0x00,0x9d,0x00,0xd5,0xf9, 0x25,0xfd,0xab,0x01,0x1a,0x01,0x1b,0xf1, // 9024
0xe8,0x02,0x2b,0xfe,0x5c,0x03,0xa8,0xf9, 0x31,0x00,0x2c,0xf7,0x0e,0x04,0x81,0x00, // 9040
0x15,0x00,0xdb,0x01,0x26,0x00,0x97,0xfa, 0xcb,0xf9,0x92,0xfb,0x93,0xfa,0xba,0xff, // 9056
0xcf,0xfa,0xd1,0xf4,0xf7,0x04,0x95,0x01, 0x71,0xfa,0x97,0xfb,0x14,0xfe,0xf1,0x00, // 9072
0xc4,0xf9,0x10,0x04,0x3c,0x01,0x59,0xfc, 0x9d,0x03,0x2c,0x02,0x45,0x02,0x8c,0xfc, // 9088
0xe4,0xf7,0x3c,0xfc,0x24,0xff,0xd3,0x00, 0x6e,0x04,0x8b,0x02,0xcd,0xfa,0xaa,0xf8, // 9104
0x49,0xfd,0xc0,0xfc,0xd5,0xf9,0x28,0xfe, 0x75,0x02,0xed,0xff,0xcb,0xf6,0xa3,0x02, // 9120
0xca,0xfe,0xab,0x05,0x67,0xfe,0x65,0x00, 0x21,0xfd,0x78,0xff,0x47,0xf9,0x48,0xf4, // 9136
0xf7,0x00,0xd7,0xfd,0x85,0x02,0xe6,0x05, 0x02,0x04,0x15,0xfe,0x60,0xff,0x6a,0x04, // 9152
0x81,0xfe,0xfa,0xf8,0x40,0x05,0x6c,0xfe, 0x6b,0x03,0x88,0xfe,0x3c,0x02,0x99,0x02, // 9168
0x9b,0xff,0x9a,0xff,0x3b,0x01,0x7c,0x06, 0x3b,0xfc,0xe3,0x00,0xe0,0xff,0x2a,0xff, // 9184
0xa5,0x04,0x3d,0xff,0xbb,0x00,0x77,0x0a, 0x96,0x03,0x2a,0xfe,0x74,0x04,0x28,0x01, // 9200
0xc8,0x00,0x09,0x03,0x78,0x07,0xbc,0x02, 0xff,0xff,0xb7,0x00,0x9c,0xff,0xf0,0x02, // 9216
0xf1,0x00,0xc3,0xfd,0x17,0xff,0xb9,0xfa, 0xec,0xfb,0x67,0x07,0x2e,0x00,0x48,0xfe, // 9232
0x3c,0x01,0xec,0xfe,0x58,0x02,0x90,0xfa, 0x70,0x01,0xdc,0x02,0xf6,0x06,0x4d,0xfc, // 9248
0x6e,0xfd,0xe6,0xfb,0x57,0xff,0x40,0xfc, 0xfa,0x00,0x12,0x01,0x45,0xfd,0x83,0x01, // 9264
0x53,0x03,0x3f,0xf4,0x68,0xf7,0x5a,0xf5, 0xab,0x03,0xa0,0x07,0xc7,0xf9,0x38,0x00, // 9280
0x79,0xf9,0x23,0x00,0xa3,0xf7,0x15,0xfa, 0xef,0xfd,0x4f,0xfc,0x1c,0xfb,0x9e,0x01, // 9296
0x28,0x01,0xcb,0xfd,0x3d,0x00,0x2c,0x02, 0x67,0xfb,0xae,0xfb,0x01,0x00,0x10,0x01, // 9312
0xe9,0x01,0x4b,0xfe,0x25,0x04,0xfe,0xf9, 0x8a,0x00,0x81,0xfa,0xe9,0x00,0x62,0x03, // 9328
0xcf,0x00,0x31,0x05,0x60,0x02,0x15,0x00, 0x60,0xff,0xae,0x00,0x9a,0x00,0xbf,0xf9, // 9344
0x24,0xfe,0xc6,0xf8,0x24,0xfb,0x9e,0xfc, 0x8a,0x08,0xb0,0xff,0x0b,0x01,0xfb,0x01, // 9360
0x51,0x01,0x1d,0xf4,0x1c,0xfd,0x76,0x01, 0x01,0xfb,0x98,0x05,0xce,0xff,0xe2,0xfc, // 9376
0x3b,0xfa,0xed,0x00,0xff,0xff,0xe3,0x06, 0x4a,0xfe,0x7b,0x00,0x63,0xfe,0xc3,0xfe, // 9392
0x4c,0xfd,0x63,0x00,0xc2,0xfe,0x53,0xfe, 0x3f,0xfe,0x27,0x01,0xd9,0xfe,0xd7,0x00, // 9408
0x80,0x03,0xe3,0xff,0xd5,0x00,0x3b,0x02, 0xbd,0xfa,0xd0,0xfe,0xac,0xff,0x26,0xf6, // 9424
0xfc,0xfa,0xc1,0xf7,0x15,0x02,0x1b,0xf0, 0x49,0xfa,0x3c,0xff,0x46,0xf7,0xf9,0xfd, // 9440
0xd1,0x01,0x00,0x03,0x76,0x02,0x3a,0x04, 0x03,0xfb,0x9d,0x03,0xd9,0xfd,0x22,0xff, // 9456
0xf6,0xff,0xd5,0x01,0x6f,0xfd,0x4b,0xfb, 0x47,0x04,0x84,0x02,0x71,0xfb,0xfd,0xfd, // 9472
0xcd,0x04,0x5f,0xfe,0xd5,0xf7,0x0b,0x04, 0xba,0xfe,0xf0,0x03,0x64,0xf1,0x31,0x00, // 9488
0xd6,0xf4,0xa8,0xfb,0xe4,0xf5,0x98,0x02, 0x1a,0xfe,0x35,0xff,0x61,0x00,0x22,0xfb, // 9504
0x66,0xff,0x64,0x09,0xba,0x00,0x06,0xf9, 0xbf,0x02,0x6e,0xff,0xab,0x03,0x20,0xfd, // 9520
0x49,0x02,0x87,0xf1,0x20,0xfc,0xe8,0x02, 0x7b,0xfe,0x43,0x02,0x1c,0xff,0x58,0x02, // 9536
0xfa,0xff,0x64,0x00,0x05,0x00,0x58,0xf1, 0x3c,0xff,0x22,0x03,0xc2,0xff,0xa6,0x02, // 9552
0x37,0x00,0x6a,0xfb,0xaa,0xfe,0x90,0x02, 0x1d,0x00,0x23,0xf8,0xf5,0xf9,0xa5,0xfe, // 9568
0xbe,0xfc,0x56,0x05,0x88,0xff,0x27,0xfc, 0x25,0x05,0xcd,0x02,0xc2,0x03,0xcc,0x00, // 9584
0xfc,0x05,0x43,0xff,0xba,0xff,0x42,0xfa, 0x5b,0x01,0x1e,0xfc,0xf4,0x09,0xe3,0x04, // 9600
0x62,0x01,0x9b,0x04,0xd9,0x02,0x61,0xf8, 0xf0,0xfb,0x7b,0xf6,0xad,0xf6,0xa1,0xfd, // 9616
0x1e,0xfb,0x7f,0xfd,0xeb,0x01,0x74,0x00, 0xa9,0xfe,0x8c,0xfe,0x86,0xfe,0x45,0xfc, // 9632
0xa1,0xf1,0x33,0x02,0x95,0x00,0x70,0xff, 0x88,0x04,0xe9,0x00,0x91,0x01,0x35,0x00, // 9648
0x8a,0x00,0x30,0xf8,0x20,0xf9,0x69,0x01, 0x99,0x03,0x91,0xff,0x3d,0xfc,0x60,0xfb, // 9664
0xe7,0xf5,0x01,0xf6,0x1f,0x02,0xcf,0xff, 0xaf,0xfb,0xb9,0x02,0x3a,0xff,0x78,0xff, // 9680
0xb2,0x00,0xd8,0xfd,0xe4,0x01,0xce,0xfe, 0x18,0x06,0x7b,0xfb,0x2a,0xf8,0x98,0xf2, // 9696
0x33,0x00,0xbd,0x05,0x22,0x02,0x27,0x03, 0xfa,0x03,0xe5,0xfe,0x8d,0x01,0x0a,0x02, // 9712
0x59,0x04,0x9e,0xfe,0x43,0xf6,0x99,0x05, 0x21,0x01,0x28,0xfb,0xfd,0xff,0x91,0xff, // 9728
0x25,0xfd,0x07,0xf8,0xe2,0xfd,0x4a,0xff, 0x5f,0xfd,0x55,0xfd,0x98,0xfd,0x14,0xfa, // 9744
0xeb,0x00,0x31,0x02,0xb3,0x08,0xe5,0xff, 0xe2,0xff,0x08,0xff,0x3e,0xfb,0x79,0xfd, // 9760
0x02,0x03,0xd5,0x03,0x2f,0xff,0x20,0x00, 0xfd,0xfb,0x39,0xff,0xb3,0x02,0x75,0x02, // 9776
0xf8,0xfb,0x54,0x01,0x60,0x00,0x83,0xfd, 0x55,0x03,0xfa,0xfc,0x0b,0x00,0xad,0x00, // 9792
0x14,0x05,0xca,0x00,0x04,0xfc,0x2d,0xff, 0xb4,0xfc,0xf1,0xf7,0x8c,0xfc,0x46,0x00, // 9808
0xc9,0x00,0x60,0x02,0xa3,0x04,0xfa,0x01, 0xce,0xff,0x47,0x01,0x86,0xfa,0x75,0xff, // 9824
0xf1,0xfe,0xda,0xff,0x31,0x03,0x04,0x00, 0x37,0xfb,0x38,0xfd,0x4d,0xfc,0x77,0xff, // 9840
0x3c,0x00,0x15,0xfd,0xa9,0x07,0xa0,0xfd, 0x55,0xfa,0x84,0x00,0x58,0xfe,0x50,0x03, // 9856
0x08,0x06,0x77,0xff,0x68,0x02,0x81,0xfa, 0x04,0x05,0xaa,0xff,0x25,0x06,0x74,0xfe, // 9872
0x4e,0x01,0x60,0x00,0x77,0x01,0xe6,0x01, 0xd2,0xfd,0x27,0xff,0xa1,0x04,0xfb,0xff, // 9888
0x36,0xff,0xdd,0xff,0x03,0xfc,0x8c,0x04, 0x96,0xf5,0xe1,0xfc,0xa2,0x03,0x6b,0xfe, // 9904
0x83,0x01,0x07,0x05,0xe6,0x00,0x52,0xfe, 0xd0,0xff,0x6a,0x03,0x3d,0x02,0x05,0xfe, // 9920
0x45,0x01,0x1f,0x04,0xad,0x04,0x69,0xfd, 0xd3,0xfe,0x0a,0x06,0x24,0xfe,0x8b,0x03, // 9936
0xbd,0xff,0x59,0x04,0xc3,0xfa,0x78,0xfb, 0xa0,0xfc,0x98,0xff,0x4e,0xfc,0x1a,0xff, // 9952
0x5d,0xfd,0x1d,0xfd,0xf0,0xfc,0xf6,0x02, 0x67,0xfc,0x5f,0xff,0x45,0xfe,0x26,0xfe, // 9968
0x90,0x08,0x8f,0xf9,0xae,0xfd,0xd3,0xfb, 0xb7,0x00,0xc6,0x00,0x44,0x03,0xdc,0x03, // 9984
0xd6,0xfa,0x5b,0xff,0x5a,0xff,0xef,0xfc, 0xde,0xfc,0xd6,0xfc,0x65,0xff,0x60,0xfe, // 10000
0x85,0xfa,0xfb,0x02,0xea,0xfe,0x44,0x03, 0x49,0x01,0xcb,0x03,0x54,0x01,0x77,0xfa, // 10016
0x08,0x00,0x02,0xfe,0xf2,0x00,0x41,0xfb, 0x87,0xfd,0x9d,0x01,0x6c,0xff,0x05,0xfb, // 10032
0xfd,0x00,0x22,0x01,0x1a,0x00,0x5d,0xff, 0xd0,0x01,0x45,0x03,0x86,0xfd,0xef,0xfc, // 10048
0x01,0x00,0x6e,0xfc,0x10,0xfc,0xf6,0xfc, 0x05,0xfa,0x3a,0xfb,0xd0,0xfe,0xf3,0x00, // 10064
0x24,0xfd,0xf7,0x02,0x11,0xfc,0xc3,0x01, 0xc5,0x00,0x79,0x02,0xec,0xfc,0xe1,0xfb, // 10080
0x12,0xfa,0x7d,0x04,0x54,0x00,0x04,0xff, 0xd3,0x00,0x9f,0x01,0x97,0xff,0xb2,0x02, // 10096
0x32,0xfd,0xd3,0xfe,0x08,0xf9,0xd9,0xfe, 0x5a,0xfa,0x9b,0xfb,0x8d,0xff,0xcd,0x02, // 10112
0x56,0xfe,0x9f,0x03,0xd5,0xfc,0x34,0xfc, 0x84,0xfc,0xde,0xfe,0xd1,0xff,0x05,0x00, // 10128
0x8a,0x03,0x79,0x00,0x7a,0xff,0xc0,0xff, 0xeb,0x01,0x59,0x02,0x01,0xfb,0x8d,0x00, // 10144
0x57,0xff,0x79,0xfb,0x4b,0x01,0x7b,0x02, 0xb8,0x04,0x47,0xff,0xa2,0xfe,0x35,0xff, // 10160
0x10,0x02,0xcc,0x02,0x5c,0xfc,0x95,0xfc, 0x0b,0xfd,0x0a,0x06,0xbe,0xfc,0xdc,0xfd, // 10176
0x00,0x04,0x43,0x01,0x2a,0x00,0x11,0xfb, 0x52,0xfe,0xb3,0xfd,0x37,0x00,0x73,0x02, // 10192
0x43,0xff,0xea,0xfd,0x69,0xfe,0x1b,0x03, 0x85,0x02,0x84,0xfd,0x4c,0x03,0xa6,0x02, // 10208
0xef,0x03,0xc9,0xfc,0x8f,0xfb,0x47,0xf9, 0xf4,0x01,0xe0,0x02,0x8d,0x02,0xb2,0xff, // 10224
0xbd,0xff,0x72,0xfd,0xb1,0x03,0x52,0xff, 0x36,0x05,0x0d,0xff,0xe1,0xfb,0x2a,0xfc, // 10240
0xa5,0xf8,0xd9,0x02,0xf1,0xff,0x90,0xfd, 0xac,0xfb,0x94,0x01,0x4e,0x03,0xa4,0x07, // 10256
0x78,0x00,0x31,0xff,0xc3,0xfc,0xca,0x01, 0x03,0x05,0x0b,0xf8,0xf3,0xf6,0xa8,0xfe, // 10272
0xfa,0x04,0xb8,0xfe,0xfc,0xfb,0x3d,0x01, 0xde,0xf2,0xe0,0xfc,0xea,0xff,0xe7,0x03, // 10288
0x43,0xff,0xe1,0x02,0x2a,0x01,0x81,0xfc, 0x62,0x02,0x20,0xfe,0x4d,0xf6,0xf2,0xfa, // 10304
0x41,0xfe,0x0b,0xfc,0x8d,0xfb,0x07,0xf9, 0x3a,0x00,0xd3,0xfc,0x40,0x01,0xdf,0x02, // 10320
0x55,0xfe,0xb5,0xfd,0x5e,0x01,0x6f,0xfd, 0xe5,0xfa,0x5f,0x00,0x95,0xfe,0x3a,0x00, // 10336
0x86,0xfd,0x6e,0xff,0xfa,0x01,0xd7,0xfd, 0xc6,0xf9,0xc8,0xff,0x8f,0xfa,0x08,0x01, // 10352
0xd8,0xfa,0x6b,0xf8,0xbc,0xf6,0x4b,0x03, 0xff,0xf6,0xb5,0xfe,0x88,0x04,0x96,0xf5, // 10368
0x69,0x02,0xa8,0xfd,0x81,0xfb,0x55,0xff, 0xff,0xfd,0xe7,0x05,0x92,0x03,0x18,0x01, // 10384
0xbf,0xfd,0xba,0xfd,0x80,0xfe,0x1d,0x03, 0x84,0xf7,0x47,0x00,0xe3,0x04,0x3c,0xf7, // 10400
0xf7,0xfb,0x7d,0x04,0x3c,0xfa,0x94,0xfa, 0x11,0x02,0x69,0xf9,0x03,0xf5,0xe9,0xfc, // 10416
0xe5,0xfd,0x2a,0xf3,0x9a,0xf5,0x69,0x00, 0x1d,0x01,0x1b,0xf9,0x2b,0x02,0x9b,0xf0, // 10432
0x38,0x01,0x10,0xfc,0x82,0xfd,0x7e,0xfa, 0xbb,0xfd,0xb1,0xf9,0xa4,0xfa,0x37,0xff, // 10448
0x79,0x00,0x99,0xfb,0x3b,0x00,0x4f,0xfa, 0xea,0xff,0x5e,0xfc,0xcd,0xeb,0xcc,0x00, // 10464
0x46,0x05,0x06,0xf3,0x81,0x04,0xcb,0x01, 0x48,0xff,0xd3,0xfb,0xc8,0xf0,0x37,0x02, // 10480
0x88,0xff,0x0c,0x00,0x4d,0xf4,0x65,0x00, 0x86,0x00,0x10,0xfd,0xfb,0xf8,0xc9,0xfb, // 10496
0x10,0xfc,0x34,0xf9,0x00,0xfa,0x0b,0xfd, 0x78,0xfd,0x75,0xfa,0x1e,0x03,0x70,0xff, // 10512
0xb9,0x02,0x48,0x04,0xc3,0xfc,0x9d,0x01, 0x48,0xf7,0x64,0x00,0xbd,0xef,0x08,0xe3, // 10528
0x22,0x00,0x70,0x01,0xc3,0xff,0xb2,0x02, 0x0e,0x01,0xc6,0x02,0x51,0xed,0x77,0x00, // 10544
0x76,0xf8,0xb3,0x05,0x3d,0xfc,0x48,0x01, 0x28,0xfd,0x7f,0x00,0x62,0x04,0x1d,0xff, // 10560
0x1a,0x01,0xa1,0x01,0xc6,0xff,0xd7,0x01, 0xf3,0xfc,0xc6,0x03,0x13,0xfe,0xbd,0xf7, // 10576
0xbb,0x08,0x82,0x01,0x92,0x01,0x0b,0x05, 0x35,0x01,0xf5,0xfc,0xed,0x04,0x3e,0xfc, // 10592
0xc0,0x06,0xd6,0xfc,0x5a,0x01,0xfd,0xfa, 0xe5,0xfe,0xcd,0xf7,0x4d,0x03,0xb6,0x01, // 10608
0x9d,0x09,0xa4,0xff,0xab,0x08,0xd2,0x00, 0xa4,0x01,0xa0,0x07,0xe6,0xfe,0x20,0xff, // 10624
0x8c,0xfd,0xc5,0x01,0x49,0xfe,0xb1,0xfb, 0xf3,0x00,0x61,0x01,0x00,0xff,0xcb,0x07, // 10640
0xb8,0x00,0xbc,0x01,0x54,0x05,0x4d,0x01, 0xa9,0x02,0x87,0x01,0x55,0xfe,0xf6,0xfb, // 10656
0x5a,0xff,0xd9,0x00,0x98,0xfc,0x9a,0xfc, 0xc7,0x10,0xe4,0x01,0x49,0x01,0x3c,0x05, // 10672
0xc1,0x01,0x5d,0x00,0x5e,0xff,0x65,0xf8, 0x1b,0x03,0xef,0xff,0x38,0x02,0xfd,0x02, // 10688
0x67,0xfe,0x17,0x08,0x68,0x01,0x0f,0xff, 0x19,0xff,0x41,0xfe,0xb0,0xfd,0x33,0x00, // 10704
0xbe,0x06,0xee,0x02,0xae,0xfc,0xee,0xfe, 0x0f,0x07,0xe0,0x01,0x62,0x01,0x12,0x06, // 10720
0x3e,0x02,0x32,0x01,0xd1,0xff,0x55,0x01, 0xd1,0x01,0xd9,0xfb,0x61,0x03,0x35,0xfc, // 10736
0x9c,0x01,0x5c,0x00,0xd5,0xfb,0x3c,0xf5, 0x47,0xfe,0xb1,0x00,0xb9,0x06,0xee,0x01, // 10752
0x0c,0x00,0x00,0x00,0x3f,0xf7,0x58,0x00, 0x56,0xf7,0x93,0x01,0x23,0xff,0xc5,0xff, // 10768
0xa4,0xf5,0x69,0xfa,0x2a,0x02,0xfe,0x0a, 0x91,0xff,0x2f,0x01,0xe4,0xfc,0x13,0x09, // 10784
0x29,0xfe,0x1c,0x05,0x5c,0xf9,0xba,0x02, 0x17,0xfa,0xb5,0x00,0x3e,0x01,0xd0,0x00, // 10800
0x13,0x01,0x85,0xff,0xf1,0xff,0x45,0x03, 0x4a,0xf5,0x4c,0xfe,0x34,0x01,0x1f,0x01, // 10816
0xac,0xff,0x11,0xfd,0xb3,0xfd,0xf6,0x01, 0x0b,0x02,0x57,0xff,0xd0,0x02,0xa3,0x01, // 10832
0x60,0xff,0x56,0x05,0x03,0x01,0x5d,0x05, 0xa2,0x02,0x52,0xfe,0x28,0xfc,0x68,0xfe, // 10848
0xb1,0x00,0x6a,0x01,0xce,0xff,0xaf,0x02, 0x77,0xfa,0x1f,0xf8,0xe0,0xff,0x6c,0x04, // 10864
0xa5,0x00,0x9f,0x03,0x88,0xf6,0xd6,0xff, 0x31,0xf9,0xfa,0x03,0xdf,0xfd,0x61,0xf9, // 10880
0xae,0xf5,0x52,0x00,0x36,0x01,0xe8,0x01, 0xb2,0xff,0x9e,0x01,0x98,0x02,0x3c,0xfd, // 10896
0x96,0xfc,0xeb,0x01,0x08,0xfd,0x62,0xfe, 0xf9,0x03,0x2c,0xfe,0x7d,0xfc,0xa2,0xff, // 10912
0x6e,0xfb,0x98,0xfd,0x43,0x02,0x10,0xfe, 0x59,0x01,0x20,0x01,0x30,0xfe,0x5d,0x06, // 10928
0xdf,0x00,0x5a,0x03,0x75,0x02,0xc4,0x01, 0xae,0xf4,0x79,0x04,0x07,0x00,0x5d,0xff, // 10944
0x9f,0x01,0x67,0x01,0xc0,0x04,0x32,0x03, 0xfc,0x02,0xb6,0x02,0xba,0x00,0x40,0xff, // 10960
0x36,0x01,0x4a,0xfe,0xde,0x0a,0xf9,0x02, 0x23,0x00,0x41,0xfb,0x73,0x04,0xf7,0x00, // 10976
0x50,0x03,0xf2,0x01,0x0f,0x03,0x21,0x00, 0xe2,0xfe,0xe2,0x00,0xf7,0xfd,0x2b,0xfd, // 10992
0x23,0x01,0xf8,0x04,0x0f,0xfd,0x98,0xff, 0x16,0x00,0x7c,0xfc,0x4f,0x02,0xaf,0x01, // 11008
0x46,0x00,0x20,0xfd,0xa2,0x03,0xcc,0x00, 0x6f,0x00,0x05,0xfd,0xf2,0xff,0x82,0x01, // 11024
0x61,0x01,0xa2,0x0e,0xaf,0xff,0x9a,0xff, 0x30,0x00,0x27,0x01,0x3a,0x01,0x14,0xf8, // 11040
0x04,0xfb,0x5f,0x00,0xa5,0xff,0x9e,0xf6, 0x02,0x00,0xc5,0xfc,0x1d,0xfe,0xc1,0x03, // 11056
0xd5,0x03,0x9d,0xff,0xd3,0x00,0x8f,0xfd, 0x64,0xff,0x5d,0xfe,0xe9,0xfe,0xf1,0xfd, // 11072
0x38,0x01,0xb5,0xfd,0xce,0xf1,0xce,0x05, 0x72,0x00,0xb1,0xff,0x93,0x01,0x05,0x02, // 11088
0xa9,0x00,0x85,0x02,0xc3,0xff,0x9f,0x01, 0xef,0x00,0x65,0xfe,0xf0,0xff,0x51,0x09, // 11104
0x0f,0x03,0xf6,0xf8,0x2e,0x04,0x61,0xf8, 0x4f,0x00,0x57,0xfe,0x30,0x00,0xf3,0x03, // 11120
0x44,0x00,0x79,0xfc,0x5f,0xff,0x69,0xfe, 0x8b,0xfd,0xd7,0x00,0x31,0xfe,0xcd,0xfe, // 11136
0x82,0xf6,0x22,0x02,0x1b,0xff,0x6d,0xfb, 0xbe,0xfd,0x4c,0xff,0xd7,0xff,0xf6,0x02, // 11152
0x2a,0x02,0x89,0xfc,0xd5,0x00,0xca,0xff, 0x45,0xfe,0xd8,0xfe,0x49,0xf7,0x47,0xfb, // 11168
0xbd,0xf4,0xc7,0xfe,0xb5,0xff,0x78,0xf9, 0x07,0x03,0x4e,0xff,0x87,0xff,0x69,0xf9, // 11184
0x8d,0xff,0x0f,0xf7,0xf9,0x02,0x84,0x03, 0x08,0xf2,0x61,0xf9,0x8a,0xfb,0xbc,0xfc, // 11200
0xe7,0xfe,0xc9,0xfe,0x96,0xfa,0xf2,0xff, 0xea,0xfd,0x11,0x03,0x49,0xfe,0x77,0xfe, // 11216
0x84,0x00,0xdf,0x05,0xfa,0xf8,0x44,0xfd, 0x33,0xfe,0xfb,0xff,0xeb,0x01,0xbb,0x01, // 11232
0x93,0xff,0x6f,0xfa,0x28,0x00,0xc2,0xfd, 0x27,0xfb,0x5f,0x01,0x04,0xff,0x45,0xfb, // 11248
0x5b,0x04,0xfe,0xfd,0x63,0xff,0xeb,0xfd, 0x1c,0x02,0x53,0xfd,0x3c,0x03,0x79,0xfe, // 11264
0x47,0x00,0x0b,0x00,0xdc,0xfd,0xb5,0xfe, 0xb0,0x05,0xae,0x00,0x57,0x00,0x0d,0xfd, // 11280
0x90,0x01,0x24,0xf9,0xdd,0xfd,0x91,0x00, 0x81,0x01,0xfd,0xf6,0x63,0x01,0x9b,0x02, // 11296
0x10,0xfe,0x52,0xff,0xcd,0x02,0x18,0x01, 0x95,0xfc,0xcd,0x00,0xb5,0x01,0x6c,0xfc, // 11312
0xb3,0xf7,0xcf,0x02,0x99,0x00,0x6b,0x00, 0x4b,0x01,0x1c,0x01,0xc0,0x01,0x1c,0x00, // 11328
0xdb,0xfb,0x96,0xfe,0x3b,0x01,0x46,0x01, 0x67,0x01,0x8b,0x01,0x51,0xf6,0x24,0xf6, // 11344
0xd0,0xfa,0x36,0xfb,0x55,0xfe,0x85,0xfd, 0x07,0x02,0x08,0x01,0xaf,0xff,0x3a,0xff, // 11360
0xa3,0xfb,0xbf,0xfe,0xae,0x03,0x01,0xfd, 0xa9,0xfb,0xa6,0xfb,0xbf,0xff,0xb2,0xfb, // 11376
0xca,0x02,0x3b,0xfc,0x5b,0x01,0xf3,0xfd, 0xcb,0x00,0xb2,0xfa,0xeb,0x01,0x80,0xf6, // 11392
0x62,0xf7,0x41,0x01,0x12,0x01,0x6f,0xfc, 0x91,0x00,0x52,0x00,0xd5,0x00,0x7b,0xfa, // 11408
0x7b,0xf7,0x13,0x02,0x0d,0xfc,0xa6,0xfe, 0xb0,0xfb,0xf5,0x00,0x95,0x03,0xce,0x00, // 11424
0x47,0x00,0x7e,0xfc,0xd9,0xf9,0x33,0x00, 0x50,0x02,0x0b,0x05,0x0c,0xfa,0x2f,0xfd, // 11440
0x98,0xf9,0x54,0xfe,0x08,0xfe,0x5b,0xfc, 0x90,0xf8,0x8d,0xff,0xba,0xfd,0x36,0xfa, // 11456
0x45,0x01,0x47,0xff,0xa9,0xfe,0x52,0xfb, 0x6a,0xf4,0x67,0xfd,0x41,0x02,0x0e,0xff, // 11472
0xba,0xfa,0x94,0xfd,0x67,0x04,0x33,0xfd, 0x2c,0xfd,0x87,0x00,0xb3,0xff,0xb7,0x00, // 11488
0x43,0xfe,0xc7,0x00,0x03,0xfe,0x62,0xfe, 0xeb,0x00,0xb4,0x00,0x46,0xfb,0xcb,0x00, // 11504
0xf9,0xf7,0x23,0x01,0xcf,0xfc,0x6d,0x00, 0x42,0x03,0x51,0x00,0x61,0x00,0xd7,0xf9, // 11520
0x24,0xfd,0x2a,0xf5,0x3d,0xfa,0x1e,0x02, 0x46,0x05,0x96,0xfe,0xe2,0x02,0x0a,0x03, // 11536
0x20,0xff,0x8b,0x00,0xf2,0x01,0x13,0x01, 0xf1,0x01,0x48,0xfd,0xe5,0x00,0x02,0x01, // 11552
0x85,0xfa,0xca,0xfa,0xb4,0x00,0x7e,0xfb, 0xd5,0xfd,0x56,0x0a,0xae,0xfd,0xf2,0x00, // 11568
0xbc,0xfd,0x17,0xff,0xd0,0x01,0x78,0xf6, 0xf9,0x00,0xdb,0x00,0xa5,0xfc,0x2b,0x02, // 11584
0x50,0xfb,0x69,0xfc,0x83,0xfc,0xdb,0x03, 0xa0,0xfd,0x17,0xff,0x5d,0xfc,0x1c,0x01, // 11600
0x23,0xfb,0x17,0x03,0x92,0x04,0x08,0x00, 0x02,0xfe,0xfc,0xf7,0x80,0xff,0x8f,0xf8, // 11616
0xd4,0xfc,0x23,0xfc,0x02,0x04,0x56,0xf7, 0x32,0x01,0x37,0xf9,0x44,0xff,0x71,0x02, // 11632
0x1c,0xfa,0xf5,0x01,0x57,0x02,0x57,0x05, 0x77,0xfb,0xec,0xfe,0x27,0x01,0x09,0x00, // 11648
0x93,0xfd,0x42,0xfa,0x62,0xfb,0x74,0xf9, 0xe8,0xfd,0xcf,0xfc,0xb9,0x00,0xb1,0xfb, // 11664
0x79,0x01,0xaf,0xf9,0xe7,0x01,0x9e,0xf8, 0xc7,0xfb,0x27,0xf9,0xaf,0xfc,0xa3,0x04, // 11680
0x0d,0xf6,0x15,0xfc,0x70,0xff,0xc7,0xfb, 0x6b,0xff,0x3c,0x02,0xaa,0x03,0x3b,0xfc, // 11696
0x39,0xff,0xe3,0xfe,0xfb,0xfe,0x50,0xfd, 0xc1,0xfc,0x34,0xfa,0x08,0xf8,0xb8,0xf6, // 11712
0x68,0xff,0x4f,0x00,0x23,0xf8,0x20,0x01, 0xbc,0xf9,0x7a,0x01,0xf2,0xf8,0xe1,0x01, // 11728
0x1c,0xff,0x63,0x02,0x43,0x03,0xb8,0xfe, 0x5f,0xfd,0x6d,0xfa,0xc3,0x01,0x46,0x02, // 11744
0x4a,0xfa,0xfb,0xfe,0x0f,0x04,0x27,0xff, 0x63,0xfc,0x6b,0x05,0x31,0xf3,0x1e,0x03, // 11760
0xa1,0xf6,0xe2,0xfe,0xd9,0x00,0xf5,0xfa, 0xbf,0xff,0xe7,0xff,0xf4,0xf4,0xd9,0x01, // 11776
0x92,0x00,0x2f,0xf9,0xcf,0xfe,0x58,0xff, 0xe0,0xfd,0xb3,0x04,0x69,0xfb,0xbf,0x05, // 11792
0x8a,0xfa,0x00,0x04,0x6f,0xfe,0x1d,0xfe, 0x3d,0xf9,0x4b,0x01,0xa9,0xfc,0x69,0xfe, // 11808
0xdb,0xff,0xfc,0x02,0xbb,0xfb,0x28,0xfb, 0x00,0xf7,0x28,0xf8,0xd4,0xff,0x5d,0xff, // 11824
0x4a,0xfa,0x2d,0xfc,0x33,0xfc,0x9a,0xf6, 0x7d,0xfd,0x4d,0xfa,0xc9,0xec,0xd6,0xfe, // 11840
0xc0,0xfc,0x28,0x06,0x59,0xfb,0xa3,0x00, 0x14,0x02,0x73,0xf9,0x88,0x00,0xb8,0xf9, // 11856
0x2c,0x03,0x8a,0xf8,0x1b,0xf5,0x89,0x01, 0x3e,0xfd,0xc9,0xf5,0xda,0x04,0x20,0x06, // 11872
0x8c,0xfb,0x6c,0xfa,0x60,0xfa,0xec,0x01, 0xdb,0xfb,0xc0,0xf8,0xe6,0xff,0x98,0xff, // 11888
0x1a,0x02,0x9a,0x02,0xab,0x06,0x22,0xfe, 0x70,0x04,0xc4,0xfc,0xe6,0x01,0x80,0xfd, // 11904
0x53,0x05,0x38,0xfc,0xb9,0x00,0xba,0x01, 0x7b,0x04,0x61,0x03,0x53,0x03,0x5c,0x00, // 11920
0xc0,0xfc,0x94,0xfe,0x05,0xfc,0x37,0xf4, 0xf7,0xf5,0xde,0xf9,0x4f,0x00,0xd8,0xfc, // 11936
0x9f,0x03,0x6f,0x01,0x82,0xf8,0x94,0x02, 0x6b,0x01,0x0d,0xf9,0x61,0x05,0x65,0xff, // 11952
0x7f,0x07,0xf0,0xff,0x51,0x00,0x53,0xfe, 0x41,0x00,0x00,0xf9,0x31,0xfe,0xa6,0x03, // 11968
0x62,0xfd,0x22,0x09,0x01,0x02,0x52,0x02, 0x7e,0xfe,0xb9,0x02,0xab,0xff,0x32,0xfc, // 11984
0x28,0x01,0x93,0xfb,0x30,0xfb,0xc8,0x04, 0x5f,0xfc,0x76,0x00,0xa6,0x00,0xad,0xfe, // 12000
0x73,0xfc,0x62,0x01,0x68,0x01,0xed,0xff, 0x07,0xff,0x82,0xfe,0xc2,0xff,0x36,0xfb, // 12016
0x93,0x01,0xe5,0xf8,0x70,0xfe,0x1e,0xf7, 0xb9,0xff,0x2a,0xff,0xa4,0x05,0xb6,0xff, // 12032
0x55,0xfe,0x25,0x04,0x5b,0xff,0x45,0xfb, 0x16,0x01,0x69,0x01,0x03,0x02,0x2b,0x01, // 12048
0x24,0xf7,0x09,0x00,0xb8,0xff,0xe4,0xfd, 0x0e,0x00,0x6f,0xfa,0xab,0x00,0x92,0x01, // 12064
0xd2,0xf7,0x4d,0xf9,0x0e,0xff,0x89,0xfd, 0xe4,0x02,0x3a,0x00,0xce,0x04,0x31,0x04, // 12080
0x56,0xfd,0xc8,0xfd,0x26,0xff,0x57,0xf9, 0xee,0xfe,0x49,0xfe,0x2e,0xfa,0xea,0xf9, // 12096
0x68,0xfd,0x0f,0x01,0xd2,0xfe,0x7f,0x04, 0x35,0xfb,0xf2,0xfd,0x8b,0xfc,0xdf,0x00, // 12112
0x1f,0xfc,0x1e,0xfd,0x0d,0x01,0x0e,0xfc, 0x49,0x03,0xdb,0x06,0x1d,0x00,0x4a,0x00, // 12128
0x83,0xfb,0xd9,0xfe,0xb7,0xfe,0x70,0x00, 0x78,0x01,0xe8,0xff,0x79,0x03,0xeb,0x04, // 12144
0xe5,0x02,0xac,0xfb,0x94,0xfb,0xfe,0x00, 0xb4,0xfd,0x2d,0xfa,0xb9,0x03,0x62,0xff, // 12160
0x4d,0xfd,0x92,0xff,0xc5,0x01,0x2f,0xfb, 0x9c,0x05,0x88,0xfd,0xff,0xff,0xaf,0xf8, // 12176
0xd9,0x00,0x2d,0x00,0xa6,0xf8,0xcc,0xfc, 0xb8,0x02,0x94,0xfa,0x8d,0x03,0x29,0xfd, // 12192
0x6e,0xfe,0xac,0x00,0x0a,0x03,0x11,0xfe, 0x4b,0xff,0x04,0x02,0x29,0x00,0x5e,0x00, // 12208
0x3c,0xf9,0x44,0x03,0x20,0xfc,0x00,0x05, 0xbd,0x01,0x15,0x03,0xc1,0xfe,0xd4,0x01, // 12224
0xf2,0x01,0x5b,0xf9,0x30,0x01,0x9c,0x01, 0x38,0x01,0x9e,0xff,0x9f,0x00,0xf3,0xfa, // 12240
0xfa,0xfb,0xe8,0xfb,0xfd,0xff,0x46,0xfc, 0xa6,0x00,0x5c,0xf4,0xeb,0xfe,0xda,0x04, // 12256
0x44,0x00,0x23,0x02,0x02,0x00,0x35,0xfd, 0x17,0xff,0x53,0x00,0xb8,0xf5,0x8d,0x01, // 12272
0x63,0x01,0x95,0xfd,0xe6,0xf8,0x32,0x04, 0x8d,0xf8,0x9b,0x02,0x12,0x07,0xc6,0x01, // 12288
0x61,0xfd,0x45,0xfc,0xb9,0x02,0x7e,0xfd, 0xb6,0x00,0x4a,0xfb,0xac,0xff,0x11,0xfa, // 12304
0x91,0xf7,0x7e,0xf3,0xc7,0x01,0xde,0xff, 0xaa,0xfd,0x5f,0xfd,0xc5,0xf7,0x95,0xfa, // 12320
0xed,0xf4,0xf1,0x00,0xe1,0x01,0x02,0x02, 0x90,0xfe,0x98,0xf9,0x13,0xfd,0x81,0xfe, // 12336
0xe2,0xff,0x6a,0x04,0x99,0xfb,0x03,0x00, 0x85,0xfe,0x90,0xfd,0x39,0x00,0x69,0xfd, // 12352
0x9a,0x00,0x8f,0xfd,0x68,0x02,0x11,0xfd, 0x20,0xf3,0x4d,0xf9,0xd3,0xfb,0x19,0xf5, // 12368
0x15,0xf8,0x83,0xfd,0xa0,0xfc,0xec,0xfa, 0xe1,0xff,0xfa,0xf5,0x5f,0xfd,0xab,0x00, // 12384
0x9a,0xfa,0x24,0xf9,0xd3,0xff,0xcd,0xff, 0x9b,0xfb,0x3c,0xf6,0x1b,0x01,0x6b,0xfb, // 12400
0xf6,0x00,0xd8,0xfe,0x58,0xff,0x34,0xff, 0x86,0x00,0xe6,0xff,0x2b,0xff,0x94,0xf9, // 12416
0x08,0x00,0x5b,0xfe,0xc0,0xfe,0xf2,0xfe, 0x2c,0x02,0x67,0xff,0x87,0xf5,0x9f,0x00, // 12432
0xa8,0x00,0xe2,0xfe,0xf1,0x03,0xf7,0x02, 0x60,0x01,0xe0,0xfd,0xa6,0x02,0xbf,0x00, // 12448
0x91,0x01,0x5e,0x0a,0x95,0x02,0x6f,0xf7, 0xce,0xf7,0xad,0xf8,0x05,0xfa,0xcf,0xfc, // 12464
0x7f,0xfc,0xa1,0xf8,0x4b,0x01,0xc3,0x00, 0xc9,0xfa,0x33,0x03,0x47,0xfd,0xb0,0x05, // 12480
0xc9,0xf3,0xb5,0xfd,0x06,0xfe,0x93,0xfc, 0x6a,0x02,0x0d,0x04,0x28,0x00,0xfe,0xfd, // 12496
0x8c,0xfa,0x0c,0x01,0xee,0xfe,0x84,0xfb, 0xf2,0x01,0x01,0xfa,0xc1,0x05,0x7a,0xf1, // 12512
0x01,0xf6,0x5e,0x02,0x0d,0xf6,0x11,0x01, 0x85,0xfe,0x22,0x02,0x2f,0xf9,0xa7,0x0c, // 12528
0xb1,0xf1,0xc3,0x07,0xcc,0xff,0xa4,0xff, 0x6a,0x00,0x7e,0x00,0x2d,0xfd,0x97,0xfc, // 12544
0xcb,0x05,0xd0,0x01,0x64,0xff,0xae,0x01, 0x18,0x03,0xe6,0x02,0x2c,0xfa,0x26,0xfe, // 12560
0x42,0xfe,0x34,0x07,0xe2,0xf4,0xfc,0x01, 0xd2,0xf8,0xbc,0xf9,0x92,0xfb,0x95,0xfd, // 12576
0x7d,0xf9,0xdb,0xfb,0xac,0xfb,0x29,0xff, 0x8e,0xfd,0xc4,0x03,0x02,0x03,0x45,0xfd, // 12592
0x14,0x04,0x61,0x00,0xd7,0x00,0x5e,0xf8, 0x09,0xff,0x85,0xf1,0x67,0xfb,0x50,0x03, // 12608
0x0a,0x00,0xa5,0x01,0xe9,0xfe,0xc5,0xfe, 0x76,0xfb,0xb0,0xfe,0x9c,0x00,0xd8,0xf3, // 12624
0xc3,0xff,0xe5,0x02,0xf3,0x01,0xa5,0xfc, 0x09,0x00,0x31,0xfd,0xa4,0xf9,0x43,0xfd, // 12640
0xa1,0x03,0xfe,0xfa,0x52,0xfd,0x37,0x06, 0x70,0xfd,0xcc,0x05,0x08,0x04,0xe7,0xfc, // 12656
0xfb,0x02,0xae,0x00,0x5b,0xfe,0x0e,0x01, 0x18,0x00,0x9d,0xfe,0x01,0xfc,0xea,0xfa, // 12672
0x71,0x00,0xa4,0xfd,0x42,0x0d,0x9b,0x03, 0xf3,0x01,0x83,0x02,0xde,0xfd,0x56,0xfd, // 12688
0x71,0xea,0xe7,0xf8,0xa3,0xf5,0xb5,0xfb, 0x54,0xfa,0x7d,0xf6,0x85,0xff,0x26,0xfb, // 12704
0x3a,0xfe,0xa8,0xfd,0x6a,0xfd,0x18,0xfe, 0x6e,0xf4,0xe1,0x02,0xf2,0x00,0x4a,0xfd, // 12720
0x9d,0x0a,0x29,0x00,0x69,0x04,0xe2,0x00, 0x28,0xf8,0x6c,0xfe,0x32,0xfa,0x82,0xfb, // 12736
0x8d,0x02,0x97,0xf7,0xe3,0x01,0x9f,0xf9, 0x59,0xf6,0xde,0xf5,0x5b,0xff,0xab,0x01, // 12752
0xca,0xfd,0xc6,0xff,0x19,0xfb,0xd7,0xfd, 0x46,0xff,0x00,0x00,0xac,0xff,0x1a,0xff, // 12768
0x80,0x02,0xab,0xfb,0x2f,0xf5,0xf2,0xf2, 0xb4,0x01,0xe6,0xff,0x89,0xff,0x79,0x03, // 12784
0xcb,0x03,0x44,0xfa,0xf1,0xf3,0x68,0xfd, 0x7f,0xff,0xa9,0xfa,0x01,0xfb,0xa7,0xfc, // 12800
0x6d,0xf7,0x88,0xfe,0x18,0x03,0xab,0x05, 0x1a,0x02,0x00,0x02,0x01,0x01,0x01,0xfa, // 12816
0x75,0xff,0x38,0x04,0x44,0xf7,0x54,0x00, 0x31,0xf0,0x8a,0xf9,0xa3,0xf9,0x6c,0xf8, // 12832
0xb0,0xfc,0x45,0xff,0xc9,0xfe,0xc0,0x00, 0x1e,0xfd,0xa8,0x03,0xaf,0xfd,0xf3,0xff, // 12848
0x1a,0xff,0x4b,0x00,0xa0,0xfc,0x1e,0x00, 0xce,0xf9,0x5f,0xfd,0x50,0xfb,0xc6,0xfb, // 12864
0xba,0xf7,0x5b,0x02,0x64,0xfe,0x77,0xff, 0x36,0xfd,0xde,0x00,0x7d,0xf6,0x5f,0x06, // 12880
0xad,0xf8,0x28,0x01,0x5e,0x00,0xf8,0xfa, 0xba,0x02,0x81,0xfd,0x37,0xf0,0x4c,0x02, // 12896
0xfc,0xfe,0x3b,0xfe,0xba,0xff,0x6e,0xfe, 0x16,0xf9,0xbb,0x04,0xd3,0xf9,0xd2,0x0f, // 12912
0x42,0xfa,0xe7,0x03,0x4a,0xff,0x0b,0xfa, 0xa4,0xf9,0x3b,0x06,0xb7,0xf6,0xfc,0xf8, // 12928
0xbb,0x04,0x81,0xf9,0x69,0xfe,0x4c,0xfd, 0x17,0xf8,0x50,0xf7,0xa6,0xff,0xda,0xff, // 12944
0xc8,0x01,0x7a,0xf3,0x86,0xfe,0x6d,0xe8, 0x8c,0x00,0x48,0xff,0x23,0xf1,0x6b,0xff, // 12960
0xa5,0xfa,0x17,0xfe,0x19,0xf8,0x87,0x05, 0x43,0xff,0xd2,0xfd,0x5d,0x01,0x4c,0xfe, // 12976
0x77,0x00,0x93,0xf1,0x06,0xf6,0xdc,0x04, 0xd4,0xfd,0x38,0xf6,0xe9,0x00,0x0d,0xfc, // 12992
0x26,0xfb,0x43,0xfc,0x34,0xf2,0xf5,0xff, 0xc8,0xfc,0xb1,0xf4,0x8f,0xf9,0xcc,0xff, // 13008
0x13,0x00,0x0f,0x00,0xa0,0xf7,0xea,0x00, 0xc5,0xf9,0x01,0xfb,0xd9,0xf9,0x17,0xff, // 13024
0xca,0x04,0x3c,0xfc,0xde,0xff,0xbe,0x02, 0xf6,0xff,0x3d,0xff,0x3a,0xfd,0xb2,0x01, // 13040
0x27,0xf8,0x27,0xf6,0xad,0xee,0x86,0xe9, 0x92,0xf9,0x48,0xfb,0x76,0xff,0x2a,0x09, // 13056
0xf1,0xfd,0x7e,0x00,0x2f,0xf3,0x26,0xff, 0x0b,0xff,0xfa,0xfa,0xf8,0xfc,0xff,0x03, // 13072
0x01,0xfe,0x0b,0xf6,0xdb,0x00,0xda,0xf9, 0x9e,0xfd,0x2f,0xfd,0x51,0x00,0x08,0xfc, // 13088
0x46,0x00,0x74,0xfb,0x59,0x01,0xb3,0x01, 0x01,0x00,0xcb,0xfd,0xfa,0x02,0x59,0xfa, // 13104
0x12,0x02,0xb6,0xfe,0x08,0xf7,0x38,0x02, 0x6a,0xfa,0x41,0xff,0x71,0x01,0x38,0xfd, // 13120
0x14,0xff,0x96,0x03,0x33,0x0b,0xe9,0xfd, 0xaf,0xfa,0xe8,0xff,0x1f,0x04,0xd6,0xf8, // 13136
0x40,0xfd,0xb2,0xff,0x95,0x00,0xe4,0xfe, 0xad,0xfa,0x74,0x01,0x43,0xfb,0x6c,0xfe, // 13152
0xba,0xfd,0x2a,0xff,0xba,0xfe,0x86,0x04, 0xf8,0xfa,0x01,0x02,0x6c,0xfc,0xfb,0xf5, // 13168
0x79,0xff,0xf2,0x00,0xcd,0xf7,0x3a,0xfb, 0x5a,0xfc,0xa6,0x05,0xbf,0xfe,0x92,0x01, // 13184
0xc1,0xfc,0xc1,0x00,0x5b,0x00,0x8a,0xff, 0x26,0xfd,0x8d,0x01,0xa6,0xfe,0x60,0xfd, // 13200
0xd4,0x01,0xf0,0x00,0x31,0xf8,0xf2,0xf5, 0xfe,0x00,0xe8,0xf7,0xd7,0x01,0x6f,0xff, // 13216
0xce,0xf9,0x98,0xfa,0xc6,0xfa,0xca,0x01, 0x5e,0xfd,0x3e,0xfa,0xb0,0xff,0xae,0x03, // 13232
0xc2,0xff,0x0c,0xfa,0xa0,0x01,0xd1,0xfa, 0xcb,0x02,0x6d,0xfe,0xe1,0xff,0x43,0xfc, // 13248
0xa4,0xfe,0x08,0x01,0xcd,0xfd,0x9b,0xf6, 0x68,0xfd,0xb0,0xfe,0xce,0x00,0x71,0xff, // 13264
0xc9,0xf9,0xff,0xf8,0x87,0x00,0x8c,0xff, 0xea,0xff,0xd2,0xfb,0x79,0xff,0xfa,0xfd, // 13280
0x17,0xfe,0x94,0xf6,0x9d,0x04,0x24,0xff, 0x74,0xff,0xbd,0x05,0xb2,0x01,0x3a,0x00, // 13296
0x92,0xfd,0xc1,0xf9,0x45,0x00,0x70,0xfd, 0x90,0xfd,0x6b,0xf9,0x17,0x02,0x47,0xfe, // 13312
0x73,0x00,0x6a,0xfe,0xba,0xff,0x31,0x02, 0x90,0xfd,0x82,0xfd,0xe7,0x03,0x81,0x02, // 13328
0x97,0xff,0xbb,0xf6,0x7a,0xff,0x2e,0xfe, 0x66,0xfd,0x67,0x01,0xe8,0xfb,0x3e,0x04, // 13344
0x22,0xf6,0xf6,0xfa,0x0f,0x04,0x08,0xf4, 0x35,0xfd,0xcc,0xff,0x51,0xff,0x07,0x01, // 13360
0xa0,0x02,0x0b,0x05,0x72,0x00,0x1c,0x02, 0xee,0xf2,0xd0,0xf4,0x55,0xfe,0xf6,0xf6, // 13376
0xd9,0x03,0x17,0x01,0x61,0x00,0x53,0x00, 0x92,0x01,0xdf,0x04,0x49,0xff,0xae,0xf7, // 13392
0x80,0xfb,0x22,0x02,0xb9,0xfc,0x12,0xfd, 0xd1,0xfe,0x6c,0x01,0xb9,0xfc,0x19,0xfe, // 13408
0xc6,0xf3,0x65,0x00,0x1a,0xf8,0xa0,0x0a, 0xc6,0x00,0x10,0xf8,0x01,0x00,0x12,0xfd, // 13424
0xba,0x00,0x07,0xfc,0x23,0x02,0x4e,0xfa, 0x59,0x02,0xb4,0x03,0xb7,0x00,0x0c,0xfd, // 13440
0x14,0xfe,0x0d,0x00,0x89,0xfe,0xcb,0x02, 0x35,0x05,0x3d,0xfe,0xb9,0x00,0xf7,0x05, // 13456
0x33,0x01,0x8d,0xfb,0x5f,0xfa,0x02,0xf7, 0xcc,0x0c,0x7e,0x00,0xaf,0x03,0x9a,0xfb, // 13472
0xb6,0xfc,0x16,0xff,0xa3,0xf9,0xd4,0xf9, 0x6f,0xff,0xf7,0xfe,0x51,0xfc,0x88,0xf7, // 13488
0xc3,0xfc,0xcc,0xff,0x7f,0x03,0x46,0x02, 0x13,0x00,0x65,0xfd,0x2b,0xff,0x16,0x01, // 13504
0xb6,0xff,0xb8,0xfb,0x34,0x01,0xee,0xfe, 0x22,0xfa,0xed,0x01,0xdc,0xff,0x66,0xfc, // 13520
0x87,0xfc,0xe5,0x01,0xd3,0x04,0x11,0x00, 0xf9,0xff,0x01,0xfd,0x48,0x00,0xd6,0x00, // 13536
0x1e,0xff,0x46,0xff,0x1f,0xfe,0x1c,0xfc, 0x55,0x04,0xb3,0xff,0x69,0xfc,0x75,0xfd, // 13552
0xcc,0xf9,0x20,0x03,0xd0,0xfc,0x26,0x01, 0xe7,0x04,0x7e,0xff,0xb4,0x03,0xc4,0xff, // 13568
0xf3,0xfd,0x14,0xf4,0x6b,0xff,0xfc,0x03, 0x47,0x01,0xab,0xff,0xb9,0xfc,0x1c,0x0b, // 13584
0xf3,0xff,0x30,0xfa,0xac,0xfc,0x09,0x04, 0x7e,0xfc,0xe5,0x00,0xd8,0x00,0xc5,0x03, // 13600
0xae,0x04,0x63,0xff,0x3c,0x01,0x0f,0x02, 0x74,0x08,0xcc,0x02,0x41,0x00,0xdb,0xf7, // 13616
0xf0,0x02,0xd8,0xff,0xf3,0xfe,0x8d,0x00, 0x4f,0xfd,0xaa,0xf7,0xfb,0x02,0x30,0x02, // 13632
0xa4,0xfa,0xc3,0x00,0xca,0xff,0x5d,0x00, 0x3d,0xfc,0x3e,0xfb,0x38,0x03,0x1a,0xf9, // 13648
0x06,0x08,0x63,0xfa,0x98,0xfe,0xe4,0x00, 0xa6,0xf8,0x54,0xff,0x92,0xfe,0x89,0x02, // 13664
0xef,0xfb,0xea,0xfe,0xb6,0x02,0x77,0x03, 0x75,0x03,0xc1,0x04,0x27,0x00,0x46,0xff, // 13680
0x26,0x01,0x24,0x02,0xca,0xfc,0x02,0x03, 0x28,0x00,0x83,0x01,0xfb,0xf6,0x17,0x00, // 13696
0xb0,0xfb,0xed,0xfe,0x21,0xf9,0xe0,0x00, 0x99,0x03,0x55,0xfb,0xbd,0x07,0xab,0x00, // 13712
0x19,0x03,0x3a,0x03,0x27,0x00,0xac,0xfb, 0xed,0xfd,0x61,0x00,0xd2,0x03,0x02,0x07, // 13728
0x54,0xf9,0x89,0xfd,0xc4,0xfe,0xa6,0xf0, 0xb2,0x04,0xd8,0xfb,0x75,0xff,0xb5,0xff, // 13744
0xc5,0xfb,0xf8,0x01,0x41,0xfc,0x37,0x02, 0xdd,0x07,0x8e,0xff,0x36,0x00,0xa5,0xf3, // 13760
0xe5,0xf9,0xbd,0xfd,0x5a,0x01,0x87,0x00, 0xde,0x01,0xb8,0xff,0xe7,0xfe,0x84,0x01, // 13776
0x9b,0xff,0xd7,0xfd,0xba,0x01,0x86,0xfb, 0x1c,0xfe,0xa1,0xf9,0x61,0x00,0xc8,0x03, // 13792
0x86,0x04,0x3b,0xfe,0xbd,0xfe,0x62,0xfe, 0xb6,0xfb,0x88,0x01,0xaf,0xff,0xc5,0xff, // 13808
0x41,0x00,0xd4,0xf8,0xe6,0xfa,0x61,0xfe, 0x46,0x03,0x6d,0x02,0x0b,0x02,0x2d,0xfb, // 13824
0xce,0x03,0x2b,0x01,0x03,0xfd,0x19,0xfd, 0x86,0x07,0x12,0x00,0xe0,0xff,0x5f,0x00, // 13840
0x83,0xf8,0x2d,0xfd,0xf4,0xfd,0x48,0xfc, 0x17,0xfd,0x35,0xfe,0x9f,0x04,0xe7,0xfd, // 13856
0x7d,0xff,0x2b,0xfe,0x6d,0xfe,0xae,0xfe, 0x26,0x01,0xe6,0x02,0xbc,0xfe,0xb7,0x03, // 13872
0x24,0xfc,0x9c,0xfe,0x9e,0xfa,0x9c,0x03, 0xac,0xfd,0xdd,0x02,0x7a,0x00,0x08,0x01, // 13888
0x26,0xfc,0xfd,0x01,0x95,0x01,0x51,0x02, 0xba,0x05,0x84,0xf7,0xfc,0xfd,0xa9,0xf9, // 13904
0xbe,0x01,0x6e,0x06,0x9c,0x00,0x60,0xfb, 0xd6,0x00,0x33,0x01,0xaa,0x06,0x63,0xf9, // 13920
0x75,0xfc,0x35,0x02,0xb0,0x03,0xbb,0xfc, 0x8a,0xff,0x39,0xff,0x4d,0x04,0x96,0xff, // 13936
0x29,0x01,0xea,0x01,0x28,0xfc,0x74,0xfa, 0x26,0x02,0x41,0xf5,0xae,0xff,0xa2,0xfd, // 13952
0x28,0xfe,0xa5,0xf3,0xf9,0xfd,0x16,0xfe, 0xc3,0x01,0x5b,0xfc,0x42,0x01,0xcb,0x01, // 13968
0xf6,0xff,0x2e,0x01,0x89,0x01,0xd1,0xfb, 0x3e,0x01,0xeb,0xfb,0x84,0x03,0xb4,0x02, // 13984
0xb7,0xf5,0x04,0x04,0x0a,0x01,0x0d,0x01, 0x11,0xf9,0x46,0x00,0xd9,0xfc,0x6b,0x02, // 14000
0x4b,0xfd,0xda,0x02,0xa9,0x02,0x8e,0xf7, 0xf4,0xff,0x0e,0xff,0xe0,0xfe,0xd7,0xfe, // 14016
0x86,0x01,0xfc,0xff,0x32,0x01,0x8d,0x03, 0x44,0xf8,0x4c,0x02,0x24,0xff,0xaf,0x03, // 14032
0xf1,0xf4,0x6b,0xfd,0x1c,0x06,0x0e,0xfb, 0x8c,0x03,0xbb,0xfe,0x48,0xfd,0x2e,0x04, // 14048
0x06,0xfe,0x87,0xf6,0xc3,0xfc,0xc9,0xfb, 0xc1,0xf4,0x6a,0xff,0xfd,0xfb,0x83,0x00, // 14064
0xe2,0xf8,0xcd,0x05,0xcc,0xf7,0xe8,0xfc, 0x53,0xff,0x31,0xf9,0x88,0x02,0x00,0xf9, // 14080
0x13,0x01,0x68,0x03,0xf8,0xfb,0x10,0xfb, 0x4e,0x02,0x6e,0xfd,0x17,0x02,0x15,0xfd, // 14096
0x8a,0x05,0x8a,0xfe,0x78,0xfe,0x04,0xfe, 0x03,0xff,0x47,0xfd,0x4d,0xff,0x8e,0x02, // 14112
0xf0,0xfa,0xac,0xf6,0xb7,0xfe,0x8b,0x01, 0xfc,0xf7,0xaf,0x02,0x80,0xff,0x89,0x00, // 14128
0xb6,0x00,0xcd,0x00,0x1a,0x04,0x67,0xf7, 0xb9,0xff,0x2c,0x01,0x26,0xfd,0x2e,0xf9, // 14144
0x8c,0x01,0xc8,0x02,0x42,0x04,0xea,0xfb, 0x43,0xff,0xa7,0x05,0x77,0x01,0x2a,0xfe, // 14160
0x3a,0x00,0xe5,0xfe,0xe1,0xff,0x55,0xfd, 0x26,0xf9,0xfa,0xf7,0x36,0xfd,0xae,0xfe, // 14176
0x1d,0xff,0x39,0x07,0xf0,0xfd,0xfd,0x00, 0xe1,0xfd,0xcc,0xf7,0x90,0x02,0xbf,0xf8, // 14192
0x7f,0xfe,0x5c,0xfe,0x08,0xfa,0x68,0x07, 0x25,0x00,0x2f,0x08,0x3f,0x01,0x7b,0x06, // 14208
0x39,0xf5,0xa6,0xf9,0xae,0xfe,0x14,0xff, 0xe1,0xff,0xcb,0x01,0x61,0xfe,0x1d,0xf5, // 14224
0xbf,0x05,0x4e,0x00,0x2f,0x00,0x04,0xf9, 0x6e,0x02,0x08,0x02,0x0c,0xfc,0xd7,0x01, // 14240
0xa4,0xf9,0x33,0x06,0xc3,0xfa,0x29,0xfa, 0xdb,0xf3,0xae,0xfd,0x93,0xf9,0xc2,0xfd, // 14256
0x0a,0x03,0xfa,0xfb,0xb3,0xfb,0x45,0xf7, 0xff,0x00,0x70,0x05,0xe7,0xfe,0x38,0xf9, // 14272
0xa0,0xfe,0xa2,0x00,0xe1,0x01,0x14,0xfb, 0xc0,0x03,0xa1,0xfa,0x02,0xf7,0xdc,0x01, // 14288
0x97,0x00,0xbb,0x06,0x27,0x01,0x71,0xfe, 0x96,0x02,0xcd,0xfa,0x37,0x01,0x11,0xf9, // 14304
0x61,0xfc,0xc4,0x03,0x6e,0xff,0x5d,0x01, 0x1d,0xfc,0x78,0xfc,0x8f,0xfc,0x01,0x03, // 14320
0x1f,0xf8,0xf5,0xfe,0x6a,0xfa,0x69,0xf8, 0x86,0xfc,0xfe,0x03,0xc0,0xfc,0x37,0xfd, // 14336
0xe0,0x02,0xa3,0x03,0x26,0x00,0xd1,0xff, 0x0c,0x02,0x60,0xfa,0x6a,0x03,0x37,0xfc, // 14352
0x21,0x00,0x55,0xff,0x66,0x03,0xbf,0x04, 0x24,0xff,0xc4,0x00,0xf0,0x07,0x70,0xf7, // 14368
0xf9,0xf8,0x6c,0xfa,0x07,0xfd,0xf1,0x02, 0xe1,0xfc,0x5c,0xfc,0xd3,0x00,0x3c,0xfe, // 14384
0xfa,0x02,0x54,0xfa,0xe6,0xfb,0xc6,0xfb, 0xec,0xf3,0xb7,0xfd,0x47,0xfd,0xa0,0xff, // 14400
0xf3,0x01,0x94,0x01,0xae,0x04,0xfa,0x00, 0x6e,0x01,0x0e,0x00,0x72,0xfa,0x06,0x00, // 14416
0x60,0xfd,0xb4,0xfe,0xd1,0xfd,0x6a,0x00, 0xf2,0xf9,0xc2,0xf4,0x0c,0xff,0x40,0x00, // 14432
0x9e,0xfd,0x76,0xfe,0xf2,0xfa,0x7b,0xfd, 0x9f,0x03,0x06,0x01,0x54,0x01,0xcb,0xfe, // 14448
0x9d,0x08,0x7c,0x02,0x09,0xf2,0x01,0xf7, 0x3c,0x01,0xa1,0x00,0x5a,0xfe,0x29,0x03, // 14464
0xad,0x00,0x13,0xf9,0x22,0xff,0xfb,0x01, 0xd6,0x02,0xd2,0xf5,0x36,0xfd,0xc7,0xfc, // 14480
0x97,0xff,0x0a,0xfe,0x8c,0xfd,0x81,0xfd, 0x9c,0xff,0x5a,0xff,0x16,0xfa,0x58,0x05, // 14496
0x38,0xff,0x04,0x04,0xd1,0x02,0xb6,0xfe, 0x13,0x03,0x50,0xf3,0xff,0xfd,0x82,0x03, // 14512
0xd2,0xfb,0x87,0xfc,0xa3,0x01,0xb8,0xff, 0xde,0xfa,0xce,0x02,0x7c,0x06,0x41,0xfa, // 14528
0xaf,0xfd,0x9f,0xfc,0x08,0x01,0x68,0xf8, 0x67,0x03,0x30,0x02,0x6e,0x00,0x7a,0x02, // 14544
0x96,0xfb,0x67,0x03,0xac,0xfd,0x57,0x01, 0x15,0xf5,0xe8,0xf6,0xf9,0xfe,0x48,0xfd, // 14560
0x68,0x00,0x1d,0x04,0xda,0xf8,0xbe,0xf8, 0xc3,0x00,0xd8,0xfd,0x5c,0xf6,0x6c,0xfe, // 14576
0xc0,0x00,0xe8,0x02,0x67,0xff,0x34,0xfe, 0xca,0xf7,0x7d,0xfd,0xa6,0xfd,0x51,0x05, // 14592
0xb0,0xf7,0xae,0xfb,0x54,0xfd,0x74,0xf9, 0xaf,0xfd,0x2d,0x00,0x1f,0xf5,0xc2,0xfb, // 14608
0xb1,0xfc,0xd3,0x01,0x69,0xf5,0xd4,0xf6, 0x6a,0xf4,0x55,0xfe,0x09,0xfe,0x40,0xff, // 14624
0x2f,0xfc,0xf2,0xf1,0x59,0x00,0xae,0x02, 0xc0,0xfa,0xc9,0xf7,0xcf,0x02,0xaf,0xff, // 14640
0xaa,0x01,0x29,0x02,0xf1,0xfc,0xdc,0xff, 0x0e,0x02,0x28,0xfa,0xf2,0xff,0xd0,0xf8, // 14656
0x72,0x04,0x3b,0x01,0x9a,0x04,0x3e,0xfd, 0x06,0xfb,0x75,0xf2,0xe7,0x04,0xcf,0x06, // 14672
0xf0,0x00,0xf0,0xf9,0xaa,0x03,0x24,0x02, 0x36,0x03,0xed,0xf5,0x03,0xff,0xe7,0xff, // 14688
0xc0,0xfc,0xf7,0x05,0x0a,0x01,0x02,0xfb, 0x81,0xfc,0xfb,0xf7,0x07,0xf8,0xd7,0xf8, // 14704
0x8e,0xfc,0x8e,0xf8,0xf6,0x00,0x76,0x00, 0x56,0xf9,0x96,0xfd,0x50,0x02,0x18,0x05, // 14720
0xce,0xfe,0xa3,0xfc,0xcf,0xfe,0x28,0x01, 0x14,0xfa,0xf1,0xf8,0x4b,0x00,0xbe,0x01, // 14736
0x50,0xf6,0xa9,0x04,0x28,0x08,0xe8,0xfb, 0xd1,0xff,0xa8,0x00,0xed,0xfa,0x0e,0xfe, // 14752
0x6f,0x03,0x88,0x00,0xd2,0xff,0x19,0xf6, 0x6f,0xf8,0xd6,0x04,0x5a,0x02,0xeb,0xf9, // 14768
0x2a,0xfc,0x3e,0xff,0xf3,0x00,0x58,0xf9, 0xe6,0x01,0x89,0xfc,0x7e,0xfb,0xcd,0xfd, // 14784
0x08,0xfa,0x17,0xfd,0x3e,0x02,0x1f,0xfe, 0x95,0x06,0xd3,0xf0,0xbf,0x00,0x67,0x00, // 14800
0x8c,0xfc,0xa2,0xfb,0x78,0x00,0x03,0x05, 0x91,0xff,0xe8,0xff,0x83,0x02,0x2e,0x06, // 14816
0xcc,0x02,0x42,0xff,0x8a,0x03,0x6b,0x04, 0x0a,0xfc,0x8e,0x00,0xeb,0xfc,0xde,0x01, // 14832
0x55,0x01,0x36,0xfa,0xd7,0xf5,0x54,0xfc, 0x26,0xf9,0xf8,0x00,0xf6,0x05,0xb2,0xf3, // 14848
0x65,0x02,0x79,0x04,0x31,0x00,0xe9,0xfe, 0xb5,0xfc,0xe4,0x01,0x2a,0x02,0xec,0xff, // 14864
0x50,0x02,0x8e,0x01,0x1c,0x01,0x90,0x02, 0x1d,0xf9,0x47,0x00,0xd6,0x00,0x12,0x01, // 14880
0x43,0x05,0x98,0x00,0x3b,0xfe,0xe6,0xfd, 0xe4,0x00,0xdd,0xfe,0x7e,0xfc,0x3a,0xfe, // 14896
0x3f,0xfb,0x22,0xfc,0xba,0xec,0x9d,0x03, 0x7d,0xfa,0xe6,0x01,0xa9,0xf9,0xfd,0xfe, // 14912
0x66,0xff,0x8f,0xfd,0x17,0xfd,0xaf,0x00, 0xa6,0xfd,0x1c,0xf5,0x96,0xfb,0xf0,0xfc, // 14928
0x05,0xff,0x49,0xff,0xb7,0x04,0x8a,0xfd, 0xea,0x02,0x3c,0x01,0x60,0xf2,0x4e,0x07, // 14944
0x55,0x02,0xeb,0xfc,0x5d,0x02,0x6b,0x05, 0x87,0xfc,0x20,0xfc,0xf6,0xf5,0x80,0xff, // 14960
0x3e,0xfa,0xe3,0x00,0x42,0xf3,0x09,0x03, 0x9a,0x01,0xe0,0x02,0x28,0xff,0x4e,0xfd, // 14976
0x23,0x03,0x59,0x03,0xa7,0x01,0xb0,0x06, 0x96,0xfc,0x33,0xfe,0x86,0x03,0xdf,0xfc, // 14992
0xa9,0x02,0x99,0x09,0xb8,0xfd,0x9d,0xff, 0xe7,0x02,0x0c,0x00,0x35,0xf9,0x57,0xfa, // 15008
0xd8,0x00,0x69,0x01,0x89,0xfc,0x59,0x00, 0x07,0xf5,0x16,0x09,0x72,0xf0,0x2e,0xf9, // 15024
0x09,0x00,0x0b,0xf7,0xc6,0x03,0xdf,0xff, 0x36,0xfd,0xdf,0xff,0xa9,0x02,0x4a,0xfd, // 15040
0xd2,0xfe,0x2c,0xfc,0x27,0x03,0x8a,0x05, 0x76,0x01,0x4b,0x00,0xb0,0xfe,0x96,0x02, // 15056
0xa3,0xff,0x1e,0xff,0x74,0x03,0x6c,0xfc, 0xe6,0x03,0x78,0xfb,0xfb,0xff,0xb4,0xfe, // 15072
0x90,0xfe,0x23,0xff,0x15,0xfe,0x83,0x00, 0x23,0xf9,0x04,0x08,0xfa,0x03,0xf4,0xf6, // 15088
0x65,0xfb,0x5e,0x02,0x92,0xfc,0x45,0xf9, 0x39,0xfd,0x50,0xf9,0x0d,0x03,0xd8,0xf8, // 15104
0xb9,0xfa,0x77,0xfb,0xb8,0x0a,0xb6,0xfb, 0x61,0xf4,0xd8,0xfe,0xc0,0x00,0x3d,0x00, // 15120
0x3c,0x00,0x99,0xfd,0xcd,0xf9,0xb3,0x01, 0xb7,0xff,0x64,0xfe,0x4e,0xff,0x3f,0xfc, // 15136
0x93,0xfe,0x84,0xfd,0x84,0xf9,0x88,0x01, 0xd2,0xfa,0x37,0xfe,0x7e,0xff,0x2c,0x01, // 15152
0xca,0x01,0x7b,0xff,0xf9,0xfc,0x25,0x04, 0x7c,0xfb,0x68,0xf9,0x4a,0x00,0xc1,0xfa, // 15168
0x4c,0x00,0x3c,0xf7,0x93,0xf9,0x31,0x00, 0x1e,0x00,0xeb,0x00,0xb8,0x01,0xb6,0x00, // 15184
0xa3,0xfd,0x47,0x00,0x7f,0xf8,0x45,0xfd, 0x48,0x01,0x53,0xfd,0xdd,0x02,0xae,0xf6, // 15200
0x50,0x04,0x09,0xfd,0x51,0xf9,0x94,0x00, 0x6a,0x01,0x48,0xfb,0xfd,0xfd,0xea,0xfd, // 15216
0x25,0xff,0xd7,0x00,0x7b,0xfe,0x51,0x00, 0x6b,0x05,0xdc,0xfb,0xdd,0x03,0x7d,0xff, // 15232
0x1f,0x00,0x2e,0xff,0xa1,0x02,0x8e,0x01, 0x50,0x02,0xed,0xfd,0x5e,0x00,0x5a,0xff, // 15248
0xa4,0xff,0xbc,0x06,0xed,0x02,0x23,0x02, 0x17,0x01,0xbb,0xfe,0x76,0xff,0xed,0xf6, // 15264
0x2d,0xfc,0xd5,0xf8,0xc7,0x03,0x44,0x01, 0xd0,0xfc,0x3c,0x01,0x24,0x00,0xce,0xfe, // 15280
0xa8,0x00,0xaf,0xff,0xd3,0xff,0x98,0xff, 0xf7,0x02,0x7a,0xfd,0xa2,0x01,0x76,0x03, // 15296
0x4c,0x03,0xb4,0x07,0x35,0x04,0x03,0x01, 0xc6,0xff,0x6a,0x00,0xd6,0xfa,0xd3,0xfa, // 15312
0x6b,0xfc,0xa5,0x02,0x67,0xff,0x57,0xfe, 0x8e,0x04,0xdb,0xff,0x03,0xff,0xfe,0x07, // 15328
0x2d,0xff,0x28,0x03,0x9e,0xff,0x00,0x01, 0x53,0xf4,0xc2,0xfa,0x5d,0x01,0x8c,0x06, // 15344
0x66,0x01,0x33,0xfe,0x77,0xfe,0x39,0x04, 0x89,0xf8,0x90,0xfe,0x6d,0xf8,0x9f,0xfc, // 15360
0xd8,0xf7,0xd6,0x06,0xbe,0xf6,0xd0,0xfa, 0x23,0x02,0x66,0x04,0x8b,0xff,0xc5,0xf9, // 15376
0x6b,0xf9,0xaa,0xfc,0x79,0xf7,0x8b,0x00, 0xc4,0x04,0xcd,0x00,0x87,0x00,0xea,0x00, // 15392
0x7c,0xfc,0x06,0xff,0x00,0x01,0x44,0xf9, 0x2f,0x00,0x87,0x02,0x77,0xfe,0xe6,0xff, // 15408
0x19,0x00,0xb5,0xff,0x47,0x02,0x9c,0x03, 0x6a,0xf5,0x87,0x00,0xa1,0x00,0x4b,0x00, // 15424
0xaf,0xf9,0xb6,0xfe,0xd0,0xff,0xd0,0xfc, 0x58,0x01,0xef,0x04,0x3e,0xff,0x0a,0xff, // 15440
0x94,0xfd,0x9c,0xfa,0xe0,0xff,0x00,0x05, 0xc3,0x05,0xbe,0xfa,0xe1,0x04,0xd5,0xff, // 15456
0xbf,0x09,0xda,0xfe,0xcf,0x00,0x5d,0xff, 0x00,0xfa,0x36,0xfb,0x02,0x01,0x51,0xfc, // 15472
0x31,0x00,0xc0,0xfd,0xe0,0x01,0x50,0xfd, 0x83,0x03,0xe3,0xff,0xbc,0x01,0xaa,0x01, // 15488
0xd7,0xfd,0x16,0xfb,0x3e,0x00,0xe5,0x00, 0x90,0x01,0x50,0xfe,0xde,0x04,0x56,0x00, // 15504
0xce,0x00,0x6f,0x03,0x4b,0xfb,0x82,0xfb, 0x55,0xf8,0x1c,0x00,0x35,0x03,0xa3,0xf4, // 15520
0x14,0xfd,0xec,0xfd,0x1c,0xfe,0x6b,0xe4, 0xf8,0x00,0x07,0xfd,0x80,0xfb,0x8d,0xfe, // 15536
0x51,0x01,0x0e,0x03,0xa2,0xfc,0x92,0x02, 0x81,0x01,0x1e,0x03,0x51,0xff,0x60,0xfe, // 15552
0xfe,0xff,0xf0,0xf1,0xfd,0xf7,0xca,0x03, 0x23,0xfe,0xbc,0x03,0xfe,0xfc,0xdb,0xff, // 15568
0x41,0x00,0x58,0x02,0xf4,0xfe,0x1a,0xf9, 0xab,0xfe,0x62,0xf4,0x98,0xfe,0xfa,0xfd, // 15584
0x8a,0xfd,0x65,0xfb,0x2c,0x02,0x16,0xff, 0x2c,0x00,0x61,0x01,0x1f,0x00,0xd3,0xee, // 15600
0x5e,0xf9,0x25,0x01,0x09,0x02,0x96,0xfa, 0x48,0x00,0x0c,0xff,0x87,0x01,0xad,0xf7, // 15616
0xe8,0x00,0xa0,0x01,0xbf,0xf4,0x4d,0x00, 0xc9,0xf7,0xe1,0xf2,0xb2,0xfc,0x11,0xfc, // 15632
0x50,0xff,0xab,0xf0,0x78,0x02,0x8d,0x00, 0x23,0xfe,0x57,0xf8,0x10,0xfd,0x31,0xff, // 15648
0xe1,0xfe,0xf1,0x02,0x12,0xfb,0xf4,0x03, 0xe0,0xfe,0x51,0xfb,0x6a,0xfe,0x3e,0x01, // 15664
0x47,0xfb,0x5f,0xf7,0xa5,0x00,0x92,0x01, 0xca,0x00,0xcf,0x03,0xae,0xf3,0xde,0xfc, // 15680
0x80,0xfb,0x13,0x02,0xc2,0x00,0x69,0xf8, 0x17,0x04,0xb1,0xfc,0xaa,0x01,0xff,0x04, // 15696
0x51,0xfd,0xf8,0x00,0xdb,0x00,0x38,0x01, 0x4a,0xff,0xed,0x03,0x72,0x03,0x15,0x07, // 15712
0x0c,0x00,0x44,0x00,0x2d,0xfd,0x5d,0x00, 0xf3,0x03,0x27,0x00,0xa5,0xfc,0xce,0xfe, // 15728
0x01,0xfe,0x8b,0xfd,0x9a,0xfc,0xd2,0xfa, 0xe8,0xfa,0xcf,0xfb,0x63,0xfc,0x7b,0xff, // 15744
0x18,0xfd,0xdc,0xfa,0x14,0xfb,0xe1,0xfc, 0xf5,0xfe,0x47,0xf9,0xce,0xf2,0x64,0xf7, // 15760
0x23,0xff,0x9c,0x00,0x59,0xfc,0x36,0x03, 0xe5,0xfe,0x5f,0xff,0x1f,0x04,0x7b,0xfb, // 15776
0xad,0x01,0x00,0xff,0xb1,0xf3,0x52,0x01, 0xfb,0x01,0xb6,0xf5,0xb4,0xfc,0xc1,0xfe, // 15792
0x25,0x00,0x00,0xff,0x4b,0xf8,0x34,0x03, 0x7e,0xff,0xd7,0x02,0x23,0xf9,0xd4,0xfe, // 15808
0x16,0x04,0x6f,0x06,0x98,0xff,0x00,0xf9, 0x2a,0xfe,0x76,0xfc,0x94,0xf4,0x79,0x06, // 15824
0x5a,0x03,0x53,0xfb,0x9b,0xfe,0x24,0x04, 0xf0,0x01,0x3a,0xfd,0xb8,0xfe,0x81,0x01, // 15840
0xb6,0xfb,0x1c,0x01,0x05,0xf8,0x6f,0xf4, 0xff,0xf9,0x4e,0xff,0x13,0x03,0x16,0xfa, // 15856
0x2e,0xff,0x09,0x00,0x63,0xf0,0x92,0xf9, 0x27,0xff,0x01,0xff,0xe0,0x03,0xf3,0x03, // 15872
0x87,0xfb,0xf1,0xf6,0x72,0x04,0x18,0xfe, 0x66,0x02,0x08,0xfb,0x1b,0xfe,0x95,0x01, // 15888
0x54,0xff,0x05,0x02,0x95,0x00,0x0f,0xfd, 0xb8,0xff,0xac,0xff,0xff,0x03,0xc9,0xf8, // 15904
0xec,0x03,0xa0,0xf7,0x54,0xfc,0xf3,0xfb, 0xec,0xff,0x9d,0x02,0x73,0xfd,0x16,0xff, // 15920
0xbe,0xfe,0x5f,0xff,0x80,0x04,0x32,0x00, 0xd4,0xfc,0x3f,0x02,0x47,0xfd,0x3e,0x00, // 15936
0x52,0x05,0x40,0xfc,0x15,0x05,0x55,0x01, 0x43,0xf8,0xec,0xf4,0x09,0x08,0x36,0x01, // 15952
0x51,0xfc,0x51,0x03,0x85,0xfa,0xe4,0xff, 0x69,0xfa,0x7a,0x02,0xe6,0x00,0x18,0x04, // 15968
0x01,0x00,0x0c,0xf7,0x75,0xf8,0x51,0xff, 0xad,0x03,0x58,0xff,0x1f,0x00,0x55,0xfe, // 15984
0xa3,0x05,0x40,0xfb,0xda,0xf7,0x15,0x05, 0x48,0x00,0xda,0x03,0x4d,0xfb,0x9f,0xfc, // 16000
0x87,0xfd,0x87,0x04,0x7b,0xfb,0x02,0xfd, 0x3b,0x03,0x5a,0x01,0x65,0xf5,0x2d,0xfb, // 16016
0x8a,0xfc,0x77,0xfa,0xfa,0x02,0xd1,0xfd, 0x90,0xfc,0x07,0xfa,0x21,0xfb,0xa8,0x03, // 16032
0xc9,0x01,0x36,0x00,0x17,0x04,0xba,0xfc, 0xa2,0x00,0x2e,0x07,0xac,0xf9,0x87,0x02, // 16048
0xf9,0xfd,0x4b,0x02,0xca,0xfd,0x2c,0xfc, 0x23,0x02,0xc5,0xfd,0x7d,0xfd,0x7d,0x03, // 16064
0x7a,0x02,0xd9,0xf8,0x6e,0x00,0x1f,0x06, 0x43,0xfe,0x09,0xfb,0x30,0x00,0x28,0x00, // 16080
0x03,0xff,0xe7,0xf5,0xbe,0x03,0x03,0x00, 0x75,0x01,0x1c,0x03,0x2e,0x07,0x63,0xfd, // 16096
0xdf,0xfd,0xd6,0xf9,0x47,0xfc,0x72,0x04, 0x9d,0x04,0xd8,0xfb,0x49,0xfc,0x83,0x00, // 16112
0xb7,0xfc,0xd3,0xfd,0xeb,0x02,0x7b,0xfe, 0xec,0xf2,0x94,0xfd,0xff,0xff,0xa1,0xff, // 16128
0x7f,0xf9,0x20,0xff,0xc8,0x03,0xb4,0xfe, 0xb9,0x00,0xbb,0xff,0x53,0x00,0x2c,0xf6, // 16144
0xae,0xff,0x69,0xfa,0xa7,0xff,0x94,0xff, 0x9d,0x04,0x2f,0x00,0x40,0xfa,0xac,0x05, // 16160
0xdb,0xfe,0xb5,0x04,0xac,0x00,0x80,0xff, 0x34,0xf8,0x78,0xf7,0xc8,0xf9,0x37,0x00, // 16176
0x20,0xfa,0xdd,0xff,0xdc,0x03,0xd1,0xfd, 0x35,0x02,0x5d,0xfd,0xbb,0x07,0x65,0xfe, // 16192
0xcf,0xfb,0xf8,0x06,0xef,0x05,0xa7,0x00, 0x92,0x03,0x08,0x05,0xce,0xf8,0xfe,0xff, // 16208
0xee,0xf4,0x84,0xff,0x53,0x01,0xca,0xfa, 0x73,0xfd,0xcd,0xfa,0xda,0xfb,0xa6,0xfd, // 16224
0x32,0xfd,0x6b,0xfd,0xcb,0x02,0x2f,0xf6, 0x81,0xfc,0xe0,0xff,0xbc,0x02,0x7e,0x01, // 16240
0x56,0x00,0x3f,0xfa,0x2b,0xfd,0x38,0x01, 0x42,0x01,0x11,0x07,0x7b,0x00,0xb9,0x02, // 16256
0x09,0x01,0x15,0xff,0xd0,0xf8,0x86,0xf5, 0xd4,0xfc,0x7e,0xfb,0x65,0x02,0xdd,0xfe, // 16272
0xb3,0xfb,0xfb,0x01,0x81,0xf4,0x87,0x00, 0x09,0x00,0xeb,0xfd,0x12,0xf8,0x74,0xf7, // 16288
0x10,0xff,0xea,0x02,0x19,0xfe,0x64,0xfc, 0x03,0x07,0x2b,0xff,0xed,0xff,0xec,0xf5, // 16304
0x85,0x03,0x0c,0xf7,0x64,0x03,0x51,0xf8, 0x80,0xf9,0x2f,0xfe,0xeb,0x01,0x80,0xfd, // 16320
0x2e,0xff,0xe1,0x03,0xd2,0x01,0x14,0xf9, 0x94,0xf5,0xe5,0xfe,0xf3,0xf7,0xf1,0x03, // 16336
0xfc,0xf7,0x6d,0xfd,0x68,0x00,0xbb,0xfc, 0xae,0xfe,0xb3,0xfc,0xa0,0xfe,0xd4,0xf9, // 16352
0x3b,0x04,0x68,0x00,0xca,0x04,0x95,0x02, 0xc6,0x07,0x6d,0x01,0x59,0x03,0x0d,0xff, // 16368
0xb6,0xfd,0xae,0xff,0xed,0xfd,0x9d,0x05, 0x7d,0x00,0x46,0xff,0xfb,0xf8,0x50,0xfd, // 16384
0xc3,0xfe,0x71,0xf9,0x7f,0xf3,0x74,0xfc, 0x3a,0xfa,0x23,0xfa,0x35,0xfe,0x8b,0x02, // 16400
0xb5,0xfe,0xc6,0x03,0x18,0x00,0x13,0x03, 0x52,0x05,0x35,0xfc,0x4b,0xec,0x20,0xf8, // 16416
0x3d,0xff,0x0b,0xfa,0x3a,0x01,0x5f,0x01, 0xec,0xfe,0x50,0x00,0xc2,0xf9,0x5e,0xfe, // 16432
0x88,0xfd,0x92,0x00,0xbb,0x05,0xf3,0xee, 0xd1,0x00,0x92,0x00,0x8b,0x00,0x17,0xfe, // 16448
0x9e,0xff,0x41,0x01,0xdf,0xff,0x9d,0xfd, 0x1c,0x02,0x12,0x02,0xb8,0xff,0x6c,0xfb, // 16464
0x00,0xf8,0xf2,0xf2,0x22,0xfe,0x49,0x01, 0x8e,0xf8,0xa5,0xfd,0x0a,0x04,0x7b,0x02, // 16480
0x49,0x00,0x01,0xf9,0xc4,0xff,0x6f,0x01, 0xd3,0x01,0x2e,0x00,0xf5,0xff,0xa3,0x00, // 16496
0x17,0x01,0xd7,0xfb,0x57,0x06,0x0a,0xff, 0xd0,0xf1,0xa0,0xfc,0x92,0x06,0xda,0xfd, // 16512
0x2f,0xfb,0x2d,0x02,0x1c,0x00,0x5a,0x02, 0xbc,0x00,0xd7,0xfe,0x94,0x01,0x87,0xff, // 16528
0x0d,0x02,0xde,0x00,0xe0,0x00,0x45,0xff, 0x1d,0x01,0xc4,0x00,0x69,0xff,0x1c,0xff, // 16544
0xce,0x02,0x36,0x02,0xe2,0x00,0x60,0x04, 0x6f,0xfe,0x59,0x04,0x90,0x04,0xa4,0x01, // 16560
0xe8,0xfe,0x09,0x02,0xd0,0xfe,0x07,0x02, 0x18,0x04,0x8b,0xfe,0x8c,0xfd,0xb5,0xfc, // 16576
0x71,0xf7,0xa5,0x00,0xaf,0xfe,0x0a,0xfd, 0x9d,0xfa,0xf4,0x02,0x8c,0xfb,0xda,0x03, // 16592
0x9f,0xf7,0x86,0xfa,0x2d,0xf5,0x8d,0xfc, 0xff,0xfc,0xeb,0x03,0x87,0xf7,0x9f,0x02, // 16608
0x56,0xff,0xf0,0xfa,0x90,0xfd,0xf3,0xfc, 0x17,0x01,0x8e,0x03,0x29,0xfc,0x22,0x03, // 16624
0xa3,0xfd,0xfc,0xfd,0x7c,0xff,0x90,0x01, 0xe7,0xfd,0x03,0xf9,0xcc,0xf7,0xf0,0x00, // 16640
0xde,0xf5,0xcb,0x00,0xb7,0xf7,0xe3,0xfe, 0x57,0x04,0x7a,0x00,0x4b,0x03,0x78,0xf6, // 16656
0x91,0xff,0xb0,0x01,0xb1,0xf9,0x11,0xfd, 0x61,0xfb,0xde,0x01,0xa7,0x00,0x10,0x00, // 16672
0xe5,0x02,0x38,0x01,0x6f,0x02,0x83,0x00, 0x8e,0xff,0xae,0xfe,0xc5,0x00,0xf6,0xff, // 16688
0x5d,0xf5,0x33,0x05,0xf8,0x00,0x48,0xfe, 0x35,0x01,0x91,0x00,0x25,0xef,0x9e,0xf5, // 16704
0xb5,0xfe,0x54,0xfe,0x2b,0x05,0x7b,0xff, 0xb6,0x02,0x90,0xf3,0x04,0x02,0x5f,0xfd, // 16720
0x17,0x02,0xc8,0xf5,0x46,0x00,0xfb,0xff, 0x9a,0xff,0x34,0xfd,0x61,0xff,0x9c,0x02, // 16736
0x94,0xfc,0x50,0x00,0x84,0x00,0x93,0xf8, 0x26,0x01,0x79,0xf4,0x4e,0xfa,0x39,0xff, // 16752
0x35,0xfa,0x19,0xf7,0x47,0x03,0x70,0xff, 0x8e,0xff,0xe7,0xfd,0x9f,0x06,0x87,0x00, // 16768
0x29,0xfc,0x8b,0xff,0x77,0x04,0x29,0xfb, 0x63,0xfe,0x10,0xfc,0xd2,0x01,0xeb,0xf9, // 16784
0x68,0xfa,0x21,0xfd,0xde,0x05,0xcf,0xfe, 0x2f,0xf8,0xfb,0xfe,0xf3,0x01,0xfa,0x00, // 16800
0xdf,0x01,0xa5,0xff,0x90,0xfe,0xfe,0xf8, 0xe3,0x02,0xc6,0xff,0x0d,0xfb,0x5e,0xfb, // 16816
0xfe,0xfe,0x2a,0x05,0xbf,0x01,0xa4,0x00, 0x6c,0xfd,0x2d,0x01,0x1e,0xf7,0x6a,0x01, // 16832
0x48,0xfc,0x17,0xfe,0x87,0xff,0xcb,0xfc, 0xb4,0xf7,0xea,0x00,0xc4,0xf6,0xe1,0xfa, // 16848
0xc0,0x01,0xf0,0xf6,0xab,0xf8,0x71,0xfb, 0x93,0xf7,0x67,0x02,0x55,0xff,0xac,0xff, // 16864
0x72,0xfa,0x08,0xf4,0x9e,0xfa,0x8b,0xfe, 0xf1,0xfc,0xa8,0xfd,0xb9,0xff,0x8b,0xf9, // 16880
0x19,0x06,0xae,0x05,0x9d,0xfe,0x95,0x00, 0x6d,0xff,0x1f,0xfe,0x04,0x00,0xb5,0xfb, // 16896
0xdb,0x01,0xd4,0xfe,0xf0,0xff,0xbd,0xff, 0x1e,0xfe,0x2d,0xf5,0x65,0xff,0x73,0x06, // 16912
0x05,0x01,0xaf,0xfc,0x5f,0x01,0x2c,0xfe, 0xe7,0x02,0x66,0xf6,0xc0,0x00,0x82,0x02, // 16928
0xba,0x03,0x96,0x08,0x3e,0x02,0xd4,0xf9, 0xe8,0x00,0xb6,0xfa,0xec,0xfd,0xc3,0xf8, // 16944
0x35,0x03,0x09,0xfb,0xb8,0x00,0x3a,0x03, 0xe4,0xfb,0x80,0x03,0x3d,0xfe,0x65,0x04, // 16960
0x30,0x00,0x97,0xff,0xe9,0xff,0xd7,0x01, 0x28,0xfd,0x48,0x01,0x62,0xff,0x84,0xff, // 16976
0xf3,0xfe,0xec,0xfe,0x5d,0x03,0x1a,0x00, 0x30,0xfe,0xf3,0x00,0x54,0x06,0x4f,0x01, // 16992
0x8b,0xfe,0x3a,0xfd,0x11,0x00,0x74,0x03, 0x20,0x03,0x01,0x03,0x88,0xf4,0x54,0x05, // 17008
0xf7,0xfe,0xad,0xf6,0xe4,0xf7,0xd1,0x04, 0x9f,0x01,0x7d,0xfa,0xa9,0x02,0x32,0xfa, // 17024
0x33,0x02,0xa3,0xfd,0x08,0xf9,0x95,0x00, 0x53,0xff,0xcb,0x08,0xd0,0xf6,0x00,0x04, // 17040
0x7a,0xfe,0xa8,0x0c,0x70,0xff,0x83,0x07, 0xb5,0xfa,0x48,0xf9,0x7d,0xfb,0x08,0x04, // 17056
0xa1,0xfb,0xc0,0xfd,0x5c,0xfa,0x44,0xfa, 0x59,0xff,0x9a,0x04,0x66,0x03,0xa1,0xf1, // 17072
0xd6,0xfc,0xa4,0x02,0x58,0xff,0x1a,0x01, 0x08,0xff,0xc9,0xf6,0x4b,0x06,0x27,0x02, // 17088
0xc5,0x06,0x6a,0x01,0x3f,0xff,0x7f,0xff, 0x72,0xf6,0x95,0xfe,0x81,0xf6,0xa2,0xfe, // 17104
0xeb,0x03,0x17,0x00,0x6d,0x03,0xeb,0xfe, 0xcd,0x02,0xf6,0xff,0x7b,0xf8,0x08,0xfb, // 17120
0xd8,0x00,0x99,0xf7,0x95,0x00,0x2e,0xff, 0xc6,0x00,0x3c,0x00,0x73,0xfb,0x45,0x00, // 17136
0xdb,0x06,0x8d,0xff,0xc2,0x03,0x38,0xfd, 0x77,0xfc,0xcf,0x02,0xee,0xf5,0x42,0xfa, // 17152
0xfd,0xfc,0x38,0x02,0x9f,0x01,0x08,0xff, 0x02,0x01,0xb7,0x00,0xf1,0xf9,0x78,0xf6, // 17168
0xc8,0xff,0x7f,0x00,0xb8,0xfb,0x82,0xf4, 0x30,0xf9,0xcf,0xfd,0x3c,0x01,0x76,0xff, // 17184
0xfd,0xf7,0x9d,0x00,0xe2,0x00,0xe7,0x05, 0x89,0x01,0x33,0xfc,0x36,0x00,0x78,0xf5, // 17200
0xcf,0x04,0xa5,0xff,0x4a,0x05,0xa3,0x01, 0xba,0xfa,0x11,0xfc,0x69,0xfd,0x9f,0xf9, // 17216
0x3c,0x01,0xf4,0xf9,0xab,0x03,0x65,0x01, 0x9b,0xfa,0x9d,0x00,0x7b,0xfb,0x1b,0xfd, // 17232
0xe5,0xf7,0x70,0xf5,0x39,0xfb,0xf7,0xfe, 0x1c,0x04,0x24,0xfd,0x9c,0x02,0x15,0x01, // 17248
0x74,0x09,0xfc,0xfa,0x54,0xff,0x45,0x03, 0xb5,0x01,0x37,0x05,0x0f,0x00,0x10,0x03, // 17264
0x4c,0xfa,0x3a,0xfc,0x9a,0x04,0x07,0x02, 0xe4,0xf9,0xca,0xf3,0xe4,0x04,0xe7,0x00, // 17280
0x8f,0x00,0xd7,0xf6,0xc9,0x02,0x87,0xfb, 0x80,0xff,0x13,0x02,0xdb,0xfa,0xc9,0xf9, // 17296
0xa5,0x00,0x1a,0xff,0x42,0x02,0x18,0xfc, 0x46,0xfe,0xb9,0xf5,0xa6,0xf5,0x8d,0xf7, // 17312
0xec,0xfc,0x1b,0xf8,0x85,0x01,0x63,0x01, 0x31,0xf8,0xd8,0x01,0xe0,0x03,0xfe,0xfc, // 17328
0xdb,0xfa,0x52,0x00,0xa5,0xfe,0xef,0xf4, 0x5c,0x05,0x55,0xf9,0x3a,0xff,0xf7,0xff, // 17344
0x4d,0xfe,0x43,0xf4,0x46,0x09,0xa6,0x00, 0x16,0xf9,0xff,0x01,0x98,0xfe,0x40,0x01, // 17360
0x81,0xfe,0xee,0x01,0x49,0xf8,0x03,0xf9, 0x23,0xff,0x89,0xfc,0x34,0xfb,0x0e,0xfe, // 17376
0xf6,0x01,0xa0,0x01,0xfe,0xfe,0xcf,0x01, 0xab,0xf5,0x7c,0x01,0x1b,0xf5,0xee,0x08, // 17392
0xfc,0xfd,0x82,0x00,0x1e,0x03,0xf4,0xfc, 0x56,0xf6,0x84,0x02,0x22,0xf7,0x0d,0xfd, // 17408
0x59,0x00,0x6d,0x01,0x11,0xfc,0xda,0xfb, 0x07,0xfa,0xc2,0xfe,0xc1,0xfe,0xd5,0x00, // 17424
0x0d,0xfc,0x81,0xf4,0x18,0xfe,0x79,0xff, 0x40,0xfc,0x0e,0xfe,0x1d,0x00,0x97,0xff, // 17440
0x9b,0x00,0x06,0x03,0x20,0xfa,0x0e,0x02, 0xe2,0xfc,0xbf,0xf9,0xca,0x05,0x18,0xf9, // 17456
0x0f,0x01,0xe3,0xfd,0x63,0x00,0x63,0x04, 0xea,0xfd,0xb8,0xf7,0x1d,0x00,0xb3,0x02, // 17472
0x35,0x05,0x7f,0xf8,0xa2,0x00,0x2f,0xfe, 0xb2,0xfd,0x38,0xf4,0xfc,0x03,0x3f,0xfe, // 17488
0x7f,0x02,0xb4,0x04,0x55,0x08,0xdd,0xfc, 0xff,0xff,0x4c,0xfa,0xe7,0xf9,0x9b,0xfa, // 17504
0xaf,0xff,0xb6,0xf7,0x74,0xfc,0xb5,0x05, 0x80,0x03,0xcd,0xff,0xf2,0xfe,0x95,0xff, // 17520
0x6c,0xff,0x86,0xf6,0x75,0x02,0x7a,0x03, 0xa7,0xfb,0xa1,0xf4,0x73,0xff,0x5d,0x04, // 17536
0x7c,0x00,0xca,0xfc,0xb8,0x02,0x14,0x01, 0x8f,0x01,0x6a,0x00,0x7c,0xfa,0xda,0x05, // 17552
0x59,0x00,0x21,0x00,0xaf,0x01,0x3d,0xfe, 0x87,0xfd,0xbe,0xfc,0x4b,0x01,0xd6,0xfd, // 17568
0xc3,0xfe,0xdc,0xfd,0x5f,0x02,0x2f,0x00, 0xff,0xf7,0x3a,0xfe,0xb5,0xff,0x82,0xfc, // 17584
0x51,0x02,0xe2,0x08,0xc1,0x02,0xb0,0x04, 0xd4,0xfe,0x74,0x04,0x9e,0xf8,0x7d,0xff, // 17600
0xfa,0xf7,0x1b,0xf8,0xa1,0x02,0x21,0x04, 0x2d,0x05,0x57,0x04,0x87,0x01,0x49,0xff, // 17616
0x62,0xff,0x25,0xff,0xdb,0xfd,0x7f,0x03, 0x6a,0xfd,0x3a,0xff,0xd8,0xfd,0x3d,0x04, // 17632
0x5e,0x03,0x9a,0x00,0xdc,0xfe,0xf2,0xfa, 0xc2,0xfd,0x8d,0xfd,0xee,0xff,0x6c,0xfd, // 17648
0xaf,0xfa,0x56,0x02,0xb1,0xfe,0xc3,0xff, 0x8b,0x00,0xf8,0xfd,0xe0,0xff,0xf9,0xfa, // 17664
