#if defined __ICCARM__
#define __ALIGNED(x) __attribute__((aligned(x)))
#else
#define __ALIGNED(x) __attribute__((aligned(x)))
#endif
const unsigned char model1[] __ALIGNED(16) = {
0x4e,0x4e,0x43,0x55,0x01,0x00,0x01,0x00, 0x01,0x0e,0x07,0x00,0x07,0x00,0x00,0x00, // 16
0x02,0x00,0x00,0x00,0x00,0x00,0x00,0x00, 0x18,0x01,0x00,0x00,0x02,0x00,0x00,0x00, // 32
0xe0,0x01,0x00,0x00,0xc8,0x00,0x00,0x00, 0x18,0x01,0x00,0x00,0x00,0x00,0x00,0x00, // 48
0x00,0x00,0x00,0x00,0x00,0x00,0x00,0x00, 0x00,0x00,0x00,0x00,0x00,0x00,0x00,0x00, // 64
0x00,0x00,0x00,0x00,0x00,0x00,0x00,0x00, 0xff,0xff,0xff,0xff,0xff,0xff,0xff,0xff, // 80
0x43,0x4d,0x44,0x00,0x20,0x00,0x80,0x00, 0x50,0x00,0x00,0x00,0x00,0xfe,0x00,0x00, // 96
0x73,0x6d,0x61,0x72,0x74,0x63,0x61,0x72, 0x5f,0x61,0x64,0x5f,0x64,0x65,0x6e,0x73, // 112
0x65,0x5f,0x64,0x72,0x6f,0x70,0x5f,0x30, 0x32,0x35,0x5f,0x61,0x64,0x53,0x69,0x7a, // 128
0x65,0x5f,0x31,0x5f,0x6e,0x6f,0x62,0x6e, 0x2e,0x68,0x35,0x0d,0x0a,0x4d,0x6f,0x6e, // 144
0x20,0x4d,0x61,0x72,0x20,0x20,0x32,0x20, 0x31,0x30,0x3a,0x33,0x32,0x3a,0x35,0x30, // 160
0x20,0x32,0x30,0x32,0x30,0x0d,0x0a,0x31, 0x34,0x20,0x62,0x69,0x74,0x73,0x0d,0x0a, // 176
0x6e,0x6e,0x63,0x75,0x20,0x76,0x65,0x72, 0x20,0x30,0x2e,0x30,0x70,0x0d,0x0a,0x00, // 192
0x00,0x00,0x00,0x00,0x00,0x00,0x00,0x00, 0x00,0x00,0x00,0x00,0x00,0x00,0x00,0x00, // 208
0x43,0x4d,0x44,0x00,0x20,0x02,0x00,0x00, 0xd0,0x00,0x00,0x00,0x10,0x02,0x00,0x00, // 224
0x00,0x01,0x00,0x02,0x07,0x07,0x07,0x0c, 0x00,0x00,0x00,0x00,0x00,0x00,0x00,0x00, // 240
0x01,0x00,0x07,0x00,0x01,0x00,0x01,0x00, 0x8c,0x00,0x01,0x00,0x00,0x00,0x00,0x00, // 256
0x0c,0x00,0xff,0xff,0xff,0xff,0xff,0xff, 0x00,0x01,0x01,0x00,0x18,0x01,0x00,0x00, // 272
0x00,0x00,0x03,0x00,0x0e,0x00,0x00,0x00, 0x00,0x00,0x00,0x00,0x00,0x00,0x00,0x00, // 288
0x00,0x00,0x00,0x00,0x00,0x00,0x00,0x00, 0x00,0x00,0x00,0x00,0x00,0x00,0x00,0x00, // 304
0x00,0x00,0x00,0x00,0x00,0x00,0x00,0x00, 0x00,0x00,0x00,0x00,0x00,0x00,0x00,0x00, // 320
0x00,0x00,0x00,0x00,0x00,0x00,0x00,0x00, 0xa8,0x07,0x00,0x00,0x18,0x01,0x00,0x00, // 336
0x87,0xfd,0xe1,0xf9,0x92,0xff,0x1f,0xfa, 0x49,0x0b,0x1f,0x05,0xcc,0xf5,0x34,0x0a, // 352
0x45,0xf7,0x6d,0x03,0x24,0xfb,0xa0,0x0d, 0x75,0x01,0x49,0xfc,0xa7,0x01,0x1b,0x0a, // 368
0x0b,0x06,0x20,0xf5,0x86,0x0e,0x21,0xf3, 0x25,0xf7,0xf4,0x09,0xfa,0x02,0xe4,0x06, // 384
0xbe,0xfc,0xd5,0x08,0x34,0x02,0x46,0x05, 0xb7,0xfc,0x33,0xfd,0x32,0xf8,0x4f,0xfd, // 400
0x3f,0xf9,0xf9,0xf4,0xb2,0xf8,0x4e,0xf7, 0x75,0xfa,0xd4,0xfa,0xe1,0xfb,0x3e,0xf9, // 416
0x5b,0x0c,0xa9,0x0b,0xf2,0x03,0x80,0xfb, 0xd8,0xff,0x50,0xf7,0x2a,0x06,0x60,0xf7, // 432
0x63,0xfa,0xf7,0x0b,0x2a,0xf8,0xfa,0x00, 0x21,0x13,0x7e,0xf5,0x36,0xfe,0xfc,0xfe, // 448
0x65,0x0e,0xd5,0xfd,0x3b,0x02,0x12,0xfc, 0xb8,0x06,0xff,0x00,0x1c,0x0c,0x55,0xf3, // 464
0x6e,0x0e,0xc8,0x08,0xf5,0xf4,0x93,0x0b, 0x52,0xfd,0xb1,0xfe,0xba,0xef,0xd6,0x04, // 480
0xbd,0xf6,0xf7,0x02,0x43,0xf1,0x32,0x05, 0xb0,0x05,0x30,0xf6,0x77,0x01,0x2a,0x00, // 496
0x57,0x07,0x90,0xfd,0x97,0x0e,0x1a,0x04, 0xbd,0xf4,0xdc,0xfe,0x7f,0xfb,0xa4,0x00, // 512
0x8f,0x03,0x56,0x05,0xf9,0xf3,0x6f,0xf4, 0xc0,0x01,0xa6,0xfa,0x7c,0xfa,0x15,0xfc, // 528
0x13,0x0d,0xd8,0x0c,0xdd,0x08,0x61,0x03, 0x14,0x03,0x1f,0xfd,0x1e,0xfe,0x8a,0xf4, // 544
0xab,0x0c,0x2c,0xf0,0x40,0x08,0x71,0xfc, 0x40,0xec,0xb7,0x06,0x90,0x00,0x1a,0x00, // 560
0x7c,0x09,0x02,0x00,0x4f,0x04,0x3b,0x03, 0x54,0x0c,0x16,0xff,0x2b,0xf5,0xdd,0xfb, // 576
0x29,0x08,0x28,0xfd,0x6f,0xf3,0x47,0x10, 0x4b,0xff,0x07,0x00,0xb5,0x05,0xfd,0x03, // 592
0x76,0x04,0x3e,0xf0,0xf0,0x0a,0x24,0xfb, 0x4f,0x03,0x7b,0xf8,0x7e,0x06,0x4f,0xfb, // 608
0x38,0xf1,0xbf,0x0d,0x99,0x02,0xce,0x05, 0xe8,0x06,0x92,0x03,0xb3,0x03,0x73,0xf9, // 624
0xe4,0x07,0xe9,0xf0,0x9c,0xf4,0x07,0xfb, 0xc0,0xf4,0xfe,0xfb,0x5d,0x04,0x62,0xf0, // 640
0x55,0x04,0x8c,0x07,0x56,0xfc,0x72,0xfe, 0x49,0x03,0xde,0x01,0xdf,0x09,0x1d,0x0c, // 656
0x90,0xf5,0x05,0xf0,0x9d,0x04,0xea,0xf7, 0x86,0xfb,0xe2,0xf5,0x04,0x02,0xc3,0x00, // 672
0xf9,0x00,0xd7,0x0a,0xb4,0x02,0x03,0x00, 0x66,0x0b,0x2a,0xf9,0x99,0xf1,0xe3,0x02, // 688
0x3c,0xfc,0x87,0x00,0xab,0x07,0x31,0xfc, 0xb2,0xf9,0xf6,0xf4,0x6b,0xf4,0x09,0xfb, // 704
0x82,0xfb,0x97,0x04,0xc0,0xfc,0x17,0x02, 0x46,0xf6,0xb9,0x03,0x24,0xfc,0x45,0x01, // 720
0x5e,0x0c,0x9a,0xf2,0x9a,0x02,0x31,0x07, 0xaa,0xfa,0xc5,0x08,0x7f,0xfc,0x44,0xf1, // 736
0x3b,0x12,0x45,0x00,0x2f,0x00,0x5a,0xfd, 0x43,0xf1,0xfe,0xf9,0x66,0x02,0x13,0xf5, // 752
0x03,0xff,0xca,0xfd,0x0d,0x07,0xe5,0x01, 0xb4,0xfb,0x91,0xfc,0x99,0xfb,0x1d,0xee, // 768
0x62,0xfe,0x2b,0x05,0xe5,0xf8,0x63,0xfe, 0xe4,0x0f,0x86,0xf0,0xbc,0xff,0x83,0x03, // 784
0xcf,0xff,0x3a,0x06,0x7e,0x00,0xbe,0x05, 0x81,0xf4,0xa5,0xfd,0x92,0x09,0x42,0xf3, // 800
0x39,0x07,0x35,0xfd,0xfa,0x04,0x65,0xf8, 0x3b,0x0b,0xb0,0x04,0xc4,0xfb,0x9e,0x04, // 816
0x89,0xfd,0x5b,0xf1,0x40,0x0f,0x86,0x01, 0xd7,0x04,0xe5,0x04,0x12,0x07,0x3f,0x03, // 832
0xd4,0xff,0x0d,0xf9,0xde,0xfa,0x7a,0x0d, 0x15,0x04,0xb6,0xfb,0x85,0x02,0x1b,0x03, // 848
0x55,0x00,0x39,0x02,0xda,0xf4,0x4b,0x04, 0x38,0x03,0xec,0x01,0xeb,0x08,0xa9,0xf5, // 864
0x04,0xfe,0xfe,0x07,0xe5,0x06,0xfb,0x03, 0x9e,0x07,0xec,0xfa,0xeb,0x0c,0xb7,0xf6, // 880
0x45,0xf5,0xd7,0x04,0xe1,0xfd,0x3a,0x02, 0xdc,0x06,0x59,0x07,0x95,0x0a,0xb0,0x04, // 896
0xfd,0x04,0x5d,0xfc,0x13,0xf9,0x8f,0xf9, 0x02,0xf9,0x9c,0xfc,0x30,0x10,0x17,0x03, // 912
0xee,0xf8,0xcf,0x02,0xf3,0x0d,0x5b,0xed, 0x6a,0x00,0x38,0x00,0x37,0xfa,0x79,0x02, // 928
0x04,0xfa,0x0c,0xf7,0xf0,0x0c,0xc8,0xff, 0x4a,0x03,0x25,0x07,0xc2,0x0a,0xbc,0x02, // 944
0x74,0xfa,0xb3,0x0c,0x84,0xf3,0xfd,0xf4, 0x1b,0xf1,0xa6,0x0d,0x01,0xfe,0xec,0xf2, // 960
0x20,0x06,0x57,0x03,0x84,0xf8,0x3d,0xee, 0x6c,0x0c,0x7c,0x05,0x71,0xf5,0x5c,0x06, // 976
0x47,0x00,0x68,0x00,0x3c,0xfc,0xc4,0xf8, 0xc6,0xfb,0xf5,0x04,0x81,0xf4,0x75,0xfc, // 992
0x09,0xfb,0xf5,0x02,0x4a,0x07,0x38,0x03, 0x02,0xf8,0xb9,0x0e,0x07,0xf8,0x0c,0xf6, // 1008
0xb4,0xf7,0x2d,0x04,0xe6,0xfa,0x81,0xf8, 0xa6,0x04,0x55,0xfa,0x41,0xf4,0x7d,0xfd, // 1024
0xc7,0x00,0x68,0xfe,0x10,0xf3,0x19,0x0e, 0x16,0x01,0x6e,0x08,0xa1,0x0c,0x1d,0xf9, // 1040
0x2b,0xf8,0xee,0x08,0x49,0xf7,0xb9,0xfb, 0xda,0xfc,0x82,0xef,0x72,0x03,0x53,0xfd, // 1056
0xa4,0x04,0x13,0xf7,0xff,0x0b,0x22,0x00, 0xa7,0xfb,0x13,0xff,0xf6,0xff,0xeb,0xef, // 1072
0xcf,0x0a,0x6e,0x05,0x9e,0x04,0x1b,0x0a, 0xa3,0xff,0xc3,0x06,0x0b,0x08,0x56,0x08, // 1088
0xc6,0xf5,0x12,0xf3,0x09,0xf2,0x8a,0x0a, 0x1f,0x06,0x18,0xf4,0x68,0x0b,0xa3,0x01, // 1104
0x33,0x01,0xf6,0x10,0x44,0xfb,0x09,0x09, 0x52,0x00,0x96,0x0c,0xdd,0xf9,0xbe,0xf9, // 1120
0x60,0x01,0x3a,0x0c,0x74,0x00,0x95,0xf4, 0xcd,0x08,0x0c,0x00,0x8f,0x06,0x71,0xf9, // 1136
0x9a,0x01,0x4f,0x00,0x63,0xf0,0xf8,0x00, 0x69,0xfb,0xed,0xfe,0x0a,0x06,0x72,0x0b, // 1152
0x81,0x05,0x52,0xf9,0x25,0xff,0x42,0xf7, 0xf9,0x08,0xc0,0xfd,0x91,0x0d,0x4d,0x03, // 1168
0x56,0xfc,0xb4,0x05,0x38,0x05,0xbc,0x04, 0xb5,0x02,0xa4,0xfe,0x43,0x02,0x43,0x0d, // 1184
0x17,0xf5,0x0a,0xfd,0xb6,0xf5,0x3a,0xff, 0xaa,0xf8,0x28,0xfa,0x90,0xfb,0xf0,0x0a, // 1200
0x39,0x07,0x76,0xf8,0x86,0xfa,0x09,0x09, 0x80,0xfe,0x98,0x06,0x68,0xf1,0x90,0xfb, // 1216
0x75,0xfe,0x67,0xf9,0x3f,0xfe,0x88,0xfd, 0xee,0xff,0x4e,0x08,0x95,0x07,0x4a,0xf0, // 1232
0x49,0xfe,0x8a,0x0a,0x8c,0x01,0xcd,0xf9, 0xfc,0xfc,0xd4,0xfe,0x6d,0x0c,0x98,0xfe, // 1248
0x6b,0xf2,0x9a,0xf9,0xc4,0x0b,0x9c,0xfb, 0x40,0x06,0x98,0xfc,0x44,0x11,0x27,0xf9, // 1264
0xd7,0x08,0xb5,0x09,0x2b,0x05,0xa6,0x01, 0x61,0x02,0x0e,0x0d,0x52,0xf6,0x20,0xf9, // 1280
0xf0,0x0b,0x05,0xf5,0x7a,0xfe,0xd5,0xfe, 0x0d,0xf7,0xf2,0x05,0x6c,0xff,0xe0,0xf9, // 1296
0x3e,0xf3,0x73,0xfa,0xb9,0x01,0x29,0xf1, 0x9f,0x04,0x59,0xf9,0x04,0xf9,0xa1,0xf5, // 1312
0x63,0x0a,0x51,0x0b,0x89,0xf5,0x2d,0xfb, 0x05,0xfc,0x15,0x0a,0x8b,0xf1,0xfd,0x0a, // 1328
0xb1,0x03,0xad,0x01,0x8a,0xff,0x67,0x01, 0x35,0x0c,0x75,0xf2,0x46,0xfe,0x74,0xf7, // 1344
0x51,0xfc,0x6b,0x06,0x60,0x03,0x8b,0xfd, 0x05,0x09,0x36,0xfb,0x53,0xf1,0x77,0xf4, // 1360
0xf0,0xfd,0xaf,0xfd,0x51,0x02,0x5b,0xfb, 0xb8,0x0e,0x49,0x04,0xe3,0xfa,0x57,0x01, // 1376
0x61,0xfb,0xd3,0x08,0x5a,0xf0,0x6e,0x03, 0x4a,0x07,0xcb,0xfd,0x62,0x05,0x74,0xfc, // 1392
0x6a,0xf4,0x9d,0x10,0x91,0x00,0x0b,0x04, 0x31,0x04,0x77,0xed,0x5e,0xfe,0x58,0xfd, // 1408
0x9c,0x02,0xb7,0x05,0x2e,0x05,0xf5,0xfa, 0xd9,0x03,0xbc,0xfe,0xcf,0x00,0x88,0xf3, // 1424
0x03,0xf8,0x6b,0xfd,0x43,0xfd,0x0e,0x04, 0x35,0x02,0x8a,0x03,0x8f,0x08,0x52,0x0e, // 1440
0x2d,0x00,0x4a,0x0e,0xbf,0xfc,0xf0,0x05, 0x91,0xfa,0xa3,0x0c,0x1a,0xfe,0xb5,0x03, // 1456
0xde,0xfe,0x44,0xf9,0x01,0xfc,0x39,0xf8, 0xcf,0xff,0xf8,0x0d,0xf9,0x10,0x64,0x09, // 1472
0x67,0x02,0x7d,0x08,0x8b,0xf9,0x27,0x10, 0x43,0x00,0xba,0xfe,0xbd,0xf5,0xe2,0x02, // 1488
0x42,0xff,0xdb,0x02,0xda,0xfe,0x83,0xfc, 0xd0,0xf0,0xf5,0xfb,0xb0,0x07,0xe0,0xfd, // 1504
0x68,0x00,0x12,0xf2,0xe0,0xfb,0xc1,0x08, 0x78,0xfd,0x2a,0x06,0x3a,0xff,0x03,0x0a, // 1520
0x22,0xf3,0x7b,0xfc,0x26,0xf7,0x5c,0xf3, 0x0c,0x02,0x8e,0x02,0x61,0xf7,0x73,0x03, // 1536
0xf3,0x0d,0xaa,0xfc,0x26,0x03,0xf1,0xfe, 0x1c,0x00,0x9a,0x08,0x2b,0xf5,0x33,0x01, // 1552
0xfb,0x0a,0x8b,0xf0,0xab,0x0a,0x81,0x06, 0xdd,0xf0,0x92,0x0a,0xe3,0xff,0x42,0x00, // 1568
0xff,0x02,0xc8,0xf9,0xbb,0x04,0x1b,0x0b, 0x57,0xef,0x74,0xff,0x54,0xfc,0x30,0x03, // 1584
0x61,0xf9,0x41,0x03,0xe0,0x0c,0x1d,0xee, 0x7e,0x00,0xb4,0x00,0xfd,0xfa,0x77,0xfb, // 1600
0x7f,0xf6,0x80,0xfd,0x78,0x05,0x87,0x07, 0x01,0xfc,0x5f,0xf8,0xd3,0x03,0xb9,0xfb, // 1616
0xa7,0xf9,0x71,0x08,0x47,0xfe,0x6e,0xf3, 0x02,0x00,0x8d,0x08,0xad,0xfe,0x33,0x0e, // 1632
0xc0,0xfe,0x02,0x01,0xc1,0xfa,0x82,0xfd, 0xae,0xff,0xe5,0xfc,0xdc,0xfb,0x07,0x0d, // 1648
0x23,0x02,0xd3,0xf1,0x4e,0x02,0x1d,0xfe, 0xa3,0x02,0xbe,0xfa,0xf0,0x0e,0xe0,0x00, // 1664
0x22,0xf4,0x19,0x09,0xfc,0x03,0xb7,0x06, 0xe9,0xfc,0x52,0x0e,0x61,0xf6,0xea,0xf3, // 1680
0xb4,0xf2,0x36,0x06,0xbc,0xf7,0x69,0xf7, 0x67,0xf9,0x8c,0x03,0x1c,0x09,0xe1,0x0d, // 1696
0x3b,0xf5,0x6e,0xfa,0x83,0x10,0x25,0xf3, 0xc5,0xff,0x79,0x00,0x9d,0x03,0x68,0xfa, // 1712
0x19,0x02,0x98,0x0f,0xd0,0xed,0x05,0x01, 0xda,0x01,0xee,0x0d,0x4c,0xf3,0xd0,0xfa, // 1728
0x59,0x0c,0xad,0xf5,0x95,0x03,0x6e,0x02, 0xb9,0x00,0x18,0xfa,0x00,0x04,0x44,0x06, // 1744
0x05,0xf9,0xfd,0x09,0xe0,0x08,0xf6,0xef, 0x87,0x0d,0xbb,0xfa,0x56,0xfe,0x94,0xf6, // 1760
0x3d,0xfd,0xcb,0xfb,0x84,0x0f,0xc6,0xf9, 0x5c,0x06,0x43,0x05,0x32,0x05,0x6f,0x02, // 1776
0x02,0x07,0x2b,0xff,0xfe,0x03,0x57,0x00, 0xae,0x02,0xc7,0xf1,0x0f,0xfd,0xc9,0x09, // 1792
0x96,0x10,0x3b,0xf9,0x3f,0x06,0x6e,0xfa, 0x3c,0x0c,0x31,0xf6,0x40,0xfb,0xd9,0xfc, // 1808
0x6c,0x0a,0xfb,0x05,0x50,0xfc,0xcf,0x0a, 0xf6,0xfd,0x79,0xf4,0xd9,0x08,0xfe,0xf5, // 1824
0xe7,0x01,0xfa,0xfa,0x9c,0x0d,0xbe,0x06, 0x21,0x05,0xa6,0x05,0x93,0x04,0x38,0x05, // 1840
0x66,0x05,0x49,0xf4,0xda,0xfd,0x54,0x09, 0x6a,0x09,0x84,0xfa,0x99,0xfa,0x2a,0xfa, // 1856
0xf5,0xfc,0xa0,0xfc,0x13,0x10,0xcf,0x05, 0x0e,0x07,0x12,0x04,0xad,0x01,0x33,0xfa, // 1872
0xd4,0xfe,0xf7,0x0b,0x88,0xfe,0x68,0x04, 0x27,0x03,0x6a,0xfa,0x54,0x0e,0x13,0x06, // 1888
0x88,0xf8,0x81,0x07,0x4d,0x01,0x97,0x03, 0x73,0x00,0x69,0xfb,0xf5,0x00,0xcf,0x0c, // 1904
0x65,0x00,0x75,0x03,0x41,0x06,0x04,0x00, 0x7c,0x09,0xda,0xf9,0x7a,0xef,0x08,0x07, // 1920
0x99,0x05,0xcb,0x05,0x03,0x02,0x3b,0x07, 0xe0,0xef,0x93,0xef,0x08,0xf6,0x25,0x09, // 1936
0x8a,0x03,0xc0,0xf4,0xe1,0xf8,0xff,0xf8, 0x9f,0xfc,0xe5,0xee,0xe2,0x0a,0xef,0xfd, // 1952
0x9d,0xfd,0x2e,0xfd,0x98,0xff,0x8f,0xf5, 0x72,0x12,0x3b,0xf2,0xab,0x02,0x70,0x07, // 1968
0x36,0x05,0x03,0xf9,0x13,0xff,0xdd,0x0b, 0xf0,0x02,0x78,0x06,0x33,0x02,0x2e,0x0c, // 1984
0x7e,0xfb,0x55,0xf9,0x4e,0x11,0xb0,0xfb, 0xf6,0x06,0x3a,0x08,0x5e,0x0a,0x4f,0xf6, // 2000
0x0c,0xf7,0xd7,0x06,0x09,0xf8,0x3a,0x01, 0x1e,0x00,0xf8,0x09,0x7e,0xff,0x41,0xf4, // 2016
0xcd,0xf7,0xf7,0xfe,0x14,0xf8,0x56,0x05, 0xc3,0xf5,0xad,0x0c,0x9e,0x0c,0xcc,0xf8, // 2032
0xf5,0x08,0x63,0x06,0x16,0xfa,0x3b,0x07, 0x82,0x06,0x99,0xf9,0xe2,0xfd,0x07,0x03, // 2048
0xaf,0xfb,0x12,0xf7,0xab,0x0e,0x93,0x01, 0xb1,0x03,0x3e,0x0e,0xd0,0xf7,0xcc,0xf6, // 2064
0xd5,0x07,0xf1,0xf7,0xd0,0xfc,0x8c,0xfd, 0x51,0x0e,0x75,0x02,0xb0,0x02,0x20,0xfe, // 2080
0xe0,0x05,0xea,0xf0,0x0d,0x03,0x67,0xef, 0xc9,0x08,0xc6,0xfa,0x5a,0xfe,0x0e,0xf6, // 2096
0xd6,0x07,0x77,0x07,0xbe,0x0f,0x5c,0xf5, 0xf3,0xf9,0xb3,0x0e,0xdc,0xf4,0xb0,0xfe, // 2112
0x91,0xfe,0x72,0xfa,0xd2,0x0a,0x0e,0xfc, 0x0a,0xf2,0xdd,0x11,0x0a,0xfe,0xfc,0xfd, // 2128
0x61,0x10,0x1d,0xf8,0xbd,0x03,0xb7,0xfe, 0xc0,0x07,0xd3,0x01,0x8a,0x08,0x52,0x0c, // 2144
0xff,0xf3,0xdb,0x00,0x58,0x0d,0x71,0xf6, 0xf0,0xfc,0xb7,0x04,0x23,0x04,0x40,0xf8, // 2160
0x50,0xfc,0xe7,0x05,0x10,0xf5,0xf1,0xf4, 0x51,0xfd,0xd4,0xec,0x0e,0x07,0x75,0xf7, // 2176
0x75,0xfc,0x98,0xf5,0xbb,0x03,0x51,0x01, 0xee,0xf5,0x3a,0xfd,0xd4,0xfd,0x1e,0xfb, // 2192
0x74,0xfe,0x5e,0x0d,0x33,0x05,0x77,0x02, 0xd2,0x02,0x41,0x01,0x2c,0xfb,0xe3,0xf6, // 2208
0xed,0xf6,0xac,0x0e,0x96,0xf0,0xe2,0x0a, 0x3c,0x05,0x11,0xf1,0x8e,0x0b,0xc7,0x00, // 2224
0x62,0x00,0xcb,0x05,0x02,0xf0,0x7c,0xfc, 0x6a,0xfe,0xc2,0x03,0x34,0x0b,0xf4,0x08, // 2240
0x36,0x07,0x6f,0x05,0x54,0x00,0x35,0x02, 0x1a,0xf8,0x33,0xf7,0x2e,0x0d,0x8e,0x03, // 2256
0x36,0x04,0x07,0x05,0xb9,0xf3,0xec,0x0f, 0xc9,0xfa,0xb4,0xf8,0xc0,0xf2,0xb2,0x01, // 2272
0x47,0xf7,0x78,0x04,0x17,0xf1,0x2e,0x01, 0xf7,0x00,0xf2,0x0b,0x85,0xfa,0x57,0xff, // 2288
0xb4,0x08,0xd7,0xf7,0x99,0xf8,0x7c,0x09, 0x8b,0xfa,0x4d,0x03,0xb7,0xfe,0x84,0x0c, // 2304
0xab,0xef,0xdb,0xfc,0x5e,0xf9,0x42,0x03, 0x07,0x0b,0xac,0xfe,0xf3,0xf7,0xa4,0x07, // 2320
0x89,0xfa,0x84,0x00,0xf5,0x05,0x15,0xf7, 0xf7,0x06,0x1d,0x05,0xf7,0x01,0xa7,0x05, // 2336
0x94,0xfa,0xb3,0xf6,0x90,0x03,0x58,0xf3, 0x0d,0x03,0x99,0xf7,0x71,0xf5,0xad,0x02, // 2352
0x25,0x05,0x84,0xf3,0xaa,0xf6,0xe9,0xfe, 0x1e,0x04,0x82,0x03,0x66,0x05,0xbc,0x06, // 2368
0x85,0xfb,0x6d,0x05,0xef,0x01,0x29,0x0f, 0x09,0xfc,0x3b,0xfa,0xa2,0x05,0xe9,0x02, // 2384
0x6a,0xfb,0x17,0xfb,0x50,0xf2,0xc5,0x00, 0xf4,0xf4,0x16,0x08,0x8c,0xfe,0x81,0xfd, // 2400
0x1e,0x00,0xaf,0x03,0x0a,0x00,0xe0,0x07, 0x50,0x06,0xf9,0xf3,0x08,0x05,0xe1,0x0c, // 2416
0x11,0xf8,0x23,0xfc,0x67,0xf8,0x5a,0xfa, 0xb3,0x06,0xfd,0xfb,0x12,0x0e,0x0b,0x01, // 2432
0x79,0xf3,0x8a,0xfb,0xde,0xfb,0xae,0xf7, 0x0c,0xfd,0xab,0x01,0x43,0xfe,0xae,0x07, // 2448
0x89,0xfd,0x53,0xf2,0x7e,0x0c,0xc9,0x09, 0xa6,0x04,0x7e,0x0b,0xc1,0xf7,0x70,0xfb, // 2464
0xd1,0xf5,0xee,0xfd,0xe6,0x05,0xc2,0xfb, 0x89,0xf7,0xa8,0xfa,0x43,0xfb,0x22,0xfa, // 2480
0x00,0x08,0xcf,0xfc,0x87,0xff,0x98,0x04, 0x38,0xfb,0xc5,0x02,0xb9,0xfc,0xf3,0x04, // 2496
0x7e,0x05,0xd8,0xf4,0x53,0x0d,0xe4,0xfe, 0xa9,0x02,0x2a,0x04,0xb5,0x09,0x20,0x03, // 2512
0x32,0xfd,0x9e,0x08,0x56,0x06,0xf5,0x06, 0x1c,0x00,0xc9,0xfe,0x4c,0xf4,0x1b,0xf5, // 2528
0x57,0x04,0x80,0x0a,0x7a,0x07,0xc4,0xfd, 0x6b,0x01,0xd5,0x05,0x96,0x08,0x11,0x01, // 2544
0x2c,0x04,0x88,0xfb,0xdf,0x02,0xac,0x03, 0x46,0x0c,0xe9,0x01,0x61,0xf4,0xd9,0xf4, // 2560
0xdd,0xff,0xb8,0xfe,0xff,0xfc,0xac,0x03, 0x5a,0x05,0xd5,0x01,0x1d,0xf5,0x83,0x03, // 2576
0x43,0x4d,0x44,0x00,0x20,0x03,0x80,0x00, 0x10,0x0a,0x00,0x00,0x10,0x0a,0x00,0x00, // 2592
0x01,0x01,0x00,0x02,0x0c,0x00,0x00,0x00, 0x00,0x00,0x00,0x00,0x00,0x00,0x00,0x00, // 2608
0x01,0x00,0x8c,0x00,0x01,0x00,0x01,0x00, 0x8c,0x00,0x01,0x00,0x00,0x00,0x00,0x00, // 2624
0x0d,0x00,0xff,0xff,0xff,0xff,0xff,0xff, 0x00,0x00,0x00,0x00,0x00,0x00,0x00,0x00, // 2640
0x00,0x00,0x00,0x00,0x00,0x00,0x00,0x00, 0x00,0x00,0x00,0x00,0x00,0x00,0x00,0x00, // 2656
0x00,0x00,0x00,0x00,0x00,0x00,0x00,0x00, 0x00,0x00,0x00,0x00,0x00,0x00,0x00,0x00, // 2672
0x00,0x00,0x00,0x00,0x00,0x00,0x00,0x00, 0x00,0x00,0x00,0x00,0x00,0x00,0x00,0x00, // 2688
0x00,0x00,0x00,0x00,0x00,0x00,0x00,0x00, 0x00,0x00,0x00,0x00,0x00,0x00,0x00,0x00, // 2704
0x43,0x4d,0x44,0x00,0x20,0x05,0x00,0x00, 0x90,0x0a,0x00,0x00,0x10,0x02,0x00,0x00, // 2720
0x01,0x00,0x00,0x02,0x0d,0x0b,0x0c,0x0a, 0x00,0x00,0x00,0x00,0x00,0x00,0x00,0x00, // 2736
0x01,0x00,0x8c,0x00,0x01,0x00,0x01,0x00, 0x64,0x00,0x01,0x00,0x00,0x00,0x00,0x00, // 2752
0x0c,0x00,0xff,0xff,0xff,0xff,0xff,0xff, 0x00,0x00,0x01,0x00,0xc8,0x00,0x00,0x00, // 2768
0x00,0x01,0x02,0x00,0x18,0x01,0x00,0x00, 0x00,0x00,0x00,0x00,0x00,0x00,0x00,0x00, // 2784
0x00,0x00,0x00,0x00,0x00,0x00,0x00,0x00, 0x00,0x00,0x00,0x00,0x00,0x00,0x00,0x00, // 2800
0x00,0x00,0x00,0x00,0x00,0x00,0x00,0x00, 0x00,0x00,0x00,0x00,0x00,0x00,0x00,0x00, // 2816
0x00,0x00,0x00,0x00,0x00,0x00,0x00,0x00, 0x60,0x6d,0x00,0x00,0xc8,0x00,0x00,0x00, // 2832
0x05,0xff,0x76,0xfd,0x79,0xfd,0xc5,0xfd, 0x8c,0x01,0xe2,0x00,0xb4,0xfe,0x3f,0x03, // 2848
0x34,0xff,0x98,0xfe,0x52,0x05,0x8f,0x00, 0xca,0x00,0x5f,0x00,0xa0,0x01,0x8f,0xfd, // 2864
0x9a,0xfd,0x6b,0xfc,0x1d,0xfe,0xe8,0xfe, 0x30,0xfe,0x53,0x06,0xff,0xfe,0xa6,0x01, // 2880
0xd9,0xfe,0x21,0x00,0xf9,0x00,0x4d,0x05, 0x03,0xfb,0xf0,0x03,0x28,0xff,0x76,0x07, // 2896
0x86,0x01,0xa9,0x00,0x30,0xfe,0x3a,0xff, 0xdb,0xff,0x69,0x01,0x22,0xfb,0x61,0xfe, // 2912
0xed,0xff,0x97,0x05,0xea,0x00,0xc8,0xfc, 0x65,0xfd,0xa6,0xff,0x80,0x01,0x0b,0xfa, // 2928
0x4b,0x00,0x9c,0xff,0xa0,0xff,0x38,0x01, 0x80,0xfe,0xb5,0xff,0x44,0xff,0x07,0xfc, // 2944
0xeb,0xfe,0x7c,0xff,0xee,0xff,0x43,0xfc, 0xca,0x00,0xcb,0xfe,0xa4,0x01,0xea,0xff, // 2960
0x1c,0x00,0x6f,0x00,0xf3,0xfe,0x03,0x00, 0x16,0x01,0x80,0x01,0x72,0x03,0x6f,0x00, // 2976
0x6b,0xfe,0xea,0x01,0xa2,0x08,0xc6,0xfe, 0x4d,0x00,0xf5,0x01,0xa1,0xfe,0x6d,0xfd, // 2992
0x5f,0x00,0x57,0xf9,0xbe,0xff,0xdc,0x01, 0x88,0x00,0x9a,0xfe,0x0f,0x03,0x56,0xff, // 3008
0xfa,0x00,0x0f,0x05,0x19,0x00,0x21,0xfe, 0x59,0xff,0x1a,0xff,0x9f,0xfd,0x85,0xfb, // 3024
0x58,0x02,0x9c,0x00,0x52,0x06,0xcf,0x00, 0x44,0x01,0x89,0x00,0x57,0xff,0x15,0x03, // 3040
0x23,0xfd,0xa4,0xfe,0xd2,0xfd,0xb2,0xff, 0x13,0x00,0x13,0x00,0x09,0xfd,0xcb,0xff, // 3056
0x86,0xff,0x17,0x00,0xb1,0x00,0xfa,0x00, 0x5d,0x01,0x76,0xfb,0xfd,0xfe,0x1a,0xff, // 3072
0x12,0x03,0xd1,0xfe,0x35,0x00,0x97,0x00, 0x1a,0xff,0x2c,0x02,0xd9,0x00,0xec,0xf8, // 3088
0x0f,0xfe,0xb9,0x03,0x43,0x02,0xb3,0x02, 0x54,0xff,0x6d,0x00,0xeb,0xfe,0x3f,0x00, // 3104
0x9f,0x00,0x8e,0xf4,0x52,0x05,0x62,0x01, 0x47,0x04,0x17,0x02,0x49,0x00,0xfd,0xff, // 3120
0xfa,0x00,0x87,0xff,0x36,0x02,0x41,0xfc, 0x0b,0x00,0xb1,0xff,0x31,0xfe,0x7b,0xfe, // 3136
0x55,0x00,0xe9,0xff,0xe3,0xfe,0x74,0x05, 0x8f,0x00,0xda,0x05,0xee,0x02,0x87,0x01, // 3152
0xdc,0x02,0x85,0xfe,0x03,0x00,0x18,0x02, 0xdc,0x00,0x9c,0xfe,0xfc,0xfe,0x8c,0xf3, // 3168
0xb8,0x05,0x9b,0xff,0x6e,0x00,0xec,0xfa, 0xd1,0xfa,0x8b,0xfd,0x1d,0x03,0xd6,0xfe, // 3184
0x53,0x02,0x75,0xfa,0x31,0x02,0xfd,0xfe, 0xc1,0xff,0x69,0xf9,0xee,0xff,0xc5,0x03, // 3200
0xdd,0x01,0xa4,0xff,0xeb,0xff,0xd5,0x05, 0x77,0x04,0xfb,0xff,0x00,0x00,0x0c,0xff, // 3216
0x9b,0x03,0xce,0xff,0x56,0xff,0x12,0x00, 0x1d,0x01,0x59,0x02,0x9c,0x01,0x0c,0x00, // 3232
0x0d,0xff,0xc1,0x02,0x1c,0xfe,0x2e,0x02, 0x82,0x00,0xac,0xfd,0xef,0xfc,0x90,0xff, // 3248
0xd4,0x00,0x6d,0x00,0x88,0xfc,0x8d,0xff, 0x56,0x01,0x81,0xfd,0xc3,0xf7,0xed,0x01, // 3264
0x75,0x00,0x2c,0x00,0xaa,0xff,0x7d,0x01, 0xa8,0xff,0x41,0x01,0xf1,0xff,0x2f,0xff, // 3280
0xf8,0xff,0xe8,0xff,0x60,0xf5,0xcf,0xff, 0x73,0xfe,0x9f,0xf9,0xad,0x02,0xb1,0x03, // 3296
0x9c,0xfe,0xbb,0x05,0x09,0x06,0x51,0x02, 0x9d,0x01,0x82,0xff,0xd5,0xf6,0xf4,0xff, // 3312
0x54,0xfe,0x88,0x00,0xa6,0xfd,0xc4,0xfb, 0x40,0x02,0x8a,0x00,0xb7,0x00,0x58,0xfd, // 3328
0xa4,0xff,0xf6,0xfe,0x29,0x01,0xf8,0xfe, 0x20,0x01,0x34,0x02,0x2b,0x02,0x46,0x00, // 3344
0x78,0x01,0x07,0x00,0x9d,0xff,0xcb,0x03, 0x17,0xfb,0x29,0x00,0xee,0xff,0x3b,0xff, // 3360
0x72,0x01,0x35,0xfe,0x7a,0xff,0x6b,0x07, 0x76,0x00,0x86,0xfe,0xb6,0xff,0x72,0x01, // 3376
0xa6,0x01,0x75,0x00,0x42,0x00,0x76,0x00, 0x53,0xfe,0xb4,0x08,0x18,0xfe,0xb3,0xfe, // 3392
0xbe,0x00,0xab,0xfe,0x6c,0xff,0xb5,0xfe, 0xfb,0x00,0xd9,0x03,0x98,0x01,0x2f,0xf9, // 3408
0x1c,0x00,0x2d,0x00,0xd9,0x03,0xf2,0xff, 0xc6,0x00,0xab,0x04,0x0d,0x00,0xeb,0x08, // 3424
0xac,0xfe,0x79,0x01,0xba,0x02,0xdb,0x02, 0x44,0xff,0xcd,0xff,0x7c,0x00,0x13,0x06, // 3440
0x35,0xff,0x41,0xfe,0xd8,0xff,0x7e,0xfc, 0x4f,0x03,0x3a,0x00,0x2a,0x00,0x8d,0xfd, // 3456
0xb0,0xff,0x88,0xff,0x9f,0x00,0x11,0x00, 0x2b,0x00,0xd8,0xfe,0x6f,0xfe,0x6c,0xff, // 3472
0x1b,0x01,0x40,0xfe,0x19,0x01,0x3c,0xfe, 0xa3,0x02,0xc9,0xfe,0xc7,0xff,0xd7,0x00, // 3488
0xd1,0x01,0x2e,0x01,0xfa,0xff,0xdd,0x00, 0x0f,0x05,0x16,0xf8,0x72,0x00,0x40,0xf9, // 3504
0xe9,0x01,0x19,0x04,0xd3,0xff,0x98,0x00, 0x6b,0xff,0x09,0x00,0x26,0x00,0xc0,0x00, // 3520
0x36,0x01,0xa1,0xff,0xd7,0xfb,0x2e,0x00, 0x0f,0x01,0x22,0x0a,0x32,0x01,0x81,0xff, // 3536
0xdb,0xff,0xf8,0x00,0x70,0x00,0xa3,0x00, 0x09,0x00,0xff,0xff,0x34,0x00,0xc8,0xff, // 3552
0x85,0x03,0x13,0xff,0x0a,0xff,0x21,0x01, 0x57,0x00,0xea,0x01,0x4a,0xfe,0x15,0x01, // 3568
0x48,0xff,0x3f,0xff,0xff,0x00,0x54,0x00, 0xeb,0xfd,0x90,0x00,0x6c,0x00,0x87,0xfc, // 3584
0x53,0x03,0x91,0xff,0x7c,0xfd,0x43,0xff, 0x3d,0xff,0x71,0x01,0x04,0xfd,0x6b,0xff, // 3600
0x29,0xff,0xeb,0xff,0x6b,0x00,0x66,0xff, 0xde,0x00,0x55,0x00,0xa1,0x00,0xc8,0xff, // 3616
0x47,0xfe,0xff,0xfa,0xc8,0x01,0xfa,0x01, 0x9b,0xfd,0x4b,0xfc,0xa4,0xf4,0xd1,0xfe, // 3632
0xb3,0x03,0x23,0x01,0xc0,0x00,0x31,0x00, 0xbf,0xff,0x0c,0x04,0x96,0xff,0x16,0x04, // 3648
0x36,0xfe,0x62,0xfd,0x9e,0xfd,0x73,0x05, 0xff,0x02,0xdb,0xff,0xa0,0x01,0x1c,0x00, // 3664
0xde,0xff,0xd8,0x00,0x35,0x02,0x69,0xff, 0xd9,0xff,0x25,0x00,0xad,0x01,0xe7,0xff, // 3680
0x9c,0x00,0xd7,0xff,0x85,0xff,0xae,0x03, 0x2f,0x00,0x76,0x01,0x1c,0xff,0x6d,0x01, // 3696
0xa5,0x00,0xfb,0x00,0x1f,0x00,0xdd,0xfc, 0x1a,0x00,0x5a,0xff,0x0c,0xff,0x97,0xfd, // 3712
0x34,0xff,0x89,0x00,0xdd,0xff,0xe7,0xfc, 0xc4,0xff,0xb8,0x00,0x8a,0xff,0x3d,0x01, // 3728
0x2c,0xfe,0xee,0xfe,0x2d,0x00,0x84,0x01, 0xbb,0x00,0x50,0x00,0xb5,0xfe,0x4c,0x01, // 3744
0xc5,0xff,0x1e,0x01,0xcc,0x01,0xda,0x00, 0xcf,0xff,0x5a,0x01,0x79,0xff,0xe4,0xfe, // 3760
0xb8,0xff,0x33,0x01,0xf0,0xff,0x41,0xfe, 0xba,0xfe,0x38,0x00,0x1c,0xfe,0x2c,0x01, // 3776
0xf3,0xfe,0xe4,0xff,0xa4,0x00,0x70,0x02, 0xa6,0x00,0xf8,0xfe,0xf1,0xff,0x90,0xff, // 3792
0xeb,0x00,0x5c,0x00,0x42,0x01,0x69,0x00, 0x65,0xff,0x28,0x00,0x8b,0x02,0xdf,0xfd, // 3808
0x6d,0xff,0xb6,0xff,0x10,0x00,0x29,0x00, 0xf0,0x00,0xf7,0xff,0xd4,0x00,0x6c,0xff, // 3824
0x09,0xff,0x94,0xff,0x11,0xff,0x47,0xff, 0x01,0x00,0x00,0x00,0xce,0x00,0x95,0xff, // 3840
0xbd,0xff,0x01,0x00,0xa6,0x00,0xa8,0xff, 0x68,0x01,0x4c,0x02,0xf3,0xff,0xcd,0xff, // 3856
0xfa,0x00,0x11,0x00,0x2b,0x00,0x8f,0x00, 0x40,0xff,0x25,0xff,0x9f,0x01,0xf6,0xff, // 3872
0x74,0x00,0xa1,0x00,0x3a,0x00,0x43,0xff, 0x76,0xff,0xa6,0x00,0x6f,0xfe,0x4e,0x00, // 3888
0x40,0xff,0x7f,0x00,0x32,0xff,0x1a,0x00, 0x6d,0x00,0x35,0x00,0x57,0xff,0xf1,0x00, // 3904
0x6b,0x01,0xbe,0x00,0xb1,0x01,0xc7,0xfe, 0x7f,0xff,0x5b,0x00,0x3d,0xff,0xa1,0xfd, // 3920
0x6e,0x00,0x97,0xfe,0x46,0xff,0xfb,0xfe, 0xb7,0xff,0xce,0x00,0x28,0x01,0xf7,0xfe, // 3936
0xfc,0xfe,0xdd,0x00,0x90,0xff,0x79,0xff, 0x23,0xff,0x04,0xff,0x4a,0xfe,0xb7,0x00, // 3952
0xa3,0x00,0xee,0xff,0xeb,0xfe,0x4a,0x06, 0x39,0xfa,0x41,0x01,0xec,0xfc,0x22,0xfe, // 3968
0x9e,0x03,0xf9,0xfe,0x75,0xfd,0xcd,0x01, 0x1e,0x00,0xcf,0x01,0xc0,0xff,0xb5,0x01, // 3984
0x5e,0x01,0xba,0x01,0x47,0x01,0xff,0x00, 0x4e,0xfd,0x25,0xfd,0x02,0x00,0x21,0xfb, // 4000
0xd4,0xfe,0xd0,0xfd,0x00,0xfd,0xe8,0x00, 0x7a,0x02,0xbf,0xf9,0x13,0xfd,0x66,0xfd, // 4016
0x2f,0x00,0x7b,0x01,0xc6,0x00,0xb4,0x00, 0xcf,0xff,0xc3,0x01,0x38,0x00,0x20,0x02, // 4032
0xc1,0x01,0x7b,0xfd,0xaa,0x00,0x12,0x00, 0xe9,0x00,0x69,0x00,0xce,0xf3,0x59,0x00, // 4048
0xcd,0xfb,0x8f,0xff,0xe0,0xff,0x08,0x00, 0x09,0x02,0x41,0xfd,0xdd,0x00,0xf4,0x02, // 4064
0x6f,0x03,0x4f,0xfe,0x53,0x00,0x6d,0x06, 0x75,0xff,0xb0,0xff,0x46,0x00,0x90,0xff, // 4080
0xa4,0x01,0x6c,0xfe,0x09,0x04,0x94,0xff, 0x25,0xff,0x35,0x02,0x7d,0xff,0x01,0xff, // 4096
0xf3,0xfe,0x8f,0x00,0x4f,0x00,0x1e,0x01, 0xb6,0xfd,0xfc,0xfc,0x44,0x02,0xb2,0x03, // 4112
0x76,0x03,0x8f,0x06,0xaa,0xfb,0xdb,0xff, 0xbe,0xfe,0xa0,0x01,0x6b,0x01,0x5a,0x00, // 4128
0xfc,0xfe,0xa0,0xfe,0x5c,0xff,0x22,0xfe, 0x58,0x00,0x9b,0xff,0xb9,0x00,0x2e,0x01, // 4144
0x1b,0xff,0x6a,0xff,0x40,0xfd,0xec,0xff, 0xa6,0x03,0xe8,0xfd,0x58,0x04,0xb0,0x00, // 4160
0x02,0xff,0xc4,0x00,0xc0,0x01,0xe1,0x02, 0x06,0x01,0xcf,0x02,0x27,0x01,0x2c,0x03, // 4176
0x01,0xfe,0x2b,0xfd,0xaf,0xff,0x39,0xff, 0xd0,0xfd,0x99,0x02,0x2d,0xfd,0x6a,0xff, // 4192
0xf8,0x01,0x0d,0x01,0xcc,0x00,0x05,0x00, 0x74,0xff,0x3f,0x01,0x2a,0xff,0xf8,0x01, // 4208
0xbd,0x02,0xd6,0xfe,0x1f,0xfd,0x7f,0xfd, 0x93,0x01,0x07,0x00,0x88,0xff,0xf3,0x00, // 4224
0xb6,0xff,0xd5,0x01,0xc2,0xf8,0x63,0xff, 0x4e,0x01,0xd8,0x00,0xf3,0xfe,0x3b,0xff, // 4240
0x4d,0xff,0xec,0x03,0x8e,0x00,0xa9,0xfe, 0x6d,0x00,0xeb,0xff,0x66,0x00,0xb5,0x00, // 4256
0x8e,0x00,0x1c,0x05,0x33,0xff,0x91,0xff, 0x2a,0xff,0xfd,0x00,0x34,0xff,0xef,0x00, // 4272
0x1b,0xfe,0x15,0x01,0xcd,0xff,0x53,0x00, 0x9e,0xfe,0xdd,0x00,0x72,0x00,0x23,0x00, // 4288
0x88,0xff,0x83,0xff,0x83,0xff,0x91,0x00, 0xf2,0xfe,0x40,0x00,0x8f,0xff,0x94,0xff, // 4304
0x7f,0x00,0x5e,0xff,0xa4,0xfc,0x3a,0x01, 0x4f,0x00,0x96,0x00,0x94,0x00,0x45,0xfe, // 4320
0x58,0x00,0x7f,0x00,0xf2,0xfe,0x8a,0xff, 0xc3,0xff,0x31,0x00,0x9d,0xff,0xc5,0x00, // 4336
0x40,0x00,0xc8,0xfe,0xf2,0x00,0xd5,0xff, 0x31,0xff,0xfd,0xfe,0x10,0xff,0xb0,0xff, // 4352
0xe5,0xfe,0x3b,0x02,0x0a,0xff,0xaa,0x00, 0x68,0xfe,0x93,0x01,0x2c,0x00,0xaf,0xfe, // 4368
0x6f,0xff,0xd2,0xff,0xb9,0x00,0xa1,0xff, 0x40,0x00,0xa9,0x01,0x47,0x02,0x9a,0x00, // 4384
0xa7,0x00,0xd3,0xff,0x78,0x00,0xc7,0x00, 0xb6,0x02,0xc2,0xff,0x60,0x00,0x50,0x00, // 4400
0xf3,0xfe,0xf8,0xff,0x05,0x00,0x10,0x00, 0x3d,0x00,0x10,0xff,0x19,0x02,0x4e,0x00, // 4416
0x18,0x00,0x70,0x00,0x54,0xfe,0x9b,0xfe, 0x03,0x01,0x71,0xff,0x11,0xff,0x86,0xff, // 4432
0xda,0xff,0x2d,0xff,0x1d,0x00,0x97,0xff, 0xa9,0xfe,0xce,0xfe,0xfe,0xff,0x03,0xff, // 4448
0x05,0x00,0xfe,0xfe,0x14,0xff,0x2c,0x00, 0x95,0xfd,0xf9,0xfb,0xd2,0xfe,0xcf,0xfe, // 4464
0x35,0xff,0x93,0xff,0xae,0xff,0xdf,0xff, 0xc4,0x04,0x61,0xff,0x7a,0x00,0x58,0xff, // 4480
0xf9,0xff,0x97,0x02,0x46,0xff,0xd4,0x00, 0x41,0x00,0x5e,0xff,0xbb,0xff,0x57,0xff, // 4496
0x08,0x01,0x3f,0x00,0xed,0x00,0x67,0x02, 0x4d,0xff,0xfc,0xfd,0xea,0xff,0x4d,0xff, // 4512
0x6e,0x00,0x7a,0x03,0x20,0x01,0x65,0x00, 0xdc,0xff,0x7e,0xfe,0x60,0x00,0x46,0x03, // 4528
0x75,0x01,0x6e,0xfd,0x50,0xfd,0x53,0xff, 0x18,0x00,0x06,0xfe,0x34,0x00,0xf7,0xfe, // 4544
0x66,0x03,0x67,0xff,0x4c,0x00,0x3a,0xff, 0x6a,0x02,0x32,0x00,0x13,0xff,0x75,0xfe, // 4560
0xd7,0xff,0x5e,0x00,0xc9,0xff,0xab,0x00, 0x15,0xff,0xfb,0xfe,0x1f,0x00,0x5e,0x01, // 4576
0x2d,0xfe,0xdd,0xfd,0x17,0x00,0x29,0xff, 0x05,0x01,0xf0,0xff,0x4c,0x01,0x63,0x00, // 4592
0x44,0xff,0x2c,0x00,0xc6,0xfe,0x49,0x02, 0x32,0xfe,0xd0,0xfc,0xce,0xff,0x6a,0x02, // 4608
0x8a,0x00,0xb6,0xff,0xf2,0x03,0x81,0xfe, 0xfc,0x00,0x8b,0x00,0xa8,0xfc,0x69,0x01, // 4624
0x83,0x01,0x5d,0xff,0x2d,0xff,0x1b,0xff, 0xbc,0xff,0x37,0x02,0x4a,0xfe,0x90,0x00, // 4640
0x2a,0x00,0x63,0x01,0x75,0x00,0x6e,0x02, 0x93,0xfe,0x75,0xfd,0x01,0xff,0x1d,0x00, // 4656
0xd5,0xfe,0x9a,0xfe,0x79,0xfb,0x02,0x00, 0x03,0x01,0x84,0xff,0xec,0xff,0xb4,0x01, // 4672
0x2c,0x00,0x20,0x01,0xcb,0xff,0xdc,0xfc, 0xa8,0xff,0xb3,0xfe,0x25,0x00,0x6c,0xfc, // 4688
0xfd,0x00,0xd2,0xff,0xf6,0x00,0xb9,0x01, 0x4c,0x00,0xf2,0x00,0xd2,0x01,0xb4,0x01, // 4704
0x53,0xfe,0xe8,0x02,0xb3,0xff,0xc6,0x01, 0x2b,0xff,0xb6,0xfe,0x5f,0x00,0x0f,0xff, // 4720
0xb2,0x03,0xce,0xff,0x32,0x02,0xc5,0xff, 0x78,0x00,0x8d,0x00,0xe3,0x00,0x42,0xff, // 4736
0x7e,0x00,0x0e,0x02,0x6d,0xfd,0xff,0xfd, 0xcd,0x03,0x32,0x01,0xba,0x02,0x9f,0x04, // 4752
0xfa,0xfc,0x7d,0xff,0xb4,0xff,0x2c,0x02, 0x13,0x01,0x16,0xfb,0x05,0x03,0x08,0x00, // 4768
0xd2,0x00,0x02,0x01,0xc4,0x00,0xf2,0xfe, 0x4d,0xff,0x97,0xff,0xe3,0xfb,0x27,0x01, // 4784
0x46,0x00,0x5c,0x00,0x0c,0xfe,0x0d,0x01, 0x27,0x03,0x60,0x00,0xb9,0xff,0xf2,0x00, // 4800
0xc0,0xfb,0x05,0x00,0x00,0xfd,0x14,0x00, 0xb2,0x00,0xa6,0x01,0x4a,0x00,0x77,0x04, // 4816
0x4d,0x01,0xe4,0x00,0xc0,0xf8,0xc0,0xfe, 0xbd,0x05,0xf6,0xff,0x11,0xff,0xea,0xfe, // 4832
0x83,0xfd,0xf6,0xfd,0x98,0x0e,0xc0,0xfd, 0xcc,0x00,0x84,0xff,0x20,0x00,0xc9,0xff, // 4848
0x79,0xff,0x3b,0xff,0xea,0xf6,0xb7,0xfd, 0x03,0x00,0x3b,0x02,0x21,0xff,0xf0,0xfe, // 4864
0x1b,0x02,0x39,0x00,0xb5,0xff,0x65,0x02, 0xb5,0xff,0x12,0x00,0xde,0xfe,0x84,0xff, // 4880
0xc3,0x01,0xfe,0x00,0x9a,0xfd,0xdd,0x00, 0x67,0xff,0x69,0xff,0x95,0xfe,0xf4,0x02, // 4896
0x9c,0xfe,0x2b,0x00,0x27,0x01,0x53,0x01, 0x9b,0xff,0xcb,0xfd,0xb0,0xff,0xb6,0x02, // 4912
0xd5,0x01,0xb9,0xff,0x93,0xff,0xe8,0x06, 0xe9,0xff,0xf9,0xff,0xb2,0x02,0xaf,0xfe, // 4928
0x43,0xfe,0xe5,0xff,0x63,0x02,0x20,0x01, 0xc3,0xff,0x6c,0x04,0x35,0xfc,0x27,0xff, // 4944
0x94,0xfe,0x54,0xfe,0x5f,0x0a,0xc3,0xff, 0xd3,0xff,0x0c,0x04,0xf5,0xfe,0x89,0xfc, // 4960
0x07,0x01,0xe8,0x05,0x31,0xfe,0xe8,0x01, 0xe7,0x00,0xd2,0x00,0x9e,0xff,0xb0,0xfe, // 4976
0xeb,0x00,0xe8,0x03,0x28,0x07,0x95,0xff, 0xe6,0xfc,0xc7,0xff,0xf9,0x00,0x4a,0xff, // 4992
0x17,0x01,0x28,0x00,0xef,0x00,0xea,0xfd, 0x9d,0xfd,0x95,0x01,0x28,0x00,0x2e,0x00, // 5008
0xe3,0xff,0xc2,0xff,0x05,0x08,0xb8,0x00, 0xdf,0x00,0x82,0xff,0xd3,0xff,0x90,0x00, // 5024
0x94,0xfd,0x9c,0x01,0x63,0x00,0x46,0x03, 0x7c,0xff,0x81,0x02,0x0d,0x00,0xfd,0xfd, // 5040
0x1a,0xfa,0x71,0x00,0xaa,0xfe,0xfd,0xff, 0x27,0x00,0xb6,0xfe,0x81,0xf9,0x9b,0xff, // 5056
0x2e,0x02,0x5f,0xf7,0x8f,0x01,0xd6,0xfe, 0xe3,0xf9,0xd2,0x01,0x31,0xfe,0xe7,0xfc, // 5072
0xe7,0x00,0x79,0x00,0x65,0xfc,0xbb,0x00, 0x6a,0xff,0x13,0x08,0xa3,0x00,0xd8,0xff, // 5088
0x70,0x01,0xeb,0xfe,0xe5,0x00,0x53,0x00, 0xca,0x00,0x16,0x06,0x67,0xff,0x93,0xff, // 5104
0x7a,0xfe,0x15,0xff,0xa8,0xff,0xa7,0x00, 0x74,0xfe,0x49,0x03,0x76,0x00,0x2c,0x00, // 5120
0x85,0xfc,0xd0,0xfe,0xe4,0xfe,0xcf,0x00, 0x7e,0xfe,0x14,0x01,0x10,0x00,0xab,0x00, // 5136
0x66,0x00,0x0b,0x00,0xf6,0xff,0x85,0xff, 0x35,0x00,0xff,0xfd,0xa5,0xf7,0xec,0x01, // 5152
0x8c,0x00,0x52,0x01,0xe3,0xff,0x3d,0xfa, 0xcb,0xff,0xd4,0xff,0xdd,0xfd,0xb5,0xfc, // 5168
0x04,0x00,0x07,0x00,0x78,0xff,0xd8,0x00, 0xa4,0x01,0x2f,0xf8,0xec,0xfe,0x90,0xfb, // 5184
0x34,0x00,0xc0,0xff,0x6d,0xff,0x56,0xff, 0x97,0x00,0xbf,0x01,0x63,0xff,0xdc,0x00, // 5200
0xff,0xfe,0xbe,0x01,0x59,0x00,0xe9,0xff, 0x8d,0xfe,0xfd,0x06,0x43,0x01,0x36,0x00, // 5216
0x87,0xfd,0x33,0x01,0x6d,0x00,0x65,0xff, 0x2a,0x01,0x31,0xfe,0x82,0xff,0x72,0x01, // 5232
0xa4,0x07,0x0b,0x00,0x1d,0xfe,0x9a,0xfe, 0xa5,0x00,0xa2,0x00,0x84,0xff,0x2b,0xff, // 5248
0x5f,0x00,0xbc,0x00,0x35,0x02,0x91,0xff, 0x05,0xff,0x92,0x00,0xd2,0xff,0xf7,0xf6, // 5264
0xe5,0xff,0x9d,0x00,0x2e,0x01,0xe2,0x00, 0xf2,0x01,0x7d,0xfd,0x50,0x01,0x4a,0xff, // 5280
0x18,0xff,0x46,0xfd,0x5c,0x03,0x4f,0x00, 0xe8,0x01,0x7e,0xff,0x84,0xff,0xd5,0x00, // 5296
0xf7,0xfc,0x8b,0xee,0x77,0xfe,0xbd,0xfe, 0x19,0x00,0xbd,0xfc,0x8a,0xfb,0x41,0x01, // 5312
0xef,0x07,0x10,0x00,0x5e,0xff,0x4e,0x00, 0x2f,0xff,0xbc,0x01,0x2a,0x00,0x52,0xfd, // 5328
0xe1,0x00,0x17,0xff,0x03,0xff,0xe2,0xff, 0xc9,0xff,0xa1,0xfe,0xea,0xff,0x4a,0x04, // 5344
0xde,0xff,0x1f,0xfc,0x86,0xff,0x54,0xff, 0x9a,0x00,0x93,0xff,0x27,0x01,0x3a,0xfe, // 5360
0x83,0x01,0x15,0x01,0x04,0x00,0xd5,0xf7, 0x76,0xff,0x5d,0x00,0x51,0x06,0x4a,0xff, // 5376
0xab,0x00,0x50,0x01,0x66,0xff,0x0c,0x0a, 0x43,0xfe,0x37,0x04,0x6a,0x00,0x2b,0x05, // 5392
0x42,0x00,0xd0,0x01,0xcf,0xff,0xe5,0x06, 0x71,0xff,0xc8,0xff,0x16,0x01,0x1d,0xfb, // 5408
0x95,0x06,0xc3,0x00,0xca,0xff,0xd9,0xfc, 0x69,0x00,0x06,0x01,0xef,0x04,0x7a,0xff, // 5424
0x5f,0xfe,0xb6,0xfd,0x8f,0xfe,0x10,0x00, 0xe3,0xff,0xea,0xfa,0x5a,0x02,0x0a,0xff, // 5440
0x6f,0x00,0xba,0x00,0x08,0xff,0xa5,0xfe, 0x34,0x04,0x50,0x02,0xb6,0xff,0x02,0x00, // 5456
0xd4,0x02,0x44,0xff,0x09,0x01,0x7f,0xf5, 0x9d,0x00,0x72,0x01,0xea,0xff,0x6b,0x00, // 5472
0x8e,0xfc,0x06,0x00,0x4c,0x00,0x93,0xff, 0xcb,0x00,0xfa,0xff,0x1b,0xf9,0x35,0xfe, // 5488
0x75,0x00,0xd0,0x03,0x68,0x00,0x58,0xfe, 0x70,0xff,0x04,0x00,0x1f,0x00,0xeb,0x02, // 5504
0xe6,0xff,0xb6,0xff,0x26,0x00,0x10,0xff, 0x03,0x00,0xe8,0xfc,0x6e,0x00,0x95,0x00, // 5520
0xb9,0xff,0x05,0x00,0xbe,0xfe,0x33,0x01, 0xc6,0xfc,0x90,0xfa,0x0c,0x00,0x68,0xff, // 5536
0xe7,0xfe,0xb9,0x00,0x45,0x01,0x32,0xfe, 0xc9,0x02,0x08,0xfd,0xfd,0xf8,0x25,0xff, // 5552
0xe8,0xff,0x7a,0x02,0x1a,0xfe,0xc7,0xff, 0x2a,0xfe,0x58,0x00,0x63,0xff,0xbc,0xfe, // 5568
0xd2,0x00,0xfe,0xff,0x60,0xff,0xec,0xff, 0xac,0xff,0xc0,0xff,0xb2,0x00,0x5b,0x01, // 5584
0x6e,0xfe,0xd3,0xfb,0xba,0xfa,0x98,0xff, 0xa4,0x01,0x80,0x00,0xef,0x01,0xc5,0xff, // 5600
0x07,0x00,0xf7,0x03,0x7d,0xff,0x24,0x06, 0xfe,0xff,0x74,0xff,0xb9,0x00,0xfc,0x03, // 5616
0xdf,0xff,0xb2,0xff,0xb3,0x01,0x8c,0xff, 0x56,0x00,0x77,0x00,0x7d,0x04,0xbd,0xff, // 5632
0x07,0x06,0x52,0x01,0x8b,0x00,0x7b,0xfd, 0x8a,0x01,0x7a,0xff,0x70,0x04,0x3f,0xfe, // 5648
0x69,0xfd,0xb5,0xff,0x76,0xfe,0xe4,0xfe, 0xe3,0x04,0x91,0xff,0xda,0xfc,0xeb,0x01, // 5664
0x73,0xff,0x70,0x01,0xb6,0xfe,0x76,0x01, 0xab,0x02,0x53,0x00,0x3a,0x01,0x7f,0x00, // 5680
0x6c,0x00,0xa4,0x02,0x2d,0x02,0x67,0xf6, 0xb0,0x03,0x18,0x03,0x7d,0xff,0xb5,0xfb, // 5696
0xd5,0xf7,0x09,0xfe,0xdf,0x03,0x84,0xf5, 0xc7,0xfe,0x27,0xf8,0xbb,0x02,0xcc,0xff, // 5712
0xa0,0xfe,0xe3,0xfa,0x04,0x03,0x41,0x01, 0x3b,0xff,0x7f,0xff,0xfe,0x02,0xe5,0x03, // 5728
0x7c,0x04,0x02,0x03,0x12,0x00,0xf5,0xfe, 0xd4,0x01,0xa5,0x00,0x54,0x00,0xe3,0x00, // 5744
0xea,0xfc,0x3a,0x00,0x9f,0xfb,0x4c,0xfd, 0x19,0xfe,0x3c,0x02,0x3c,0xfc,0xd6,0x05, // 5760
0xa6,0xfa,0x74,0x01,0x60,0xfe,0xd8,0xff, 0xa2,0xfe,0xcf,0xfc,0x92,0xff,0x9d,0xfd, // 5776
0x0a,0x02,0x73,0xfe,0xd3,0xf9,0x87,0x02, 0x9d,0x02,0x94,0xff,0xd0,0xff,0x38,0x00, // 5792
0xbb,0xff,0xe5,0x00,0x08,0x02,0xd8,0xf9, 0x49,0xfd,0x61,0x00,0xe0,0xf6,0x35,0x00, // 5808
0x57,0xfc,0xbe,0xfa,0x92,0x01,0x44,0x09, 0xfc,0xfe,0xf9,0x08,0x24,0x05,0xb7,0x01, // 5824
0xf8,0xff,0x04,0x00,0x3a,0xfa,0x64,0x00, 0xec,0xfc,0x1c,0xff,0xf2,0xfd,0x0a,0xf9, // 5840
0x3a,0x02,0x32,0x00,0x49,0x00,0x60,0xf4, 0xb0,0xff,0x10,0xf6,0xcc,0xff,0x2a,0xfa, // 5856
0x43,0x02,0xef,0x01,0xca,0xff,0x91,0xff, 0x08,0x02,0x0a,0x00,0xec,0x01,0x0d,0x03, // 5872
0x8c,0xfc,0xb3,0xff,0xc7,0x02,0xc7,0xff, 0x50,0xff,0xdb,0xfd,0xe7,0xff,0x0e,0x03, // 5888
0x16,0xff,0x9a,0x00,0xb2,0xff,0x77,0xff, 0x6b,0x00,0x9d,0xfc,0x74,0xff,0xdd,0x00, // 5904
0x53,0xfb,0x13,0x03,0x70,0xfe,0xc6,0xfd, 0xae,0x00,0xc8,0xff,0xb6,0xf2,0x81,0x00, // 5920
0x5c,0xfe,0x57,0x03,0xb2,0xfe,0xb4,0x00, 0x3e,0x00,0x65,0xfa,0x34,0x00,0xa4,0x02, // 5936
0x2d,0x00,0x60,0x02,0xe2,0xfe,0xfe,0xfe, 0xab,0x00,0x1c,0x01,0x8d,0xfe,0xb5,0xff, // 5952
0xf5,0xf9,0x10,0x01,0xc1,0x00,0xd0,0xfe, 0x11,0xff,0x79,0xfe,0xa3,0xff,0x04,0x00, // 5968
0x71,0x00,0x69,0x01,0xa3,0xfd,0xc4,0xff, 0x78,0xff,0xe5,0x02,0xb8,0xff,0x0a,0x00, // 5984
0x8b,0x00,0xf5,0xfe,0x95,0xfc,0xec,0x01, 0x5d,0x00,0xed,0xfe,0xf1,0xff,0x44,0xf8, // 6000
0x29,0x00,0xa3,0xfb,0x59,0xff,0xc9,0xfd, 0x54,0xff,0xd7,0xff,0xb8,0x00,0x82,0x02, // 6016
0x72,0x01,0x7f,0xfe,0xe5,0xfd,0x7c,0x00, 0xbd,0x00,0x52,0xff,0xf6,0xfe,0xf5,0xff, // 6032
0xa8,0x00,0x82,0x00,0xe1,0xfe,0x1c,0x00, 0x2b,0x00,0xef,0xff,0x33,0x00,0x62,0x02, // 6048
0x93,0xfe,0xcd,0x01,0xfe,0x02,0xfd,0xff, 0x90,0xfe,0x8a,0x02,0x3a,0x01,0xc6,0x00, // 6064
0xdf,0x01,0x3f,0xfc,0xf8,0x02,0x99,0xff, 0xcf,0x03,0xcd,0xff,0x84,0xfe,0xed,0xff, // 6080
0x0c,0x00,0x66,0x01,0x5e,0xff,0xdb,0xf9, 0xd1,0xff,0xdf,0xff,0xac,0x00,0x4c,0xff, // 6096
0xe3,0xff,0xee,0xff,0x45,0xff,0x53,0xfd, 0x2b,0xff,0x13,0x04,0x97,0xff,0x3b,0x06, // 6112
0xd4,0x01,0xa0,0xfc,0x16,0x01,0x91,0xff, 0x32,0xfc,0x50,0xfe,0x3c,0x02,0xc3,0xff, // 6128
0x61,0x00,0x70,0xff,0x2e,0x00,0xab,0x00, 0x8e,0xff,0x27,0xfb,0xb7,0xfd,0xfb,0xfe, // 6144
0xcf,0xff,0x81,0xff,0x81,0xfd,0x2b,0x00, 0xf0,0x04,0x2e,0x01,0x13,0x00,0x97,0x01, // 6160
0x79,0xfe,0x2f,0x01,0x72,0x03,0x33,0xff, 0xb2,0x00,0x77,0xff,0x5b,0xfe,0x73,0x00, // 6176
0x7a,0x02,0x92,0xff,0x4c,0xfc,0x0f,0x03, 0x04,0xff,0xa2,0xfd,0x27,0x00,0x43,0xff, // 6192
0x2d,0xff,0x61,0xff,0x6d,0x00,0x8d,0x02, 0xb5,0xfa,0xf9,0xfd,0xf5,0xfc,0x69,0x04, // 6208
0x91,0x00,0x5c,0x02,0xf2,0xfb,0x3e,0x02, 0x96,0xff,0xc1,0xfd,0xef,0xff,0xff,0xf6, // 6224
0x9f,0x01,0xf2,0xff,0x90,0xfd,0xb6,0xff, 0xbc,0xfc,0xe4,0xfb,0x7d,0x00,0xcf,0xf5, // 6240
0xd0,0x01,0xce,0x01,0x4b,0x00,0x55,0x04, 0x1f,0xff,0xe5,0xfb,0xe5,0xfd,0x49,0x02, // 6256
0x10,0x01,0x20,0x01,0x87,0xfe,0xf8,0x00, 0x24,0x01,0x6b,0x02,0x6d,0x02,0x8c,0x04, // 6272
0x5b,0xff,0x46,0xfe,0xaf,0x00,0x11,0x01, 0x86,0xfe,0x4b,0xff,0xe1,0xfc,0x31,0x00, // 6288
0x55,0xfc,0xfc,0xff,0x34,0xfe,0x9c,0xff, 0xa3,0xfd,0x8d,0x04,0x99,0x01,0x34,0x08, // 6304
0xb1,0xff,0x07,0xf8,0xaa,0xff,0x9f,0x03, 0x6b,0x00,0xff,0xff,0x4e,0xff,0xa2,0x00, // 6320
0xd1,0xff,0x91,0x00,0x0b,0x0b,0x4b,0x00, 0x41,0xfd,0xd1,0xf9,0x11,0x00,0x17,0x01, // 6336
0x89,0x00,0xca,0xff,0xb5,0xff,0xb7,0x01, 0x74,0xff,0x79,0xfc,0x65,0x03,0x2d,0x01, // 6352
0xf5,0xfd,0xe8,0x04,0xdc,0x00,0xf6,0xff, 0xb9,0xff,0xa2,0x00,0x76,0x01,0xfc,0xff, // 6368
0xbd,0xff,0x7b,0xff,0x68,0xff,0xe9,0xfd, 0x31,0x04,0x8d,0xff,0x40,0x00,0x15,0x04, // 6384
0x38,0xfc,0x6c,0x00,0xa2,0x01,0xa4,0x00, 0xcc,0x01,0xa0,0xfd,0x97,0x02,0xf4,0xff, // 6400
0xf8,0x00,0x19,0x00,0xbb,0xff,0x41,0x01, 0xaa,0xff,0xdc,0x01,0xda,0x00,0xc6,0x00, // 6416
0x7d,0x00,0x10,0x01,0xec,0xfd,0xbb,0xff, 0xa0,0x02,0x65,0x06,0x05,0x07,0xba,0xff, // 6432
0x27,0x00,0x5d,0x00,0x2c,0x01,0x52,0xfe, 0xb9,0xff,0x41,0xfc,0xff,0xff,0x8d,0xfe, // 6448
0xc2,0x01,0x7a,0x01,0x24,0xfc,0x1f,0xfa, 0x7e,0xff,0xfd,0xff,0x0c,0xff,0xba,0xff, // 6464
0xdf,0xff,0xd4,0xfe,0x09,0xfb,0xbe,0x00, 0x35,0x01,0xc6,0x06,0x6a,0xff,0xf4,0x01, // 6480
0xff,0xff,0x15,0x00,0x14,0xff,0x99,0x01, 0x0f,0x02,0x7e,0xff,0x34,0xfd,0x94,0xff, // 6496
0xf1,0xff,0x81,0x00,0x39,0x00,0x5e,0xfe, 0xa1,0x02,0x54,0x00,0x16,0x00,0x43,0xff, // 6512
0x4d,0xff,0x18,0xff,0x0b,0x00,0xad,0xfb, 0xb6,0xff,0x68,0xff,0x15,0x00,0x30,0xff, // 6528
0x50,0x00,0x16,0xfe,0xa1,0x00,0x15,0x00, 0x25,0x00,0x05,0x00,0x63,0x00,0x1a,0x00, // 6544
0xbc,0x00,0x47,0xff,0x56,0x00,0xa4,0xff, 0x97,0x00,0x15,0x00,0xb3,0xff,0x70,0x00, // 6560
0xd1,0xff,0x3d,0x00,0x41,0xfd,0x32,0x01, 0xc9,0xfd,0x0c,0x00,0xe8,0x00,0x5a,0x00, // 6576
0x8c,0x00,0x17,0x00,0xac,0xff,0x79,0x03, 0x56,0x00,0x5c,0xff,0x6c,0x00,0xaa,0xff, // 6592
0xda,0xff,0x81,0x01,0xb5,0xff,0x58,0x00, 0x59,0xff,0x12,0xff,0xa1,0x03,0x30,0x01, // 6608
0x1f,0x00,0x06,0xff,0x4b,0xff,0xc2,0xff, 0xeb,0xff,0xe0,0x00,0xfb,0xfd,0x32,0x01, // 6624
0xb8,0xff,0x34,0x00,0x8d,0x00,0xc5,0x02, 0xdf,0x01,0xa9,0x02,0xf6,0xfe,0x91,0xfe, // 6640
0x62,0x00,0xc6,0xff,0xe3,0xfe,0xa3,0xff, 0x87,0x00,0x32,0x00,0xd8,0x00,0xc6,0xff, // 6656
0x5a,0xff,0x60,0x00,0x67,0x01,0x33,0x00, 0x0d,0xfe,0x78,0x00,0x3e,0xff,0x99,0x00, // 6672
0x33,0x01,0x31,0xfe,0x78,0x03,0x53,0xff, 0xfb,0x00,0xa7,0xff,0x5e,0x01,0x97,0xff, // 6688
0xbd,0x00,0x4a,0x00,0x0d,0x01,0xce,0x00, 0xa5,0x00,0x29,0x00,0xaa,0xff,0xe8,0xfe, // 6704
0xf9,0xff,0xef,0x00,0x44,0x01,0x44,0x03, 0x6b,0x00,0xc8,0xff,0x77,0xff,0x2d,0x00, // 6720
0x41,0x00,0xd8,0x00,0x91,0x00,0xc7,0xff, 0x37,0x01,0x45,0x00,0x8d,0xff,0x60,0xfe, // 6736
0x05,0x00,0x46,0xff,0x0d,0x00,0x18,0x02, 0x6f,0xff,0xe6,0xff,0xd4,0xfb,0xfb,0xff, // 6752
0x5b,0xf9,0xb9,0xfe,0x44,0x02,0x5d,0x02, 0x1a,0x00,0x32,0xfe,0x25,0xff,0xbf,0xfe, // 6768
0x92,0x02,0xd7,0x00,0x24,0xff,0xc6,0xfe, 0x3c,0xfb,0x23,0xff,0x40,0x04,0x7c,0x01, // 6784
0xf8,0xfe,0xae,0xff,0x12,0x05,0xd4,0xff, 0xc7,0x01,0xc3,0xff,0x14,0xfe,0x5b,0x02, // 6800
0xd9,0xff,0x57,0xff,0xc8,0xfa,0xe8,0x00, 0x31,0xfe,0x34,0xff,0x6d,0x01,0x2b,0xff, // 6816
0x30,0x06,0x45,0xff,0x9e,0x00,0x3a,0x09, 0xee,0xfe,0x78,0x02,0x5a,0x02,0x31,0xfe, // 6832
0xf7,0x00,0x3a,0xff,0x3c,0xff,0x53,0x02, 0xf8,0xff,0x89,0x00,0x3b,0xff,0x0f,0x02, // 6848
0xd2,0xfe,0xdf,0x00,0xe7,0xff,0xd9,0xff, 0x97,0xff,0xf9,0xff,0x49,0x00,0x41,0x00, // 6864
0xe6,0x02,0x8c,0x01,0x28,0x0a,0xb8,0x00, 0x34,0x00,0x9c,0xf7,0x9c,0x01,0x98,0xf8, // 6880
0xc0,0x05,0x9f,0xf8,0xfa,0xfe,0x5a,0x00, 0xe6,0x02,0xd6,0x00,0xef,0xfc,0x5b,0x00, // 6896
0x42,0x00,0x93,0xfc,0x36,0x00,0xb3,0x00, 0x59,0xfe,0x6f,0x01,0x2c,0xff,0xa0,0x00, // 6912
0x82,0x00,0x01,0x02,0x0c,0xfe,0x94,0x04, 0xc1,0x00,0x6a,0x00,0xb1,0x01,0x56,0x00, // 6928
0x4a,0x00,0xd4,0x00,0x33,0xfa,0x4d,0xfc, 0xbd,0xfe,0x8d,0xf8,0xe7,0xfc,0x03,0x01, // 6944
0xbc,0xff,0x2d,0xff,0x32,0x01,0x72,0x00, 0x4c,0x00,0x9e,0x00,0x20,0x00,0xf6,0x05, // 6960
0x06,0x02,0x1b,0x03,0x5f,0xff,0x61,0x05, 0x2f,0x00,0x97,0x03,0x49,0x00,0xc3,0x03, // 6976
0x76,0x00,0x47,0x01,0x7a,0x02,0x00,0xff, 0x87,0xfe,0x72,0x00,0xa6,0xfd,0x62,0xfd, // 6992
0x2a,0xfe,0xea,0x00,0x34,0x00,0x7b,0x00, 0xf4,0x01,0x20,0x01,0x9f,0x00,0x14,0x00, // 7008
0x28,0x01,0xb9,0xfe,0x15,0x01,0x67,0x01, 0x12,0x00,0x77,0x03,0xa1,0xff,0x98,0xfe, // 7024
0x2d,0x06,0x82,0x04,0xb1,0xfe,0xb3,0xff, 0x09,0xff,0x53,0x00,0xcc,0x03,0x13,0x01, // 7040
0xec,0xfd,0x04,0xff,0x4a,0xff,0x7e,0x03, 0xa3,0x01,0xfc,0x01,0x26,0xfb,0xd1,0xfe, // 7056
0xf4,0xfe,0x26,0xfe,0xc8,0x00,0x25,0xfa, 0xbe,0x00,0x3c,0x02,0x26,0x00,0xa7,0x00, // 7072
0x85,0x00,0x46,0xfe,0xcf,0xff,0xaf,0xf9, 0x0d,0x01,0x04,0x01,0x08,0x00,0x58,0x03, // 7088
0x71,0x00,0x23,0xfe,0x45,0x00,0xf5,0x03, 0x19,0x00,0x5e,0xff,0xc4,0x00,0x5d,0x00, // 7104
0xca,0xfe,0xb6,0x00,0x69,0x00,0x9b,0x01, 0xdd,0xff,0x36,0x00,0x1a,0x01,0xf5,0x01, // 7120
0x70,0xfc,0x53,0x00,0xa9,0xfd,0xe3,0x00, 0xba,0xfc,0xa8,0xff,0xa8,0xfd,0xc5,0xfc, // 7136
0xe2,0xfd,0x3c,0x03,0x40,0x03,0x33,0x06, 0xd2,0xff,0x9f,0xfb,0x5a,0x00,0x7b,0x01, // 7152
0xfa,0xff,0x49,0x00,0xab,0xfe,0x09,0x00, 0xe1,0xfe,0x09,0x01,0xab,0x04,0x95,0xfd, // 7168
0x45,0xfe,0x9e,0xfa,0x4d,0xfd,0x57,0x00, 0x11,0x01,0x37,0xff,0xb2,0x00,0xdb,0x00, // 7184
0x00,0xff,0x48,0xfe,0x32,0x01,0x83,0x03, 0x20,0xfe,0x06,0x02,0xc7,0xff,0x70,0xff, // 7200
0x34,0x00,0x3c,0xfe,0xe3,0xff,0x24,0x01, 0xd4,0xfd,0xe3,0xff,0x4b,0x00,0x32,0xfd, // 7216
0x6c,0x03,0xdd,0xfe,0xf6,0xff,0xd6,0x02, 0xa8,0xfd,0x10,0xff,0x7b,0x00,0x17,0xff, // 7232
0x85,0xff,0x37,0xfd,0x8a,0x04,0xa1,0xff, 0xe4,0x04,0x66,0x00,0x08,0x00,0x5e,0x00, // 7248
0x90,0xff,0xe9,0xff,0x09,0xff,0x7b,0x01, 0xee,0xff,0x75,0x01,0x6f,0xfe,0x27,0xfd, // 7264
0x1a,0x04,0x13,0x03,0xdd,0x07,0xb3,0xff, 0x7b,0xff,0x54,0xff,0x68,0x01,0xa0,0xfd, // 7280
0xe5,0x00,0xd8,0xfb,0x53,0xfe,0x00,0x01, 0x13,0x03,0x19,0x04,0x3e,0x00,0xb9,0xf6, // 7296
0x2a,0xfe,0xe7,0x00,0x5d,0x02,0xd6,0xff, 0xc4,0x00,0x27,0xff,0xdb,0xfa,0xde,0x01, // 7312
0x8d,0x01,0x21,0x00,0xf0,0x00,0x02,0xfe, 0x31,0x01,0x4b,0xfe,0xcb,0x00,0x62,0xff, // 7328
0x53,0x00,0x8e,0x00,0xa4,0xff,0xd4,0xff, 0x06,0x00,0xd7,0xfe,0x47,0xff,0xaa,0x00, // 7344
0xb8,0xff,0xff,0xfa,0x86,0xff,0x8a,0xfa, 0x13,0x01,0x6e,0x00,0x61,0x00,0x22,0x01, // 7360
0x8a,0x00,0x2d,0x04,0x61,0x00,0x40,0xfc, 0x2f,0xfa,0xef,0x01,0xcd,0xff,0x7e,0xff, // 7376
0x75,0xff,0xd5,0xff,0xa8,0xf9,0x0a,0xff, 0xf3,0x00,0x88,0x00,0xbb,0x01,0x54,0xfe, // 7392
0xf1,0xff,0x88,0x06,0xbd,0xfd,0x61,0x01, 0x36,0x01,0xd2,0xff,0x78,0x02,0x21,0x02, // 7408
0xfc,0x04,0x81,0xf7,0x1b,0x02,0x2d,0x00, 0xe6,0xfd,0x06,0x01,0x67,0xff,0xfa,0x00, // 7424
0x52,0xff,0x38,0x01,0x61,0xff,0x50,0xfe, 0xf3,0x08,0x36,0x00,0x38,0x04,0x14,0x01, // 7440
0x8d,0xfd,0x23,0x00,0x25,0xfe,0x97,0x01, 0x49,0x01,0x5b,0xff,0x4a,0xff,0x34,0x0a, // 7456
0x9b,0x00,0xcf,0xff,0x89,0xfe,0x7f,0xf7, 0xba,0xff,0xf3,0x01,0xd4,0xff,0x93,0x00, // 7472
0x26,0xff,0x92,0xfe,0x1e,0x00,0xfc,0x00, 0x18,0x09,0x61,0x00,0x37,0xfd,0xd8,0xff, // 7488
0x6d,0x08,0x5b,0x04,0xd4,0xff,0xce,0x01, 0xdd,0x00,0x09,0x01,0xb3,0x00,0x8e,0x01, // 7504
0x70,0xff,0x0f,0x00,0x12,0x02,0x36,0xff, 0xa2,0xfe,0x1d,0x01,0x68,0xfe,0xb1,0xfe, // 7520
0x43,0x00,0x4b,0x00,0x44,0xfd,0xc6,0xff, 0x16,0x00,0xe2,0xfe,0x18,0x00,0x58,0xff, // 7536
0x02,0x00,0xe6,0x02,0x4b,0x02,0x0e,0x01, 0x48,0xff,0x9d,0xff,0x81,0x00,0x51,0x01, // 7552
0x8f,0xfd,0x40,0x00,0xb3,0xf8,0x04,0x00, 0x0d,0x00,0xf3,0xff,0xbd,0x00,0x17,0xfd, // 7568
0xa7,0xff,0x1d,0xff,0xa2,0xff,0xb6,0x00, 0xc0,0xff,0xb2,0xff,0x2b,0xff,0x80,0xff, // 7584
0x0d,0xff,0xcb,0x01,0x14,0x02,0x3f,0xff, 0x45,0x00,0xef,0xff,0x71,0x01,0x33,0xff, // 7600
0xfd,0x00,0x70,0x00,0xf2,0x01,0x4f,0xfc, 0xad,0x00,0xf6,0x03,0x01,0x00,0xfe,0xff, // 7616
0x1d,0x00,0x9a,0x00,0x2c,0x01,0xcf,0x03, 0x03,0xff,0x69,0x04,0x25,0x01,0xb6,0x02, // 7632
0x9a,0xff,0x67,0x00,0xed,0xff,0x33,0x01, 0xba,0xff,0xae,0xfe,0xec,0x00,0xb0,0xfc, // 7648
0x9e,0x06,0x90,0x00,0x20,0x00,0xb1,0xfd, 0x61,0x00,0xeb,0xff,0x00,0x03,0x47,0x00, // 7664
0xe4,0xfe,0x99,0xfe,0xb8,0xff,0xba,0xff, 0x2f,0x00,0x51,0xf9,0x27,0x01,0x7c,0x00, // 7680
0xee,0x00,0x87,0x08,0x69,0x00,0x59,0x01, 0xf2,0x00,0x4d,0x01,0x84,0xfa,0x52,0x00, // 7696
0x45,0x02,0xb8,0xfe,0xfd,0x08,0x3c,0xff, 0x8a,0xff,0x11,0x01,0x0e,0x00,0x18,0xff, // 7712
0x5f,0xff,0xb7,0xff,0xa7,0xff,0x20,0x00, 0x20,0x00,0xb8,0x00,0xb7,0xfe,0x6d,0xf3, // 7728
0x34,0x00,0x66,0x00,0x9f,0xff,0xb0,0xfe, 0x66,0xff,0xf5,0xff,0x5b,0xff,0x4a,0x03, // 7744
0x55,0x00,0x2f,0x00,0x72,0xff,0x68,0x00, 0x88,0x01,0xe7,0xff,0x09,0x00,0xa3,0x00, // 7760
0x96,0xfe,0xd6,0xfe,0xb4,0xff,0x85,0x12, 0xc3,0xfc,0xfb,0xf9,0x82,0x00,0xee,0x00, // 7776
0x2b,0xff,0x2f,0x00,0x84,0xff,0x93,0x00, 0x10,0x01,0xb3,0xe4,0xa6,0xf9,0xba,0xf8, // 7792
0xdd,0xff,0x4d,0x00,0x63,0xff,0x64,0x00, 0xed,0x00,0x37,0x00,0xa8,0x00,0x6f,0xff, // 7808
0x4e,0x00,0x11,0xff,0x0d,0x00,0xf3,0xff, 0xb5,0xff,0x27,0xff,0x9c,0xff,0xdd,0xff, // 7824
0x13,0x00,0xf7,0xfe,0x35,0xff,0x9c,0xff, 0x66,0x00,0xb1,0x00,0x46,0x01,0x83,0xf7, // 7840
0x8a,0xff,0x13,0x00,0xeb,0xea,0x86,0x05, 0xa0,0xff,0xa3,0xff,0x0b,0xff,0xca,0x00, // 7856
0x41,0x00,0x01,0x01,0x5f,0x17,0x6b,0x00, 0x0d,0x00,0xf1,0x00,0x77,0xff,0xef,0xff, // 7872
0xdb,0xff,0xe1,0xfe,0xbe,0x00,0xa7,0x00, 0x9c,0x00,0xda,0x00,0xef,0x00,0x07,0xfe, // 7888
0x00,0x00,0x1a,0xff,0xe6,0x00,0xa9,0xfe, 0x4f,0xff,0x00,0x01,0x18,0x00,0x99,0x01, // 7904
0x29,0xfe,0xfa,0xff,0xc3,0x01,0x08,0x00, 0x2b,0x00,0x48,0x01,0x61,0xff,0xdf,0xff, // 7920
0x74,0xfc,0xf4,0xff,0x57,0xff,0xdb,0xff, 0x5e,0x01,0x7d,0xff,0x22,0x01,0xb8,0xfe, // 7936
0x21,0x00,0x11,0xff,0x10,0x01,0xc1,0xff, 0x3a,0xff,0xac,0x00,0xc4,0xfe,0x2e,0xff, // 7952
0x0d,0x09,0x80,0x00,0x2f,0x01,0x8f,0xff, 0x9f,0xfe,0x3e,0xff,0x61,0x01,0x7e,0xff, // 7968
0xb3,0xff,0x86,0x00,0xde,0x00,0x72,0x00, 0xe7,0x00,0xec,0xfe,0x4f,0xff,0x4a,0xff, // 7984
0x5d,0x00,0x39,0x01,0x6b,0x00,0x4a,0x00, 0x1f,0x00,0xa0,0xff,0x90,0x00,0xa1,0xff, // 8000
0x32,0x00,0xa0,0xff,0xbb,0xff,0x88,0xff, 0x06,0x02,0xed,0x02,0x5b,0x01,0x80,0xff, // 8016
0x59,0xfe,0x82,0x00,0x38,0x02,0x0c,0xff, 0xa9,0x00,0x23,0x02,0xbc,0xff,0x74,0xff, // 8032
0x8b,0x00,0x03,0xff,0xf3,0xfe,0x0c,0x02, 0x19,0x00,0x02,0x00,0x7a,0xff,0x57,0x00, // 8048
0x88,0xff,0xaa,0xfe,0x3c,0x00,0x94,0xff, 0xaa,0xff,0x69,0xff,0x51,0xff,0x65,0xfe, // 8064
0x26,0x02,0xfb,0xff,0xd2,0xfe,0x9f,0xff, 0x92,0xfe,0x5a,0x02,0x31,0x00,0xba,0x00, // 8080
0x12,0xff,0xec,0xfc,0x1e,0xfe,0x5a,0x00, 0xdc,0x06,0x31,0x01,0x14,0xff,0x89,0x01, // 8096
0x1f,0xfc,0xd9,0xfe,0xda,0x01,0xca,0x00, 0x29,0xff,0x62,0xff,0x01,0xff,0x7b,0xff, // 8112
0xfd,0x00,0xf3,0xfc,0x85,0xff,0xb3,0xff, 0x23,0x00,0x1b,0x01,0x3b,0x00,0xd2,0x01, // 8128
0xbe,0xfe,0xa9,0x00,0x46,0x00,0xc9,0x00, 0x81,0x00,0x60,0x00,0x2a,0x00,0x20,0xff, // 8144
0xc5,0xff,0xee,0xff,0x66,0x01,0x9c,0x00, 0x37,0xff,0x23,0x03,0xbf,0x04,0x08,0x03, // 8160
0xe9,0xff,0x12,0xfd,0x0c,0x02,0x53,0xfe, 0xf2,0x02,0x5e,0x00,0xe9,0xf7,0x1b,0xfe, // 8176
0x42,0xfe,0xb1,0xfd,0x68,0x01,0xa1,0x01, 0x1f,0x02,0x30,0x00,0x01,0x05,0x6f,0x00, // 8192
0x11,0x06,0x23,0xfc,0x39,0x00,0x6b,0xfd, 0x22,0x02,0x1b,0x01,0xaf,0xfd,0x43,0xfe, // 8208
0xc5,0x00,0xe0,0xfc,0xf8,0x02,0xb2,0xfd, 0x9e,0xff,0x99,0xfc,0x94,0x00,0x1b,0x00, // 8224
0x16,0x00,0xfb,0xfe,0x24,0x06,0x19,0xfe, 0x91,0x00,0xb6,0xfe,0xc5,0xff,0x8a,0x0a, // 8240
0x2a,0x01,0xc6,0xff,0xfc,0xfd,0xbf,0x05, 0x2b,0x01,0xa8,0xff,0xbb,0x00,0xcc,0xfa, // 8256
0x96,0x00,0x06,0x02,0xcc,0xff,0x52,0x05, 0x65,0x03,0x16,0x02,0xd5,0x01,0x29,0x01, // 8272
0x2a,0x00,0x04,0x00,0x99,0x00,0x45,0xff, 0x0f,0x02,0xac,0xfb,0x70,0x00,0x1c,0x01, // 8288
0x2d,0x01,0x52,0xfc,0xce,0xf5,0xfb,0xff, 0x3b,0x01,0xee,0xf9,0xa5,0xfc,0x27,0x00, // 8304
0xdb,0xfe,0x51,0x00,0xbf,0xfd,0x79,0x03, 0xa4,0xff,0x2e,0x03,0x42,0xfe,0x39,0xff, // 8320
0x2d,0x01,0x1d,0xff,0x9e,0xfe,0x63,0x00, 0x8c,0xff,0xc5,0xfe,0xeb,0xfe,0x9a,0x00, // 8336
0x8d,0xff,0xeb,0x00,0x73,0x01,0x8d,0x06, 0x2d,0xfe,0x25,0x00,0xfd,0xfd,0xf3,0xfe, // 8352
0x89,0x00,0xa6,0x00,0xa2,0x01,0x8a,0x00, 0x25,0x09,0x49,0x01,0x80,0x00,0x20,0x00, // 8368
0x51,0x01,0x38,0x01,0x99,0x00,0xbf,0x01, 0xab,0x01,0x78,0x02,0x71,0x02,0xb7,0xfe, // 8384
0x19,0x00,0x0e,0x03,0x66,0x04,0x81,0x00, 0x6e,0xf8,0x86,0xff,0xd1,0xff,0x3f,0x01, // 8400
0x5f,0x04,0xaf,0xfc,0xd4,0xff,0x8a,0x00, 0x72,0x01,0x0f,0xff,0xaa,0x00,0xf5,0xfc, // 8416
0xff,0xfb,0x5d,0x00,0xd3,0xff,0xd0,0xff, 0x25,0x00,0x89,0x07,0x7c,0xfc,0x47,0x00, // 8432
0x3b,0xff,0x4f,0xfd,0xf6,0x03,0x42,0x01, 0x18,0x00,0x46,0xfa,0xa8,0xff,0x55,0xfc, // 8448
0x7f,0x00,0xb8,0x01,0xd4,0xfe,0xc4,0xff, 0x59,0xff,0xaa,0xfd,0xf0,0x00,0x26,0x04, // 8464
0x60,0x00,0x81,0x00,0x30,0x03,0xcf,0x00, 0xf1,0x02,0x50,0xfc,0xe8,0xfe,0x11,0x01, // 8480
0x7f,0x02,0x12,0xff,0x32,0xfe,0x74,0xfc, 0xde,0xff,0x6d,0xfb,0xac,0x00,0x65,0xfe, // 8496
0xc5,0x01,0x8c,0x00,0xbf,0xfe,0xb7,0x00, 0xab,0x00,0x75,0x01,0xbc,0x05,0x26,0xfe, // 8512
0x50,0x00,0x0e,0x01,0x2c,0xfe,0x8a,0x07, 0x4b,0x02,0xf4,0x00,0xec,0xfe,0xce,0x05, // 8528
0xda,0x00,0x01,0xfe,0xd9,0x00,0x68,0x00, 0x25,0xfe,0xc3,0x00,0x90,0xff,0x35,0x01, // 8544
0x57,0x03,0x1e,0x02,0x61,0x03,0x8a,0x02, 0x58,0x01,0x26,0xfe,0x54,0x06,0x80,0xff, // 8560
0xbf,0x01,0x6f,0xfa,0x06,0xfe,0x07,0x01, 0xc0,0x02,0x26,0x00,0x0a,0xfb,0x63,0x02, // 8576
0x46,0x02,0x70,0xfe,0xb1,0x00,0x58,0xfe, 0xd5,0xf9,0x96,0x01,0x99,0xff,0xa4,0xff, // 8592
0x8a,0xfb,0x30,0x00,0x78,0x01,0x68,0x00, 0x89,0x03,0x33,0x00,0x2a,0x00,0xa9,0x00, // 8608
0x27,0x02,0x3d,0x01,0x08,0xfe,0x16,0x00, 0x83,0x01,0xab,0xff,0xc0,0xff,0xd0,0x04, // 8624
0xa4,0x00,0x15,0xfe,0x9f,0xff,0x2a,0xfe, 0x98,0xfd,0x59,0x06,0x30,0xfd,0x1b,0x00, // 8640
0xd8,0xff,0x2e,0x02,0x13,0xf9,0xb6,0x01, 0xa3,0xfe,0x57,0x01,0x73,0x00,0x6b,0x00, // 8656
0x7e,0x02,0x40,0x08,0x5e,0x07,0x8c,0x01, 0x5f,0xfd,0x70,0x03,0xfa,0xff,0xba,0xfe, // 8672
0x5d,0xfa,0x10,0x01,0x93,0xfe,0xcb,0x00, 0x9f,0x01,0xfe,0x00,0xb6,0xfe,0x19,0x02, // 8688
0xa1,0xfe,0x21,0xfe,0x71,0xff,0xe1,0x01, 0xb9,0xfe,0x9f,0x00,0xe6,0x00,0xdb,0xf5, // 8704
0xc7,0x00,0x63,0x05,0x7f,0xff,0xef,0xff, 0x9b,0xfe,0x84,0xfd,0x82,0x00,0x81,0xfd, // 8720
0x39,0x01,0xc1,0x00,0x20,0x01,0x61,0xfb, 0x7a,0xfe,0x36,0x00,0xd1,0x09,0x77,0x00, // 8736
0x76,0x00,0x70,0x00,0xf3,0xff,0xe0,0x05, 0xb7,0xfc,0x33,0x00,0x92,0xff,0x66,0x02, // 8752
0x10,0xfe,0x77,0x02,0x5d,0xff,0x06,0x09, 0x81,0x00,0x77,0x00,0xfb,0x00,0xb2,0xff, // 8768
0x7e,0x01,0xd3,0x00,0x60,0xff,0x2d,0x00, 0xa3,0x01,0x7b,0x01,0x6a,0x01,0x85,0x00, // 8784
0x7e,0xff,0x52,0xff,0x5d,0xfe,0x01,0x00, 0xf8,0xff,0xa3,0xfe,0xa9,0x00,0xd0,0xfc, // 8800
0x32,0x00,0xe8,0x00,0x09,0x02,0x41,0xfd, 0x16,0x02,0xa2,0x00,0x88,0xff,0x58,0x01, // 8816
0x29,0x00,0xe2,0xfd,0x97,0x00,0x2b,0xf5, 0xb2,0xff,0xd1,0x01,0x90,0xff,0xb6,0xfe, // 8832
0xb1,0xfe,0x30,0xff,0x02,0x01,0xf0,0xfe, 0x67,0x00,0xaa,0xff,0xe8,0xf9,0xb0,0xfe, // 8848
0x12,0x00,0x75,0x03,0xdf,0x01,0x79,0xff, 0x79,0xff,0xc9,0x00,0xd4,0x02,0x7a,0x00, // 8864
0x05,0x00,0x16,0x01,0xa3,0xfe,0xa0,0xfc, 0x6d,0xff,0x4d,0xfd,0x81,0x00,0x7b,0x01, // 8880
0xae,0xff,0x54,0x01,0xc6,0x00,0x53,0x01, 0x3b,0xff,0x5f,0xfe,0xc3,0xfe,0x35,0x01, // 8896
0x56,0xff,0x2d,0x00,0xef,0xfe,0xe1,0xfc, 0x2b,0x03,0xed,0xfd,0x33,0xfe,0x69,0xfe, // 8912
0x9d,0xff,0xe0,0x02,0x83,0xfc,0xb8,0x01, 0xa6,0xfc,0x66,0xff,0x8f,0xff,0x92,0xfe, // 8928
0x6e,0xff,0x59,0xff,0x16,0xff,0x33,0x00, 0xfa,0xfe,0xd0,0xff,0xe6,0x00,0xe8,0x01, // 8944
0x0f,0xfe,0xef,0xf9,0x91,0xf9,0x23,0xfe, 0xf2,0x01,0x3c,0x00,0xf8,0x00,0x1c,0x00, // 8960
0x40,0xff,0x87,0x04,0x3e,0xfe,0x4e,0x01, 0x11,0xfd,0xb4,0xff,0x34,0x01,0x04,0x06, // 8976
0xd5,0x00,0x89,0x00,0xec,0x00,0x05,0xff, 0xd5,0x00,0x6f,0xfd,0x92,0x07,0xd7,0xfe, // 8992
0x0d,0x02,0x3b,0xfe,0x36,0xfc,0x1d,0xff, 0xdf,0xfe,0xab,0x00,0xa3,0xfd,0xd0,0x00, // 9008
0xab,0xfd,0x20,0xff,0xab,0x05,0xa7,0x04, 0x7e,0x03,0xe7,0x00,0x57,0xf8,0xc0,0xff, // 9024
0x7d,0x00,0xa7,0xff,0xcb,0xfb,0x98,0xfe, 0x22,0xfd,0x2f,0x00,0x88,0x04,0xe9,0x00, // 9040
0xc4,0x00,0xee,0x01,0xe1,0x01,0x75,0x01, 0xd8,0xfe,0xb6,0xff,0x0f,0xfc,0x1d,0x01, // 9056
0xa2,0xff,0x21,0x06,0xa3,0xff,0xc0,0xfe, 0xa4,0x00,0x95,0xff,0xe7,0xfe,0xe8,0xff, // 9072
0xfe,0xfd,0x5e,0x01,0xa3,0xff,0x34,0xfe, 0x0b,0x02,0x2d,0xff,0xd4,0x00,0x19,0xfe, // 9088
0x8b,0x00,0x83,0xfe,0xe4,0x00,0x53,0x0a, 0xf7,0xff,0xbf,0xff,0x29,0xff,0x6c,0xff, // 9104
0x38,0xfc,0xe3,0xfe,0xc1,0xfe,0xb8,0x00, 0x2a,0x01,0x41,0xff,0x0a,0x01,0x51,0x04, // 9120
0xeb,0xfe,0xba,0xff,0xa5,0xff,0x49,0x01, 0xb3,0xff,0xca,0x01,0xed,0x08,0x3e,0x00, // 9136
0x17,0x00,0x0b,0x04,0x80,0x02,0x96,0xfe, 0xb8,0xff,0xf4,0xff,0xb3,0x02,0xc7,0xfb, // 9152
0x6a,0x00,0x80,0x00,0x4c,0x00,0x6d,0xff, 0x2d,0x01,0x87,0x08,0x37,0xfe,0xb4,0xff, // 9168
0x9e,0x00,0x2c,0x01,0x5f,0x00,0x0d,0x00, 0x8d,0x01,0xcc,0x00,0xef,0x00,0xd8,0xfe, // 9184
0x44,0xff,0xbf,0x01,0x99,0x00,0xa2,0x00, 0x45,0x01,0x5c,0x02,0x5a,0xfd,0x92,0x00, // 9200
0x24,0xf4,0xae,0x00,0x71,0xfe,0x7f,0xff, 0xe6,0xfe,0xe4,0xff,0x27,0x02,0xa5,0xff, // 9216
0xd3,0xff,0xa1,0xfe,0xd8,0x00,0x25,0x04, 0xe3,0xfa,0x30,0x00,0x1e,0xff,0x51,0x00, // 9232
0x24,0x03,0x7c,0x02,0xe4,0xfe,0x56,0x01, 0x4f,0xf2,0x6a,0x03,0x4b,0x01,0xb4,0xfe, // 9248
0x7a,0xfc,0xc4,0xfd,0x94,0xfd,0x86,0x03, 0x59,0x02,0x24,0xfb,0xf2,0xfe,0x34,0xff, // 9264
0xfb,0xfb,0xe9,0xfb,0x27,0x02,0xc3,0xfb, 0x4a,0x00,0x02,0x00,0x5a,0xfe,0xe9,0xff, // 9280
0x5a,0xff,0x21,0x04,0x11,0xff,0x68,0x00, 0xf9,0xfe,0x08,0x00,0xfd,0x00,0xa1,0x00, // 9296
0xe2,0x00,0xf5,0x03,0x6d,0x00,0x41,0x00, 0xe0,0x00,0x6c,0x00,0xcb,0xff,0x7e,0x00, // 9312
0x00,0xfd,0xb5,0x00,0x49,0x00,0x40,0x00, 0x70,0xff,0xd5,0xfe,0x3e,0x01,0xd3,0xff, // 9328
0xa0,0x00,0xf7,0xff,0x3e,0xff,0x0c,0x00, 0x10,0x00,0xcb,0x00,0x84,0x00,0x23,0xff, // 9344
0x85,0xff,0x16,0x00,0xd4,0xfd,0xe6,0xff, 0x1a,0x00,0xb1,0x00,0xa1,0x00,0x75,0xfe, // 9360
0xd8,0xff,0xca,0x03,0xe8,0xfe,0x5f,0xff, 0x8e,0xff,0x1b,0x00,0xf0,0xfc,0xa6,0xff, // 9376
0xe0,0x00,0xae,0xfe,0x4e,0x00,0xd0,0xff, 0xbf,0xff,0x02,0xff,0x65,0xff,0x66,0x00, // 9392
0xb5,0xff,0xad,0x02,0xfc,0x00,0xc0,0xfe, 0xf3,0xff,0x30,0x01,0xef,0x00,0x27,0xfe, // 9408
0x7a,0x00,0x3b,0x01,0x3e,0x01,0x07,0xff, 0x07,0xff,0x6f,0x01,0x32,0x01,0xa6,0x00, // 9424
0xbd,0xff,0x9f,0x00,0x0f,0x01,0x0f,0x00, 0x3f,0x03,0x13,0xff,0x63,0x00,0x57,0xff, // 9440
0xc1,0xff,0x2b,0x00,0x05,0xff,0xe0,0x00, 0x0f,0x00,0x9b,0xff,0x94,0x02,0x30,0x00, // 9456
0xbd,0x00,0x25,0x01,0xbe,0xff,0x2c,0xfe, 0x3a,0x00,0x97,0xfe,0x8b,0xff,0x0b,0xff, // 9472
0x1d,0x00,0xcf,0xff,0x0c,0x00,0xec,0xff, 0xcc,0xfe,0xe0,0xff,0xd4,0xff,0x7b,0x00, // 9488
0x32,0x00,0xda,0xfe,0x5b,0xff,0x25,0x00, 0x86,0xff,0x63,0xfb,0x54,0xff,0x7b,0xff, // 9504
0x9d,0xff,0xc6,0xff,0x65,0xff,0x99,0xff, 0x4c,0x03,0x0a,0x00,0x81,0x00,0xf7,0xfc, // 9520
0xad,0xff,0xff,0xff,0xa2,0xfd,0xbe,0xff, 0x47,0xff,0x67,0x00,0x5d,0xff,0xf1,0x00, // 9536
0x21,0x02,0x5d,0x00,0x40,0x02,0x8d,0x01, 0x70,0x00,0x50,0xfe,0x27,0x00,0x48,0x00, // 9552
0x8e,0xfd,0xc5,0x00,0x74,0x03,0xfe,0x01, 0x1f,0x02,0x1d,0xfd,0x07,0x01,0xc2,0xff, // 9568
0xed,0x02,0xec,0xfe,0x06,0xfe,0xed,0xf9, 0x4b,0xfa,0x6a,0xff,0x28,0x02,0x86,0x01, // 9584
0x63,0xff,0x13,0xff,0x1e,0x06,0x25,0x00, 0x78,0x05,0xbb,0xfd,0x1b,0xfd,0x71,0x00, // 9600
0x5e,0x00,0xd0,0x00,0xaf,0xfa,0xf2,0xfe, 0xb9,0xff,0x97,0xfe,0x33,0x08,0x5d,0xff, // 9616
0xad,0x03,0x91,0xfb,0xf9,0xff,0x57,0x05, 0xea,0x00,0x9e,0x01,0xf6,0x03,0x9d,0xfd, // 9632
0xad,0x02,0xf1,0xff,0x16,0xff,0x1f,0x05, 0x45,0x00,0x05,0xff,0xe8,0xff,0xe3,0x02, // 9648
0xa9,0xff,0xe0,0xff,0x37,0x01,0x27,0xfa, 0x5b,0xff,0x22,0x00,0x86,0xfe,0x99,0x00, // 9664
0x5c,0x03,0xab,0x03,0x2c,0x09,0x61,0x01, 0x5c,0x00,0x6e,0xfd,0x9b,0xff,0xaa,0xfd, // 9680
0x29,0x04,0xc3,0xfa,0x10,0xff,0x0a,0x01, 0xdb,0x02,0x37,0xff,0xce,0xf8,0x4b,0x00, // 9696
0x1d,0xff,0x01,0xfa,0x36,0xfd,0xda,0xff, 0xc2,0xff,0x21,0x02,0x26,0xfa,0xaf,0x01, // 9712
0xfe,0xff,0x18,0x01,0x70,0xfd,0xb4,0x04, 0x21,0x00,0xee,0xfd,0x2b,0x00,0xa0,0xfe, // 9728
0xdd,0xff,0xc5,0x00,0x5d,0xfe,0x37,0xfd, 0x7e,0xfe,0xac,0xfd,0xfa,0xfe,0xb2,0x01, // 9744
0x50,0x00,0x41,0x02,0x8b,0xff,0x4a,0xff, 0xf3,0xff,0xfc,0xff,0xe3,0xff,0xe6,0x03, // 9760
0xed,0x06,0x96,0xff,0xe6,0xfd,0xd0,0x01, 0x59,0x02,0xc5,0x04,0x70,0xfd,0x8b,0x03, // 9776
0x33,0x00,0x9d,0x02,0x20,0x02,0x50,0xfe, 0xe5,0xff,0xa8,0xff,0xc7,0x00,0x9b,0x00, // 9792
0x5e,0xfc,0xad,0xfd,0x12,0x00,0x66,0x02, 0x02,0x04,0x6e,0xfe,0xce,0x00,0x0a,0x01, // 9808
0xbb,0x00,0x02,0x01,0xd8,0x03,0xef,0xfe, 0xed,0xfb,0x7d,0x02,0x61,0xff,0x11,0xfe, // 9824
0xb6,0x01,0x10,0x05,0xf6,0xfd,0xc1,0x00, 0x31,0x01,0x4d,0xff,0x65,0x00,0x77,0xfb, // 9840
0xf2,0x02,0x3f,0xff,0x1c,0x03,0x49,0x00, 0x52,0xfe,0x92,0xff,0x8e,0x01,0xef,0xff, // 9856
0x39,0x01,0xdf,0xfd,0x5b,0x01,0xf7,0xfe, 0x7a,0xfe,0xc8,0xfe,0x20,0xff,0xef,0xfe, // 9872
0xea,0x00,0x62,0x03,0x51,0xff,0x74,0x02, 0x3c,0xff,0x20,0x02,0x4f,0x02,0x13,0x00, // 9888
0x11,0xff,0x4a,0x07,0x9d,0x00,0xfc,0x02, 0xd8,0xff,0x79,0x00,0x25,0x00,0x0e,0x00, // 9904
0xe7,0xfd,0xdc,0xff,0x04,0x00,0x5f,0xff, 0x90,0x00,0x6f,0x01,0x81,0x01,0xa9,0xff, // 9920
0x45,0xfe,0xeb,0xff,0x44,0x08,0x5a,0xfe, 0x48,0x04,0x1e,0x00,0xf4,0xfe,0xfd,0xfe, // 9936
0xd3,0xfd,0x33,0x02,0xc1,0x01,0x12,0xff, 0x6f,0xfd,0x43,0xff,0xc3,0xff,0xe9,0xf9, // 9952
0xc7,0xff,0xe4,0xfe,0x87,0xff,0x1b,0x00, 0xe9,0xfd,0xcc,0x01,0x65,0xfe,0x57,0xff, // 9968
0x4e,0xff,0x61,0xfd,0xb1,0x00,0x04,0x00, 0xb4,0x00,0x75,0xff,0x4a,0x00,0x69,0xff, // 9984
0xc2,0x00,0xdd,0x00,0x04,0x00,0x08,0xff, 0x4a,0xff,0x75,0xf9,0x67,0x01,0x61,0xfe, // 10000
0x6f,0xff,0x3a,0xfe,0xdd,0xfe,0xac,0xff, 0x2f,0x01,0xe4,0x00,0xaf,0x00,0xc3,0x01, // 10016
0x52,0x00,0xaf,0xff,0xcf,0xff,0x3c,0xff, 0xce,0xfe,0xfe,0xfe,0xc4,0x00,0x1f,0x00, // 10032
0x16,0xfd,0xdb,0xff,0x5c,0xfe,0xd3,0xff, 0x42,0x01,0xbc,0xfe,0x14,0x00,0x43,0xfe, // 10048
0x9c,0x00,0x76,0xfe,0xfe,0xff,0x86,0xfd, 0xa3,0x00,0x2d,0x01,0xfa,0xfe,0x61,0xff, // 10064
0xa5,0x01,0x8f,0xfc,0xca,0x01,0x60,0x00, 0x3d,0xfd,0x38,0xff,0x4c,0x00,0x29,0xff, // 10080
0xeb,0x00,0xb6,0xfd,0x6a,0xff,0x80,0xfd, 0x45,0x00,0x35,0x02,0x38,0x01,0xe3,0x00, // 10096
0xcd,0xff,0xd0,0x00,0x6b,0x00,0xb6,0x00, 0x60,0x00,0x70,0xfc,0x8d,0x05,0xa1,0x00, // 10112
0xd5,0xfe,0xe3,0x00,0xd5,0xff,0x3d,0xfe, 0x39,0x02,0xc9,0xfd,0x8f,0x02,0x5e,0x01, // 10128
0x17,0xfe,0x59,0xfe,0x2a,0xff,0x74,0xfe, 0x0b,0x01,0xa6,0xfb,0x56,0x00,0xe6,0xfe, // 10144
0x2b,0xff,0x50,0xff,0xe1,0xfd,0x26,0x00, 0x63,0x02,0xbc,0x00,0xe2,0xfd,0x62,0xff, // 10160
0x4c,0x00,0x8f,0x01,0x66,0x00,0x42,0x01, 0x09,0xff,0x5f,0x01,0x6c,0x02,0x9b,0x02, // 10176
0x85,0xff,0x26,0xfe,0xfa,0xff,0x92,0xff, 0x1c,0x00,0xe5,0xff,0x6d,0x00,0x80,0xfe, // 10192
0xb6,0xff,0xd7,0x00,0x11,0x01,0xa8,0xff, 0x47,0xff,0x17,0xfd,0xda,0x01,0x43,0xff, // 10208
0xf6,0xff,0x23,0x00,0x1d,0x02,0x65,0xff, 0xcb,0xfe,0xcb,0x02,0xd3,0xfc,0x94,0x01, // 10224
0xd6,0xfd,0xb5,0xff,0x43,0xff,0xa1,0xfd, 0x04,0x00,0x09,0x00,0x13,0xff,0xf3,0xff, // 10240
0x58,0xfe,0xc6,0x02,0xba,0xff,0xe2,0x01, 0x5c,0xff,0x8b,0xfc,0x2c,0x00,0xd8,0xff, // 10256
0x8c,0xff,0xe3,0xfd,0x4d,0x01,0xe1,0xff, 0xa3,0x01,0x34,0x02,0xae,0xfc,0x61,0xff, // 10272
0xf7,0xfc,0x06,0xff,0xf7,0x00,0x4b,0x00, 0x55,0x00,0xc5,0xfd,0xc0,0x00,0xb3,0xfe, // 10288
0x42,0x00,0x5d,0x01,0x88,0x00,0x3f,0x01, 0x52,0xff,0xc3,0xff,0x6a,0xfe,0x05,0x01, // 10304
0x93,0xff,0x7f,0x02,0x94,0xff,0x0a,0x01, 0x0d,0xff,0x89,0xfe,0xe3,0xff,0x99,0x00, // 10320
0xd6,0x01,0x1e,0x00,0xc8,0xff,0x22,0xff, 0x5e,0xff,0xc1,0xfe,0x4d,0xfd,0x52,0xfe, // 10336
0x1f,0x00,0xe7,0x02,0xdb,0xff,0xd4,0xff, 0x5a,0x01,0xcb,0xff,0x89,0x02,0x58,0x00, // 10352
0x7a,0xfd,0x6d,0xff,0x4d,0x00,0x22,0x01, 0xfc,0x00,0x35,0xfd,0x7f,0x03,0x86,0xfe, // 10368
0xba,0x00,0x7b,0x01,0xbe,0x04,0x18,0xfe, 0x41,0xfd,0x9a,0x00,0x9c,0xfd,0x84,0x00, // 10384
0x7f,0x01,0x8f,0xfd,0x3e,0x00,0xc2,0x00, 0x31,0x00,0x46,0xfe,0x2c,0x00,0xa1,0xfe, // 10400
0x48,0x00,0x81,0xff,0xf0,0xff,0x6a,0xfe, 0xf8,0xfa,0x98,0xff,0x1e,0x00,0x75,0x00, // 10416
0x1c,0x03,0xc2,0xff,0xff,0xfe,0xaf,0x01, 0x3d,0x00,0xd9,0x01,0xa4,0xfe,0x9d,0x00, // 10432
0x0a,0x01,0x62,0xfe,0xea,0xff,0x93,0x00, 0x22,0x04,0x23,0x00,0x5d,0x01,0xcf,0xf9, // 10448
0x1f,0x01,0xd2,0xfe,0xa8,0xff,0x10,0xfc, 0x8a,0xfe,0x36,0x02,0x0b,0x01,0xe2,0xfd, // 10464
0xa7,0xff,0x5d,0xfd,0xc8,0x02,0x86,0xfe, 0xa1,0xf9,0xbd,0xfd,0xa5,0xff,0x1c,0x01, // 10480
0x44,0x06,0xab,0xff,0x7c,0x00,0x1e,0x02, 0x71,0x03,0xc8,0x00,0xdd,0x00,0x75,0x02, // 10496
0xd7,0xff,0x2d,0x01,0x3c,0x00,0x5d,0x00, 0xfd,0xfe,0x0f,0x01,0xfa,0xfe,0x05,0x00, // 10512
0xdf,0xff,0x88,0x00,0xee,0x01,0xa5,0x00, 0x90,0xff,0x39,0x00,0x53,0xff,0x61,0x00, // 10528
0x12,0x01,0x8f,0xff,0x98,0x00,0x26,0x01, 0xd1,0x07,0x69,0x00,0x87,0xfe,0xc0,0x00, // 10544
0x3a,0xff,0xc7,0x01,0x6b,0xff,0xf3,0xfd, 0x8e,0xff,0x4e,0x00,0x51,0x05,0x59,0xff, // 10560
0xbc,0x00,0x51,0x01,0xd3,0xfe,0xd3,0xfe, 0x6a,0xff,0x12,0xfe,0x94,0xff,0x27,0x06, // 10576
0xf3,0xff,0xcd,0x00,0xe2,0xff,0x52,0x02, 0xc1,0xff,0x77,0x00,0x62,0xfc,0x7b,0xff, // 10592
0xb4,0xff,0xad,0x02,0x55,0xff,0x41,0xff, 0x7b,0xff,0x92,0x04,0x89,0xfd,0x6c,0xfc, // 10608
0xe5,0xf8,0x54,0xfc,0x1a,0x00,0xff,0xf9, 0xaf,0x06,0xc7,0x01,0x89,0x01,0xf7,0x05, // 10624
0x53,0xfd,0x78,0x02,0x43,0x00,0xe5,0xff, 0xdb,0xfd,0x11,0x04,0x66,0x00,0x52,0x00, // 10640
0x50,0xff,0xb4,0x00,0xbe,0x00,0x9d,0x02, 0xbf,0xfc,0x2e,0xfb,0x60,0xff,0xa5,0x00, // 10656
0x0f,0x00,0xca,0x00,0x42,0xff,0x9e,0xfe, 0xa4,0xff,0x05,0x03,0xab,0x00,0x78,0xfe, // 10672
0x01,0x01,0xd8,0x01,0xc5,0xff,0xcf,0xfe, 0xfa,0xff,0xa3,0xfd,0x10,0x00,0x1d,0x03, // 10688
0xbe,0xfe,0x1f,0x00,0x23,0xff,0xb7,0xff, 0x0d,0x00,0x30,0xfd,0x81,0xfe,0xc1,0xfe, // 10704
0x6f,0x02,0xbc,0xfd,0x12,0x00,0xd5,0xfa, 0x74,0x00,0xec,0xff,0xdd,0x00,0xdf,0xff, // 10720
0x3f,0x01,0xd9,0x02,0x30,0x00,0xe7,0xff, 0x69,0xfc,0x3d,0x00,0xdd,0xff,0xe9,0x01, // 10736
0x40,0xff,0x72,0xff,0xb2,0xfc,0xf7,0xfd, 0x6e,0x02,0x2e,0xff,0x17,0x00,0x81,0xff, // 10752
0x58,0xfe,0x06,0x03,0xbe,0xfd,0x64,0x00, 0xa7,0xfe,0xff,0xff,0x78,0x01,0xd4,0x01, // 10768
0xe7,0x00,0x4c,0xfd,0xa8,0xff,0x44,0xff, 0x71,0xfc,0x8d,0x02,0xfb,0xfe,0x1c,0x01, // 10784
0x0f,0xfe,0x55,0xff,0xb8,0xff,0x60,0xff, 0xd8,0x05,0xca,0x00,0x1f,0x00,0x8c,0x01, // 10800
0xe4,0xfd,0xc7,0x01,0x08,0x00,0x2a,0x00, 0x9f,0xfe,0x94,0xfb,0xeb,0xff,0xf1,0x02, // 10816
0x32,0x01,0xfc,0xfd,0x40,0xfd,0x46,0xfb, 0x3e,0x01,0x4a,0xff,0xdc,0x00,0x1f,0xff, // 10832
0x29,0xfe,0xf6,0xff,0xa4,0x00,0x7c,0xfd, 0x5b,0x01,0x15,0xff,0x3b,0xfe,0x0a,0xff, // 10848
0x0f,0x03,0xa1,0x01,0x9f,0xff,0x4a,0x01, 0x35,0x01,0xaa,0x02,0x0e,0x04,0x65,0x01, // 10864
0x78,0xfc,0x4d,0x00,0xa7,0x01,0x8b,0xff, 0xe9,0xfe,0xe7,0xff,0x36,0xff,0x7a,0xfe, // 10880
0xb4,0x00,0x70,0x00,0x3f,0xff,0xd7,0xff, 0x43,0x00,0x9b,0xfe,0xf5,0x00,0xc8,0xff, // 10896
0x7c,0x01,0xc6,0x01,0xa2,0xfe,0x33,0x00, 0xeb,0x01,0xba,0xff,0x1f,0x02,0x8f,0x04, // 10912
0x29,0xfd,0x8a,0xff,0xcc,0xff,0xa2,0xff, 0x52,0x00,0x81,0xfd,0x55,0x00,0xa4,0xfe, // 10928
0x5d,0xfe,0x00,0x01,0xd7,0x00,0xd1,0xff, 0x16,0xfe,0x19,0xfe,0x6d,0x00,0xf7,0xff, // 10944
0xe6,0xfe,0x91,0x01,0x98,0xff,0x5b,0x00, 0x09,0x00,0xd7,0xfa,0x05,0x00,0x73,0xff, // 10960
0xf0,0x00,0x36,0x00,0x70,0x00,0x3b,0xff, 0x40,0x00,0x79,0xff,0x29,0x01,0xbc,0xff, // 10976
0x51,0xff,0x7d,0x00,0x46,0xff,0x1f,0x01, 0x58,0xff,0x66,0xff,0x9e,0xff,0x41,0x00, // 10992
0x73,0x00,0x71,0x00,0x3a,0x00,0x8c,0x02, 0x47,0x00,0xb1,0xff,0xf6,0xff,0x33,0x00, // 11008
0xee,0xfe,0x2b,0x01,0xe0,0xff,0xde,0x00, 0x11,0x00,0x03,0x00,0xb9,0xff,0x9e,0x00, // 11024
0x69,0xff,0x3e,0x00,0x51,0x00,0x6e,0xff, 0x19,0x00,0xf8,0x00,0x5d,0x00,0x78,0x00, // 11040
0x2f,0x00,0x2d,0x00,0x3f,0x01,0x00,0x00, 0x2c,0x00,0xd8,0xff,0x56,0xff,0x4d,0xff, // 11056
0x82,0xff,0xd8,0xfe,0xe8,0xff,0x3f,0xfd, 0x50,0x00,0x58,0x00,0x8a,0x00,0xaa,0xfe, // 11072
0x55,0x00,0xb0,0xfe,0xd6,0xff,0xdb,0xff, 0x2e,0x00,0x76,0xff,0x9a,0xff,0x70,0xfe, // 11088
0xe1,0xff,0xab,0x00,0x05,0x00,0x16,0xff, 0x8a,0x00,0xe8,0xff,0x63,0x01,0xe3,0xff, // 11104
0xee,0xff,0x3f,0xff,0xfb,0xff,0xa0,0xff, 0xef,0xff,0x49,0xfe,0x7a,0x00,0x8a,0xff, // 11120
0xd0,0xff,0xc2,0xff,0x8e,0x00,0xf8,0xff, 0xb2,0x00,0xc9,0xff,0x6d,0xfe,0xb1,0xff, // 11136
0x56,0xfe,0x98,0x00,0x83,0xfe,0xbd,0xfe, 0x70,0x01,0x09,0x00,0x2b,0xff,0x7f,0xff, // 11152
0x56,0x00,0x38,0x01,0x46,0xff,0x1f,0x00, 0x3a,0x01,0x50,0x00,0x80,0x00,0x8b,0x00, // 11168
0x8b,0x00,0x9d,0x00,0xf5,0xff,0x61,0x00, 0x59,0x00,0x4f,0x01,0xa2,0xff,0xec,0xfe, // 11184
0x18,0x01,0x69,0xfe,0x13,0xff,0x92,0xfd, 0xeb,0xfe,0x24,0x00,0x08,0x00,0x82,0xff, // 11200
0x5d,0xff,0x68,0x00,0x7e,0x00,0xde,0xfe, 0xfa,0xfe,0x45,0x00,0x21,0xff,0x8e,0x01, // 11216
0xc8,0xff,0x1d,0x00,0xc1,0x00,0x8f,0xfe, 0x67,0x00,0xc2,0xfe,0x7d,0x01,0xb8,0xff, // 11232
0xba,0x00,0xd8,0x01,0x98,0x01,0x96,0xfe, 0x91,0x01,0xf6,0xfe,0x17,0x01,0x4e,0x00, // 11248
0x8f,0xff,0x25,0x00,0x31,0xff,0x59,0xfb, 0xd5,0xff,0x7f,0xff,0x78,0x00,0x10,0xff, // 11264
0xa3,0xff,0x99,0xff,0x99,0x00,0x45,0xff, 0xb7,0x03,0xd7,0x02,0x65,0xff,0x7a,0x00, // 11280
0x34,0xff,0x5f,0x01,0x9c,0x00,0x47,0x01, 0x6b,0xff,0x34,0x01,0x27,0x01,0x9c,0x02, // 11296
0x28,0xff,0x8a,0xf9,0xc7,0xff,0x67,0xff, 0xf4,0xff,0xa7,0xff,0x76,0xff,0xd6,0x00, // 11312
0x5d,0x02,0x06,0x01,0x77,0x00,0x4b,0x00, 0x92,0xf9,0xf7,0xfe,0x5b,0x00,0x29,0x00, // 11328
0x96,0xff,0x32,0x00,0x3c,0x00,0x45,0xf7, 0x79,0xff,0xca,0x00,0x3d,0x00,0x21,0xff, // 11344
0xf9,0xfe,0x8b,0xff,0x99,0xff,0x93,0xfd, 0x76,0xff,0xe0,0x00,0x62,0xfe,0xa0,0xff, // 11360
0xd1,0xfe,0x5c,0x02,0xda,0xff,0x2e,0xff, 0x42,0xfe,0x84,0xfe,0x55,0xfd,0xdb,0xff, // 11376
0x07,0xfe,0xd6,0xfd,0x9b,0xfd,0xd5,0xff, 0xa9,0x01,0xe0,0xfd,0xd0,0xfe,0x4b,0x01, // 11392
0x90,0xfe,0xd2,0xfe,0x3e,0x00,0xc8,0xfe, 0x4b,0xff,0x60,0xf8,0xae,0xfe,0x6e,0x00, // 11408
0x6f,0xff,0x93,0x00,0xac,0x00,0x41,0xff, 0x5d,0xff,0x59,0x00,0x37,0x00,0xc1,0xff, // 11424
0x9a,0xff,0x2b,0x00,0x7e,0x00,0x73,0x00, 0xf2,0xff,0xd6,0xfc,0x80,0xff,0xda,0xfe, // 11440
0x43,0x07,0xc9,0xfd,0x4a,0x02,0xec,0xff, 0x33,0x03,0x76,0xff,0xe7,0xfd,0x1e,0xff, // 11456
0x4b,0x00,0x5e,0x00,0xf6,0xfc,0xfb,0xfb, 0x4e,0x0c,0xd1,0xfe,0x2b,0x00,0xc1,0x01, // 11472
0xa1,0xfd,0x2b,0xfb,0x7e,0x00,0xaa,0xfe, 0xf4,0x03,0x1c,0xfd,0xce,0xff,0xf7,0xfe, // 11488
0xdf,0x00,0xa2,0x04,0xdc,0x02,0x4b,0xff, 0x65,0xff,0x91,0x00,0xbd,0x00,0x02,0x02, // 11504
0xa1,0x00,0x7a,0x00,0x5f,0x01,0x8e,0x03, 0x1e,0x02,0x6c,0x00,0xee,0xfc,0xc9,0xff, // 11520
0x01,0x00,0xc1,0x00,0xef,0x00,0xdd,0xfe, 0x09,0x03,0x94,0xfe,0x91,0x00,0x93,0x00, // 11536
0x80,0xff,0xfa,0x00,0x69,0x00,0xe5,0x00, 0x60,0xff,0x71,0x02,0x11,0x02,0x58,0x03, // 11552
0xe8,0xfe,0x93,0x02,0x47,0xfe,0x34,0x00, 0x93,0xfd,0x7b,0xfd,0xc3,0xfd,0x75,0x00, // 11568
0xf0,0x01,0x6f,0x01,0x37,0x00,0xe9,0xfe, 0x74,0xff,0xc4,0x00,0xf1,0x05,0x08,0x00, // 11584
0x85,0xfe,0x01,0x00,0x6a,0xfe,0xb0,0xff, 0x68,0x02,0x32,0xfc,0x62,0x02,0xf3,0xfd, // 11600
0xad,0xfe,0xde,0xff,0xdc,0xff,0x71,0xfe, 0x0a,0xff,0x02,0x05,0x2d,0x00,0xa5,0xff, // 11616
0x0b,0x06,0x16,0xfc,0x2e,0xff,0x19,0xfe, 0xd5,0x02,0x7d,0x01,0x92,0x00,0x9e,0xff, // 11632
0x2c,0xfa,0xd1,0xff,0x19,0xfd,0xd2,0xfd, 0xcb,0x01,0xe3,0xfe,0xbd,0xff,0x9d,0x00, // 11648
0x31,0x01,0xa0,0x01,0xaa,0xfe,0xc3,0xfb, 0xb6,0xfd,0xcf,0xff,0x90,0x00,0xe4,0x03, // 11664
0xf2,0x01,0xc0,0xff,0xe5,0xfe,0xa5,0x02, 0x10,0x03,0x01,0xff,0xdd,0xfc,0x8e,0x00, // 11680
0xd3,0xf9,0x58,0x00,0x1b,0x00,0x72,0xfe, 0x26,0xfc,0xe4,0xfb,0x29,0x01,0x27,0xff, // 11696
0x1e,0xfd,0x2a,0xfe,0x05,0xff,0x73,0xfc, 0xd2,0x02,0x87,0x00,0x49,0xfc,0x68,0x01, // 11712
0x28,0xff,0x49,0xfe,0xd9,0x00,0x8d,0x01, 0x40,0xff,0xa8,0xfd,0x43,0x02,0x38,0xff, // 11728
0xfd,0x00,0x6a,0x00,0xc6,0xff,0x18,0x00, 0x44,0xfd,0x4f,0xfe,0xe5,0xff,0x31,0xfc, // 11744
0xc5,0x00,0x81,0xfe,0x15,0xfd,0x77,0xfe, 0x64,0x01,0x3f,0xfe,0xb5,0x03,0x50,0x00, // 11760
0xa7,0xfe,0x3d,0x00,0x2e,0x01,0x36,0x02, 0xf3,0x03,0xb5,0xff,0xb7,0xff,0x08,0x01, // 11776
0xa5,0x01,0x32,0x02,0x85,0xff,0x3b,0x02, 0x70,0xff,0x4d,0xff,0x2a,0xfe,0xa3,0x00, // 11792
0xc8,0xf9,0x15,0xfb,0x81,0xff,0xd3,0xff, 0x0f,0xfe,0x4b,0xff,0x84,0xfc,0x16,0xff, // 11808
0x9d,0x00,0xa2,0xff,0x0c,0x03,0xc7,0x01, 0xa6,0xff,0x68,0x00,0x80,0x02,0x2c,0x00, // 11824
0xca,0xfd,0x85,0x01,0x8b,0xff,0xb8,0x01, 0x39,0xfd,0x64,0xfe,0x37,0xfe,0x42,0x00, // 11840
0x1a,0x00,0x7b,0xfb,0xa0,0xff,0xd7,0x03, 0x71,0x01,0x5e,0xff,0xb3,0xff,0xed,0x00, // 11856
0x99,0x06,0x0b,0x04,0xda,0x00,0xd2,0x03, 0x68,0xfd,0x7c,0x04,0x9f,0xfe,0x03,0x01, // 11872
0xd4,0xff,0x41,0x00,0x10,0x01,0xc5,0xfd, 0x83,0x01,0x30,0x00,0x69,0xfe,0xbb,0xfc, // 11888
0xfe,0xfc,0x13,0x02,0xec,0xfe,0x23,0x02, 0x16,0x00,0xeb,0xfe,0x72,0x01,0xd7,0xfe, // 11904
0xc8,0x02,0x16,0xff,0x5c,0x01,0xe2,0x02, 0x31,0xfe,0x86,0xfa,0x3b,0x01,0x8c,0xfb, // 11920
0x72,0x07,0x0f,0xff,0x6b,0x01,0xeb,0xfe, 0xec,0xff,0xb5,0x02,0xb7,0x00,0x18,0xfe, // 11936
0x5b,0xfe,0xb3,0x00,0x3c,0x08,0x36,0x01, 0xdf,0xfe,0x4a,0xff,0x5d,0x01,0x79,0xff, // 11952
0x1b,0x01,0xc4,0xff,0x1c,0xff,0xe7,0x02, 0x85,0xff,0xe8,0xfe,0x6e,0x0a,0x52,0x00, // 11968
0xfa,0xfd,0xea,0xff,0xea,0xfc,0x09,0xfe, 0xc5,0x00,0x37,0xf9,0xdc,0xf8,0x50,0xfe, // 11984
0x50,0x00,0xc7,0xff,0x8c,0x01,0x1a,0x00, 0x1f,0x02,0x03,0x01,0x41,0x01,0xbb,0x03, // 12000
0xe2,0xfc,0x91,0x00,0x84,0xff,0xb1,0x01, 0xff,0xfd,0x47,0x04,0x27,0x00,0xf6,0x00, // 12016
0x83,0xfe,0xee,0xfe,0x95,0xff,0x4c,0x00, 0x26,0xfe,0x41,0x00,0xca,0xfd,0x61,0xf6, // 12032
0xd0,0x03,0x82,0x01,0xd0,0x01,0x42,0x00, 0x97,0x00,0xbb,0x02,0xaf,0xff,0xb7,0xff, // 12048
0xa3,0x00,0x30,0xff,0x0e,0xfe,0x28,0x01, 0x51,0x01,0x7e,0x03,0x5e,0x01,0xe7,0xfe, // 12064
0xae,0x04,0x35,0xfc,0xaa,0x00,0xaa,0x01, 0xa4,0x08,0xb0,0x02,0xb7,0x00,0x24,0x00, // 12080
0xf3,0xfe,0xfd,0x00,0xdf,0xff,0x6f,0x00, 0x68,0xff,0x8c,0xff,0xa9,0xff,0x3f,0x00, // 12096
0xe0,0x01,0x91,0x00,0xd7,0xf7,0xc2,0x01, 0xe7,0x03,0x78,0xff,0xcb,0x00,0xe1,0xfd, // 12112
0xe8,0x00,0xc4,0xfe,0x3d,0x03,0x6c,0x00, 0xa2,0xff,0x59,0x01,0xbc,0x00,0x71,0xfd, // 12128
0x6f,0xff,0xb2,0xff,0xb2,0xfe,0x75,0xfe, 0x9c,0xfc,0xf1,0xfe,0xf3,0xfd,0x98,0xf9, // 12144
0xe5,0x02,0x8b,0xfd,0x36,0x00,0x31,0x00, 0xc9,0xff,0x34,0x00,0xec,0xfe,0xa7,0x00, // 12160
0x05,0x02,0xe8,0xff,0x85,0xff,0xa1,0x01, 0xb2,0x00,0x3f,0xfe,0x01,0x00,0x93,0x00, // 12176
0x96,0xff,0x34,0xff,0x57,0xff,0xbb,0x00, 0xdb,0xfe,0x68,0x00,0xcd,0xfc,0xd3,0xff, // 12192
0x43,0x02,0x6f,0x03,0xc6,0xff,0xab,0x0e, 0x81,0xfc,0xbe,0x00,0x75,0x00,0xcc,0xff, // 12208
0x0d,0xff,0xf7,0xff,0x4f,0xff,0x73,0x02, 0x31,0x01,0x8d,0x00,0x37,0xfb,0xa4,0xff, // 12224
0xb4,0xff,0x18,0x00,0xe0,0x00,0xec,0xfe, 0x48,0xff,0x9a,0x01,0x08,0x00,0x7e,0xfb, // 12240
0x19,0x02,0x23,0x01,0xdb,0xfa,0xc1,0xff, 0x98,0x01,0xb4,0xff,0xdc,0x02,0x68,0x02, // 12256
0x65,0x00,0x0e,0x09,0x93,0x0a,0x20,0x01, 0x15,0xfe,0x22,0x00,0x43,0x01,0x99,0x00, // 12272
0x37,0x00,0x3a,0x01,0xbb,0xff,0x85,0xfa, 0xa7,0x00,0x36,0x01,0xda,0x00,0xfe,0xfd, // 12288
0xab,0xff,0x6e,0xfe,0x7a,0x02,0xf8,0xfe, 0x18,0x01,0x22,0x00,0x1e,0x01,0x1f,0x02, // 12304
0x12,0xff,0x67,0x00,0xee,0xff,0x20,0x04, 0x90,0xff,0x53,0xff,0xa4,0xfe,0xe0,0xff, // 12320
0xc6,0xfd,0xd6,0xff,0x01,0x01,0xe8,0x00, 0xef,0xfe,0x82,0xfd,0xf3,0xfe,0x78,0x00, // 12336
0xc4,0x01,0x0a,0xfa,0xdc,0xff,0x96,0xff, 0xc9,0xf5,0x05,0x02,0x79,0xff,0xb6,0xfb, // 12352
0x4a,0xff,0x43,0x01,0x7e,0x00,0x90,0x02, 0xd2,0xfe,0xb7,0x00,0x77,0xff,0x95,0x01, // 12368
0xec,0x06,0x97,0xff,0xe3,0x01,0x7d,0x00, 0x5c,0xfd,0x4f,0x01,0x1a,0x00,0xcd,0xfe, // 12384
0x27,0x00,0xd3,0xfc,0x71,0x01,0x78,0xfe, 0x47,0xfd,0xa3,0x02,0xe5,0xff,0xcc,0x00, // 12400
0x34,0xfc,0xc1,0xff,0xe1,0xfd,0x52,0x09, 0x76,0xfd,0x22,0xff,0xf0,0xff,0xb2,0x03, // 12416
0x36,0x02,0x04,0xfd,0x01,0x00,0x90,0x01, 0xa8,0x00,0xc9,0x02,0x8a,0xfc,0xd1,0x01, // 12432
0x89,0x07,0x67,0x04,0x3a,0x00,0xcd,0xfd, 0x80,0xfc,0xf9,0xfe,0x47,0xff,0xf9,0xfb, // 12448
0x7d,0xfc,0x02,0x00,0x90,0xff,0xce,0xfd, 0x82,0xff,0x82,0xfe,0x90,0xff,0x46,0xfe, // 12464
0xaa,0x00,0xad,0xfe,0x2b,0x01,0x61,0x00, 0x07,0xff,0xa3,0xff,0x12,0x00,0x7a,0xff, // 12480
0x1b,0x01,0xec,0x00,0x97,0xff,0xc0,0xff, 0x44,0xff,0xac,0x02,0xac,0xfe,0x06,0x01, // 12496
0xa4,0xf6,0xbb,0x00,0xfb,0x02,0x58,0xff, 0x41,0x00,0xfc,0xfe,0xce,0x00,0x81,0x01, // 12512
0x36,0x02,0x96,0xff,0x8a,0xf9,0xde,0xff, 0x1d,0xff,0x32,0xff,0x3c,0x03,0xeb,0xff, // 12528
0xd3,0x00,0x96,0x03,0x3d,0x00,0x7a,0xf8, 0xfa,0xff,0x76,0xfe,0xe0,0xff,0x09,0xfe, // 12544
0x85,0x01,0x17,0x00,0x81,0x04,0x42,0x01, 0x0e,0x01,0xe3,0xfe,0x53,0x02,0x0b,0x01, // 12560
0xa9,0x00,0xc4,0xfa,0x70,0x01,0xd5,0x02, 0xd3,0x06,0xbe,0x03,0xb8,0x00,0xa6,0x07, // 12576
0xb8,0xf8,0x19,0xfd,0x3c,0xff,0x36,0xfc, 0x2b,0x01,0x1f,0xff,0xc9,0xfd,0x6b,0x00, // 12592
0x07,0x03,0x5b,0xfc,0x1b,0xff,0x72,0x00, 0xd4,0x00,0xfe,0x00,0x42,0x00,0x3d,0xfc, // 12608
0x00,0x03,0xcf,0x04,0x6b,0x00,0xbb,0xff, 0x03,0xff,0x03,0x00,0xeb,0xff,0x5b,0x01, // 12624
0x60,0xff,0x07,0xfb,0xec,0xff,0xc3,0x01, 0x92,0x00,0xe8,0x00,0xc2,0xfc,0xd1,0x00, // 12640
0x74,0xfd,0x14,0x00,0x1b,0xfe,0x90,0x04, 0xde,0x00,0x9b,0xfe,0x51,0xf9,0xae,0x01, // 12656
0x7b,0x00,0x2c,0xff,0x6e,0xfe,0xb3,0xfa, 0x3b,0x01,0x30,0x00,0xd9,0xfe,0x87,0xff, // 12672
0x3a,0xff,0xb5,0xfe,0xd8,0x00,0x34,0xf7, 0xc5,0xff,0xb6,0xff,0x4a,0xff,0x62,0x02, // 12688
0xf0,0xff,0xf4,0xff,0x3d,0xfe,0x94,0x00, 0xa7,0xfe,0x1a,0xff,0xa9,0xff,0xea,0xfe, // 12704
0xef,0x00,0x57,0x00,0x74,0x00,0x51,0x04, 0xf9,0xfe,0x59,0xfe,0x4f,0x00,0x99,0x00, // 12720
0x71,0xff,0xfb,0xfd,0x10,0xfe,0x46,0x00, 0xfb,0xfc,0x0c,0xff,0xc4,0x00,0x38,0xff, // 12736
0x26,0x00,0xe2,0x00,0x79,0xff,0x15,0x06, 0xde,0xfe,0x80,0xfa,0x40,0xfe,0x48,0xff, // 12752
0x8a,0x00,0xcf,0x00,0x71,0xfc,0x46,0x00, 0x39,0xfe,0xe7,0x01,0xb7,0x07,0x59,0x01, // 12768
0x06,0xfa,0x2b,0xfc,0x4d,0xff,0x73,0x00, 0x9e,0x00,0x50,0x00,0x74,0xfe,0x2b,0x01, // 12784
0x85,0x01,0xec,0xfb,0xd9,0x02,0xcc,0x02, 0xec,0x00,0x47,0x05,0x0c,0x00,0x9b,0xfe, // 12800
0xca,0xfe,0xbf,0xfe,0x4d,0x00,0xd3,0xfd, 0xbb,0xfe,0x01,0xff,0xcb,0x00,0x2b,0x01, // 12816
0x1b,0x01,0xdf,0x00,0xb6,0x01,0x3d,0x02, 0x47,0xfc,0xb2,0x03,0xa6,0x00,0xbe,0x03, // 12832
0x23,0x02,0x2a,0xfa,0x9f,0x05,0x95,0xfe, 0x91,0x03,0xab,0xff,0xaa,0x02,0x5c,0xfe, // 12848
0x32,0x00,0xc9,0xff,0x4a,0x01,0xc8,0xff, 0x13,0x00,0x3b,0xff,0x04,0xfa,0x39,0xfe, // 12864
0xad,0x02,0x30,0x03,0x18,0x04,0xb8,0x00, 0xbe,0xff,0x40,0x00,0x6d,0x00,0xd7,0x00, // 12880
0xdc,0xff,0x89,0xfa,0x2a,0x02,0xef,0xff, 0xb1,0x02,0x20,0x01,0xd9,0xfe,0x92,0xf8, // 12896
0xd1,0x00,0xff,0xfe,0xdc,0xfd,0xe2,0x00, 0xe0,0xff,0x71,0x01,0xdc,0xf9,0x72,0x00, // 12912
0x75,0x02,0xc3,0x03,0x47,0x01,0xce,0x00, 0xe0,0xff,0x8d,0x00,0x2e,0x01,0x35,0xfc, // 12928
0x0e,0x02,0xa4,0xff,0x14,0xfc,0xf5,0xfe, 0x7c,0x00,0x90,0x00,0xa6,0x00,0x5e,0x01, // 12944
0x20,0x01,0x46,0x0a,0x7a,0x01,0x04,0x06, 0x39,0x00,0xc4,0xff,0x03,0x01,0x43,0xfe, // 12960
0xc2,0x00,0x3c,0xff,0xd0,0xff,0x01,0xfa, 0x62,0x0c,0x8d,0xff,0x8b,0x00,0xe3,0xfa, // 12976
0xda,0xfc,0x10,0xff,0x6d,0x09,0xab,0xff, 0xd6,0xff,0x93,0xfc,0x90,0x00,0x77,0x00, // 12992
0x01,0x00,0x00,0xec,0xa8,0x03,0x15,0x01, 0x34,0x00,0x39,0x00,0x91,0xfe,0xf1,0x01, // 13008
0x78,0x00,0xe9,0x06,0x5e,0xff,0x00,0xfe, 0x74,0x05,0xf9,0xff,0x9f,0x00,0x14,0x02, // 13024
0xb8,0x01,0x6f,0x00,0x30,0xff,0x2d,0x00, 0xc4,0xfa,0x45,0x01,0xd8,0xf9,0x93,0x00, // 13040
0x6e,0x00,0x31,0x00,0xf3,0x00,0x5a,0xff, 0x11,0xfe,0x21,0xfe,0x84,0xfe,0x89,0xf9, // 13056
0x48,0x01,0x29,0x00,0xf8,0xf7,0x89,0x0a, 0x90,0xff,0xea,0xfc,0xfa,0xff,0x58,0x02, // 13072
0x2a,0x01,0x3e,0x03,0x23,0xff,0xcc,0xfd, 0x7c,0xf9,0xcc,0xff,0x70,0xfc,0xa8,0x00, // 13088
0xa0,0xf5,0x7f,0xef,0xa5,0x01,0xd3,0x01, 0x5a,0xff,0xd5,0x02,0x99,0x03,0x57,0x02, // 13104
0xd5,0xfe,0x77,0xff,0x05,0xf0,0xee,0xfe, 0x73,0xff,0x6c,0xfc,0x54,0x00,0x3d,0xfe, // 13120
0xad,0x01,0x82,0x00,0xed,0x03,0xa2,0xfd, 0x0d,0x01,0x2e,0xff,0xcf,0x01,0x0c,0x00, // 13136
0x7a,0x00,0x26,0x00,0x48,0xff,0x3f,0xfe, 0xeb,0x00,0xd6,0x00,0xf6,0x00,0xf7,0x01, // 13152
0x6d,0xff,0x05,0xff,0xbd,0x07,0x26,0x00, 0x02,0x01,0x8a,0xff,0x19,0xff,0xdc,0x09, // 13168
0xd4,0x01,0x9d,0xff,0x74,0xff,0xac,0xfd, 0x5e,0x00,0x2d,0x00,0xfa,0x00,0x96,0x01, // 13184
0xf0,0xfe,0x9d,0x04,0x69,0xfb,0x25,0xff, 0xfb,0x00,0x30,0x00,0x93,0xfc,0x01,0x00, // 13200
0x6b,0xff,0xe0,0x08,0x89,0xff,0xd9,0xfe, 0x0f,0x02,0x85,0xfe,0x6e,0x03,0xb6,0x01, // 13216
0xc0,0x00,0x50,0x07,0x12,0x00,0xaa,0x01, 0x8f,0xff,0x0c,0x00,0x30,0xff,0x40,0xff, // 13232
0x71,0xfb,0x55,0x02,0x4b,0x00,0xcb,0x00, 0x63,0xfd,0x74,0xff,0xca,0x00,0xc0,0xff, // 13248
0x3d,0xff,0x2d,0x02,0x3f,0xfd,0x5d,0x00, 0x36,0xff,0x1b,0x01,0x4c,0x00,0x34,0xff, // 13264
0x28,0x00,0x0e,0xfd,0x35,0xfb,0x08,0x00, 0x47,0x00,0x18,0x00,0xdc,0xfe,0xd6,0xf7, // 13280
0xc1,0x00,0x68,0xff,0xdc,0xff,0x8f,0xfc, 0xee,0xff,0x2f,0xff,0xdf,0xff,0xdf,0x02, // 13296
0xbd,0x01,0x87,0xfa,0xcc,0xff,0xd4,0xfb, 0x06,0x00,0x15,0x01,0x29,0xfe,0x85,0x00, // 13312
0x78,0x00,0x39,0x01,0x85,0x00,0x3b,0x00, 0x86,0xff,0x03,0x01,0x5e,0xfe,0xf9,0xfe, // 13328
0x6e,0xff,0xe8,0x09,0x64,0x03,0x9c,0xff, 0x5c,0xfe,0xe1,0x05,0x30,0x00,0xbb,0xff, // 13344
0xf9,0x00,0x7a,0xfe,0xd5,0x01,0x24,0xff, 0x05,0x03,0x1c,0xfe,0xaa,0xff,0x96,0xfe, // 13360
0x09,0x00,0x5d,0x01,0x3e,0x00,0x1d,0xff, 0x49,0x00,0x5c,0x00,0x8d,0x01,0xb1,0xff, // 13376
0xfa,0xfd,0xd6,0xfe,0x23,0x00,0xfa,0xfa, 0x41,0x01,0x33,0x00,0xfd,0xff,0x76,0xff, // 13392
0xed,0xff,0x7a,0xff,0x76,0xfe,0x77,0xfe, 0xa0,0xfc,0xb9,0xfd,0xf5,0x00,0x39,0xff, // 13408
0xff,0x00,0xdb,0xfe,0xd9,0xff,0x35,0xff, 0xdf,0xfd,0x52,0xf4,0x64,0x00,0x3a,0xff, // 13424
0x2a,0xfe,0x99,0xfd,0xc4,0xf7,0x3e,0x00, 0x78,0x04,0x01,0x00,0x8f,0xff,0xd4,0xff, // 13440
0xcb,0xfd,0xa3,0x01,0xe1,0xff,0xf4,0xfe, 0xe7,0xff,0x57,0xff,0x19,0xfe,0xf5,0x01, // 13456
0x27,0x05,0x86,0xff,0x04,0x00,0x5c,0x01, 0xd8,0xfe,0xd9,0xfc,0xf5,0xff,0x8e,0xff, // 13472
0x2f,0x00,0x4d,0x01,0x04,0x00,0xef,0xff, 0x64,0xff,0xf7,0xff,0xad,0xff,0x0f,0x01, // 13488
0xfc,0xff,0x52,0x00,0x1b,0x00,0xd9,0x00, 0x51,0x00,0x02,0xff,0x68,0x00,0x35,0xff, // 13504
0x7b,0xff,0xe1,0xff,0xc4,0xff,0xdb,0xfe, 0x5e,0xff,0xe3,0xff,0xde,0x00,0x64,0xff, // 13520
0x20,0x01,0x29,0x00,0x9a,0xff,0xb3,0x00, 0x8e,0x00,0xde,0xff,0xda,0xff,0x1c,0xfe, // 13536
0x55,0xff,0x9a,0xff,0x01,0x00,0x1f,0x00, 0x11,0x00,0x02,0x00,0x4f,0x00,0x45,0x00, // 13552
0x4f,0xfa,0x6b,0xfe,0xf9,0xff,0xa7,0xff, 0xa1,0xff,0xaf,0x00,0x01,0x00,0x0c,0x01, // 13568
0x5a,0x00,0x2c,0x00,0x1d,0x00,0xbe,0xfe, 0x8a,0x00,0xb2,0x00,0x27,0x01,0x07,0x00, // 13584
0x29,0x01,0x29,0xff,0x43,0x00,0x6c,0x00, 0x6a,0x00,0x1e,0x00,0x6e,0xfd,0x39,0x00, // 13600
0x5e,0xff,0x62,0x00,0x32,0x00,0xa9,0xff, 0x1a,0xff,0x4d,0x00,0xe9,0xff,0xd0,0xff, // 13616
0xc2,0x02,0x68,0xff,0xac,0xfd,0x64,0xff, 0x91,0xff,0x2f,0xfe,0xdb,0xff,0x6d,0x00, // 13632
0x25,0x00,0x13,0x00,0x5c,0x00,0x0d,0xfe, 0x61,0xff,0x9a,0xff,0x59,0xff,0x21,0x01, // 13648
0x6c,0xff,0x5d,0xff,0x8f,0x00,0xa9,0xff, 0x41,0x00,0x1a,0x01,0xbd,0x01,0xf3,0x00, // 13664
0x8b,0xff,0xd5,0xfe,0xb4,0xff,0xcc,0xfe, 0xd6,0xff,0xad,0xfe,0xc4,0x00,0xaa,0xfd, // 13680
0xfc,0x00,0xa0,0x00,0x81,0x01,0x27,0xff, 0xb1,0xfb,0x43,0x00,0xae,0x00,0x8b,0xff, // 13696
0x93,0x01,0x92,0x00,0xc4,0xfc,0x36,0xff, 0xab,0x01,0xe9,0xff,0x82,0x00,0xd9,0x00, // 13712
0x74,0xff,0x1b,0x01,0x88,0x01,0x0d,0xff, 0x98,0x00,0x75,0xfe,0x3f,0xff,0x4a,0x00, // 13728
0x19,0x00,0x71,0xff,0xdb,0xfe,0x2c,0x00, 0xdc,0xff,0xa2,0xfe,0x6d,0x00,0x9a,0x00, // 13744
0x2f,0x00,0x19,0x02,0x7b,0x00,0xb4,0xff, 0x82,0xff,0x50,0xff,0x58,0x02,0xd6,0xfe, // 13760
0x1c,0x03,0x88,0x02,0xec,0x02,0x54,0xf9, 0x65,0x00,0xe3,0x00,0x6f,0x03,0x7d,0xfd, // 13776
0x97,0xff,0xd1,0x01,0x5f,0xff,0x83,0x07, 0xc4,0xfc,0x2b,0x01,0xb2,0x05,0x10,0x01, // 13792
0x06,0x01,0x68,0x02,0xaa,0xfe,0x73,0x05, 0x5d,0xfd,0x33,0xfe,0xc2,0xff,0x3c,0xfd, // 13808
0x2f,0x01,0x7a,0x00,0x50,0x03,0x0c,0xfd, 0xf6,0xff,0xaa,0xfe,0x50,0x01,0xfc,0x00, // 13824
0xe0,0xfe,0xc0,0xfe,0x4e,0xfe,0xba,0xfc, 0x6e,0x03,0x45,0xff,0x30,0x01,0x04,0xff, // 13840
0xb0,0x00,0x59,0x00,0xae,0x00,0x2b,0x00, 0x93,0x01,0x82,0x00,0x96,0x00,0x1c,0xff, // 13856
0x4c,0x03,0x5e,0xfc,0xec,0x00,0xa5,0xfb, 0x44,0x02,0x91,0x05,0x6a,0x01,0xc8,0xff, // 13872
0x8a,0xff,0x62,0xff,0x18,0x00,0xdf,0xfe, 0xa3,0x01,0xba,0xfd,0xab,0xfa,0xe4,0xfd, // 13888
0x42,0x04,0x1e,0x05,0xd9,0xfe,0x28,0xff, 0xac,0xfe,0xe1,0xff,0xe9,0xff,0xae,0x00, // 13904
0x6e,0x00,0x38,0x02,0xc2,0xfc,0x63,0xff, 0x39,0x02,0xb7,0xfd,0xfb,0xfd,0xc1,0x02, // 13920
0xeb,0xff,0x51,0x01,0xe3,0xff,0xd3,0x01, 0xaa,0xff,0x9e,0xff,0xa9,0x00,0x30,0x01, // 13936
0x44,0xfb,0xc2,0xff,0xdb,0xfe,0x3a,0xfe, 0x9a,0x04,0x2b,0xfe,0xed,0xfe,0x9a,0xfd, // 13952
0x8b,0xfe,0x11,0x03,0x82,0xfe,0x46,0x01, 0x1b,0x00,0x3c,0xff,0x45,0xff,0x14,0x00, // 13968
0x99,0x02,0xc3,0x00,0xcd,0xfe,0x85,0x01, 0x17,0xfd,0x7d,0xfe,0xbe,0x02,0x59,0x01, // 13984
0xb7,0xfd,0x72,0xfc,0x8c,0xfb,0x29,0xfe, 0x60,0x00,0x57,0xff,0xa4,0x00,0x0e,0x00, // 14000
0x3a,0x00,0xa3,0x03,0x23,0xff,0xea,0x01, 0xc0,0xfd,0x5c,0xfd,0xd2,0x00,0x1f,0x05, // 14016
0x9f,0x00,0x25,0x02,0x1a,0x01,0x81,0x00, 0xcb,0x00,0x0b,0x02,0x37,0x03,0x75,0xff, // 14032
0x2f,0xf4,0xa3,0xfb,0x09,0x00,0x9f,0x00, 0x6d,0xfe,0x99,0xfc,0x7f,0xfd,0x09,0x00, // 14048
0x84,0x00,0x2a,0x01,0x67,0x02,0x38,0x01, 0xd5,0xfe,0x22,0xff,0x4e,0x03,0xab,0xff, // 14064
0xe0,0xfe,0x59,0x01,0x81,0xfe,0xba,0x01, 0x53,0xfe,0x78,0xfe,0x82,0xff,0x5e,0x00, // 14080
0x72,0x03,0x75,0xfd,0xee,0xfd,0x40,0x04, 0xcf,0x00,0xb1,0xfd,0xc0,0xff,0x20,0xff, // 14096
0x97,0x0a,0x6c,0x03,0x38,0x00,0xd5,0x08, 0x6a,0xfe,0x65,0x07,0x72,0x00,0x7a,0x01, // 14112
0xc1,0xfe,0xfb,0xfe,0xf7,0xff,0x02,0x01, 0x74,0xff,0x20,0x01,0x0d,0xfe,0xb0,0x00, // 14128
0x77,0xfd,0xcb,0x00,0xb7,0xfe,0x23,0x00, 0x4c,0xff,0xc7,0x00,0x42,0x01,0x7a,0xff, // 14144
0x28,0x03,0x8b,0xfd,0xce,0x04,0x05,0x02, 0x6e,0xff,0x11,0xf4,0xa2,0x02,0x60,0xfa, // 14160
0xb7,0x06,0x9c,0xfc,0xfe,0xfe,0xb9,0xfe, 0x21,0xff,0xc9,0xff,0xb1,0xfd,0x99,0xfe, // 14176
0x39,0x00,0xce,0xff,0x77,0x04,0x74,0x00, 0xfe,0xfd,0x47,0xff,0xa8,0x01,0xd8,0xfe, // 14192
0xca,0xfe,0x93,0x00,0x67,0x00,0x8c,0x02, 0x45,0x00,0x38,0xff,0x64,0x0b,0x24,0x00, // 14208
0xb4,0xfe,0x00,0xff,0xff,0xf9,0x2c,0xfd, 0x13,0x03,0xcf,0xf5,0xc8,0xf9,0xb6,0x01, // 14224
0xa1,0x00,0x4f,0xfe,0xa5,0x01,0x6f,0xff, 0x33,0x01,0xee,0x00,0xae,0x00,0x8b,0x02, // 14240
0x63,0xfe,0x6a,0x02,0xf0,0xfe,0xde,0x06, 0x67,0xfd,0x2f,0x07,0x68,0xff,0x1f,0x01, // 14256
0x36,0x01,0x38,0x02,0xc3,0xff,0x76,0x00, 0xd2,0xff,0xe7,0x00,0xd2,0xff,0x8c,0xf9, // 14272
0x08,0x01,0xb1,0x01,0x15,0x01,0xf5,0xff, 0xfc,0x01,0xed,0x00,0xdc,0xff,0x0f,0x01, // 14288
0x8e,0x00,0xf1,0xff,0x01,0xff,0xf3,0x00, 0xc4,0xfe,0x9a,0x02,0xc4,0x01,0x11,0xfe, // 14304
0x47,0x06,0xd1,0xfe,0x2a,0x01,0xda,0x01, 0x6b,0x00,0xab,0xfc,0x5d,0xfe,0x3c,0xfc, // 14320
0x4e,0x00,0x80,0x00,0x05,0x00,0x4c,0x02, 0x69,0xfd,0x7f,0xfe,0x4d,0x05,0xae,0xff, // 14336
0xd4,0x00,0x9f,0x00,0xf2,0xfc,0x1c,0xff, 0x36,0xff,0xaf,0xfd,0x36,0xfe,0x2a,0xff, // 14352
0x4a,0xff,0xc8,0x02,0x03,0x01,0xe7,0x03, 0xb9,0xff,0x93,0x02,0x83,0x03,0x9d,0x00, // 14368
0xa8,0xfd,0xcc,0x01,0x06,0x00,0x8c,0x03, 0xc3,0xff,0x80,0x00,0x50,0xfd,0x04,0xfd, // 14384
0x91,0x00,0xcb,0xfe,0xe3,0xfc,0xc7,0xfe, 0x6f,0xff,0xd4,0x03,0x19,0x00,0x09,0xfe, // 14400
0x33,0x00,0xcd,0xff,0xd1,0x02,0x81,0xfd, 0x27,0x01,0x79,0xfc,0x3c,0x00,0x2a,0x01, // 14416
0x4c,0xff,0x01,0x00,0xff,0xff,0x54,0xfd, 0x8f,0xfa,0xdc,0xff,0x4d,0xfb,0xa2,0xfe, // 14432
0x4c,0x02,0xe4,0x00,0xb0,0x01,0xe4,0x03, 0x3e,0xfb,0x8e,0x03,0x07,0xff,0x1a,0x00, // 14448
0xb9,0x01,0x33,0x00,0xc3,0x04,0xfc,0x01, 0xbe,0xff,0x9c,0x01,0x8f,0x04,0xf2,0xfc, // 14464
0xf5,0xfe,0xc4,0x01,0xa0,0xff,0xf8,0xfa, 0xab,0x00,0x1e,0xfc,0x6f,0x01,0x07,0x02, // 14480
0x27,0x03,0x10,0x02,0xc5,0xfe,0x10,0x00, 0x48,0x01,0x38,0x03,0x33,0x00,0xfe,0x00, // 14496
0x92,0xff,0xd7,0x00,0x9b,0xff,0xdf,0xfd, 0x86,0x00,0x5c,0x00,0x67,0x02,0x2a,0x01, // 14512
0x3f,0x00,0x6d,0x04,0x17,0xfc,0x29,0x00, 0xdc,0xfd,0xc3,0xff,0x0a,0xfd,0xed,0xfd, // 14528
0xb9,0x00,0xd4,0xfd,0x95,0x00,0x05,0xff, 0x70,0x00,0x2e,0x00,0xe9,0x01,0x3e,0x04, // 14544
0xf2,0xff,0x65,0xfd,0x0c,0xfe,0xbb,0x00, 0x6b,0x01,0x8d,0xff,0xfd,0xfd,0x23,0x00, // 14560
0x32,0xfe,0x6e,0x01,0xd9,0xff,0x8b,0xfc, 0x60,0xfb,0x51,0x00,0x6a,0x01,0xd1,0x03, // 14576
0x4f,0x00,0xa7,0xfd,0xb1,0xff,0x07,0xff, 0xe0,0xfe,0x6f,0xfa,0xc5,0x07,0xcd,0xff, // 14592
0x09,0x00,0x50,0x00,0x1f,0x04,0x21,0xff, 0xe7,0x01,0x98,0xff,0xc5,0x02,0x46,0xfe, // 14608
0xd4,0xfe,0xe8,0x07,0xa9,0xff,0x43,0xfd, 0x96,0xff,0x89,0xfe,0x65,0x00,0x76,0x01, // 14624
0x4d,0xff,0x0b,0x00,0x62,0x00,0x04,0x00, 0xf1,0x03,0xf8,0xff,0x49,0xff,0x7e,0x00, // 14640
0xb0,0xff,0xf0,0x00,0xea,0x00,0xe2,0xfd, 0x55,0x00,0x2b,0xff,0xd9,0x02,0xbf,0xfe, // 14656
0xae,0xff,0x87,0xfe,0x68,0xff,0xf6,0xff, 0x6b,0xff,0x7e,0xff,0x17,0x01,0xeb,0xfc, // 14672
0xca,0x00,0xf8,0xff,0xe4,0x00,0x37,0x01, 0x66,0x00,0x67,0x0e,0x1e,0x01,0x1d,0xff, // 14688
0x7a,0x01,0x9d,0x00,0x45,0xfe,0x63,0x00, 0x27,0xff,0x1a,0x00,0xe6,0x05,0xb8,0xff, // 14704
0x6c,0xff,0x04,0x02,0x7c,0xff,0xe0,0xff, 0x2a,0xff,0x10,0x00,0xc5,0x01,0xe4,0xff, // 14720
0x99,0xff,0x92,0x00,0xef,0xff,0x6b,0xf8, 0x33,0x02,0x9d,0xfe,0x9b,0xfe,0xf9,0xff, // 14736
0xf1,0xff,0x7b,0xff,0xe6,0x00,0xb5,0x00, 0x21,0xff,0xab,0x03,0x32,0xfe,0x56,0xff, // 14752
0x90,0xfe,0x06,0x00,0x69,0x00,0xe6,0x00, 0x46,0x00,0x00,0xff,0x73,0xff,0x11,0x14, // 14768
0xea,0xff,0xf0,0xff,0x1a,0x00,0xa5,0x00, 0x49,0x00,0xb5,0x00,0x79,0xff,0xe8,0x00, // 14784
0x6d,0x00,0x87,0xf3,0x14,0xff,0x7a,0xf2, 0x76,0xfc,0x87,0x01,0x7b,0xfe,0x5f,0x00, // 14800
0x54,0x00,0x69,0xff,0xcf,0xfd,0x4b,0xff, 0x00,0x01,0x34,0xff,0x5e,0xfe,0xd9,0xff, // 14816
0x89,0xff,0xdf,0x00,0xa4,0x02,0x4d,0x01, 0x03,0x00,0x11,0x00,0x8a,0x00,0x58,0xff, // 14832
0xb6,0xfe,0xe1,0xff,0x34,0x00,0xea,0xfa, 0x3e,0x00,0x7b,0xff,0x3c,0xf3,0xd5,0x01, // 14848
0xa6,0xfd,0x84,0xff,0x17,0x03,0xce,0x00, 0x85,0xff,0xe4,0x00,0x9e,0x0d,0xf9,0xfe, // 14864
0x89,0x00,0xd4,0xff,0x1c,0x00,0x9c,0x00, 0x93,0x00,0x90,0xfe,0x57,0xfe,0xda,0x00, // 14880
0x60,0xfa,0x59,0x00,0x12,0xfd,0xd7,0xff, 0xd4,0xff,0x3e,0x02,0xb3,0xff,0x8c,0x06, // 14896
0xea,0x00,0xf5,0x00,0xbe,0xfe,0xb4,0xff, 0xad,0x00,0x1b,0x01,0x1d,0xfe,0x9a,0x00, // 14912
0x05,0xfc,0x05,0xfe,0xfa,0x03,0x42,0xfe, 0xdc,0xff,0x14,0xfe,0xae,0x00,0x34,0x00, // 14928
0x08,0x01,0x2f,0xff,0x83,0xf4,0xf5,0xfe, 0x11,0xff,0x78,0x04,0xf4,0xff,0x70,0xfe, // 14944
0x7f,0xff,0x44,0xff,0xd6,0xfe,0x97,0x04, 0x5b,0xff,0xb6,0xff,0x55,0x00,0xde,0xfe, // 14960
0x0f,0x00,0x1c,0x02,0x69,0xfe,0x46,0x00, 0xf4,0xfd,0x53,0x00,0x33,0xfd,0xae,0x02, // 14976
0x65,0x00,0x36,0xff,0x63,0x03,0x10,0x01, 0x3a,0x01,0x97,0xfd,0x85,0xff,0x7f,0x02, // 14992
0x3c,0xff,0x21,0xff,0x82,0xfe,0x7c,0x00, 0x4f,0x01,0xf6,0xff,0xeb,0x01,0x0d,0xfd, // 15008
0xca,0xfd,0x53,0x00,0x32,0x03,0x10,0xff, 0xa3,0xff,0x96,0x05,0xbd,0xff,0x80,0x00, // 15024
0x51,0x00,0xc9,0xfb,0xef,0x09,0x85,0x00, 0x10,0x01,0xfa,0x02,0xf8,0xff,0xb5,0xfc, // 15040
0xa6,0xfe,0xca,0x02,0x83,0x00,0x5b,0x01, 0x50,0xff,0x81,0xff,0x5c,0x00,0x72,0xff, // 15056
0x9f,0x01,0xcf,0x00,0xc3,0x02,0x4a,0xff, 0x31,0xff,0x37,0xfe,0x12,0xff,0x30,0xff, // 15072
0xf0,0x01,0xf3,0xfe,0xfb,0x00,0x33,0xfe, 0xa4,0xfd,0x3c,0x00,0xaa,0x02,0x1f,0x00, // 15088
0x35,0xff,0xda,0x01,0xf4,0x03,0xbb,0x00, 0xf0,0xfe,0xec,0xff,0x7a,0xfd,0xd6,0xff, // 15104
0x9c,0xfe,0xcc,0x00,0x04,0xff,0x59,0xff, 0x3e,0x01,0x91,0x02,0x70,0x00,0x7f,0xfd, // 15120
0x00,0xfd,0x12,0x02,0x49,0xfd,0x51,0x00, 0x7c,0x00,0x17,0xff,0x4c,0xf7,0x3d,0x00, // 15136
0x4c,0x02,0xe1,0xfd,0xad,0x02,0xe7,0x01, 0xae,0xfd,0x1b,0xff,0x6f,0xfe,0x61,0xff, // 15152
0x3f,0x00,0xf2,0xfd,0xb1,0xfb,0x1d,0xfe, 0xc7,0xff,0x02,0x03,0xdd,0xfe,0x69,0x00, // 15168
0x3e,0xfe,0xf2,0xfe,0x95,0x06,0xb9,0x02, 0xe9,0x00,0xe7,0x02,0x9f,0xfe,0xb0,0xff, // 15184
0xf0,0xff,0xe4,0xff,0xc6,0xfb,0x7e,0x00, 0xbf,0xfa,0xce,0x02,0xb2,0x00,0xc4,0x03, // 15200
0x17,0xfe,0x9f,0xff,0xd2,0x01,0xe1,0x00, 0xf1,0xff,0xb8,0x01,0xb4,0xfd,0xb8,0x01, // 15216
0xeb,0xfe,0x6c,0x04,0x47,0x00,0x3b,0xfe, 0x58,0xff,0x83,0xff,0x44,0xfa,0xed,0x00, // 15232
0xbb,0xff,0xf6,0xff,0xa2,0x00,0xc7,0xf6, 0x59,0x00,0x52,0x00,0xa6,0x01,0xe3,0xf9, // 15248
0xc6,0xff,0x1a,0x00,0x9c,0xff,0x4f,0x04, 0x93,0xff,0x4a,0xfe,0xab,0xff,0x18,0xfa, // 15264
0x1c,0xfd,0xa9,0xfd,0x1d,0xfe,0x8f,0xfd, 0x36,0x00,0xa3,0x00,0xb8,0xff,0xc5,0x00, // 15280
0x1f,0xfe,0xa2,0x02,0x68,0x00,0x67,0x00, 0x4d,0xff,0x81,0x05,0xb8,0x08,0x5b,0xff, // 15296
0x38,0xff,0xb1,0x03,0xac,0x02,0x17,0x00, 0xc4,0x00,0x9c,0xff,0xa0,0x01,0x38,0xfc, // 15312
0x0e,0x01,0xeb,0xfd,0x1d,0x02,0x7b,0x00, 0x74,0x00,0xcf,0x01,0x30,0x01,0x0f,0x00, // 15328
0xa8,0xff,0xca,0x00,0x9f,0x00,0x1e,0x00, 0xf7,0x00,0x40,0xff,0xca,0xfe,0x71,0xfa, // 15344
0x82,0x00,0x92,0x00,0xce,0x00,0x03,0x01, 0xcb,0x00,0x5d,0x00,0x7e,0xff,0x05,0xff, // 15360
0x17,0xfb,0x0f,0xff,0x28,0x00,0x23,0xff, 0xb1,0xff,0x14,0xff,0x13,0x00,0x01,0x00, // 15376
0x0b,0xff,0x92,0xfc,0xaf,0xfe,0xb2,0x00, 0xaf,0xff,0x1e,0xfe,0x9e,0xfb,0x03,0xff, // 15392
0xbf,0x05,0x1f,0x00,0xe1,0x00,0x14,0x00, 0x3d,0xfd,0x78,0x04,0x16,0x00,0x72,0xfe, // 15408
0x3e,0xff,0x2c,0x00,0x57,0x00,0x00,0x04, 0xb4,0x02,0x54,0xff,0x63,0xff,0xc1,0xff, // 15424
0x3a,0xff,0x2e,0xf9,0xb4,0x03,0xf5,0xff, 0xae,0x00,0x97,0xfe,0xea,0x00,0xa0,0x01, // 15440
0xca,0xfe,0x1e,0x01,0xcb,0xff,0xee,0xfa, 0x69,0x00,0xa1,0x00,0xcd,0x01,0xff,0x00, // 15456
0x4d,0x00,0xa2,0x03,0x59,0x00,0xbb,0x04, 0x12,0x01,0x68,0x02,0x58,0x03,0x42,0x01, // 15472
0xb6,0xff,0x36,0xfd,0x5a,0x00,0xae,0x01, 0x08,0x01,0x51,0xfd,0xa2,0xfe,0x1b,0xfd, // 15488
0x17,0x02,0x13,0xfd,0xa8,0x00,0xaf,0xf8, 0xee,0x01,0x89,0x01,0x39,0x00,0x03,0x01, // 15504
0xb2,0x00,0x75,0xff,0x24,0x00,0x2f,0xff, 0x67,0x00,0x6c,0xfd,0xf5,0xff,0x72,0x00, // 15520
0x0e,0x08,0x1d,0x00,0x94,0xfd,0x11,0x03, 0x08,0x01,0xba,0xff,0x8d,0xff,0x54,0x00, // 15536
0xc3,0x01,0xa1,0xfe,0x90,0x00,0xbe,0xfd, 0xd6,0x03,0x4b,0x02,0x10,0x01,0xac,0x02, // 15552
0x15,0x00,0x8e,0x00,0x9b,0x00,0x0d,0x01, 0xe5,0x01,0xc4,0xfc,0x04,0xff,0x5f,0xff, // 15568
0x96,0x02,0xff,0x02,0x96,0xfe,0x57,0x00, 0x2d,0x00,0xd4,0x01,0x43,0xfe,0x47,0x00, // 15584
0x4f,0xfe,0xb0,0x00,0x1b,0x00,0x66,0x00, 0xbb,0x00,0xf7,0x01,0x4b,0xff,0xf9,0x00, // 15600
0xf3,0x00,0x6b,0x02,0x42,0xfd,0x87,0x00, 0x33,0x00,0x31,0xff,0x9a,0x00,0x72,0x02, // 15616
0xfe,0xff,0xa6,0x00,0xd2,0x00,0x08,0x00, 0xa0,0x01,0x34,0xff,0xf8,0xfd,0xae,0xfd, // 15632
0x27,0x00,0x5b,0x02,0x58,0xfd,0xc9,0x01, 0xa8,0xfc,0xa0,0x00,0xb7,0xfd,0x12,0x02, // 15648
0x01,0x00,0x1d,0x01,0xf0,0x01,0xba,0x00, 0xb2,0xff,0xd5,0xfe,0x61,0x02,0x21,0x03, // 15664
0x18,0xf9,0x1a,0x01,0x49,0xfd,0x7e,0xff, 0x65,0x01,0x0a,0x02,0xf8,0xfe,0x5f,0x00, // 15680
0x7f,0xff,0xc8,0x04,0x1c,0xfe,0xf2,0x02, 0x79,0xff,0xbd,0xf5,0xa7,0xfc,0x9b,0x03, // 15696
0x9e,0x01,0xb6,0xff,0xb0,0x00,0x19,0xff, 0xdb,0xfe,0xfb,0x02,0xdc,0xff,0x0b,0xfc, // 15712
0xa3,0xff,0xa5,0xff,0x27,0xfe,0x14,0x01, 0xd9,0x00,0xbf,0x00,0x91,0x01,0x26,0xfe, // 15728
0x9f,0xff,0x37,0x00,0xf6,0x03,0x4f,0x00, 0xbb,0xff,0xb3,0x01,0x9d,0xff,0x88,0x04, // 15744
0x94,0x01,0xa4,0x00,0x4f,0x00,0xa0,0xfe, 0xca,0xfe,0xb6,0x00,0x17,0x00,0xe0,0x04, // 15760
0xa7,0xff,0x40,0x00,0xec,0xff,0x69,0xfd, 0xa3,0xff,0x33,0xfe,0x5a,0x00,0x00,0xfd, // 15776
0x89,0xff,0xb9,0xff,0x1d,0x00,0x8c,0xff, 0x58,0x03,0x48,0xfe,0x8b,0xfe,0xb1,0xfe, // 15792
0x9c,0xff,0x5c,0xfe,0x00,0xfe,0xd5,0xfe, 0x70,0x04,0xea,0xff,0xa9,0xff,0xea,0xff, // 15808
0x20,0x02,0x01,0xfe,0x4b,0x02,0x1a,0x01, 0x60,0x01,0xd3,0xfe,0x87,0xfe,0x89,0xfd, // 15824
0x22,0x02,0x53,0x03,0xc9,0x00,0x8f,0xff, 0xe3,0x01,0xf8,0xff,0x02,0x01,0x25,0x00, // 15840
0x0e,0x00,0xe8,0xfe,0x68,0xfd,0xad,0x02, 0x85,0x02,0xb8,0x04,0x03,0x02,0x1c,0x01, // 15856
0x4f,0x00,0x1a,0x01,0xdb,0xff,0xca,0xfe, 0x22,0x00,0x33,0x01,0x85,0xfe,0xee,0xfe, // 15872
0xcd,0xff,0x7b,0xff,0xce,0xfe,0x2d,0x01, 0x66,0x02,0x86,0x02,0xe7,0xff,0xe4,0xff, // 15888
0x87,0x02,0xfa,0xff,0x04,0x00,0x70,0x00, 0xe5,0xff,0x51,0xff,0x75,0xff,0x34,0xff, // 15904
0x1e,0x02,0x9d,0x00,0xb6,0xff,0x89,0x00, 0xbd,0x00,0x20,0x04,0x3f,0xfc,0xb6,0xff, // 15920
0x15,0xfc,0xbe,0x00,0x87,0xff,0x11,0x00, 0xbc,0xff,0x4e,0x00,0x2d,0x01,0x74,0x00, // 15936
0xd3,0xff,0x81,0xfe,0x46,0x02,0x3c,0x03, 0xcd,0xf9,0x6d,0xff,0x75,0xfc,0x9c,0xff, // 15952
0xf1,0x01,0x76,0x00,0x0f,0xff,0x77,0x01, 0xc9,0xfe,0x91,0x05,0xae,0x01,0x00,0x01, // 15968
0x28,0xfe,0x0a,0xfa,0x3d,0xff,0xf6,0x08, 0xb1,0x01,0xc8,0xff,0xd9,0xfe,0xf7,0x00, // 15984
0x65,0xff,0x56,0x01,0xbe,0x03,0x9e,0xfc, 0xc7,0xfc,0x4e,0xfb,0x1f,0x00,0xd5,0xff, // 16000
0x8e,0xff,0x92,0xff,0x9c,0xfe,0xc4,0x00, 0xa3,0xff,0x04,0xff,0xf6,0x00,0xd7,0x00, // 16016
0x4c,0xff,0xf0,0xff,0x38,0x01,0x8c,0xfe, 0x30,0xfe,0xac,0x01,0xaa,0xfe,0x3c,0x03, // 16032
0x89,0xfe,0xe0,0x00,0x44,0x00,0x75,0x00, 0xd4,0xff,0xb4,0xfd,0x41,0xff,0xfb,0x03, // 16048
0xbb,0x00,0xc2,0xff,0x9e,0xff,0xb5,0x01, 0xca,0x03,0xb7,0x00,0x74,0x03,0xde,0x01, // 16064
0xff,0xfb,0xdc,0x02,0x8c,0xfd,0x33,0x02, 0xa8,0xfe,0x67,0xfe,0x01,0x02,0x12,0x00, // 16080
0x6e,0xfe,0x40,0x00,0x3a,0xff,0x02,0xfd, 0x7f,0xfd,0x82,0x03,0x27,0xff,0x38,0x00, // 16096
0x96,0xfe,0x08,0x00,0xce,0x00,0x67,0xfe, 0xe8,0x01,0x8a,0xfd,0x75,0x01,0xc8,0x01, // 16112
0x39,0xfb,0xcf,0xfd,0x00,0xff,0x3f,0xfe, 0x70,0x03,0xc4,0xff,0xc1,0xff,0x26,0xff, // 16128
0x87,0xfe,0x9b,0x00,0xed,0xff,0x5b,0xfa, 0xca,0xff,0x81,0xfe,0x76,0x06,0x3f,0x05, // 16144
0xfa,0xff,0xa6,0xff,0x46,0x01,0x4e,0xfe, 0x14,0x00,0xdd,0xfe,0x77,0xff,0xf5,0xff, // 16160
0x54,0xfb,0x93,0xfe,0xa0,0x05,0xa2,0x00, 0xb4,0xfb,0xdd,0xfd,0xc4,0xfd,0x9c,0xfe, // 16176
0x26,0x02,0x77,0xfd,0xef,0xfb,0xd3,0xfd, 0x4a,0x01,0xfa,0xff,0x3b,0x00,0xa1,0x00, // 16192
0xc5,0x01,0xdb,0x00,0x86,0x00,0x6a,0x01, 0x54,0xfe,0x54,0x00,0x95,0xff,0x36,0x01, // 16208
0xbb,0xfe,0x2b,0x02,0x2a,0x00,0xf4,0x00, 0x5f,0x00,0xb8,0xff,0xbc,0xfd,0xac,0xff, // 16224
0x3c,0xff,0xbd,0xff,0xd9,0xff,0xa2,0xfa, 0x54,0x02,0xab,0x00,0x86,0x02,0x51,0xff, // 16240
0x47,0x00,0xd4,0x00,0x5e,0xff,0xe5,0x00, 0x52,0x00,0xea,0x01,0xbe,0xff,0xdf,0xff, // 16256
0xb1,0xfe,0x72,0x00,0x87,0x00,0x6c,0xff, 0xc6,0x01,0xcf,0xfc,0xdc,0x00,0x50,0x02, // 16272
0x9d,0xfa,0x08,0xfa,0xc7,0x02,0xfd,0x00, 0x54,0xff,0x2d,0xfc,0x04,0xfe,0x4a,0xff, // 16288
0xe2,0xfd,0xc7,0x01,0x9b,0x01,0x96,0x00, 0x12,0xff,0xd2,0xfd,0xce,0x00,0xc9,0x00, // 16304
0xbb,0xff,0x46,0x00,0xff,0x00,0x63,0x00, 0x5c,0x01,0xc0,0xfd,0xdd,0xfe,0x1d,0x01, // 16320
0x54,0x03,0xe5,0xfe,0x64,0xfe,0x47,0xff, 0xb9,0x00,0x70,0xfd,0xd9,0xff,0x30,0xff, // 16336
0x3f,0x08,0x78,0x02,0x7a,0xff,0x45,0x04, 0xec,0xfe,0x3f,0x04,0x36,0x03,0x6c,0xff, // 16352
0x82,0xfe,0xf4,0xff,0x20,0x00,0x88,0x02, 0x4c,0x00,0xc4,0x00,0x03,0xff,0xc8,0x01, // 16368
0x06,0x00,0x72,0xff,0x02,0xfe,0xc6,0x00, 0xd7,0xfd,0x44,0x03,0x59,0x01,0x40,0x00, // 16384
0xbb,0x01,0x46,0xff,0x9f,0x06,0x6d,0x02, 0xda,0x00,0x88,0xf3,0xb6,0x01,0x87,0xfd, // 16400
0x11,0x05,0xbf,0xf8,0x52,0xff,0xce,0xfd, 0x54,0x00,0x73,0xff,0x7c,0xfe,0xb5,0xff, // 16416
0x5b,0x02,0x69,0xfe,0x42,0x03,0xfb,0xff, 0xc9,0xfc,0xcd,0xff,0x52,0x00,0xa4,0xfe, // 16432
0x6e,0xfc,0xd3,0xff,0x44,0x01,0x74,0x01, 0x9c,0x00,0xd6,0x00,0xfc,0x02,0xc2,0x01, // 16448
0x5d,0x00,0xb5,0xff,0x3c,0xf8,0x39,0x00, 0xec,0x01,0x4d,0xfb,0x4f,0xfd,0x06,0x03, // 16464
0xd8,0xff,0x95,0xfe,0xa1,0x01,0x40,0xfe, 0x29,0xfe,0x3e,0x02,0xff,0xfe,0xbd,0x02, // 16480
0xaf,0xfe,0x4d,0x02,0x95,0xfc,0x78,0x01, 0x42,0xfe,0x4b,0x02,0xd6,0xff,0xeb,0x00, // 16496
0xea,0x01,0x3e,0x05,0x05,0x02,0x0e,0x02, 0x29,0xfe,0xdf,0x01,0x4a,0x01,0x04,0xfd, // 16512
0x55,0xfe,0xf5,0x00,0x12,0x00,0x52,0xff, 0xb6,0x00,0x16,0x01,0x8d,0xff,0x98,0x01, // 16528
0xd2,0xfd,0xcd,0xfe,0x3d,0xfe,0xea,0x01, 0x59,0xfe,0xa3,0x02,0x2e,0x01,0x34,0xfc, // 16544
0x0d,0x03,0x0c,0x03,0xd5,0x01,0x1f,0x00, 0x19,0xff,0xd4,0xfe,0xad,0xfe,0x86,0x00, // 16560
0xc3,0xfe,0xa3,0x00,0x7f,0xff,0x37,0x02, 0x2b,0x00,0x5a,0xff,0x9a,0x00,0xbe,0xff, // 16576
0x69,0x00,0xda,0x01,0xcc,0xfe,0x45,0xfe, 0xd1,0x00,0x98,0xf9,0x35,0x00,0xba,0xf8, // 16592
0x5b,0x00,0x93,0xff,0x52,0x00,0x80,0x00, 0x2e,0x00,0x68,0x00,0x71,0xff,0xa3,0x03, // 16608
0x6f,0xf7,0x6e,0xff,0x9a,0x00,0x02,0x01, 0x6d,0x01,0x56,0xff,0x06,0xf5,0xdd,0x01, // 16624
0x79,0x02,0x15,0x01,0x62,0xff,0x66,0xff, 0x8c,0x00,0xe9,0x0c,0x00,0xf9,0x99,0xff, // 16640
0x4f,0x01,0x9b,0xff,0xa7,0xff,0xb1,0x00, 0x97,0xff,0x92,0xf7,0xc3,0x00,0xb5,0x00, // 16656
0x46,0x00,0xbe,0xfe,0x81,0xff,0x74,0xff, 0xbd,0xff,0x27,0x00,0x46,0x00,0x80,0x00, // 16672
0xd3,0x06,0xa1,0x00,0xcd,0x02,0x64,0x00, 0xc1,0x00,0xc3,0xfe,0xd0,0xff,0x60,0x00, // 16688
0xb6,0x02,0x2c,0x01,0x1e,0x00,0x17,0x08, 0x1f,0x00,0x4e,0x01,0xd6,0x02,0xa7,0xf2, // 16704
0x0f,0x00,0x2d,0x01,0x06,0x00,0x71,0xff, 0x93,0x00,0x68,0xff,0x5e,0x00,0xd8,0x01, // 16720
0xd8,0x03,0x78,0x00,0xb3,0x01,0x99,0xff, 0x0b,0x0c,0x6f,0x0d,0x1a,0x00,0x3c,0xfe, // 16736
0x4d,0x00,0xf8,0xfe,0x26,0xff,0x55,0xff, 0xa6,0xff,0x5c,0x00,0x39,0x0d,0xc2,0x00, // 16752
0xf8,0xff,0xc5,0x01,0xd7,0xff,0xf5,0x02, 0x6e,0xff,0xf8,0xff,0xbc,0xff,0x38,0x04, // 16768
0x26,0x00,0xa5,0x02,0x8f,0x00,0xb8,0x00, 0x5f,0xff,0xf4,0xfe,0x08,0x01,0x51,0x00, // 16784
0xe9,0xfe,0xe1,0xfe,0x6d,0xff,0x66,0xff, 0xc3,0x00,0x71,0x00,0xee,0xf7,0x8b,0x00, // 16800
0xea,0xfe,0xcb,0x00,0xe7,0xff,0xef,0xf9, 0x06,0xff,0x1f,0xff,0x5f,0xff,0x7c,0x01, // 16816
0x84,0x00,0x48,0xff,0x33,0x00,0x63,0x00, 0xfa,0xfe,0xe8,0xff,0x1a,0x01,0x24,0xff, // 16832
0xa7,0xff,0x3d,0xff,0xfd,0x01,0x09,0x04, 0x24,0x00,0xa0,0x00,0x01,0xff,0x3f,0xff, // 16848
0x93,0x03,0xf1,0x01,0xb4,0xff,0x78,0xff, 0xdf,0xfe,0x16,0x00,0x48,0xff,0x06,0xff, // 16864
0x3f,0x00,0x7f,0x00,0x2b,0x02,0xeb,0xff, 0x1e,0x00,0x1e,0xff,0x89,0x00,0x0b,0x00, // 16880
0xa7,0x00,0x10,0x01,0xca,0xfe,0xe2,0x01, 0x1b,0x00,0x17,0xfc,0x5f,0xff,0x7e,0xfe, // 16896
0x9a,0x00,0xb4,0xfe,0xda,0xfd,0xf4,0xff, 0x94,0x00,0x43,0x01,0x25,0x02,0x09,0x00, // 16912
0x6e,0x03,0xfb,0xff,0x53,0xff,0xc0,0xff, 0x78,0xff,0x8e,0x01,0xff,0xfb,0x91,0x01, // 16928
0xb9,0xff,0xfe,0xff,0x40,0xff,0x1b,0xfe, 0xde,0xff,0x4b,0xff,0x1b,0x01,0x75,0x00, // 16944
0xe9,0x00,0x5f,0x00,0x2c,0x00,0x24,0x03, 0x25,0x00,0xef,0xff,0x39,0x01,0xdb,0x00, // 16960
0x78,0x00,0x0e,0xff,0x22,0x01,0x2d,0xfe, 0x14,0x01,0xbe,0x00,0x36,0xfe,0xbf,0xff, // 16976
0x34,0xff,0x4c,0x00,0x8c,0x00,0xbc,0xff, 0x9a,0xfd,0xdb,0x00,0xce,0xff,0x57,0x02, // 16992
0xd2,0xfe,0xd7,0xff,0x9a,0xfc,0x98,0xff, 0xe1,0xff,0xba,0xff,0x4b,0x00,0xeb,0x01, // 17008
0x99,0x00,0x58,0xff,0x89,0xff,0xb6,0xfe, 0xb0,0xfe,0x2c,0xff,0xb1,0xff,0xc4,0x00, // 17024
0x2d,0x01,0xa8,0xfe,0xd0,0xff,0xc1,0xff, 0x16,0x00,0xdd,0x00,0xf4,0x00,0x05,0x00, // 17040
0xc2,0x01,0x35,0x00,0x6b,0xff,0xb7,0x00, 0xb8,0x02,0xb3,0x00,0xe7,0xff,0xd0,0x01, // 17056
0x6e,0xfd,0xd3,0x00,0x5c,0xff,0xc1,0xff, 0xff,0x00,0x95,0x00,0x37,0x00,0x60,0xff, // 17072
0x44,0xfe,0xd4,0xfd,0x80,0xff,0x87,0xff, 0x72,0xff,0xa1,0xff,0x88,0xff,0x13,0x01, // 17088
0x8f,0x01,0xd9,0x00,0x0f,0x00,0xa5,0xff, 0x80,0x00,0xf1,0xff,0x9a,0x01,0x22,0xff, // 17104
0x5d,0x00,0xc5,0x02,0x4e,0xff,0xf8,0xff, 0xcd,0x00,0x88,0x01,0xb1,0xfd,0x41,0x00, // 17120
0x13,0x00,0x6b,0x00,0x2b,0x00,0xb7,0x01, 0xa6,0x08,0x6c,0xfe,0xbd,0xfd,0x8c,0xff, // 17136
0xd0,0xfd,0x7a,0xff,0x2b,0x01,0xf8,0xfd, 0xf5,0xfe,0xdd,0xfe,0x1a,0xff,0x10,0x00, // 17152
0x11,0xff,0x8c,0x02,0x24,0x00,0x75,0xfd, 0x6f,0xfb,0x0b,0xfe,0x5a,0xfc,0x0e,0x01, // 17168
0x18,0xff,0x4d,0x01,0x43,0x00,0xb7,0x03, 0x64,0xff,0x6c,0xfe,0xfa,0x00,0x59,0x01, // 17184
0x5c,0xff,0x88,0x01,0xf7,0xfd,0x1d,0x00, 0xcf,0x04,0xce,0x00,0xed,0xff,0x48,0xff, // 17200
0xfe,0xf9,0x2e,0xff,0xae,0xff,0xa4,0xfd, 0x8f,0xfd,0x69,0x00,0x04,0x01,0x94,0xfd, // 17216
0xb1,0x00,0xec,0xfd,0x70,0xfe,0x7e,0x00, 0xa8,0x00,0x4f,0xff,0xce,0x00,0x3e,0xff, // 17232
0x36,0xff,0x6d,0xff,0x1f,0xfe,0xf3,0xfe, 0x35,0x01,0x39,0x00,0x94,0x01,0xeb,0xff, // 17248
0xcd,0xff,0x8d,0xff,0x1c,0xff,0xc2,0xfe, 0x7b,0xfa,0xea,0xff,0x73,0xff,0x20,0x00, // 17264
0x8c,0x02,0x83,0xfe,0xfc,0xff,0xff,0x03, 0xf0,0x00,0xc2,0x00,0x54,0xf7,0x80,0xff, // 17280
0x7f,0xfe,0x83,0xff,0x47,0x01,0x02,0xff, 0xbf,0xff,0x27,0x01,0x25,0x00,0x15,0xfd, // 17296
0x12,0xff,0xcc,0xfd,0x49,0xff,0x9e,0xfe, 0x96,0xff,0x45,0x00,0x39,0x02,0xd8,0x02, // 17312
0x58,0x01,0x54,0xfb,0x8f,0x03,0x7b,0x00, 0x0a,0x02,0xbc,0xfa,0x3c,0x02,0xe3,0xff, // 17328
0x76,0x04,0xc2,0x00,0xec,0xfe,0xdc,0x03, 0xbf,0xfc,0xa3,0xfd,0x5f,0xfd,0x39,0xf3, // 17344
0xaf,0x02,0xe3,0xfe,0x7f,0x00,0x93,0x00, 0xb1,0x00,0x48,0xfd,0xd4,0xff,0x0e,0x01, // 17360
0xc2,0xff,0x69,0xff,0x91,0x00,0xaa,0xfe, 0x5f,0x07,0xe2,0x02,0x21,0x00,0x8c,0xfd, // 17376
0xf6,0xff,0x28,0xff,0x6b,0xff,0x6a,0x02, 0xaa,0x00,0x44,0xfd,0x17,0xfc,0x03,0x02, // 17392
0xd0,0xfe,0xac,0xff,0x16,0x00,0xa4,0x00, 0xc9,0xff,0x54,0x00,0xc4,0x00,0x7b,0xfb, // 17408
0x51,0x01,0xbc,0xff,0xc5,0xff,0x4d,0xff, 0xf0,0xfe,0xd3,0x00,0x55,0x00,0xe1,0x03, // 17424
0x19,0xff,0x17,0x02,0x26,0x02,0x15,0x04, 0x73,0xff,0x0c,0xff,0x97,0xff,0xcd,0x01, // 17440
0x7b,0xfe,0xc6,0xfc,0x23,0xfd,0xa9,0xfd, 0xff,0x03,0x1d,0xff,0xa9,0x00,0xfd,0xfc, // 17456
0x69,0x01,0xae,0x00,0x3c,0x04,0x06,0x04, 0x9f,0xfe,0x4e,0x01,0xf7,0x00,0xde,0xfe, // 17472
0x5e,0x00,0xec,0xfb,0x07,0x01,0x98,0x00, 0x08,0x03,0xfa,0xfe,0x39,0x00,0x18,0x00, // 17488
0x4f,0x00,0xd0,0x02,0xe6,0x00,0x0b,0x00, 0x95,0x02,0x6c,0xfd,0xe5,0xfe,0xdf,0xff, // 17504
0x09,0x03,0x40,0x01,0x3a,0x02,0x4b,0x01, 0xf6,0xfb,0x7b,0xff,0x35,0x02,0x00,0xfd, // 17520
0xc1,0x05,0x21,0xfc,0x8b,0xfe,0x30,0x00, 0x73,0x03,0xc5,0x02,0x7d,0xfe,0xf0,0xfd, // 17536
0x0f,0xfe,0xc8,0x00,0xee,0x00,0x33,0x02, 0xe1,0xff,0x98,0x00,0xfe,0xff,0xf7,0x00, // 17552
0x63,0x01,0x70,0x01,0x09,0xff,0x49,0x02, 0x6a,0xfe,0xa6,0x00,0x53,0x01,0xf7,0xff, // 17568
0x2a,0xfe,0xef,0xfb,0x59,0xff,0x5d,0xff, 0xb8,0xfd,0xdf,0xfd,0xef,0xfd,0xa0,0xfe, // 17584
0x9c,0x02,0x61,0x00,0x98,0xfb,0xc0,0xff, 0x54,0x00,0xd6,0x01,0x06,0x01,0xb9,0x02, // 17600
0x04,0x00,0x35,0xff,0x7c,0xfe,0x7c,0x01, 0xa6,0x00,0x6f,0x00,0xe3,0xff,0x99,0x00, // 17616
0x8b,0xfe,0x7b,0xfe,0x6a,0x04,0xa6,0x00, 0x79,0xfd,0x1e,0x00,0xff,0xfd,0x63,0xfd, // 17632
0xec,0xff,0x11,0x00,0xdd,0x00,0xfe,0x00, 0xa0,0xff,0x3b,0x02,0xf5,0x00,0xbb,0x03, // 17648
0x42,0x01,0x55,0xfd,0xb4,0xff,0xbb,0x01, 0x33,0x01,0x40,0x02,0x7d,0x00,0xa4,0xff, // 17664
