#if defined __ICCARM__
#define __ALIGNED(x) __attribute__((aligned(x)))
#else
#define __ALIGNED(x) __attribute__((aligned(x)))
#endif
const unsigned char model3[] __ALIGNED(16) = {
0x4e,0x4e,0x43,0x55,0x01,0x00,0x01,0x00, 0x01,0x0e,0x07,0x00,0x07,0x00,0x00,0x00, // 16
0x02,0x00,0x00,0x00,0x00,0x00,0x00,0x00, 0x18,0x01,0x00,0x00,0x02,0x00,0x00,0x00, // 32
0xe0,0x01,0x00,0x00,0xc8,0x00,0x00,0x00, 0x18,0x01,0x00,0x00,0x00,0x00,0x00,0x00, // 48
0x00,0x00,0x00,0x00,0x00,0x00,0x00,0x00, 0x00,0x00,0x00,0x00,0x00,0x00,0x00,0x00, // 64
0x00,0x00,0x00,0x00,0x00,0x00,0x00,0x00, 0xff,0xff,0xff,0xff,0xff,0xff,0xff,0xff, // 80
0x43,0x4d,0x44,0x00,0x20,0x00,0x80,0x00, 0x50,0x00,0x00,0x00,0x00,0xfe,0x00,0x00, // 96
0x33,0x2e,0x68,0x35,0x0d,0x0a,0x53,0x61, 0x74,0x20,0x4d,0x61,0x79,0x20,0x20,0x39, // 112
0x20,0x32,0x31,0x3a,0x33,0x35,0x3a,0x34, 0x31,0x20,0x32,0x30,0x32,0x30,0x0d,0x0a, // 128
0x31,0x34,0x20,0x62,0x69,0x74,0x73,0x0d, 0x0a,0x6e,0x6e,0x63,0x75,0x20,0x76,0x65, // 144
0x72,0x20,0x30,0x2e,0x30,0x70,0x0d,0x0a, 0x00,0x00,0x00,0x00,0x00,0x00,0x00,0x00, // 160
0x00,0x00,0x00,0x00,0x00,0x00,0x00,0x00, 0x00,0x00,0x00,0x00,0x00,0x00,0x00,0x00, // 176
0x00,0x00,0x00,0x00,0x00,0x00,0x00,0x00, 0x00,0x00,0x00,0x00,0x00,0x00,0x00,0x00, // 192
0x00,0x00,0x00,0x00,0x00,0x00,0x00,0x00, 0x00,0x00,0x00,0x00,0x00,0x00,0x00,0x00, // 208
0x43,0x4d,0x44,0x00,0x20,0x02,0x00,0x00, 0xd0,0x00,0x00,0x00,0x10,0x02,0x00,0x00, // 224
0x00,0x01,0x00,0x02,0x07,0x06,0x05,0x0b, 0x00,0x00,0x00,0x00,0x00,0x00,0x00,0x00, // 240
0x01,0x00,0x07,0x00,0x01,0x00,0x01,0x00, 0x8c,0x00,0x01,0x00,0x00,0x00,0x00,0x00, // 256
0x0c,0x00,0xff,0xff,0xff,0xff,0xff,0xff, 0x00,0x01,0x01,0x00,0x18,0x01,0x00,0x00, // 272
0x00,0x00,0x03,0x00,0x0e,0x00,0x00,0x00, 0x00,0x00,0x00,0x00,0x00,0x00,0x00,0x00, // 288
0x00,0x00,0x00,0x00,0x00,0x00,0x00,0x00, 0x00,0x00,0x00,0x00,0x00,0x00,0x00,0x00, // 304
0x00,0x00,0x00,0x00,0x00,0x00,0x00,0x00, 0x00,0x00,0x00,0x00,0x00,0x00,0x00,0x00, // 320
0x00,0x00,0x00,0x00,0x00,0x00,0x00,0x00, 0xa8,0x07,0x00,0x00,0x18,0x01,0x00,0x00, // 336
0x54,0x09,0x19,0x00,0xd6,0x03,0x81,0xfc, 0xb3,0x10,0x4e,0xf8,0xf1,0xf5,0x97,0xfc, // 352
0x60,0xf8,0x64,0xfb,0xfb,0x0e,0x0b,0xef, 0x0b,0x00,0xe0,0xfc,0x92,0x0b,0x05,0xfc, // 368
0x1c,0x01,0x9e,0x11,0xde,0xfa,0xd1,0xfb, 0x2d,0xf9,0x63,0x05,0xb0,0xf7,0x34,0x00, // 384
0x2e,0x0a,0x64,0xf4,0x26,0x04,0x5d,0x0c, 0x80,0xff,0xa6,0xf8,0xc2,0xfe,0x6a,0xff, // 400
0x62,0xff,0x7f,0x0c,0xf6,0x0d,0x0d,0xf6, 0xe9,0xfe,0xb5,0xf9,0xd9,0x00,0x71,0xff, // 416
0xe7,0x09,0xee,0xfc,0x25,0x00,0xa5,0x0e, 0x7c,0x0d,0xe0,0xff,0xed,0x13,0x69,0x04, // 432
0x10,0x04,0xd4,0x0c,0x45,0xf3,0x59,0xff, 0xdd,0x0c,0x43,0xf7,0xd1,0x01,0xe3,0x02, // 448
0x0a,0x04,0x6c,0x07,0xea,0x04,0x23,0xf4, 0xd6,0x11,0x6a,0x00,0xa8,0x01,0x93,0xfa, // 464
0x44,0x0b,0x64,0xff,0xc6,0xf8,0x19,0x00, 0x57,0xf1,0x5d,0xfa,0xaa,0x03,0xa7,0x0b, // 480
0xd7,0xfe,0x9b,0xff,0x28,0x03,0xbb,0xf1, 0xc5,0xf6,0x8b,0xed,0x13,0x04,0xda,0xf5, // 496
0xd4,0xf5,0x08,0xf8,0xbd,0x01,0xe6,0x01, 0x0e,0xee,0x32,0x0b,0xee,0x04,0xa3,0xf7, // 512
0x54,0x03,0x62,0x01,0x60,0x01,0x8b,0x0f, 0xff,0xfb,0x04,0xf9,0x7c,0x05,0xa8,0x00, // 528
0xa1,0xfe,0xfe,0xfd,0x1d,0xf5,0xac,0x09, 0xb6,0x00,0x11,0xf7,0x50,0x04,0xff,0xfd, // 544
0xa8,0xf6,0xd5,0x0b,0x23,0xfc,0x1d,0xfd, 0xc8,0xff,0xac,0xfe,0x86,0xf9,0xae,0x07, // 560
0x4f,0x03,0xb7,0x09,0x32,0x01,0x77,0xfa, 0x6d,0xfd,0x81,0xf4,0x9a,0x0d,0x3a,0xf7, // 576
0x7c,0xff,0x0f,0xf9,0x34,0x06,0x54,0xee, 0x1f,0x04,0xec,0x06,0xd3,0x04,0xbd,0xf4, // 592
0xe6,0x02,0x5b,0xff,0xd7,0x08,0x28,0x05, 0x8b,0xfc,0xd4,0xf7,0x78,0xf5,0x47,0xfc, // 608
0x7d,0x07,0x46,0xf3,0x79,0xfe,0x0a,0xf7, 0x67,0x0f,0x88,0x00,0x1f,0x0a,0xb5,0x0d, // 624
0x3c,0x00,0x8e,0x04,0x55,0x09,0x72,0xfe, 0xc7,0xf5,0x61,0xff,0xd1,0x03,0x60,0x00, // 640
0x67,0x0c,0x8e,0xfb,0x2e,0xfc,0xb9,0x0b, 0x07,0x02,0xc2,0xf8,0x4e,0x03,0x78,0xf4, // 656
0xe4,0xf4,0xc2,0xfe,0xe8,0x0a,0x02,0x01, 0x9a,0xfb,0xd2,0x02,0xe2,0xf2,0xba,0xf2, // 672
0x20,0x10,0x6c,0x03,0xc3,0x0a,0xdb,0x06, 0xf2,0x0d,0xbf,0xff,0x3f,0x01,0x12,0xfc, // 688
0xaa,0x08,0xf4,0x03,0x9f,0xf5,0xfd,0x0a, 0x63,0x09,0x2e,0x0a,0xfb,0xfd,0x2d,0xfd, // 704
0xc1,0xff,0x57,0xfb,0xab,0x07,0x89,0x04, 0xa5,0xf6,0xaa,0x06,0x6f,0x06,0xda,0xfd, // 720
0xc4,0xff,0x92,0x0a,0x5b,0xf3,0x76,0xf5, 0x10,0xf9,0xfa,0x06,0xb3,0xfc,0xb2,0x0a, // 736
0xc5,0xf5,0x1f,0xfc,0x79,0xfa,0xff,0xf7, 0x1b,0x00,0x12,0x00,0x39,0xff,0x93,0xfc, // 752
0x71,0x00,0x10,0xf4,0xe8,0x02,0xf4,0x04, 0xfc,0x06,0xd8,0xf4,0xee,0x0d,0x3a,0x06, // 768
0x81,0x08,0xb5,0x0a,0x75,0x00,0x57,0x07, 0xc9,0x01,0x38,0x11,0xf3,0xfc,0x3a,0xf4, // 784
0xa5,0xf5,0x12,0xf4,0x3a,0xf5,0xa8,0xfd, 0x20,0xed,0xec,0xfd,0xd1,0xfc,0x69,0xfe, // 800
0xe3,0x05,0x1d,0x02,0xcc,0x02,0xdf,0xf5, 0x87,0xf8,0x68,0x07,0x04,0x00,0x93,0xf6, // 816
0x98,0x00,0x86,0x05,0xd6,0x03,0x01,0x02, 0xf5,0xec,0xf0,0xfb,0x22,0x09,0x99,0xfe, // 832
0x38,0xf4,0x9b,0x11,0x86,0xfb,0x8d,0xf8, 0x71,0xfa,0x2f,0xf8,0x4d,0xfb,0xc5,0x0b, // 848
0x77,0xef,0xc8,0xfe,0x30,0xfb,0x4a,0x0d, 0x1f,0xfb,0x05,0xfd,0xee,0x00,0x1c,0xfe, // 864
0x1a,0xf9,0x22,0x08,0x8b,0x03,0x46,0x03, 0x9a,0xfd,0x5e,0x02,0x7c,0xf9,0x76,0xfe, // 880
0xaf,0x0f,0x10,0x09,0x86,0x07,0xe6,0x04, 0x17,0xf8,0x07,0x11,0x6d,0x01,0x19,0x06, // 896
0xfc,0x0d,0x0a,0xfb,0xac,0x03,0x10,0x07, 0x1a,0x0b,0x4c,0x06,0x2a,0x02,0x2b,0x00, // 912
0x3a,0xef,0x15,0xf3,0xd9,0x04,0xa8,0xea, 0x28,0xff,0xd3,0xfe,0x23,0x0d,0x16,0xf1, // 928
0x05,0x01,0x66,0x0f,0x05,0xf3,0xb2,0x01, 0x32,0x02,0x70,0x0e,0x1f,0xf8,0xc9,0x04, // 944
0x42,0x12,0xc3,0xf7,0x6d,0xff,0x5c,0xfd, 0xff,0x10,0x8e,0xf1,0xc3,0xfc,0x1a,0x0b, // 960
0x03,0xf8,0x02,0x00,0xbd,0xff,0x77,0xfd, 0x62,0x09,0xc9,0xfd,0xc9,0xfb,0x62,0xfa, // 976
0x46,0xff,0x33,0x12,0xf8,0x03,0xc4,0xf9, 0x6e,0xfd,0x60,0x13,0x31,0xef,0x35,0x01, // 992
0xb8,0x01,0xd4,0x0c,0xe0,0x05,0x81,0x09, 0x86,0x00,0x1e,0x12,0x34,0x03,0xc7,0x03, // 1008
0x27,0xfe,0x6d,0xfb,0x0a,0xfa,0x55,0x10, 0x49,0xee,0x51,0xfd,0x67,0xfb,0xe1,0xf3, // 1024
0x48,0x06,0x09,0x02,0xa2,0xfc,0x93,0x02, 0x51,0x06,0x1a,0xfa,0xd5,0xf1,0x2e,0x0e, // 1040
0x0e,0x03,0xfb,0xf3,0x95,0x09,0x93,0xff, 0xc3,0xff,0x06,0xfd,0x29,0x0a,0x84,0x01, // 1056
0x7b,0xed,0x5f,0x0c,0xb7,0x03,0xa4,0x08, 0xdc,0x0e,0x15,0xf5,0xf4,0x05,0x37,0x10, // 1072
0x48,0xf7,0xa9,0x02,0xd4,0x02,0x1a,0x0d, 0xaf,0xfb,0xf5,0xfd,0xf3,0xff,0xca,0xff, // 1088
0x50,0xf9,0x9d,0x07,0x33,0xfc,0x23,0xfd, 0x27,0xfc,0x8f,0x0a,0x7c,0xee,0x0a,0x04, // 1104
0x71,0x07,0xcd,0x0b,0xbd,0x02,0x28,0xff, 0x17,0xfd,0x8b,0x06,0x99,0xf2,0x97,0xfd, // 1120
0xa4,0xf9,0x2a,0x01,0xd9,0xfd,0x25,0x07, 0x92,0xec,0x63,0x03,0xda,0x07,0x9d,0xfd, // 1136
0xc3,0x0a,0xb5,0x00,0x8f,0xf6,0xd6,0x0d, 0xdb,0xf7,0x25,0xf9,0xc6,0xfc,0x52,0xf8, // 1152
0x1f,0xff,0x30,0x06,0x00,0x01,0x6b,0x09, 0x36,0xf5,0xd4,0xfd,0x3b,0x07,0x94,0x02, // 1168
0xaa,0x00,0xc3,0xf6,0xc0,0xf6,0xc1,0x05, 0x8d,0xfd,0x0d,0xf5,0x2c,0x00,0x23,0x02, // 1184
0xcf,0xfc,0x1b,0x0d,0xa1,0x0b,0x53,0x0d, 0x22,0xfd,0x23,0x05,0x80,0x09,0x2e,0x09, // 1200
0x7c,0x07,0x45,0x04,0x91,0xf2,0xdd,0xfb, 0x1b,0xf6,0x55,0x02,0x41,0xed,0x06,0x01, // 1216
0xf4,0xfe,0x0a,0x08,0xd0,0x0b,0xe5,0x07, 0xf2,0xfb,0x81,0x12,0xf4,0x00,0xca,0x04, // 1232
0xaa,0xee,0x3f,0x0e,0x01,0x04,0x6b,0xf3, 0xdc,0x08,0x70,0x00,0x6f,0x00,0xc3,0xf7, // 1248
0x23,0x09,0xc4,0xfd,0xd8,0x02,0x53,0xf2, 0xea,0xfe,0x10,0x03,0x92,0xf4,0xb1,0x0a, // 1264
0xfc,0xfc,0x87,0xef,0xe0,0x0d,0x45,0xfd, 0xbf,0xfc,0x3a,0x0d,0x8e,0x07,0x29,0x09, // 1280
0x7e,0x01,0x29,0x11,0xe6,0x00,0x1e,0x03, 0xea,0x08,0xda,0xf5,0x72,0x01,0x33,0x05, // 1296
0xc6,0xfb,0xdf,0x04,0x3f,0x0c,0xa9,0xea, 0xf3,0x06,0xd6,0xf7,0x14,0xef,0x79,0xfe, // 1312
0xc6,0x00,0x0a,0x01,0x20,0x10,0x03,0xf5, 0x57,0xfe,0xc0,0x08,0xf2,0x02,0x55,0xfe, // 1328
0x46,0xfd,0x8b,0xf2,0xc1,0x05,0x08,0x01, 0x43,0x00,0x33,0x00,0x40,0x07,0x15,0xf8, // 1344
0x89,0x08,0xc7,0x06,0x6a,0xfd,0x2a,0xfc, 0xab,0x07,0x5b,0xf8,0xda,0xfa,0x75,0x0e, // 1360
0x66,0xf0,0x82,0xff,0xa5,0x0e,0x71,0xf3, 0xe5,0x00,0x00,0x01,0x50,0x03,0x03,0xfd, // 1376
0xbb,0xfd,0x9b,0xfd,0x3e,0x11,0x72,0xfe, 0x39,0xf7,0x92,0xfb,0x75,0x03,0x6e,0xfb, // 1392
0xeb,0xf2,0xeb,0x11,0x7b,0xfd,0xaf,0xfa, 0xe4,0xf8,0x13,0x02,0x52,0xf7,0x89,0xf8, // 1408
0x9b,0x0e,0x4a,0xfe,0xce,0xf7,0x02,0x07, 0x6d,0x06,0x58,0x05,0xf9,0xf3,0xb9,0x11, // 1424
0x67,0x00,0xa8,0x03,0x13,0xf6,0x0d,0xfa, 0xd6,0xff,0x8d,0x08,0x0c,0xf8,0x23,0x07, // 1440
0x38,0xfa,0x7f,0xf4,0xc9,0x0a,0xfe,0xfd, 0xe4,0xf1,0x95,0x09,0x1d,0xfd,0x98,0xfb, // 1456
0x77,0x0e,0xe8,0x05,0x0c,0x0d,0x53,0x03, 0x72,0x11,0xc6,0x01,0xd8,0x03,0xe7,0xf1, // 1472
0xdf,0xf6,0xa3,0xf6,0x45,0xfa,0xad,0xef, 0x48,0x00,0x7c,0xfd,0x94,0x05,0xd3,0xfd, // 1488
0xc5,0x06,0x96,0x0b,0xc7,0xef,0xcd,0x01, 0x3a,0x03,0xbb,0x04,0x93,0xfa,0x65,0x07, // 1504
0x6b,0xfa,0x6e,0x0a,0x41,0x0b,0x5b,0x08, 0x7e,0xf7,0xcf,0x06,0x2a,0xfa,0x76,0xfe, // 1520
0x6d,0xf4,0x67,0x01,0x97,0x0d,0x33,0x00, 0x71,0x09,0x7c,0x02,0x32,0xf8,0xeb,0x08, // 1536
0x36,0xf4,0xfd,0xf8,0x37,0x03,0x7c,0x01, 0x13,0x04,0x52,0x00,0x3a,0x06,0xb8,0xf4, // 1552
0x05,0xf3,0x93,0x11,0x3c,0xf0,0x72,0xfd, 0x5a,0x0b,0x48,0xf7,0x30,0x00,0x70,0x00, // 1568
0xa1,0x02,0xcd,0xf4,0xec,0x00,0x86,0x00, 0x5b,0xff,0x79,0x0c,0x59,0x0b,0xcf,0x00, // 1584
0xa7,0x06,0xed,0x03,0x38,0xee,0x69,0x0f, 0x45,0xfd,0x6c,0x01,0x0d,0x0d,0x60,0xf0, // 1600
0xb1,0xff,0x31,0x0f,0x2f,0x05,0x86,0x01, 0x84,0xfa,0x50,0xf5,0x2b,0xfc,0x83,0xf6, // 1616
0xe7,0x05,0x79,0xee,0xa6,0xfb,0xa9,0xfa, 0x3b,0x0c,0x7e,0x00,0xbe,0x01,0x25,0x03, // 1632
0xca,0x0d,0xaa,0xf8,0xf1,0xf7,0x07,0x03, 0xf4,0xef,0x99,0x00,0xbb,0x07,0xba,0xfb, // 1648
0xd2,0x0b,0x6a,0x09,0x74,0x0a,0x6e,0xf8, 0x7a,0x03,0x27,0x14,0xf3,0xee,0xd2,0x01, // 1664
0x2f,0x01,0x0d,0xee,0xea,0x06,0x95,0xf6, 0x96,0xf0,0x3a,0x01,0x31,0x01,0xd0,0x01, // 1680
0x78,0xf3,0xd5,0xfb,0x1d,0xf9,0x5a,0x04, 0x92,0xec,0x73,0x02,0x5b,0x02,0x87,0x0c, // 1696
0xc1,0xfc,0xee,0xfe,0x4a,0x06,0x47,0x0b, 0xb0,0xf7,0x1a,0xf7,0xea,0xf4,0x8f,0xf8, // 1712
0xee,0x05,0xf5,0x00,0xbe,0xf8,0x7d,0x06, 0x23,0x04,0x9e,0x0e,0x89,0x04,0xa2,0x0a, // 1728
0xd6,0x00,0xce,0x13,0xd7,0x02,0xc0,0x02, 0x41,0x10,0x82,0xfe,0x4c,0xfa,0x24,0x02, // 1744
0xc8,0x04,0x8e,0xfd,0xa2,0xfd,0xef,0x09, 0xa0,0xf8,0xf0,0xfd,0xb8,0x01,0x96,0xfc, // 1760
0xa4,0xfb,0x9e,0x06,0xc8,0x03,0x24,0xf3, 0x16,0xff,0xd9,0x01,0xfb,0x03,0x19,0x0b, // 1776
0xf9,0x02,0x45,0x0d,0xa8,0x07,0x15,0x09, 0xc8,0x03,0x83,0x0e,0xb5,0x00,0xe8,0x03, // 1792
0x74,0xf8,0x77,0x09,0x6e,0xff,0x82,0xf8, 0xa0,0x09,0x83,0xfb,0xb9,0xf2,0xb4,0xfb, // 1808
0x99,0x11,0x33,0x02,0x04,0xed,0x0c,0x06, 0x2e,0xfc,0x47,0x08,0x5b,0xee,0x00,0x01, // 1824
0x4b,0xf7,0x64,0xef,0xe8,0xff,0xd9,0xfd, 0xe6,0xf9,0xe8,0xfa,0x53,0x02,0xdc,0xfc, // 1840
0xa1,0xef,0xf0,0x13,0xf3,0xfd,0x64,0xfc, 0x0f,0xf2,0xb3,0xf7,0xa0,0xf5,0x1b,0xfc, // 1856
0xeb,0xeb,0xa7,0x00,0xa8,0x00,0x3a,0x00, 0xbb,0xfc,0xb8,0xfc,0xf8,0xfa,0xca,0x10, // 1872
0x9a,0xfe,0xdb,0xf8,0x12,0xee,0x6d,0x02, 0xad,0xf7,0x45,0xf4,0x2a,0xf7,0xc7,0x03, // 1888
0x7d,0x06,0x85,0x07,0x3f,0x01,0x50,0x04, 0x48,0x02,0xd2,0xf9,0x42,0xfc,0xf3,0x06, // 1904
0xee,0xf0,0xde,0x09,0xfd,0xfc,0xaa,0xf0, 0x8c,0x01,0xf4,0x00,0x1c,0x03,0xa7,0xf3, // 1920
0xea,0xf4,0xa4,0xf4,0x0f,0xf6,0x2e,0xf1, 0xb7,0x00,0x62,0x01,0xb0,0x00,0x46,0x02, // 1936
0x80,0x02,0xe5,0xf7,0x30,0x0e,0x8e,0xfa, 0xfc,0xed,0x63,0xf9,0x37,0x00,0x22,0xfd, // 1952
0xbf,0x03,0xd8,0xee,0xe9,0x04,0x32,0x0b, 0x76,0xf8,0xbe,0x01,0xa4,0xfe,0x1b,0xff, // 1968
0x1b,0xf8,0xe3,0x0a,0xe4,0x0b,0x6c,0x09, 0x09,0xf3,0x0b,0xfe,0x62,0x08,0x96,0x0a, // 1984
0x5e,0x01,0x75,0xf8,0xec,0x0c,0x95,0x06, 0x7a,0x09,0x04,0x01,0xed,0x10,0x1f,0x00, // 2000
0x05,0x03,0xad,0x00,0xe2,0x12,0xa5,0x00, 0x62,0xfa,0xd9,0xfe,0xe8,0xee,0x33,0x04, // 2016
0x7f,0xf9,0xbc,0xfd,0x10,0xfa,0xa9,0xf6, 0xaf,0x02,0xed,0x02,0x50,0x10,0x20,0x0f, // 2032
0xf8,0xf3,0x50,0xfd,0x46,0x0b,0xd9,0xf8, 0x94,0x00,0xe2,0xff,0x95,0x0f,0xaa,0xf5, // 2048
0x6c,0x02,0xbe,0x0e,0x61,0xfd,0x68,0x00, 0xf0,0xfe,0x44,0xee,0x07,0x0d,0x0b,0x04, // 2064
0x8e,0xf5,0x3a,0x06,0xb8,0x00,0x32,0x01, 0x25,0x05,0x54,0x06,0x6d,0x05,0xac,0xf1, // 2080
0x46,0x11,0x0a,0x01,0x7b,0x04,0x0f,0x06, 0x40,0xf0,0xd5,0xf4,0xb8,0xfe,0xe0,0xef, // 2096
0x68,0xfc,0x11,0xff,0xf2,0xf1,0x1c,0x04, 0x26,0x01,0x26,0x01,0x18,0xfe,0xde,0x07, // 2112
0x37,0xfb,0x64,0xfd,0x0a,0x09,0xd4,0xfd, 0x99,0x07,0xde,0xfb,0xdc,0xf6,0x37,0xf5, // 2128
0xb4,0x09,0x9f,0x09,0x4c,0xfb,0xa0,0xfc, 0xe5,0x08,0xdc,0xf9,0xe5,0xfb,0x75,0xff, // 2144
0x8b,0xef,0x1d,0x00,0x97,0x05,0x10,0x03, 0x9e,0x0d,0x58,0xf5,0xf9,0xfd,0xa7,0x0b, // 2160
0x13,0x01,0x7e,0xfd,0xae,0x02,0xf3,0xf2, 0x39,0xf2,0x0f,0xfe,0x15,0x00,0x3d,0x05, // 2176
0xe6,0x04,0xbc,0xec,0x20,0x02,0xc0,0x08, 0x52,0x04,0x5f,0xf6,0xaa,0xfd,0xc2,0x03, // 2192
0x64,0x0b,0x3a,0x03,0xf4,0xfa,0xb6,0xef, 0xab,0xfc,0xb3,0xf5,0xca,0xfc,0xb9,0xee, // 2208
0x3f,0x00,0x2e,0xfe,0x33,0x07,0x1e,0xf4, 0xd6,0x00,0x07,0x0b,0x0c,0xf7,0xa5,0x08, // 2224
0x34,0x06,0x98,0xfe,0xcf,0xed,0xeb,0xff, 0xcd,0x07,0x93,0xff,0x41,0x0f,0x40,0xf7, // 2240
0x3b,0xfb,0x35,0x11,0x25,0x01,0xfe,0xf6, 0xa4,0xfd,0xde,0xf2,0xc3,0x02,0x7e,0x0a, // 2256
0xad,0x03,0x9e,0xfc,0x49,0x01,0x33,0x05, 0x0e,0xfb,0x50,0xfc,0x90,0xf6,0x3f,0x00, // 2272
0xaa,0xfc,0x90,0x06,0x96,0xf4,0xfd,0xfd, 0xe4,0xf8,0x57,0xf1,0x24,0x10,0x82,0x00, // 2288
0xe4,0xf0,0x04,0x0c,0x4e,0xfe,0x6c,0xfe, 0xb8,0x02,0x7c,0xf9,0x1c,0xfc,0x32,0x06, // 2304
0xfb,0x00,0x60,0x09,0x0f,0x01,0x6c,0x06, 0xd2,0x08,0x50,0xf2,0x88,0x0b,0x12,0xfe, // 2320
0x04,0xf1,0xd5,0x16,0x3a,0xf2,0x87,0xf8, 0x88,0x04,0xbe,0xfd,0xe0,0x00,0x8b,0xf8, // 2336
0xc6,0x05,0x3f,0x03,0x08,0xfe,0xa7,0x01, 0xfc,0x05,0xd4,0x0a,0xf8,0xef,0x2d,0x02, // 2352
0x8b,0xfe,0x0e,0xed,0x49,0x07,0x35,0xfd, 0xd8,0xf4,0x56,0x0c,0x92,0xf3,0x7c,0x07, // 2368
0xa5,0xf7,0xa8,0xf7,0xf3,0x0d,0x65,0x09, 0x25,0x0f,0x98,0xfc,0x80,0xfe,0x02,0xfc, // 2384
0x1f,0x0a,0xbf,0x0b,0x39,0xff,0x52,0x0c, 0xc7,0xf8,0xcd,0x08,0x84,0xf9,0x81,0x02, // 2400
0xb5,0xfd,0xce,0xf8,0x5c,0xfc,0x50,0xfa, 0x3f,0xf6,0x8f,0x00,0x42,0xfc,0x08,0x0b, // 2416
0xc9,0xf8,0x81,0x10,0x40,0xf9,0xb5,0x08, 0x99,0xf5,0x28,0xf8,0x93,0x04,0xf4,0x08, // 2432
0x88,0x09,0x80,0xfc,0x9c,0x0c,0x41,0x09, 0x5d,0x0d,0xec,0x00,0x0c,0x10,0xb9,0x0e, // 2448
0x53,0x11,0x23,0x06,0x36,0x02,0x70,0xff, 0x5a,0x08,0x67,0xf6,0x97,0xec,0xc0,0x09, // 2464
0xf4,0x06,0xe7,0xf7,0xd0,0xfe,0x6e,0x08, 0x90,0xfd,0x27,0x01,0xdd,0x07,0x86,0xf4, // 2480
0x4b,0x07,0x20,0xfc,0xb7,0xf5,0x85,0x04, 0x93,0xf7,0xa5,0x09,0xad,0xea,0x45,0x0e, // 2496
0xd2,0x17,0x7e,0xf7,0xfc,0xf9,0x4e,0x07, 0xd4,0xf7,0xac,0x00,0x12,0xfb,0x76,0x0f, // 2512
0xc7,0xf4,0xc0,0x0e,0x94,0xfe,0x4b,0xfa, 0x99,0xfc,0x00,0xfa,0xcc,0xf6,0x82,0xfb, // 2528
0xf8,0x01,0x9a,0x0d,0x48,0x07,0x1f,0xfa, 0x33,0x19,0x75,0x07,0xc0,0x05,0xaf,0xf3, // 2544
0xd6,0x06,0xeb,0x05,0x22,0x08,0x4c,0x01, 0x10,0x15,0x1e,0xff,0xae,0x01,0xe9,0xeb, // 2560
0x29,0x0e,0xe2,0xf5,0x28,0x03,0x07,0xff, 0xba,0xf3,0xa4,0x0a,0x6e,0xfc,0xf8,0xfd, // 2576
0x43,0x4d,0x44,0x00,0x20,0x03,0x80,0x00, 0x10,0x0a,0x00,0x00,0x10,0x0a,0x00,0x00, // 2592
0x01,0x01,0x00,0x02,0x0c,0x00,0x00,0x00, 0x00,0x00,0x00,0x00,0x00,0x00,0x00,0x00, // 2608
0x01,0x00,0x8c,0x00,0x01,0x00,0x01,0x00, 0x8c,0x00,0x01,0x00,0x00,0x00,0x00,0x00, // 2624
0x0d,0x00,0xff,0xff,0xff,0xff,0xff,0xff, 0x00,0x00,0x00,0x00,0x00,0x00,0x00,0x00, // 2640
0x00,0x00,0x00,0x00,0x00,0x00,0x00,0x00, 0x00,0x00,0x00,0x00,0x00,0x00,0x00,0x00, // 2656
0x00,0x00,0x00,0x00,0x00,0x00,0x00,0x00, 0x00,0x00,0x00,0x00,0x00,0x00,0x00,0x00, // 2672
0x00,0x00,0x00,0x00,0x00,0x00,0x00,0x00, 0x00,0x00,0x00,0x00,0x00,0x00,0x00,0x00, // 2688
0x00,0x00,0x00,0x00,0x00,0x00,0x00,0x00, 0x00,0x00,0x00,0x00,0x00,0x00,0x00,0x00, // 2704
0x43,0x4d,0x44,0x00,0x20,0x05,0x00,0x00, 0x90,0x0a,0x00,0x00,0x10,0x02,0x00,0x00, // 2720
0x01,0x00,0x00,0x02,0x0d,0x0a,0x0b,0x09, 0x00,0x00,0x00,0x00,0x00,0x00,0x00,0x00, // 2736
0x01,0x00,0x8c,0x00,0x01,0x00,0x01,0x00, 0x64,0x00,0x01,0x00,0x00,0x00,0x00,0x00, // 2752
0x0c,0x00,0xff,0xff,0xff,0xff,0xff,0xff, 0x00,0x00,0x01,0x00,0xc8,0x00,0x00,0x00, // 2768
0x00,0x01,0x02,0x00,0x18,0x01,0x00,0x00, 0x00,0x00,0x00,0x00,0x00,0x00,0x00,0x00, // 2784
0x00,0x00,0x00,0x00,0x00,0x00,0x00,0x00, 0x00,0x00,0x00,0x00,0x00,0x00,0x00,0x00, // 2800
0x00,0x00,0x00,0x00,0x00,0x00,0x00,0x00, 0x00,0x00,0x00,0x00,0x00,0x00,0x00,0x00, // 2816
0x00,0x00,0x00,0x00,0x00,0x00,0x00,0x00, 0x60,0x6d,0x00,0x00,0xc8,0x00,0x00,0x00, // 2832
0x56,0x00,0x25,0x00,0x30,0xff,0x5b,0x00, 0x36,0x07,0x5f,0x00,0x71,0x00,0x23,0x00, // 2848
0x02,0x00,0x2a,0xff,0x21,0xfb,0x2b,0xff, 0xf8,0x00,0xc2,0xff,0x12,0xff,0xe7,0xff, // 2864
0xa9,0xff,0xa0,0xff,0xca,0x01,0xc7,0xff, 0x66,0x00,0x5c,0x00,0x81,0xf8,0x11,0xf5, // 2880
0xfe,0xff,0x44,0x00,0xe9,0x00,0x8f,0xff, 0x80,0xfd,0xdc,0xff,0xc6,0x00,0xa8,0x00, // 2896
0xae,0x00,0xb8,0xfd,0x90,0x00,0xab,0xff, 0x74,0x00,0xe4,0xff,0xaf,0xff,0x94,0x00, // 2912
0x92,0x00,0x7e,0xff,0x8f,0x00,0xbd,0x00, 0x92,0xff,0x36,0xff,0x19,0x01,0x53,0x00, // 2928
0x34,0xff,0xc6,0xff,0xd1,0xff,0xad,0xff, 0x1e,0x00,0x52,0x00,0x6f,0x00,0x02,0x00, // 2944
0xab,0xfe,0x54,0xff,0xff,0xff,0xe3,0xfd, 0x70,0x06,0x19,0x01,0xf7,0xfe,0x93,0xff, // 2960
0x10,0x00,0x6e,0xfd,0xc5,0xff,0xe7,0x00, 0x5e,0x00,0x0f,0xff,0x34,0x00,0x3f,0x00, // 2976
0x45,0xfe,0x2d,0x00,0xe7,0xff,0x7d,0x00, 0x21,0x00,0xec,0xff,0xfb,0xff,0x29,0xff, // 2992
0x12,0x00,0xda,0xff,0xab,0xff,0xb7,0x00, 0x7b,0xff,0x54,0xff,0x72,0xfe,0x62,0xff, // 3008
0x0e,0x09,0xb2,0xfe,0x8a,0x03,0x19,0xff, 0xe1,0x00,0xef,0x06,0xe0,0xff,0xdb,0xff, // 3024
0xfa,0xfe,0x56,0x01,0x04,0x01,0xae,0x00, 0x7f,0xff,0xb1,0xff,0x4c,0x05,0xe8,0x00, // 3040
0x4a,0xff,0xdd,0xfd,0xc4,0xfe,0x3e,0x00, 0x48,0xff,0xb5,0x00,0x35,0xff,0xf8,0xff, // 3056
0x8f,0xfe,0x9a,0xff,0x67,0xff,0x5b,0xff, 0xcc,0x00,0x03,0x02,0x0c,0x00,0x43,0xff, // 3072
0xa8,0x00,0x1e,0x00,0xf0,0x00,0xf7,0x00, 0xd3,0xff,0x6c,0xff,0x39,0x00,0x28,0xfb, // 3088
0x58,0xff,0x53,0x00,0x7d,0xf5,0x24,0xff, 0xa6,0x01,0x54,0xff,0xd7,0x00,0x85,0x00, // 3104
0xe8,0xfe,0x79,0xfe,0xc9,0xfe,0x6b,0xff, 0xe7,0x00,0xa8,0xfe,0x92,0xfe,0x0d,0xff, // 3120
0xf5,0xff,0x84,0xfb,0x8b,0xff,0x0b,0xff, 0x8b,0x01,0xbc,0x06,0x95,0x00,0x4f,0xff, // 3136
0xd3,0xff,0xfb,0xff,0xde,0x01,0x7f,0x00, 0xb0,0x02,0xbb,0xfc,0xe3,0xfd,0x8f,0xff, // 3152
0xb8,0xff,0x9e,0xfb,0x9a,0x00,0x77,0x00, 0xc7,0xff,0xc4,0xff,0x1b,0x00,0x39,0x00, // 3168
0xf6,0xff,0x7f,0xff,0x18,0x00,0x25,0x01, 0x3e,0x00,0x22,0x00,0x4d,0xfd,0xed,0x01, // 3184
0x17,0xff,0x3d,0x00,0xbd,0x00,0x94,0xff, 0xe4,0xfc,0xa9,0xff,0x02,0xff,0x55,0xff, // 3200
0x71,0xff,0xae,0x01,0xfa,0xfb,0x24,0xff, 0x9b,0xfe,0x6c,0xff,0x63,0x00,0x6a,0x00, // 3216
0x9d,0xfe,0x65,0x00,0xed,0xfd,0x0f,0x01, 0xec,0xff,0x42,0x05,0x59,0xfc,0x7e,0xff, // 3232
0x9e,0xff,0x6e,0xfd,0x0b,0x00,0xd4,0xff, 0xc8,0xff,0xd8,0x00,0x8a,0x00,0xdf,0xff, // 3248
0x7f,0xff,0x18,0x00,0x27,0xff,0x88,0xff, 0x25,0x00,0x6c,0xff,0xc6,0xfd,0x38,0xff, // 3264
0x9a,0xfd,0x47,0x01,0xbf,0xfe,0x12,0x02, 0x68,0xff,0xcf,0x00,0xce,0x01,0x57,0xff, // 3280
0x32,0x00,0x46,0x07,0x7d,0x00,0xdd,0xff, 0xa3,0xff,0x83,0x04,0x7e,0xfd,0x08,0x00, // 3296
0xa4,0xff,0x94,0xff,0x08,0x00,0xb3,0xff, 0x3f,0xfe,0x2f,0xfe,0x96,0xff,0x6f,0xfe, // 3312
0x6b,0x00,0x25,0x00,0xcc,0xff,0xc0,0xff, 0x55,0x01,0x35,0x04,0x5f,0x00,0x95,0xff, // 3328
0x2b,0x00,0x9e,0xfd,0x5a,0xff,0x3d,0x02, 0x32,0x02,0x20,0x00,0x68,0x00,0x0d,0x01, // 3344
0x3e,0xff,0x58,0xfd,0xd4,0xff,0xb1,0x07, 0x7c,0x00,0xe3,0xff,0x7b,0xfd,0x6d,0x00, // 3360
0xa9,0x01,0xf6,0xff,0xa3,0xff,0xd8,0xff, 0x56,0x00,0xa2,0xfb,0xea,0xff,0xd2,0x01, // 3376
0xc7,0xfd,0x8c,0x00,0x5a,0xfa,0x33,0xfa, 0x74,0x0d,0xdf,0xff,0xb3,0xff,0x20,0x01, // 3392
0xe4,0xfe,0x7c,0x01,0x93,0x00,0x70,0x01, 0x00,0xff,0x6f,0x03,0x9b,0xff,0xa1,0x00, // 3408
0x38,0xfe,0x22,0xfd,0xad,0xff,0x56,0x00, 0x7f,0x00,0xbc,0xff,0xcf,0xfe,0xe3,0xff, // 3424
0x4b,0xfa,0x71,0x01,0x8f,0x00,0x14,0x00, 0xdb,0xff,0x4b,0x04,0xa0,0x00,0x66,0x00, // 3440
0xe5,0xff,0xcb,0xfe,0x02,0x00,0x9d,0xff, 0x90,0x00,0xbe,0x00,0x2b,0xff,0x18,0xff, // 3456
0xbd,0x00,0x4f,0x00,0x52,0x03,0x5b,0xfd, 0xf4,0xff,0x9a,0xff,0x6c,0xff,0xe7,0xff, // 3472
0xbe,0x00,0x56,0x00,0x05,0x00,0xce,0x00, 0x25,0x00,0x2c,0xfd,0x06,0x03,0x26,0xff, // 3488
0xed,0x00,0xa0,0x00,0x13,0xff,0xdf,0xfe, 0xc0,0x00,0x56,0xff,0x02,0x03,0xfe,0xfe, // 3504
0xaa,0x01,0x44,0xfb,0xfd,0x05,0x77,0x00, 0x9b,0xff,0x02,0x01,0x2c,0x00,0x0c,0xff, // 3520
0xf7,0xff,0x64,0x00,0xb7,0xff,0xde,0xff, 0x83,0x01,0xf0,0xfe,0xd0,0xff,0xdb,0xff, // 3536
0x13,0xfe,0xbc,0xff,0x70,0x01,0xbb,0x00, 0x5b,0x01,0x96,0xff,0xbd,0x00,0xe4,0xfe, // 3552
0xa9,0xff,0x0c,0x00,0xe4,0xfe,0x12,0xff, 0xef,0xff,0xe1,0xfb,0xd7,0xff,0xe8,0xff, // 3568
0x0c,0x00,0x98,0xfc,0x60,0x01,0xfc,0xff, 0x8e,0xff,0xe1,0xff,0x0c,0x01,0x4f,0xff, // 3584
0x7f,0x00,0x01,0x00,0xc5,0x00,0x13,0x00, 0x8f,0xfe,0xc6,0xff,0x18,0x00,0x48,0xff, // 3600
0x9d,0xfd,0xdc,0xfb,0x7b,0xff,0xd8,0x00, 0x8c,0xff,0xbf,0x01,0x9b,0xff,0x13,0xfd, // 3616
0xa1,0xff,0xef,0xff,0x56,0xfe,0x52,0x00, 0x5c,0x00,0x44,0x01,0x7b,0x00,0x8d,0xf8, // 3632
0x1b,0x01,0x68,0x00,0x56,0x00,0x94,0x00, 0xf7,0xfe,0xdb,0xff,0x84,0x00,0x60,0x00, // 3648
0x71,0xfe,0x07,0x08,0x6a,0x00,0x3d,0xff, 0xc7,0x01,0xc0,0x00,0x91,0x02,0x5f,0x0b, // 3664
0xbd,0xf9,0xbf,0xfe,0x89,0x00,0xd3,0xff, 0x9a,0xfd,0x56,0xff,0x1f,0xff,0xe1,0xff, // 3680
0x77,0x0d,0xf1,0xff,0x31,0x00,0xde,0xff, 0x93,0xff,0x33,0xff,0x3d,0xfd,0xce,0x00, // 3696
0xf2,0xff,0xb6,0xff,0xcf,0xff,0x8d,0xff, 0x87,0x00,0x85,0x01,0xbe,0xff,0xb7,0xff, // 3712
0xd9,0xff,0xba,0xff,0xb7,0xf6,0x87,0xf3, 0xb3,0xff,0xbb,0x01,0x38,0x00,0xca,0xfe, // 3728
0x12,0xfe,0x56,0xff,0x00,0x01,0x1b,0xff, 0xd5,0xff,0xfc,0xff,0xb2,0xff,0xfa,0xfe, // 3744
0xb0,0xfe,0x9b,0x00,0x06,0x00,0xa3,0x00, 0x95,0x00,0x82,0xff,0xa1,0x00,0x5f,0xff, // 3760
0xba,0xff,0xc1,0x00,0x23,0x00,0x7a,0x00, 0xe4,0xff,0x20,0x00,0x81,0xff,0xe4,0x00, // 3776
0xd7,0xff,0x3c,0x00,0x22,0x02,0x99,0xff, 0xdf,0x00,0x31,0xff,0x28,0x00,0xac,0xff, // 3792
0x5e,0x04,0xcb,0xff,0xe4,0xff,0x32,0x00, 0xad,0xff,0xad,0xfe,0x2b,0x00,0x8d,0x00, // 3808
0x85,0x00,0x96,0x00,0xd9,0xff,0xb8,0xff, 0x14,0xff,0xc0,0xff,0x9c,0xff,0xaf,0xff, // 3824
0x9c,0x00,0xd4,0xff,0x07,0x00,0x72,0xff, 0x68,0x00,0x2a,0x00,0x54,0xff,0xde,0x01, // 3840
0x9e,0x00,0x64,0xff,0x01,0xfb,0x69,0x00, 0xf2,0x06,0x8b,0xff,0x2b,0x01,0xf7,0xff, // 3856
0x16,0xff,0x30,0x07,0xd5,0xff,0xa4,0x00, 0x17,0x00,0x08,0x00,0x32,0x00,0x8f,0xff, // 3872
0xe0,0xff,0x51,0x00,0xac,0x01,0x5d,0x00, 0x8d,0xff,0x23,0x00,0x11,0x00,0x35,0x00, // 3888
0xa1,0x00,0xc9,0xff,0xa0,0x01,0xf6,0xff, 0x84,0x00,0x7d,0x00,0xe6,0xff,0x26,0x02, // 3904
0x8e,0x03,0xc4,0x00,0x20,0x00,0xfc,0xff, 0x50,0x00,0x10,0x00,0x63,0x00,0x08,0x00, // 3920
0x33,0x00,0x5f,0x00,0x1c,0x00,0x3c,0xfa, 0x01,0xff,0xb6,0xff,0xec,0xee,0xb8,0xff, // 3936
0x70,0x00,0x4e,0x00,0xdf,0x00,0xd0,0xff, 0x47,0xff,0x57,0xff,0xde,0xfd,0x40,0x00, // 3952
0xd5,0x00,0x3c,0x02,0x06,0x01,0x83,0xfd, 0xb7,0xff,0xd3,0x00,0xbd,0xfe,0x09,0x00, // 3968
0x72,0xfd,0x39,0x00,0x5d,0x00,0x92,0x00, 0x49,0x00,0x95,0xff,0xdf,0x01,0xd7,0xff, // 3984
0xa5,0xfd,0x4a,0xff,0x40,0x01,0xb9,0x00, 0x2c,0xff,0xd6,0x00,0x3b,0x00,0x6b,0x00, // 4000
0x0b,0xff,0x09,0xff,0x5d,0x00,0x16,0x00, 0x9e,0x00,0x53,0x04,0xac,0xfe,0x1b,0x01, // 4016
0xd8,0x00,0x9b,0xff,0x04,0x0a,0x05,0x00, 0xf1,0x00,0xed,0xff,0x34,0xfa,0x20,0xfe, // 4032
0xfa,0xff,0x20,0x01,0x66,0x01,0x62,0x01, 0x42,0x00,0x64,0xf6,0x4c,0x01,0xb6,0xfe, // 4048
0x1b,0x01,0x31,0x00,0x20,0xff,0x51,0xff, 0x2e,0x01,0xd5,0xff,0x18,0xfe,0x17,0x00, // 4064
0x3e,0xfe,0x36,0xff,0x5a,0x03,0x98,0xff, 0xb5,0xff,0x3b,0xff,0xe6,0x00,0xb6,0xfc, // 4080
0xd5,0xff,0xdf,0xff,0x05,0xfe,0x5c,0xfe, 0xcf,0xfc,0x1c,0x00,0x97,0x00,0xe9,0xff, // 4096
0xa0,0xfe,0x2f,0x01,0xfa,0x00,0xb0,0xff, 0xb3,0x00,0x6e,0xfe,0x0d,0x00,0x2e,0xff, // 4112
0x3d,0xff,0x02,0x02,0xb0,0x00,0xcd,0xff, 0xec,0xfa,0x23,0x00,0xe6,0x00,0x52,0x00, // 4128
0x10,0x00,0x1a,0xfe,0xdf,0x00,0x7f,0x01, 0x57,0x00,0x97,0xff,0xed,0x01,0xe5,0xff, // 4144
0x94,0x01,0x59,0x00,0x79,0x00,0xb7,0xfe, 0x63,0xff,0x42,0x00,0xaf,0xff,0xf1,0xfe, // 4160
0xbc,0x02,0xbf,0xfc,0x74,0x00,0x20,0xff, 0xf0,0x00,0x7f,0x01,0x92,0xff,0xed,0xfe, // 4176
0x0c,0xff,0x62,0x00,0x32,0x05,0x10,0xfd, 0x1c,0xff,0xb6,0x01,0x0e,0xfe,0xca,0xfe, // 4192
0x26,0xfe,0x88,0x00,0x17,0x00,0x55,0xff, 0xc7,0xfe,0x30,0x01,0x85,0xff,0x4f,0x00, // 4208
0x21,0xff,0xf7,0x01,0x11,0x00,0x68,0xff, 0xb1,0x01,0x06,0x01,0xc9,0xff,0xf2,0x01, // 4224
0x8e,0xfe,0x5b,0xff,0x91,0x00,0x87,0xfe, 0x20,0x01,0x53,0x00,0x5c,0x00,0xd3,0x01, // 4240
0x86,0x00,0x44,0xff,0x92,0x00,0x0a,0x09, 0x1f,0xff,0x8c,0xff,0xc7,0xff,0xfa,0xfd, // 4256
0xed,0xfb,0xf4,0x01,0x8d,0xfa,0xdb,0x00, 0xe8,0x00,0x7c,0xff,0x39,0x01,0x8b,0xff, // 4272
0xa2,0xff,0x52,0x00,0x8e,0xff,0x1f,0xff, 0x8a,0x00,0xb0,0xff,0x8d,0x00,0x5b,0x00, // 4288
0xfd,0xfe,0x12,0xfe,0xc4,0x00,0x80,0x00, 0xcc,0xfe,0xd0,0xff,0xf2,0xff,0x89,0x00, // 4304
0x76,0xff,0x85,0x00,0xd0,0x00,0x99,0x00, 0xd2,0x02,0x9d,0x00,0x38,0x03,0x5b,0x00, // 4320
0xba,0x05,0xcf,0x00,0x94,0x00,0x41,0x03, 0xf2,0xff,0x62,0xff,0xac,0xf9,0x0c,0xff, // 4336
0x84,0x00,0x13,0x00,0x16,0xff,0x0f,0x01, 0xae,0xfe,0xb8,0xfe,0xba,0xff,0x5e,0xff, // 4352
0x71,0x00,0x1e,0x01,0x27,0xfe,0x98,0x00, 0x64,0xfa,0x53,0xfe,0xc4,0xfe,0x7e,0x01, // 4368
0xab,0x03,0x7a,0xfe,0x8c,0x09,0x0c,0xff, 0x0f,0x01,0x26,0x04,0xb8,0x01,0xd6,0x02, // 4384
0xd1,0x01,0x52,0x00,0x65,0xff,0x56,0xfc, 0x35,0x01,0xdd,0xfd,0xe2,0xfd,0x95,0x01, // 4400
0x42,0xff,0x53,0xff,0x71,0xff,0xcd,0x06, 0x4c,0x00,0x8e,0xff,0xb0,0xff,0xce,0xfd, // 4416
0x0f,0x01,0x29,0x01,0x9b,0xfe,0x79,0xff, 0x66,0xfd,0x41,0x02,0x14,0xff,0xaf,0x02, // 4432
0x36,0x02,0x5d,0x00,0x66,0x00,0x1d,0x01, 0xe3,0xfc,0x48,0x00,0x01,0xff,0xd9,0x03, // 4448
0x36,0xfe,0xb5,0x01,0x75,0xfe,0xfd,0xff, 0x2f,0xfe,0x66,0xff,0x69,0xfe,0x8c,0xff, // 4464
0xc1,0xff,0x50,0x00,0x0b,0x02,0xc6,0xff, 0x0b,0x01,0x95,0x04,0x47,0x04,0xaa,0xfa, // 4480
0xf9,0xff,0x9f,0x00,0x91,0xff,0x77,0xff, 0xcf,0x00,0xb3,0xff,0x3a,0xff,0xf2,0xfc, // 4496
0xc8,0x00,0x1e,0xfe,0x1e,0x01,0x1f,0xff, 0x14,0x00,0x4e,0x01,0x57,0xff,0x81,0xf9, // 4512
0xb9,0xfe,0xcf,0xff,0xac,0xfd,0x02,0xfe, 0x27,0xff,0x33,0x00,0x3a,0x00,0x61,0xff, // 4528
0xd7,0xff,0xef,0x00,0x54,0x00,0x9d,0x01, 0x3c,0x00,0x7c,0x00,0x52,0x02,0xf8,0xfd, // 4544
0x81,0x00,0x07,0x00,0x00,0xfe,0xee,0x00, 0xd8,0x00,0x99,0xfe,0xd3,0x01,0xf1,0x00, // 4560
0xe9,0xff,0x6b,0x00,0x68,0xff,0x63,0xfe, 0xea,0x03,0x72,0x00,0x02,0x00,0xc3,0x00, // 4576
0x79,0xff,0x12,0x05,0x95,0xff,0xc5,0x01, 0xd3,0x00,0x35,0xfe,0x94,0x00,0x1a,0x00, // 4592
0x96,0xff,0x81,0xff,0x9f,0xff,0x8f,0xfd, 0xfd,0xff,0x47,0x01,0x5b,0xfe,0x94,0x00, // 4608
0x02,0xff,0x0d,0x02,0xe1,0xff,0xa1,0xff, 0xd4,0xfd,0xa9,0xfd,0xd3,0x00,0x35,0xfd, // 4624
0x68,0x00,0xbc,0x00,0x8e,0xff,0x51,0x04, 0x00,0x00,0x1d,0x00,0x4b,0x00,0x56,0x00, // 4640
0xd8,0xff,0x2e,0x01,0xfb,0x00,0x51,0x00, 0xd7,0xfd,0x95,0x02,0xc9,0xfe,0x23,0x02, // 4656
0xc5,0xfe,0x3a,0x00,0x9e,0xfe,0xae,0xff, 0x5e,0xff,0x9e,0xff,0xd7,0x01,0x03,0x02, // 4672
0x0c,0x00,0xc7,0xff,0x22,0x01,0x37,0x00, 0xa3,0x02,0x3e,0x01,0xd5,0x00,0x00,0x00, // 4688
0xa8,0xfe,0x50,0xfe,0x82,0xfd,0xa0,0xff, 0x0f,0xfe,0x0d,0xff,0x95,0xfe,0x29,0x00, // 4704
0xc5,0x00,0x7f,0xfe,0xa3,0x00,0xb6,0x00, 0xd4,0xff,0x80,0xfd,0xb1,0xfd,0xf7,0xff, // 4720
0xc1,0x01,0x17,0x01,0x9d,0xff,0x9e,0x00, 0x67,0xff,0xe6,0xff,0x3e,0x01,0x6e,0xfe, // 4736
0x6b,0x02,0x3e,0x00,0xa3,0x00,0xfc,0x00, 0xce,0x00,0xd1,0xfe,0x47,0x00,0xf6,0x00, // 4752
0x90,0x00,0xbd,0xff,0x1a,0xfd,0x32,0x00, 0x81,0xff,0xe1,0xff,0xb8,0x01,0x95,0x02, // 4768
0xad,0xff,0x13,0xff,0x60,0x01,0xba,0x00, 0x3b,0xff,0x07,0x00,0x91,0xfe,0xff,0xfe, // 4784
0xea,0x00,0x18,0xff,0x8c,0x03,0xe8,0xff, 0x4d,0x00,0x1b,0xff,0x52,0x00,0x24,0x00, // 4800
0xe7,0xff,0x34,0x00,0x26,0xfe,0xb4,0x02, 0x93,0x00,0x43,0xff,0xc2,0xff,0xc6,0x00, // 4816
0x5c,0xf4,0x55,0x03,0x5a,0xff,0x1b,0x00, 0x58,0x00,0x8d,0xff,0x21,0x00,0xed,0xff, // 4832
0xe1,0xff,0x16,0x00,0xd8,0xff,0x12,0x00, 0xf6,0xff,0x36,0x00,0x86,0xff,0xd8,0xff, // 4848
0x35,0x00,0x9c,0xff,0x83,0x00,0xcd,0xff, 0x53,0x01,0x21,0x00,0x2a,0xff,0x4c,0xff, // 4864
0xf5,0xff,0xc1,0xff,0x5c,0x00,0x58,0x00, 0x8b,0x00,0x39,0x02,0x3d,0x06,0xf0,0x00, // 4880
0xf3,0x1b,0xea,0x00,0x28,0x00,0xb0,0xff, 0xee,0xff,0x4c,0x00,0xb2,0xf3,0x2f,0x00, // 4896
0xaa,0x01,0x9e,0xff,0x6c,0xff,0xcf,0xff, 0x5b,0xff,0x63,0xff,0xc5,0xff,0x0b,0x00, // 4912
0xf2,0xff,0xd7,0x00,0x02,0x00,0x86,0xff, 0xab,0xe5,0x47,0xff,0x98,0xfb,0xc1,0xff, // 4928
0xa4,0x00,0x02,0x00,0x05,0x02,0xae,0xff, 0x1f,0x00,0xa5,0x09,0x39,0x00,0x45,0x00, // 4944
0x44,0x00,0xaa,0xff,0x2c,0x00,0x0f,0xfe, 0xc6,0xfe,0x94,0x00,0xf4,0xff,0x6e,0x00, // 4960
0x38,0x00,0x86,0xff,0xe1,0xff,0x41,0x1c, 0x6e,0x00,0xb3,0x00,0x67,0x00,0xe2,0xff, // 4976
0x4b,0x00,0x2d,0x00,0x10,0x02,0x6a,0xff, 0x6d,0xff,0xb8,0x00,0xbf,0xfe,0x6d,0xff, // 4992
0xbd,0x02,0xb9,0xff,0x25,0x00,0x9b,0xff, 0x7f,0xff,0x8e,0xff,0x82,0x00,0x66,0xff, // 5008
0x74,0x00,0x3f,0x00,0x7e,0xff,0xd9,0xff, 0xbd,0xfe,0xbe,0x00,0xef,0xff,0xcd,0xff, // 5024
0x22,0x00,0x9b,0x00,0x37,0x00,0xc5,0xff, 0x0a,0x00,0x25,0x09,0x1c,0x02,0x82,0xe8, // 5040
0x44,0x00,0xcd,0x02,0x60,0x00,0xa3,0xff, 0x81,0x00,0xbe,0xff,0x2a,0x00,0xb3,0xff, // 5056
0x03,0x00,0x5f,0x00,0x46,0x00,0xdd,0xff, 0xf5,0xff,0x1e,0x01,0x04,0x00,0x90,0xf6, // 5072
0xcf,0x03,0xb8,0xfd,0xab,0x00,0xcc,0xfd, 0x94,0xfe,0x82,0xff,0x2f,0x00,0x72,0x00, // 5088
0xdb,0x01,0x82,0xff,0xfd,0xff,0x8d,0xfc, 0xe0,0xff,0x37,0x00,0x3e,0xff,0x46,0x00, // 5104
0xa9,0xff,0x02,0xfb,0x82,0x01,0xce,0xff, 0xaf,0xff,0x5c,0x00,0xc9,0x00,0x8f,0x01, // 5120
0xf8,0x00,0xf6,0xff,0xb3,0x02,0x71,0x00, 0x36,0xfd,0xa8,0xff,0xca,0x00,0xde,0x03, // 5136
0xf8,0xff,0xa8,0xfc,0x95,0x02,0xb8,0x00, 0x4c,0xfe,0x45,0x00,0x09,0xfe,0xad,0x01, // 5152
0xe7,0x00,0x32,0xff,0x42,0x01,0x14,0x01, 0x7c,0x00,0xd5,0xfc,0x20,0xff,0x9a,0x00, // 5168
0x2c,0xfe,0xae,0xff,0x4f,0xff,0x2f,0x00, 0x86,0x01,0x47,0x00,0x1e,0xfc,0x7b,0x00, // 5184
0x67,0xfd,0xea,0xff,0x50,0x00,0xd5,0xfd, 0x38,0xff,0x61,0x00,0x5f,0xfe,0x5d,0x00, // 5200
0xe7,0xff,0x81,0xfe,0x93,0xff,0xbb,0x00, 0x43,0x00,0x34,0xfe,0x50,0x01,0xe7,0xff, // 5216
0x8a,0x00,0xcb,0x00,0xe9,0x00,0xe2,0x00, 0x0f,0x00,0x16,0x03,0xf3,0xfe,0xc1,0xfe, // 5232
0xcd,0x00,0x1f,0xff,0x5e,0xff,0x69,0x00, 0xca,0xf7,0xc4,0xff,0x2f,0x02,0x30,0x00, // 5248
0x59,0xff,0xa3,0x01,0x9e,0x00,0x4d,0xfe, 0xf6,0x00,0xfb,0xfe,0x59,0x00,0x88,0xfe, // 5264
0x32,0xfa,0x54,0x01,0xc1,0xff,0x45,0x01, 0xbe,0xff,0x0e,0x00,0x1a,0x01,0x64,0x00, // 5280
0xb3,0x00,0xa9,0xff,0xf1,0xff,0xe1,0x00, 0x2d,0xff,0x65,0x00,0x7f,0xfb,0xfb,0xff, // 5296
0xfa,0xfe,0x6e,0xff,0x24,0x05,0x77,0xfc, 0x93,0xfe,0x47,0x00,0x9b,0x00,0x85,0xff, // 5312
0xea,0xfe,0x69,0x00,0xc7,0x01,0xe3,0xff, 0x16,0x02,0xb4,0xff,0x84,0xff,0x1d,0x00, // 5328
0x2d,0x00,0x8f,0x00,0x7a,0x01,0xb2,0xfe, 0x4f,0x00,0xaf,0xfe,0x03,0x01,0x40,0x00, // 5344
0x7a,0xff,0x4b,0x00,0x36,0xfd,0xfe,0xfe, 0x37,0x00,0x0b,0xff,0x20,0xff,0xa7,0x00, // 5360
0x03,0x03,0xd3,0xff,0x06,0x01,0x04,0xff, 0x01,0x00,0x90,0xff,0xb9,0xfd,0xa0,0xfd, // 5376
0xee,0xff,0x28,0x00,0x22,0x00,0xdd,0xff, 0x12,0x00,0xa9,0xff,0x17,0x00,0x95,0xff, // 5392
0x40,0x00,0x15,0x00,0x35,0xfd,0xdd,0xfb, 0x89,0x03,0xe9,0xff,0x8a,0x01,0xf2,0xff, // 5408
0x0d,0xff,0x9a,0x00,0x61,0x00,0xf4,0xff, 0x0e,0x00,0x9f,0xfe,0x1a,0x00,0x59,0x00, // 5424
0xac,0xfe,0x29,0x00,0x21,0x00,0x15,0x01, 0x77,0xff,0x1d,0x00,0xbb,0xff,0xa7,0xff, // 5440
0xf9,0xff,0x77,0xff,0xad,0xff,0x63,0xff, 0x6e,0x00,0x31,0x00,0x3f,0x00,0xe0,0x00, // 5456
0xf5,0xff,0xfb,0xff,0xbb,0xff,0xc8,0xff, 0x6b,0x00,0x86,0xff,0x88,0xff,0x5f,0xfe, // 5472
0xe2,0x02,0xdc,0xff,0xbd,0xfe,0x45,0x02, 0x57,0x00,0x62,0x00,0xf2,0xff,0x0a,0x02, // 5488
0x93,0x00,0x73,0xff,0xd2,0xff,0x0a,0x00, 0x8f,0xff,0xc7,0xff,0xac,0xff,0x5b,0xff, // 5504
0x17,0xff,0xc1,0x00,0xda,0x00,0xdf,0xff, 0x90,0x00,0x59,0xfe,0xe2,0x00,0x3e,0x00, // 5520
0xb0,0xff,0xa6,0xff,0x38,0xff,0xda,0xff, 0x7d,0x03,0x76,0x00,0xf7,0xff,0x25,0x00, // 5536
0xe4,0xff,0x5a,0x03,0x27,0x00,0x93,0xfe, 0xb9,0xff,0xf3,0xff,0xf2,0xff,0xad,0xff, // 5552
0x21,0x00,0x04,0x00,0x3e,0x03,0x02,0x03, 0x89,0x00,0xf8,0xff,0x47,0x00,0xe2,0xff, // 5568
0xca,0xff,0x6b,0xff,0x06,0xff,0xbc,0xff, 0x5f,0x00,0x32,0xff,0x2f,0x00,0x37,0x01, // 5584
0xb9,0xff,0x3e,0xff,0x85,0x02,0x1c,0x00, 0xc4,0xff,0xc7,0xff,0xeb,0xff,0x38,0x00, // 5600
0x46,0x01,0x7a,0xff,0x07,0x00,0x4c,0xfd, 0x77,0x00,0x10,0x00,0xec,0xfa,0xc4,0x00, // 5616
0xce,0xff,0x93,0xfe,0xd7,0xff,0x03,0x00, 0xf3,0xff,0xeb,0xff,0x6f,0xfe,0x7c,0x00, // 5632
0x2b,0x01,0xc0,0xfd,0x2d,0xff,0x6a,0xfe, 0xfd,0xff,0x49,0xfd,0x54,0xff,0xa2,0xfd, // 5648
0x08,0x01,0xaf,0x08,0x37,0x00,0xfb,0x00, 0xe6,0xff,0x2c,0x00,0xa1,0x00,0x78,0x00, // 5664
0x5f,0x02,0xfe,0xff,0x4f,0xff,0x18,0xfd, 0x1c,0xfe,0xf0,0xfd,0xec,0xff,0x10,0x00, // 5680
0xf5,0xfe,0xb7,0xfe,0x61,0x00,0xdc,0x02, 0x85,0xff,0x0d,0x00,0x5c,0x01,0xa9,0xff, // 5696
0x75,0x01,0xb5,0xff,0x02,0xff,0x47,0x01, 0x8d,0xfd,0x06,0x01,0x95,0x00,0x36,0x02, // 5712
0xc6,0xfc,0xfb,0x00,0x2d,0xff,0x06,0xff, 0xc6,0xff,0xc0,0x00,0xfc,0xfd,0xab,0xfd, // 5728
0x14,0xff,0x4d,0xff,0x7e,0x00,0x6c,0x03, 0xa3,0xfe,0x9c,0x00,0x29,0xfe,0x39,0x03, // 5744
0x48,0x01,0x48,0x04,0xc0,0xfd,0xac,0xff, 0x14,0x00,0xb9,0xfb,0x16,0x00,0x52,0x01, // 5760
0xc1,0xff,0x8e,0x00,0xf8,0x00,0x27,0xff, 0x0c,0xff,0xe5,0x02,0x29,0xfe,0x11,0xff, // 5776
0x71,0x00,0xd2,0xfe,0x17,0xfe,0x55,0xfe, 0xcf,0xfc,0x89,0x03,0xa4,0xfc,0xf9,0x01, // 5792
0xbb,0xfe,0x18,0x02,0x3b,0x02,0xe7,0xfd, 0xbc,0xff,0x32,0x08,0x1b,0x00,0xb4,0xff, // 5808
0x1e,0x00,0x8b,0x04,0xd0,0xff,0xb5,0x00, 0x47,0x01,0x4b,0x00,0xc9,0x00,0x38,0x01, // 5824
0xbd,0xff,0x51,0x00,0xd3,0xff,0xe5,0xfd, 0x2e,0x00,0x77,0x00,0xf0,0xff,0x04,0xff, // 5840
0xdf,0x00,0x5f,0x00,0x1e,0x02,0x11,0xfe, 0x25,0x02,0x96,0xfd,0x2c,0x01,0x57,0x03, // 5856
0xd4,0x01,0x96,0x01,0xc3,0x00,0x61,0x00, 0xf6,0xff,0x1f,0xff,0xd6,0xfe,0x00,0x03, // 5872
0x7d,0xff,0x70,0xff,0xf1,0xfd,0x2c,0x00, 0x79,0x03,0x03,0x00,0xd2,0xfe,0xdb,0xff, // 5888
0xc7,0xff,0x10,0xfd,0x29,0x00,0x66,0x02, 0x3d,0xfe,0xec,0x00,0xea,0xf8,0xd9,0xfd, // 5904
0x30,0x03,0x79,0x00,0x84,0xfe,0xcd,0x01, 0x01,0x00,0xe4,0xfe,0xd2,0xff,0x7d,0x00, // 5920
0x1c,0x02,0x2d,0x00,0x3d,0x01,0x52,0x00, 0xbf,0x00,0x52,0x00,0xfc,0xff,0x65,0xff, // 5936
0x01,0x00,0x44,0xff,0x04,0x00,0x77,0x01, 0x2f,0x00,0x69,0x01,0x0f,0xff,0x8e,0xfa, // 5952
0xd1,0x00,0xf4,0xff,0x49,0xfe,0x10,0xfe, 0xc9,0x03,0x9f,0x00,0xe5,0xff,0xbb,0xfe, // 5968
0x60,0xfe,0x44,0x00,0x2c,0x02,0x9c,0xff, 0xce,0xfd,0x16,0x00,0xb9,0xff,0x1c,0xff, // 5984
0xff,0xfe,0x4f,0x01,0x7f,0x00,0xee,0x04, 0xfc,0xfe,0x02,0xff,0x32,0x01,0x9e,0xff, // 6000
0x5c,0x00,0x50,0x00,0xa7,0xff,0xcd,0x01, 0xd1,0xfe,0xd1,0xfe,0x51,0xff,0x5b,0x01, // 6016
0x3b,0x00,0x6c,0x01,0x10,0x01,0xe1,0xff, 0x41,0x01,0x32,0xff,0xae,0xff,0x0b,0x00, // 6032
0x9f,0x00,0x43,0x00,0x84,0xfa,0xab,0x09, 0xcd,0xff,0x00,0x00,0xde,0xff,0xdd,0x07, // 6048
0x1f,0x00,0x7f,0x00,0x4c,0xff,0xce,0xfe, 0x8a,0xff,0x9e,0x00,0xd5,0xff,0x53,0x00, // 6064
0x90,0xff,0x01,0x01,0x26,0xfe,0x2d,0xff, 0x3e,0x02,0x4d,0xfa,0xee,0xff,0x22,0x01, // 6080
0x58,0x00,0x12,0x00,0x48,0xfd,0x16,0x00, 0x6e,0x01,0x5c,0x01,0xfa,0xff,0x1c,0xfe, // 6096
0x4a,0xff,0x26,0x01,0xa5,0xff,0xa0,0x00, 0xa0,0xff,0x57,0xff,0xde,0x00,0x5c,0x00, // 6112
0x0b,0x00,0x50,0x01,0x57,0x00,0x92,0x07, 0x35,0x00,0xe3,0x00,0x97,0xfe,0xc0,0xff, // 6128
0x0f,0x00,0xd8,0xff,0xd4,0x00,0x8a,0x00, 0x72,0xff,0x62,0xff,0xda,0xff,0x96,0x01, // 6144
0x52,0x02,0xbf,0xff,0x51,0x09,0x31,0x00, 0x2e,0x00,0x20,0x01,0x07,0x01,0x5b,0xff, // 6160
0x2f,0x02,0xd5,0xff,0x6e,0xfe,0xbc,0xfe, 0x08,0xff,0xf0,0xff,0xdb,0xfd,0xb8,0xff, // 6176
0xda,0xff,0x6e,0xfc,0x6c,0x00,0xb7,0xff, 0xc1,0x00,0x77,0xff,0xf5,0xfb,0xcc,0xff, // 6192
0xb3,0xff,0x14,0x02,0xe7,0x00,0x0f,0x01, 0x7b,0x01,0x8c,0xff,0x4b,0x00,0x35,0x01, // 6208
0xed,0xfd,0xcd,0xff,0x4d,0xfe,0x5c,0x00, 0x41,0x06,0x59,0xf8,0x1e,0x00,0x6b,0x00, // 6224
0x40,0x00,0x14,0x01,0x91,0xff,0x37,0x00, 0x6a,0xff,0x91,0xff,0x64,0xfd,0x77,0xfd, // 6240
0x27,0x00,0x51,0xff,0x55,0x00,0xa1,0xff, 0x06,0x01,0x57,0x00,0xfc,0xfe,0x98,0x00, // 6256
0x81,0x00,0xe2,0xff,0xc6,0xff,0x71,0xff, 0x97,0x01,0x53,0x00,0xa0,0xff,0x51,0xff, // 6272
0xe1,0xff,0x4d,0x00,0x88,0x00,0x55,0x00, 0x24,0xff,0xa3,0xff,0x52,0x02,0x2c,0xff, // 6288
0xbc,0x02,0x58,0xff,0x55,0xff,0x09,0xff, 0xd9,0xff,0xb0,0x00,0xd6,0x01,0x6a,0xff, // 6304
0xab,0x00,0xf2,0xfe,0xbc,0xff,0xe7,0xff, 0x2b,0x02,0x62,0x00,0xdd,0x00,0x2e,0x00, // 6320
0xa0,0x02,0x87,0xff,0xeb,0xff,0x66,0xff, 0x8b,0xff,0xd4,0xff,0x15,0x00,0x3f,0xff, // 6336
0xd4,0xf7,0xa2,0x00,0x5b,0x00,0xb3,0x00, 0x46,0x00,0x88,0xfe,0xe1,0xff,0xd5,0xff, // 6352
0xd9,0xff,0x7b,0x00,0xe2,0xff,0x1d,0xff, 0x8d,0xff,0x3e,0xff,0xf1,0xfe,0x43,0xfe, // 6368
0x2f,0x01,0x26,0xfe,0xf1,0x01,0xfe,0x00, 0x20,0x00,0x95,0x05,0x12,0x00,0xcf,0xff, // 6384
0x0f,0x01,0xfb,0xff,0x9c,0x0f,0xd6,0xfe, 0x09,0xf3,0xe9,0x00,0x10,0x00,0xae,0xff, // 6400
0x2b,0x00,0xb2,0xfe,0xa8,0x00,0x4a,0x00, 0x36,0x00,0x4f,0x00,0xb8,0xff,0x6a,0x00, // 6416
0xc1,0xfe,0xc3,0xff,0xc3,0xff,0x13,0x00, 0x8e,0x01,0xc9,0x00,0xe0,0xfe,0xad,0x00, // 6432
0xcc,0xff,0xa6,0xfe,0x4d,0x01,0x84,0x03, 0x7e,0xfe,0x6c,0xfe,0x82,0xff,0x37,0x00, // 6448
0xa6,0xed,0x9c,0xff,0xef,0xfe,0xba,0xff, 0xc4,0x00,0xe0,0xff,0x9a,0x00,0x6e,0xff, // 6464
0x97,0x00,0x0a,0xfa,0x9a,0x00,0x72,0xff, 0xe5,0xfe,0x45,0x01,0x8a,0x01,0x7e,0x01, // 6480
0x37,0x00,0x08,0x00,0xf8,0xff,0xad,0x01, 0x08,0xff,0xd3,0xfe,0xe5,0xff,0x54,0xfe, // 6496
0x59,0x00,0x27,0x00,0x16,0xff,0x45,0x00, 0x0f,0xff,0x65,0x01,0x51,0x00,0x24,0x00, // 6512
0xe7,0x01,0x04,0x01,0xa8,0xff,0x53,0x00, 0xbb,0x00,0x10,0x00,0x60,0x00,0x2e,0xff, // 6528
0xba,0xff,0xb4,0x00,0xed,0xff,0x13,0xff, 0xc6,0xff,0xaf,0xff,0x32,0x01,0xdb,0xf8, // 6544
0x1a,0x01,0xfd,0xff,0x88,0xff,0x27,0x00, 0xf2,0x01,0x42,0x00,0x91,0x02,0xb4,0x07, // 6560
0x34,0x00,0x9c,0xff,0x08,0x03,0x78,0x00, 0xb3,0x00,0xce,0xff,0x5f,0x00,0xe5,0xff, // 6576
0xd4,0x0c,0x8a,0x00,0xa2,0x02,0x22,0x00, 0x7f,0x03,0x41,0xfc,0x03,0x01,0xc5,0xff, // 6592
0x2f,0x00,0xf0,0x00,0x86,0x00,0x98,0xff, 0xee,0xff,0x4d,0x00,0xed,0xf9,0xbd,0xff, // 6608
0x46,0x01,0x9f,0xfa,0x9f,0xff,0xb6,0xff, 0xc1,0xff,0xec,0x01,0x65,0xfd,0xc1,0xf6, // 6624
0x0e,0xfb,0xeb,0xff,0x3c,0x00,0xfe,0xfb, 0x57,0x00,0x7a,0x00,0xe1,0x05,0x70,0x00, // 6640
0x08,0xff,0x24,0xfe,0x9b,0xff,0x08,0x00, 0x1a,0x00,0x80,0xff,0xa7,0xff,0x6a,0xff, // 6656
0x41,0xff,0xf9,0xff,0x07,0x0d,0xfb,0xfa, 0x61,0x01,0x5b,0xfe,0x6d,0x00,0x8f,0x00, // 6672
0xac,0xff,0x11,0x00,0x07,0x00,0xa1,0x00, 0xb0,0xfe,0x69,0x00,0x33,0xfd,0x65,0xf7, // 6688
0x89,0x00,0x82,0xfc,0x0e,0xfe,0xfe,0x00, 0x91,0xff,0x37,0x00,0x17,0x00,0x3d,0x01, // 6704
0x29,0x01,0x84,0xff,0xae,0xff,0xdb,0xfe, 0x9d,0xfe,0xc6,0x00,0x37,0x02,0x20,0x00, // 6720
0x68,0xff,0xf4,0xff,0xad,0xff,0xe2,0xff, 0xf7,0xff,0x3a,0x01,0x09,0x00,0x6c,0x03, // 6736
0xbd,0xfe,0x56,0x00,0x5d,0x04,0xa8,0x01, 0x85,0xff,0x93,0xff,0x50,0xff,0xdf,0xfd, // 6752
0xd8,0xfd,0x7c,0x03,0x1f,0x00,0xae,0x00, 0x93,0x00,0x82,0x00,0xb1,0xfe,0x33,0xff, // 6768
0x20,0xfa,0x52,0x00,0x2d,0xff,0x75,0x02, 0x60,0x00,0xbf,0xff,0xec,0xff,0x26,0x00, // 6784
0x4d,0x00,0x94,0x04,0x7c,0xff,0xd4,0x00, 0x53,0xfe,0x1c,0x00,0x37,0xff,0x3a,0xff, // 6800
0xdc,0xfd,0xb7,0xfd,0x3a,0x00,0x9e,0xff, 0xbf,0x00,0xca,0xff,0xb6,0xf8,0xf1,0xfe, // 6816
0x23,0x04,0x6e,0xff,0xfe,0xff,0x2b,0xff, 0x4f,0x02,0x3d,0x00,0x5a,0x00,0x9c,0xfd, // 6832
0x3b,0xfd,0xb4,0x01,0xa7,0xff,0xd9,0xfe, 0xb8,0xff,0x89,0x00,0x84,0x01,0x16,0xf7, // 6848
0xe5,0x04,0x83,0xff,0x91,0xff,0x02,0xff, 0x43,0xff,0x0a,0x00,0x66,0x02,0x61,0x00, // 6864
0x98,0x00,0x41,0xff,0xcc,0xff,0x6d,0xff, 0x59,0x01,0xf6,0xfd,0x33,0x04,0xa9,0xfe, // 6880
0x51,0x00,0xcc,0x00,0x72,0x00,0x8d,0xfd, 0x60,0x00,0x3c,0x02,0x64,0xff,0xe1,0xff, // 6896
0x7f,0xfe,0x70,0xff,0x07,0x00,0x24,0x00, 0xd3,0xff,0x70,0xfd,0x50,0x00,0xd5,0x00, // 6912
0xae,0xfc,0x4c,0x02,0xed,0xff,0xee,0xfc, 0x34,0x01,0xb0,0xff,0xe4,0xfe,0x1d,0xff, // 6928
0x8e,0x00,0x2d,0xfe,0xd3,0xff,0x0d,0x0f, 0x21,0xff,0xa9,0x00,0xfa,0xff,0x09,0x02, // 6944
0x31,0x05,0x52,0xff,0x0a,0x01,0xa1,0xf5, 0x99,0xff,0x7f,0x00,0x70,0x00,0x4c,0xfe, // 6960
0x48,0x00,0xb6,0xff,0x3c,0x02,0x4c,0x00, 0xc0,0x02,0xa1,0xff,0xee,0x01,0x10,0x00, // 6976
0x1c,0x01,0x58,0x01,0xa5,0xff,0x42,0x01, 0x64,0x01,0xa5,0xff,0x78,0xfe,0x47,0x00, // 6992
0x90,0x00,0x01,0x00,0x72,0xff,0x31,0x00, 0xa1,0xfc,0xb9,0x00,0xc6,0xff,0x48,0x00, // 7008
0x51,0xff,0xd7,0xff,0x15,0x00,0xf8,0xff, 0x35,0x00,0x57,0x04,0xc7,0xff,0xf0,0xff, // 7024
0xd6,0xff,0x62,0xff,0xce,0x00,0xbd,0x00, 0xa3,0xff,0xed,0x00,0x55,0x00,0x3b,0xfe, // 7040
0xff,0x01,0x14,0x00,0x4c,0x00,0x0f,0xff, 0xe2,0xff,0x0e,0x00,0x23,0xff,0xab,0x00, // 7056
0xa8,0xfe,0x38,0x01,0xe5,0x00,0xaf,0xff, 0x11,0x01,0xa9,0xff,0x33,0xff,0x0e,0x00, // 7072
0x24,0x00,0x4e,0xff,0x8f,0xfe,0xf3,0xfe, 0x27,0x01,0x04,0x01,0xf8,0x02,0xf1,0xff, // 7088
0x64,0x00,0x65,0x01,0x52,0x00,0xd5,0x01, 0xdc,0xff,0xaa,0xfb,0x23,0x00,0x80,0x00, // 7104
0x31,0xff,0x37,0x00,0xf8,0xfe,0xfb,0xff, 0x90,0xff,0x21,0xff,0x16,0xff,0x0f,0x00, // 7120
0x3f,0x01,0xfa,0xff,0x20,0x00,0x07,0x00, 0x6f,0xff,0xcc,0xff,0x80,0x00,0x06,0x01, // 7136
0x5a,0xff,0xe3,0xff,0xd7,0xff,0xd7,0xff, 0x6b,0x00,0x0b,0x00,0xd5,0xff,0x40,0xfc, // 7152
0x26,0x01,0x97,0xff,0x68,0xff,0x26,0x01, 0x0c,0x00,0x8e,0x00,0xf6,0x00,0xaa,0x00, // 7168
0xd7,0xff,0x45,0x00,0x12,0x00,0x35,0x00, 0x42,0xff,0x2d,0x00,0x04,0x00,0x86,0xff, // 7184
0x18,0x00,0x8f,0xff,0x96,0x00,0x00,0x00, 0x23,0x00,0xb5,0xfe,0xc8,0xff,0x94,0xff, // 7200
0x64,0xff,0x5f,0xff,0xb9,0xff,0x8d,0x00, 0x7f,0x01,0x1c,0x00,0x4e,0xff,0xc2,0x00, // 7216
0x93,0xff,0x91,0x00,0x32,0xff,0xa3,0xff, 0xe5,0xff,0xc4,0xff,0xb2,0xff,0xa2,0xff, // 7232
0xd2,0x00,0x64,0x00,0x1b,0x01,0x84,0x01, 0xca,0x00,0xbf,0xff,0x99,0x00,0xa9,0xff, // 7248
0x96,0xff,0x2f,0x00,0x41,0xff,0x5d,0x00, 0x1d,0x01,0xd4,0xfe,0xd4,0x01,0x5e,0xff, // 7264
0x48,0x00,0xf8,0xff,0xa2,0x00,0xa7,0x00, 0x21,0xff,0xbb,0x00,0x91,0xff,0xef,0xfe, // 7280
0xfc,0xff,0xc1,0xff,0x5f,0x00,0x10,0xff, 0x13,0x01,0x76,0xff,0xfb,0xfe,0x0c,0x00, // 7296
0x08,0x00,0xe1,0xff,0xa6,0x00,0xa7,0xff, 0xdc,0x00,0x6c,0x00,0xec,0xff,0x14,0x00, // 7312
0xad,0xfe,0x3a,0x00,0x9c,0xfe,0x6f,0xfc, 0x16,0x00,0xe9,0xff,0x1b,0x01,0x65,0xfc, // 7328
0x8b,0x00,0x2a,0xff,0xa8,0xff,0x0f,0x00, 0x11,0x03,0xce,0xfd,0x9b,0x05,0xd0,0xff, // 7344
0xa3,0xfc,0x71,0xff,0x33,0x00,0x24,0x00, 0x1d,0x00,0x15,0x02,0xf7,0xff,0x2e,0x00, // 7360
0x9b,0x00,0x4e,0x01,0x94,0x00,0xe3,0xfc, 0xd1,0xff,0xcb,0x04,0x75,0x00,0xd7,0x00, // 7376
0xec,0xfe,0xdc,0xff,0x56,0x02,0x26,0xff, 0xfe,0xff,0xc8,0xff,0x10,0xfa,0xe2,0xff, // 7392
0xdd,0xfe,0x58,0xfe,0x1e,0xfe,0xd5,0xff, 0x0f,0xfc,0x5b,0xfe,0x01,0xfe,0x1a,0x00, // 7408
0xb1,0xfe,0x10,0x00,0x10,0x03,0x9b,0x01, 0x08,0xff,0xf3,0xff,0x7b,0xff,0xe4,0xff, // 7424
0xe7,0x00,0x69,0x00,0x57,0x04,0xb4,0xff, 0x13,0x00,0xad,0xff,0xbb,0xff,0x2c,0x00, // 7440
0xab,0x02,0xf3,0x01,0x85,0x00,0x01,0x00, 0x86,0xfc,0xaf,0x00,0x79,0xf9,0x44,0x00, // 7456
0x52,0xfe,0x89,0xfe,0x50,0xfe,0xaf,0xfe, 0x24,0xff,0xeb,0xff,0x15,0x00,0x0e,0x01, // 7472
0x55,0x00,0xc3,0xff,0x3b,0x01,0x47,0x01, 0x74,0xfe,0xed,0xff,0x4c,0x00,0x7a,0xfd, // 7488
0x26,0x00,0x39,0x01,0x56,0xff,0xaa,0xff, 0xaa,0xfc,0xa0,0xff,0xc3,0xff,0x57,0x00, // 7504
0x69,0x01,0x45,0xfb,0x5c,0x00,0x6c,0x00, 0xf1,0xfd,0x6c,0xff,0xfd,0xff,0x9f,0x00, // 7520
0xcd,0x04,0x35,0x00,0x45,0x00,0x47,0xfe, 0x1b,0xff,0xb0,0xfe,0x25,0x00,0xc2,0x00, // 7536
0x71,0x02,0x52,0xff,0x76,0x03,0x9a,0x00, 0x8b,0x01,0xcf,0xfe,0x83,0x00,0x2d,0xff, // 7552
0xdd,0xfe,0x5a,0xfe,0xb1,0xfd,0x49,0x03, 0x0b,0x00,0x1d,0xff,0x0e,0x00,0xf4,0xff, // 7568
0x51,0xff,0x1c,0x02,0xb1,0xff,0x92,0x01, 0x59,0xfe,0x43,0x00,0xad,0xfe,0x40,0x01, // 7584
0xef,0xff,0xc6,0xfe,0xee,0xff,0x02,0x02, 0x1f,0x00,0x96,0x04,0x6c,0x02,0x0c,0x01, // 7600
0x68,0xf9,0xb4,0xfe,0x55,0x00,0x4a,0x01, 0x3d,0xfb,0x02,0x01,0x38,0x01,0x38,0xff, // 7616
0x13,0x01,0x65,0xff,0xe3,0xff,0x16,0x00, 0x0f,0x00,0x18,0x00,0x09,0xfe,0x37,0x01, // 7632
0xd7,0x00,0xaf,0xff,0x06,0x03,0x29,0x04, 0x74,0x00,0x61,0xff,0x99,0xff,0x72,0x00, // 7648
0xf6,0x07,0x0d,0x00,0x39,0xfd,0xd7,0xff, 0x7c,0x00,0xce,0x00,0xc7,0xff,0x1a,0xfe, // 7664
0x71,0x03,0x2d,0x00,0x2e,0x00,0x80,0xfd, 0x9c,0xfe,0xa9,0xff,0xa7,0x00,0x05,0x01, // 7680
0x92,0xff,0x40,0x00,0x22,0x05,0x60,0xff, 0xa2,0x05,0x95,0xff,0xc6,0xff,0x88,0xfb, // 7696
0x83,0x01,0x33,0x00,0x96,0x02,0xa5,0xff, 0x4f,0x04,0xfb,0xff,0xb6,0xff,0x80,0x00, // 7712
0x10,0xfe,0x9f,0xff,0xf9,0xff,0x3f,0x00, 0x51,0x00,0xbd,0x04,0xfe,0xfe,0x37,0x00, // 7728
0x83,0x00,0x50,0xfe,0x46,0x00,0x48,0x00, 0x1d,0xff,0xfe,0x00,0xc5,0xfd,0x26,0xfe, // 7744
0xdb,0xfd,0x9f,0xfd,0xaa,0x00,0xcb,0xfd, 0xb1,0x00,0x56,0x00,0xbd,0x00,0xa8,0xfd, // 7760
0x74,0x00,0xed,0x00,0x55,0x03,0x40,0x00, 0xa8,0xfb,0xf1,0xfc,0xf7,0xff,0x1a,0x03, // 7776
0xe0,0xff,0x44,0xfe,0x4f,0x01,0x49,0xfe, 0xf0,0x02,0xdc,0x00,0x6b,0x00,0xbb,0xff, // 7792
0xc1,0xfe,0x27,0x00,0x6f,0xfe,0xef,0xff, 0x9a,0xff,0xc3,0xff,0x79,0xfe,0x86,0xfe, // 7808
0xc2,0xff,0xde,0xfd,0x75,0xfe,0x42,0x01, 0x12,0xfe,0xd2,0xfe,0x92,0xff,0xf2,0x00, // 7824
0x8b,0xfe,0x13,0xfe,0xd4,0xff,0x62,0x00, 0xc3,0xff,0xe5,0xff,0x8a,0x01,0x1e,0x00, // 7840
0x0c,0xfb,0xbe,0xff,0xc9,0xff,0x0f,0x0a, 0xbe,0xff,0x20,0x00,0xf5,0x04,0xd7,0x01, // 7856
0xcb,0xfd,0x66,0x00,0xb5,0x00,0xc4,0xff, 0xed,0x00,0xae,0xff,0x1b,0x04,0xdb,0xfe, // 7872
0xb5,0x00,0x48,0x06,0x64,0x01,0x3a,0x00, 0x65,0xff,0x42,0x00,0x0e,0x01,0xb7,0x00, // 7888
0x2d,0xfb,0x4a,0x00,0x2f,0xff,0x06,0xff, 0xe4,0x00,0xc2,0xfd,0xf3,0xff,0xe3,0xff, // 7904
0x6e,0xff,0x82,0x00,0x65,0x00,0xf9,0x01, 0x0e,0xff,0x95,0x00,0x58,0xfe,0x06,0xff, // 7920
0x04,0x01,0x96,0xfe,0x15,0x00,0x43,0x01, 0xff,0x00,0x22,0x00,0x41,0xfd,0x1f,0x00, // 7936
0xf9,0xff,0x96,0xff,0xc5,0x00,0x08,0x01, 0xf3,0x03,0x7e,0x00,0xa1,0xff,0x7a,0xfc, // 7952
0x28,0xff,0x49,0x00,0xb7,0x00,0xbe,0x00, 0xb7,0xff,0x4a,0xff,0x2c,0x05,0xb6,0xfe, // 7968
0x8b,0x03,0x72,0xff,0x08,0x00,0xbe,0xfb, 0xeb,0xff,0x5e,0x00,0xe8,0x00,0xdf,0xff, // 7984
0xee,0xfc,0x79,0xff,0x15,0x01,0xe9,0xff, 0x8e,0x00,0x45,0x01,0xbd,0x00,0xac,0xff, // 8000
0x91,0x01,0x45,0xfd,0x42,0xff,0x80,0xff, 0x3d,0xff,0x06,0x00,0x9b,0x01,0xd5,0xff, // 8016
0x06,0xfd,0xfc,0xff,0x0f,0x04,0x63,0x01, 0x42,0x02,0xf0,0xfa,0x5d,0x00,0x69,0xff, // 8032
0xea,0xff,0xd9,0xff,0x74,0xfe,0x5b,0xff, 0x59,0xff,0xc4,0xff,0x72,0x00,0xe9,0xff, // 8048
0xf9,0x00,0xd4,0xfa,0x36,0x08,0x93,0x02, 0x8f,0x01,0x7e,0x03,0x41,0xff,0xb6,0xff, // 8064
0xd2,0x00,0xdc,0x01,0x10,0x03,0x1b,0xff, 0x0f,0xfd,0x88,0x00,0xe3,0xff,0x2d,0xff, // 8080
0x85,0x00,0x37,0xf2,0xf0,0x00,0x6c,0x00, 0x7b,0xff,0x30,0x03,0x7e,0xfe,0x10,0xff, // 8096
0xd8,0xfb,0x3b,0xfe,0xc1,0x00,0xba,0xfe, 0xa0,0xff,0xcb,0x04,0xd1,0xff,0x7d,0xff, // 8112
0xa7,0xff,0xd5,0xfe,0x5d,0x02,0x51,0x01, 0x70,0xfb,0x63,0xfe,0x95,0xff,0x65,0x00, // 8128
0x91,0xfc,0x66,0x00,0xe1,0xfe,0x43,0xfc, 0xb0,0x02,0x1d,0x00,0x48,0x00,0x69,0x00, // 8144
0x6c,0xfe,0x75,0xfe,0x64,0x01,0xa8,0xfe, 0xc4,0xfe,0xee,0x03,0x33,0x01,0x15,0xff, // 8160
0x78,0xff,0x68,0x00,0x53,0x00,0xbf,0x00, 0xcb,0xfd,0x1d,0xff,0x36,0x00,0x7b,0x00, // 8176
0x63,0xff,0x07,0x00,0x25,0x00,0x4d,0xff, 0x28,0x00,0xbd,0xff,0xd4,0xff,0x16,0x08, // 8192
0xe1,0xff,0x41,0x00,0x33,0x00,0x5f,0x00, 0xf4,0xfc,0xd0,0xfe,0x51,0x00,0xe4,0xfe, // 8208
0xbb,0x01,0x1d,0x01,0x52,0xfd,0x73,0x00, 0x3c,0x01,0x2a,0x00,0x33,0x00,0x4f,0xff, // 8224
0x9a,0x04,0x9d,0xff,0x96,0xff,0x15,0xf8, 0x36,0x00,0xaf,0x00,0xfc,0x01,0x25,0x01, // 8240
0x4c,0x01,0x02,0x00,0x90,0x01,0x97,0xfe, 0x86,0x02,0x94,0x00,0x04,0xff,0x19,0xfd, // 8256
0x61,0x01,0x76,0xff,0x4d,0x00,0xb6,0xfd, 0x91,0x00,0xb7,0xfd,0x28,0x00,0xf1,0xff, // 8272
0xb6,0xff,0x10,0x01,0xe3,0x07,0x07,0xf2, 0xe8,0xfe,0x67,0xff,0x49,0xfe,0x8a,0xf8, // 8288
0x2b,0xff,0x9c,0xff,0x2a,0x00,0x9b,0x00, 0xe7,0xff,0x09,0x02,0x94,0x00,0xd9,0xff, // 8304
0x31,0x00,0x05,0xfc,0xba,0x03,0xe7,0xff, 0x3c,0xff,0x0f,0x04,0xd1,0xff,0x97,0x00, // 8320
0xd2,0xff,0x63,0xfe,0x66,0x00,0x90,0x01, 0xc5,0xff,0x0c,0xfd,0x14,0x00,0x76,0x02, // 8336
0x4b,0xff,0x28,0x00,0xa4,0x00,0xea,0xfe, 0x6e,0x03,0x43,0xff,0x34,0x00,0x65,0xfe, // 8352
0x48,0x00,0x6f,0xff,0x25,0x00,0x65,0xfa, 0x4a,0x00,0x31,0xff,0x4f,0x00,0x64,0x00, // 8368
0x1c,0x01,0x5d,0x00,0x21,0x00,0xf6,0xfe, 0x10,0xff,0x5b,0xff,0xa5,0x00,0x2b,0x00, // 8384
0xb5,0xff,0xf9,0xff,0xdc,0xf9,0xdd,0xff, 0xc2,0xff,0xce,0x00,0xd1,0x00,0xc7,0xff, // 8400
0xa6,0xfa,0x6f,0xff,0xa4,0x00,0xcc,0x00, 0x55,0x00,0xe0,0xff,0x83,0x00,0xb4,0xff, // 8416
0x5c,0x00,0x02,0x03,0x18,0x01,0x03,0x00, 0x62,0xff,0xb6,0xff,0xc0,0x03,0x6b,0xfe, // 8432
0x1d,0x04,0x79,0xfe,0x17,0x01,0x18,0xfb, 0xba,0xfc,0xae,0xff,0xfa,0xff,0xd2,0xfe, // 8448
0x4b,0x01,0x66,0x01,0xbb,0x00,0x42,0x00, 0xf6,0xff,0xfa,0xff,0xdd,0x01,0x0b,0xff, // 8464
0x40,0x00,0xd3,0xfc,0xdb,0x00,0x22,0x01, 0x24,0xff,0xda,0xfe,0xc2,0x03,0xd3,0x02, // 8480
0x6d,0xff,0x81,0x00,0xbd,0x00,0xa3,0x02, 0xd4,0xff,0x95,0x01,0xcc,0xff,0x4e,0x01, // 8496
0xdd,0xff,0x60,0xff,0x48,0x01,0x58,0x02, 0x18,0x00,0xf7,0xfe,0x9c,0xfe,0x4d,0xff, // 8512
0xbf,0xfe,0x24,0x00,0x4d,0xff,0x1b,0x01, 0xe5,0xff,0x90,0xfe,0xc8,0xfd,0xa7,0xff, // 8528
0x37,0xff,0x79,0x02,0xac,0x00,0xc3,0x00, 0x14,0x00,0xc0,0xfe,0x56,0xf7,0xa9,0x01, // 8544
0xaa,0xfb,0xc0,0x01,0x8c,0xff,0x64,0xff, 0x1e,0xfe,0x0e,0xff,0x7d,0x00,0xaa,0xff, // 8560
0xd9,0xff,0x04,0x00,0x80,0xff,0x3e,0xff, 0x2d,0xfd,0x91,0xff,0xaf,0xff,0x34,0x00, // 8576
0x00,0x00,0x6d,0xff,0x9c,0x00,0x19,0x00, 0x5f,0x00,0x00,0x01,0x40,0x00,0xbe,0x00, // 8592
0xa3,0xff,0x77,0x00,0x5e,0x00,0x78,0xfe, 0x93,0xfe,0x49,0x01,0xf8,0x04,0x0a,0x00, // 8608
0xeb,0xfd,0x4e,0x03,0xfb,0xff,0xe6,0xff, 0xae,0x00,0x4d,0xfd,0x82,0x00,0x05,0x00, // 8624
0xe5,0xff,0x22,0x00,0xe4,0xff,0x1d,0x00, 0x39,0x00,0x0d,0xfe,0xba,0xff,0x86,0xff, // 8640
0x85,0x02,0xcf,0xff,0x07,0x01,0x69,0xff, 0xdc,0xff,0x0f,0x00,0x5e,0xff,0x84,0xfe, // 8656
0xd1,0xff,0x8e,0xff,0xef,0x03,0x0c,0xfb, 0xf4,0xfb,0xf5,0xff,0x51,0xff,0xa6,0x00, // 8672
0xc6,0xfe,0x58,0x00,0xdc,0xff,0x36,0x00, 0xe6,0x00,0x4b,0x00,0xfa,0x00,0xde,0x01, // 8688
0x39,0x00,0x1f,0x00,0x0e,0x04,0xd4,0xff, 0xe5,0xff,0x76,0x00,0x7e,0xfe,0xd4,0xfe, // 8704
0xdf,0xff,0xae,0x00,0x90,0x01,0xf5,0xff, 0x8a,0x04,0x02,0x00,0x1b,0x04,0xf6,0xfb, // 8720
0x10,0x00,0xff,0xfe,0x37,0x00,0x38,0x00, 0x12,0x00,0xa5,0x01,0x07,0x00,0x6a,0xfd, // 8736
0xec,0xff,0xef,0xff,0xeb,0x02,0x89,0xff, 0xe2,0xff,0x47,0xfb,0x6f,0xff,0xc7,0xff, // 8752
0xfe,0x00,0x26,0xff,0x6c,0x00,0xf2,0x00, 0xe4,0x00,0x17,0xff,0xd4,0xff,0xb1,0x02, // 8768
0x17,0x01,0x51,0x01,0xbd,0xfe,0x52,0x05, 0x8b,0xff,0x1c,0x00,0xac,0x00,0x59,0x04, // 8784
0x8c,0x00,0xf8,0xff,0x84,0xfe,0x90,0xff, 0xc4,0xff,0xc8,0xff,0xbe,0xff,0x70,0x00, // 8800
0x31,0x00,0xae,0xfe,0x32,0xff,0x15,0x00, 0x0d,0x01,0x68,0x00,0xf1,0xff,0xd0,0xfe, // 8816
0x40,0xff,0xa7,0xff,0x21,0xfd,0x5a,0xff, 0xf3,0xfe,0x71,0x04,0x53,0x00,0x54,0x00, // 8832
0xe6,0xff,0x0e,0x00,0x8e,0xff,0x94,0xff, 0x09,0x00,0x44,0x00,0x7a,0x00,0xa1,0xff, // 8848
0xf4,0xfa,0x42,0xfd,0x36,0x00,0x9e,0x00, 0x0b,0x00,0xf5,0x00,0x26,0x00,0x68,0x00, // 8864
0xc9,0xff,0xd7,0xff,0xfc,0x00,0xeb,0x01, 0x9b,0x00,0x26,0xff,0x3d,0x00,0x52,0xfe, // 8880
0xbe,0xfd,0x3a,0x04,0xcc,0x00,0x80,0xff, 0x1c,0xff,0x59,0xff,0x9d,0xff,0xef,0xff, // 8896
0x23,0x03,0xa1,0xff,0x62,0xff,0x1a,0xfd, 0x23,0xfe,0x06,0x01,0x25,0x00,0x07,0x01, // 8912
0x79,0x00,0x38,0xff,0x2d,0x00,0x70,0x00, 0x9b,0x05,0x80,0x00,0x8e,0xfe,0x05,0x00, // 8928
0xf3,0xfe,0x8f,0x00,0x9f,0xfa,0x46,0xff, 0x6e,0xff,0xa6,0xff,0x49,0x04,0xb4,0xfc, // 8944
0xf2,0xfd,0x5d,0xff,0x50,0x00,0x56,0x00, 0xf5,0xfd,0x0b,0x00,0xdb,0x00,0xf2,0xff, // 8960
0x4e,0xff,0xe3,0xff,0xf2,0x00,0x99,0x00, 0x5b,0x00,0x93,0xff,0x53,0x00,0xa1,0xff, // 8976
0x69,0xff,0x69,0xff,0x1c,0xfd,0xfa,0xff, 0x50,0x01,0xe7,0x00,0xa9,0x00,0x83,0xff, // 8992
0x56,0xfa,0x85,0x03,0x18,0xff,0xcf,0x00, 0x91,0x00,0xe2,0xff,0xad,0x00,0xd5,0xff, // 9008
0x5d,0xfd,0x58,0x00,0x95,0xff,0x94,0xff, 0x78,0x00,0xda,0xff,0x3f,0x01,0xf4,0xfd, // 9024
0xd4,0xff,0x35,0x02,0xe3,0xfe,0xe9,0x01, 0x76,0x01,0x13,0x00,0xa7,0xff,0xb3,0xfe, // 9040
0x7d,0x00,0x29,0x01,0x45,0x00,0x23,0xfc, 0x7d,0x03,0xf3,0x00,0x37,0xff,0xb6,0xff, // 9056
0x37,0xff,0xe5,0xff,0x73,0xff,0xf9,0xfd, 0xb0,0x03,0xd5,0xfc,0xc1,0xff,0x6e,0xfe, // 9072
0x3b,0xff,0x57,0xff,0x0e,0x00,0x85,0xff, 0xaa,0xff,0x0b,0x00,0xec,0x01,0xa9,0x00, // 9088
0x8f,0x02,0xe8,0x00,0x57,0x00,0xe3,0xfe, 0x1f,0x00,0x68,0xfd,0x21,0x04,0xd8,0xf7, // 9104
0x92,0x05,0x16,0xff,0xfb,0xff,0x8e,0xff, 0xe6,0x00,0x0e,0xff,0xa2,0x00,0x63,0x00, // 9120
0x17,0x00,0xfb,0x02,0x7f,0x00,0x22,0x00, 0xe0,0xff,0x91,0x01,0xd2,0xfe,0x70,0x02, // 9136
0x10,0xff,0x12,0x00,0xd7,0xfd,0x4a,0xfc, 0x9f,0xfc,0x1d,0xfc,0x7f,0x05,0x6f,0xff, // 9152
0x7b,0x00,0x4f,0xff,0xdf,0x00,0x1e,0x00, 0xf7,0x00,0x5c,0xff,0xc6,0xfe,0x7a,0xff, // 9168
0xe9,0xff,0x18,0xfc,0x96,0xfe,0xf0,0x00, 0x43,0xfa,0x6b,0x00,0xd0,0xff,0x96,0xff, // 9184
0x91,0x03,0x06,0xfa,0xf5,0x00,0x57,0x00, 0x19,0xff,0xb0,0xfe,0x7a,0xff,0x9d,0x00, // 9200
0xe4,0xff,0x26,0xff,0xcf,0xfe,0xdc,0xfd, 0x8d,0xff,0x43,0xfd,0xaa,0x00,0x43,0x00, // 9216
0xbf,0x01,0x54,0xff,0x79,0xff,0x40,0x03, 0x5f,0x03,0x71,0xfe,0x99,0x00,0xa9,0x00, // 9232
0x6c,0x00,0x98,0xff,0x5d,0xff,0x73,0x00, 0x3c,0xfc,0xc5,0xff,0x56,0x04,0x29,0x01, // 9248
0x3d,0xff,0xeb,0xff,0x36,0xff,0x87,0x03, 0x0a,0xfe,0x22,0xff,0x23,0x00,0xbe,0xff, // 9264
0x6d,0x00,0x7f,0xff,0xb9,0x03,0xef,0xff, 0xb9,0xff,0x44,0x00,0x16,0x00,0x2b,0xff, // 9280
0x92,0xff,0xcb,0x00,0x44,0x03,0xd1,0xfd, 0x84,0x00,0xf8,0xfe,0x88,0xff,0x35,0xff, // 9296
0x00,0x01,0x76,0x00,0xca,0x00,0x16,0xfa, 0xb3,0xff,0x40,0xff,0x0e,0x00,0xc3,0x00, // 9312
0x16,0x01,0x5c,0x00,0xba,0x00,0xdd,0x00, 0x30,0x02,0x87,0x01,0x51,0x00,0xd6,0xff, // 9328
0x3d,0x02,0x3b,0x00,0x79,0xff,0x52,0x00, 0x5e,0xfc,0x0d,0x00,0x81,0x00,0x04,0x00, // 9344
0x67,0x00,0xb6,0xf8,0xd0,0xff,0x7c,0xff, 0xf9,0xfe,0xbc,0xfc,0x08,0xff,0x97,0xff, // 9360
0x1f,0xff,0x75,0xff,0x2a,0xff,0xbc,0x01, 0x97,0xff,0xcf,0x05,0x66,0x01,0xd7,0xff, // 9376
0xd0,0xff,0x83,0xf9,0xfb,0xff,0x02,0xfc, 0xd3,0x00,0x26,0x01,0x7c,0x00,0xae,0xff, // 9392
0xcc,0x00,0xf4,0xff,0x7f,0xff,0xe8,0x00, 0xdf,0x00,0xe4,0x00,0xd4,0x00,0xa4,0x01, // 9408
0xd8,0xfe,0x31,0xff,0x98,0xfd,0xb9,0x06, 0xc2,0xfe,0xd2,0xfe,0xc8,0xff,0x72,0x00, // 9424
0xb6,0xff,0x75,0xff,0x94,0x02,0xab,0x00, 0x0a,0x03,0x18,0xfd,0x22,0x00,0xaf,0xff, // 9440
0x39,0x00,0x7c,0x00,0xbc,0x01,0x34,0xfe, 0x0e,0x00,0x1e,0xff,0xda,0xfe,0x42,0x00, // 9456
0xc8,0xfe,0xd7,0xff,0x6d,0xff,0x64,0x00, 0x71,0x00,0xf9,0xfe,0x1e,0x00,0x13,0x01, // 9472
0xa2,0xff,0x60,0xfa,0x43,0x00,0x66,0x02, 0x68,0x00,0x77,0xff,0x9e,0xff,0x3c,0x00, // 9488
0x1d,0xfd,0xf1,0xff,0xeb,0xfe,0xc7,0x00, 0x89,0x00,0xdc,0xfc,0xd5,0xff,0x23,0x00, // 9504
0x55,0x00,0x2e,0xff,0xe3,0x00,0x9f,0xfe, 0x11,0x00,0xee,0xfe,0x4d,0xfe,0x9f,0x01, // 9520
0xfa,0xfe,0xd6,0xfd,0x50,0x06,0x09,0x01, 0x1e,0x00,0x7a,0x00,0x6b,0x00,0x0c,0x00, // 9536
0x37,0xff,0xc2,0xfd,0x0c,0xff,0xa5,0x00, 0x11,0xff,0x91,0xff,0x06,0x02,0x96,0x01, // 9552
0x70,0x03,0x55,0x03,0xfd,0x01,0xc2,0xff, 0x5a,0x00,0x67,0xff,0x4f,0x00,0xa4,0x00, // 9568
0xd0,0xfd,0x57,0x00,0x16,0x00,0xad,0xfe, 0x79,0x00,0x5b,0x00,0x6f,0xfe,0x7d,0xff, // 9584
0xac,0x01,0xd3,0xfe,0x54,0x00,0x46,0x02, 0x6e,0x00,0x9a,0xfe,0xf1,0xff,0xbe,0xff, // 9600
0xf2,0x01,0xd4,0xfb,0xd2,0xfe,0xd0,0x02, 0xda,0xff,0x22,0xfe,0xf2,0xfa,0xb2,0x00, // 9616
0x09,0xff,0x8d,0x00,0x81,0xfe,0x66,0x00, 0xde,0x03,0x85,0xff,0xed,0x01,0xfa,0xfd, // 9632
0x4b,0x00,0xcb,0xff,0x85,0x00,0x4d,0x00, 0xc9,0x00,0x4e,0x01,0x24,0x00,0x21,0x00, // 9648
0x64,0x04,0x0f,0x00,0xdb,0xff,0xe4,0xf8, 0x27,0x00,0xb9,0xff,0xe6,0xfe,0xd3,0x00, // 9664
0x26,0xfd,0x07,0x01,0xa9,0xfe,0x45,0x00, 0xcc,0xff,0x32,0x00,0xa0,0xff,0xdb,0xfe, // 9680
0x8a,0xff,0x8e,0xfe,0x8f,0xff,0x0f,0x00, 0xf7,0x00,0x9e,0xfe,0x1a,0x04,0x3f,0x00, // 9696
0x3d,0x00,0x3c,0x01,0xa6,0x02,0x9a,0x01, 0xc0,0x01,0x03,0xfd,0x77,0x00,0xf6,0xff, // 9712
0x3f,0x01,0x58,0xff,0x61,0xfe,0x45,0xfe, 0x82,0x00,0x2b,0x00,0x41,0x00,0x8c,0x00, // 9728
0x18,0x00,0x56,0xff,0x59,0x00,0x69,0x01, 0x90,0x03,0x00,0x00,0x27,0x00,0x37,0xff, // 9744
0x44,0xff,0x5f,0x05,0x65,0x00,0xdc,0x00, 0x31,0x00,0x5f,0xff,0xeb,0xff,0xe4,0xff, // 9760
0x03,0xff,0xe5,0xff,0x50,0xff,0xf7,0x00, 0x7e,0xfe,0xe5,0x01,0xe4,0xfd,0x82,0xff, // 9776
0x20,0xff,0xf1,0xfd,0xc9,0xff,0x23,0xfd, 0xd1,0xfb,0xd8,0x00,0x5e,0xff,0xfb,0x00, // 9792
0x76,0x01,0xaf,0x00,0xee,0x00,0x21,0x00, 0xfe,0xfb,0xaf,0xff,0x8b,0x00,0x92,0xff, // 9808
0x37,0x00,0x66,0xff,0xba,0xff,0x25,0xfd, 0x58,0x01,0x78,0xfe,0xf9,0xfe,0x3f,0xff, // 9824
0xfd,0xff,0xd7,0xff,0xf1,0x00,0x2f,0xff, 0x4a,0x01,0xc7,0xfe,0x28,0x01,0xbb,0xff, // 9840
0xa9,0xff,0x97,0xff,0x0a,0xfe,0x14,0x01, 0x93,0x01,0x61,0xff,0x0f,0x00,0x4f,0x00, // 9856
0x8b,0xe9,0x41,0x0c,0xd8,0xff,0xb4,0xff, 0x14,0x00,0x1b,0xff,0xca,0xff,0x98,0xff, // 9872
0x53,0xff,0xce,0xff,0x3f,0xff,0xe2,0xff, 0x03,0xff,0xe3,0x00,0x2f,0x00,0xdf,0xff, // 9888
0xa6,0xff,0xf8,0xff,0xdc,0x00,0x45,0x00, 0xf2,0x00,0xc3,0xff,0xb5,0xff,0xd9,0x00, // 9904
0x50,0xff,0x68,0xff,0xc2,0xff,0x76,0x00, 0x44,0x00,0x94,0x01,0x84,0x00,0xe9,0xff, // 9920
0xeb,0x07,0x21,0x00,0x54,0x00,0x55,0xff, 0x57,0xff,0x68,0x00,0xfe,0xfb,0x55,0x00, // 9936
0xa0,0xff,0x9e,0xff,0xf2,0xfe,0xe6,0xff, 0xed,0xfe,0x1d,0x00,0xb1,0xff,0x17,0x00, // 9952
0x90,0xff,0x7c,0x00,0x3a,0x00,0x88,0x00, 0x1b,0xf6,0x3b,0xff,0xa0,0xff,0x8f,0xff, // 9968
0x00,0x00,0x6b,0x00,0x78,0x01,0x2a,0x00, 0xb2,0x02,0x81,0x01,0xca,0xff,0x12,0x00, // 9984
0x9b,0xff,0xe6,0x00,0xff,0xff,0xfc,0xff, 0x5a,0xff,0x86,0x00,0xfc,0xff,0xc9,0x00, // 10000
0xe3,0xff,0x66,0xff,0x9f,0x00,0xbd,0x07, 0xea,0xff,0x27,0x00,0x60,0x00,0x86,0xff, // 10016
0xb5,0x01,0x17,0x00,0x9e,0xff,0x9f,0x00, 0x99,0xfe,0x6b,0x00,0x31,0xfb,0x68,0xff, // 10032
0xf0,0x0a,0x0f,0x00,0xfc,0xff,0xd0,0xff, 0x2e,0x00,0x33,0x00,0xe3,0x00,0x35,0x00, // 10048
0x91,0x00,0x74,0xff,0x99,0xff,0x2a,0x00, 0x08,0xfe,0xa2,0x00,0x47,0x00,0x8e,0xff, // 10064
0x6a,0xff,0x93,0xff,0x8d,0xff,0x1c,0x00, 0xf0,0xff,0x94,0x04,0xdd,0x01,0xd3,0xef, // 10080
0xf0,0x00,0x62,0x03,0x0c,0x00,0x1a,0x00, 0xee,0x04,0xba,0xff,0x45,0x00,0x5d,0x00, // 10096
0xbc,0xff,0x68,0x00,0x77,0x00,0xb8,0xff, 0xde,0xff,0xc0,0x04,0x9b,0xff,0xd6,0xfd, // 10112
0x6d,0x00,0x98,0xff,0x2e,0x00,0x3d,0x00, 0xe0,0xff,0x00,0x00,0xf8,0xfc,0x77,0x00, // 10128
0x21,0x00,0x6e,0x00,0x34,0x00,0xbe,0xfe, 0xd0,0xf1,0x46,0x09,0xe3,0xff,0x33,0x00, // 10144
0xfc,0xff,0x01,0x00,0xc8,0xff,0x01,0x00, 0x9a,0xff,0xa2,0xff,0x3e,0x00,0x6c,0x00, // 10160
0x6e,0xff,0x1c,0xff,0xf4,0xff,0xc5,0x00, 0x94,0xff,0x0c,0x00,0x59,0xff,0xb9,0xfe, // 10176
0x4f,0x01,0xf5,0xff,0xaa,0xff,0xf5,0xff, 0x1b,0x00,0x04,0x00,0x91,0x00,0x8c,0xff, // 10192
0x6d,0xff,0x6c,0x02,0x52,0x00,0xa2,0x00, 0xca,0x06,0x60,0x00,0x2d,0xfe,0xd2,0xff, // 10208
0xfd,0xff,0xf9,0xff,0xd5,0xfc,0x9c,0xff, 0xe4,0xff,0x22,0x00,0x90,0xff,0x43,0x00, // 10224
0xc8,0xff,0xb1,0x00,0x68,0xff,0x1f,0x00, 0x28,0xff,0xdc,0xfe,0x1a,0x00,0x75,0xff, // 10240
0xee,0xf9,0x22,0x00,0xe6,0xff,0x58,0xff, 0x93,0xff,0x27,0xff,0x14,0x00,0xc9,0xff, // 10256
0x4a,0x05,0x80,0x01,0x11,0x00,0xea,0xff, 0xcf,0xff,0x33,0x00,0x41,0x00,0x19,0x00, // 10272
0xb0,0xff,0xea,0x00,0x5e,0x00,0xec,0xfe, 0x1a,0x00,0xea,0x00,0x7c,0x00,0xeb,0x04, // 10288
0x53,0xff,0x50,0x00,0x8f,0xff,0x9f,0xff, 0x0d,0x00,0x99,0xfe,0x70,0x00,0x51,0xff, // 10304
0x86,0xff,0xee,0xff,0xbd,0xf7,0x66,0xff, 0xe2,0x07,0xcc,0xff,0xc6,0xff,0x95,0xff, // 10320
0x33,0x00,0x31,0x00,0xff,0xff,0xa4,0xff, 0xd5,0x00,0x08,0x00,0xb1,0xff,0x80,0xff, // 10336
0x47,0x00,0x4a,0x01,0x21,0x00,0xc2,0xff, 0x0c,0xff,0xe8,0xff,0x6e,0xff,0x77,0x00, // 10352
0xde,0xff,0x10,0x03,0x69,0xff,0x13,0xf6, 0x71,0x00,0x32,0x05,0xdd,0xff,0x33,0x00, // 10368
0xe3,0x06,0xb5,0xff,0xb9,0x00,0x0d,0x00, 0xe5,0xff,0x4d,0x00,0x8f,0xfe,0xa0,0xff, // 10384
0x18,0x00,0x2d,0x05,0xfe,0xff,0xbd,0xff, 0xe1,0xfe,0xd5,0xff,0x37,0x00,0xae,0x00, // 10400
0x6e,0xff,0x23,0xfd,0xd5,0xff,0x28,0x00, 0xec,0xfe,0x76,0x02,0x44,0x00,0xc1,0xff, // 10416
0xeb,0xff,0x07,0x00,0xab,0x00,0x03,0x00, 0x4c,0x04,0xba,0xff,0x1f,0xfb,0x5e,0x00, // 10432
0x62,0x00,0xb9,0xfb,0x55,0x00,0xb7,0x00, 0xdf,0xff,0xf1,0xff,0xd4,0xfe,0x1b,0xfe, // 10448
0xf5,0x00,0xe8,0x00,0x56,0xff,0xb5,0x00, 0xfa,0xff,0xbc,0x00,0x98,0xfc,0x47,0xff, // 10464
0x06,0x00,0xcb,0xff,0x77,0x01,0x71,0xff, 0x60,0xff,0x3a,0x00,0x66,0x01,0xec,0x00, // 10480
0xff,0x00,0x08,0x03,0xfe,0xfe,0xcb,0xff, 0x9e,0x01,0xc1,0xff,0x90,0xff,0x33,0xff, // 10496
0x7d,0x00,0x1c,0x00,0x81,0x03,0xd0,0xff, 0xfe,0x05,0x32,0x01,0xf1,0xfb,0x7f,0x00, // 10512
0x6f,0xff,0x54,0xff,0x14,0x00,0xd8,0xfe, 0x23,0x00,0xda,0x05,0x5f,0xfe,0x06,0x00, // 10528
0x99,0xff,0x75,0xff,0x98,0xff,0x3b,0x00, 0x03,0x00,0xc8,0x01,0x59,0xfd,0xd3,0xfd, // 10544
0xe0,0xfd,0x14,0x00,0x17,0x00,0xeb,0xfe, 0x4d,0xff,0xe4,0x00,0x9e,0x01,0xa6,0xff, // 10560
0x9f,0x01,0x2e,0x02,0x31,0x00,0x22,0x00, 0x6f,0xff,0x22,0x00,0x99,0xfc,0x74,0x00, // 10576
0x7a,0xfe,0x65,0xff,0x4f,0x01,0xde,0xfe, 0x16,0x00,0x46,0xfd,0x00,0x00,0x80,0xff, // 10592
0x82,0xff,0x11,0x00,0xc4,0xff,0xa4,0xff, 0x4e,0x00,0xfe,0x02,0xd6,0xff,0x6a,0xfe, // 10608
0x53,0x00,0xc3,0xfc,0x20,0xff,0x01,0x02, 0x4a,0x00,0xb8,0x00,0xbe,0xfe,0x47,0x03, // 10624
0x61,0x00,0x21,0xf8,0xac,0xff,0x27,0x08, 0xc3,0xfe,0xe3,0x00,0x66,0x00,0xa6,0xff, // 10640
0x1d,0xff,0x8e,0x00,0xc4,0xff,0x83,0x00, 0xa0,0xff,0x07,0xf8,0x5d,0x00,0x7e,0x02, // 10656
0xee,0xfa,0xb9,0x00,0x26,0xfe,0x2b,0xf8, 0x48,0x09,0xbd,0xff,0x9e,0x00,0xb4,0xff, // 10672
0x1d,0xff,0x9c,0xff,0x94,0xfe,0xea,0xff, 0x79,0x00,0x59,0x02,0xc4,0xff,0x32,0xff, // 10688
0xef,0x00,0xec,0xfb,0x02,0x00,0x93,0x00, 0xba,0xfd,0xaa,0x01,0xc0,0xff,0xf2,0xff, // 10704
0x85,0xff,0x4b,0xff,0x16,0x01,0xdb,0xff, 0x5e,0xff,0xd5,0x00,0x2b,0x00,0x91,0xff, // 10720
0x9b,0xfe,0x64,0x02,0x09,0x00,0x7d,0xfd, 0x1b,0xff,0xd3,0xff,0x68,0x01,0xce,0xfe, // 10736
0xa3,0x00,0xdb,0xff,0x0a,0x00,0x15,0xff, 0x18,0xff,0x8d,0xff,0xd5,0xff,0xf2,0xff, // 10752
0x1a,0x02,0x52,0x00,0xeb,0x00,0x95,0xff, 0x65,0x03,0x4f,0x00,0x8b,0xff,0xa4,0xff, // 10768
0x00,0xff,0x37,0x00,0x54,0xfe,0x2c,0x00, 0x13,0x01,0x89,0xff,0x37,0xff,0xcc,0xfe, // 10784
0x8f,0x00,0x58,0xfe,0x47,0x00,0xd2,0xff, 0x3a,0x00,0x5a,0x02,0x8d,0x01,0x96,0xfe, // 10800
0xfc,0xfb,0x49,0xfe,0x82,0xfe,0x3e,0xfe, 0x1d,0x00,0x30,0x00,0xcd,0x01,0x3b,0x00, // 10816
0x6a,0x00,0x68,0x02,0x3c,0x00,0x04,0xff, 0xed,0xff,0xab,0xff,0x93,0x00,0x4c,0x00, // 10832
0xc4,0xff,0x27,0x01,0xae,0xff,0xbe,0x03, 0x85,0x00,0x79,0xfc,0xa9,0xff,0xb9,0x03, // 10848
0x4f,0x00,0x72,0x00,0x96,0x00,0x31,0xff, 0x1f,0xfe,0x6f,0x00,0x34,0x00,0x6c,0x00, // 10864
0xf5,0x00,0xb8,0xfe,0x44,0xff,0xab,0x00, 0x45,0x01,0x7d,0xff,0x8c,0x00,0xf4,0xfd, // 10880
0x6b,0x00,0x05,0x00,0x04,0x01,0x0e,0x00, 0x4b,0x00,0xc8,0x00,0x1a,0x00,0xad,0xfd, // 10896
0x4c,0x00,0x81,0x00,0xf1,0x00,0x47,0x00, 0x00,0x01,0xa8,0x00,0x79,0xfd,0xd9,0xfe, // 10912
0x6f,0x00,0x2e,0x02,0x1b,0x00,0xfb,0xfc, 0x70,0x00,0x41,0x01,0x71,0x00,0xb2,0xff, // 10928
0x74,0x00,0x0f,0x00,0xa8,0xff,0x73,0x00, 0x6d,0x01,0xb1,0x01,0x04,0x02,0x6e,0x00, // 10944
0x8d,0xfe,0xba,0xff,0x36,0xff,0x0d,0xfe, 0x73,0xfe,0xe0,0x00,0x3a,0xff,0xd3,0x01, // 10960
0xb1,0xff,0xa5,0xff,0x76,0xfc,0xb4,0x00, 0xd7,0xfd,0x9d,0x00,0x07,0x00,0xd0,0x03, // 10976
0x12,0x00,0x76,0x00,0x49,0xff,0x82,0xff, 0x9c,0x01,0xdb,0x01,0x70,0xfe,0x6d,0x00, // 10992
0x26,0xfe,0x3b,0xfe,0xc3,0xff,0x00,0x00, 0xc3,0xfd,0x04,0xff,0x38,0xff,0xf2,0xff, // 11008
0xd3,0x00,0x32,0xff,0x4c,0xff,0x4d,0xf7, 0xf1,0x03,0x2f,0x00,0xb8,0xfd,0x63,0xff, // 11024
0x5f,0x00,0x81,0xff,0x4b,0x02,0x87,0xff, 0xf0,0xfc,0x11,0x02,0x9f,0x00,0x01,0xff, // 11040
0xdd,0x00,0x3a,0x02,0x1e,0x01,0x29,0xfb, 0x73,0x02,0xfd,0xff,0xfb,0xff,0xf0,0xff, // 11056
0x06,0xfe,0xb3,0xff,0xe9,0x01,0xc7,0xff, 0x54,0x01,0x14,0x00,0x32,0xfe,0x40,0x00, // 11072
0x7f,0x00,0x91,0xfc,0x9f,0x03,0xdb,0xfd, 0x19,0xff,0x13,0x01,0x24,0x00,0x99,0xfc, // 11088
0xcb,0x01,0x0d,0x03,0x58,0xff,0x60,0x00, 0xf5,0xff,0x5e,0x01,0xc1,0xff,0x7a,0xff, // 11104
0x55,0xff,0x5f,0xff,0x28,0x00,0xc6,0xff, 0xba,0xfb,0xec,0x02,0xfe,0x00,0x68,0xfd, // 11120
0x70,0x03,0x92,0x00,0x9c,0x00,0xbb,0xff, 0xf3,0xff,0x47,0xff,0xb1,0xff,0x4a,0x03, // 11136
0x52,0xff,0xea,0xff,0x23,0x00,0x87,0x02, 0x9d,0x02,0x87,0xff,0xaf,0x00,0x6c,0xfa, // 11152
0x29,0x00,0xfa,0xff,0xdb,0xff,0x18,0xfd, 0xfb,0xfd,0x97,0xff,0xaf,0x01,0xf4,0xff, // 11168
0xdd,0x03,0x4a,0xff,0x56,0x02,0xc8,0xff, 0xe5,0x00,0x75,0x02,0xa0,0xfc,0x17,0x02, // 11184
0xd9,0xfe,0x02,0x00,0x37,0xfd,0x2f,0x01, 0x5f,0x00,0x30,0x00,0x02,0xff,0x01,0x00, // 11200
0x1c,0xff,0xee,0x02,0x49,0x00,0x6c,0x00, 0x14,0xff,0x60,0xfe,0x19,0x00,0xdf,0xff, // 11216
0xc5,0xff,0x4f,0x04,0x6d,0xfe,0x83,0xfe, 0xcb,0x00,0xd6,0xfe,0xa4,0x00,0xf4,0xff, // 11232
0x21,0xff,0xf5,0xfb,0x41,0xff,0x5c,0x00, 0xb2,0x03,0x32,0x00,0x93,0x00,0x58,0x01, // 11248
0xd4,0x01,0x61,0xfe,0xaa,0xff,0x8d,0xff, 0x1b,0x00,0xea,0xff,0xc5,0xff,0xb8,0x01, // 11264
0xec,0xff,0xe0,0x00,0xe0,0x00,0x1a,0xfc, 0xe1,0x01,0xb6,0x00,0x6a,0xfe,0xfd,0xfd, // 11280
0x93,0x00,0x45,0x01,0x3b,0x00,0x55,0xfd, 0x64,0xfb,0x3c,0x00,0x6b,0x06,0x93,0xff, // 11296
0xa9,0xfe,0xe4,0xff,0xd3,0xff,0xc5,0xfd, 0x5a,0xfc,0x6d,0x01,0x39,0x00,0x8d,0x06, // 11312
0xa0,0x02,0x04,0x00,0x4c,0x01,0xf6,0xff, 0xc4,0x00,0x50,0x00,0x90,0xfe,0x6a,0x04, // 11328
0xd9,0xfb,0x94,0xfe,0x58,0xfe,0x7a,0x03, 0x92,0x01,0x47,0x02,0x63,0x01,0x0c,0x01, // 11344
0xce,0xff,0x81,0xfd,0x28,0x00,0xc7,0xff, 0x36,0x01,0x94,0x01,0xb1,0xfe,0x80,0x02, // 11360
0x70,0xff,0x10,0xff,0x78,0xfe,0x18,0x04, 0x8c,0x00,0x2a,0x00,0x26,0x00,0x7a,0xfe, // 11376
0xdd,0xfe,0x04,0x01,0x3b,0x00,0x7f,0x00, 0xa6,0x00,0xc3,0x02,0x61,0xfe,0xc8,0xfe, // 11392
0x0d,0x01,0xce,0xfd,0xfd,0xff,0x44,0x03, 0x34,0x00,0x8b,0xfd,0x05,0xfb,0xea,0x00, // 11408
0xe1,0x01,0x76,0x01,0x9f,0xff,0xde,0xf7, 0x65,0xff,0x23,0x01,0xf2,0xff,0xa5,0x00, // 11424
0x65,0xfe,0xb6,0xff,0xe2,0xff,0x6c,0x02, 0xf1,0xff,0xf7,0x00,0x34,0x00,0x0b,0x02, // 11440
0x7b,0xff,0x7e,0x01,0xb4,0xfd,0xb3,0x00, 0x76,0x00,0x6a,0x00,0xd2,0x00,0xba,0xff, // 11456
0xc3,0xff,0xfd,0xff,0xae,0xff,0x6f,0x00, 0x97,0x02,0x39,0x00,0x9e,0x02,0xaf,0xff, // 11472
0x0a,0x00,0xca,0x00,0x60,0x00,0xa3,0xff, 0x34,0x04,0xc8,0xff,0xf2,0xfd,0x4b,0xfd, // 11488
0x0f,0x00,0x1d,0x00,0xd3,0xfd,0x24,0x00, 0x00,0x00,0x15,0xfd,0xea,0x02,0x44,0x00, // 11504
0xbd,0xff,0xdd,0xff,0x54,0xfb,0x97,0xfe, 0xe2,0xff,0xbb,0xff,0x35,0xff,0x31,0x00, // 11520
0x80,0xff,0xa7,0xff,0xa2,0xff,0x76,0x00, 0xd0,0xff,0xd5,0xff,0x0e,0x01,0x9e,0x03, // 11536
0x26,0x00,0xf1,0xff,0x2d,0xff,0x0c,0x00, 0x5b,0x00,0x45,0x02,0xbb,0xff,0x30,0x00, // 11552
0x73,0xff,0x0a,0x00,0x94,0x02,0x6e,0x02, 0x4a,0xfd,0x49,0x00,0x2a,0xfd,0x16,0x00, // 11568
0x92,0x00,0x87,0xff,0x1f,0x00,0x23,0xfa, 0x0b,0x00,0xb2,0x05,0x62,0xfe,0xab,0x00, // 11584
0xfb,0xff,0xda,0xff,0x18,0x01,0xa4,0xff, 0x19,0x00,0x97,0x00,0xcf,0xff,0x38,0xfd, // 11600
0xf7,0xff,0xb6,0x02,0x6f,0xff,0x10,0x00, 0xce,0xff,0xe8,0xff,0x09,0x00,0x29,0x00, // 11616
0x67,0xff,0xd0,0xff,0xcc,0x00,0x12,0x00, 0xae,0x01,0x7c,0xff,0xd7,0xff,0x20,0x07, // 11632
0x15,0xff,0x16,0x00,0x2a,0x02,0x35,0xff, 0x1c,0x00,0x17,0x01,0xc4,0x00,0xa8,0xfe, // 11648
0x40,0x00,0x61,0x01,0xad,0xff,0xde,0xff, 0x85,0xff,0xb8,0xff,0x71,0xfe,0xfd,0xff, // 11664
0x75,0x00,0x7b,0xff,0xb5,0xff,0xbc,0xff, 0x57,0xff,0xcb,0x01,0xc5,0xff,0x51,0x00, // 11680
0xb6,0x04,0x3f,0x00,0xe2,0xff,0x48,0x00, 0xdf,0xfd,0xa7,0xff,0xa7,0xfd,0xea,0xff, // 11696
0xaa,0xff,0x1e,0xfd,0x71,0xfe,0x31,0x03, 0xab,0x01,0x31,0x00,0x0f,0x00,0xd9,0xff, // 11712
0xf0,0xff,0x29,0x00,0x80,0xfa,0x2f,0xfe, 0xcc,0xff,0xa4,0x00,0xb9,0x00,0x24,0x00, // 11728
0x2d,0x01,0x33,0xff,0xe7,0x03,0x7e,0x00, 0x8e,0x01,0x1b,0x02,0x8b,0xfe,0x71,0x01, // 11744
0x1f,0x00,0xc9,0xfd,0x18,0xff,0xf8,0xff, 0xb6,0x02,0xe9,0xff,0x06,0xff,0x02,0x00, // 11760
0x35,0x00,0x92,0x00,0x20,0x00,0x2a,0x01, 0xcb,0xff,0xdd,0xff,0x88,0x02,0x77,0x00, // 11776
0xa5,0xfe,0x23,0x01,0x05,0x00,0xc1,0xff, 0xe7,0xff,0x60,0xff,0x9e,0x00,0x30,0x00, // 11792
0x2f,0xfe,0xb4,0xfe,0x78,0xfc,0xc2,0x00, 0x40,0x01,0x65,0xff,0x34,0x00,0xc8,0xfb, // 11808
0x06,0x01,0xf8,0x00,0x84,0xff,0x4c,0x05, 0x52,0x00,0x15,0x00,0x9c,0xff,0x25,0x00, // 11824
0x50,0x01,0x0f,0x01,0x05,0x00,0x19,0x00, 0x11,0xfe,0xbb,0xfe,0xdc,0xff,0x82,0xff, // 11840
0x7b,0xfe,0x63,0xff,0x60,0xff,0x4a,0x00, 0x91,0xfe,0x08,0xff,0xc5,0x00,0x03,0xfd, // 11856
0x11,0x01,0x2b,0x00,0x0c,0xff,0x7c,0x00, 0x8f,0xff,0xde,0xff,0x05,0x01,0x2a,0x00, // 11872
0x89,0xfe,0x56,0xff,0xf1,0xf9,0x6e,0xf1, 0x94,0xfd,0x8b,0x01,0x31,0xfd,0x16,0xff, // 11888
0xbf,0xfe,0xa1,0xff,0xc7,0x01,0xa5,0x01, 0x4f,0xf6,0x26,0x00,0x92,0xff,0x58,0x00, // 11904
0x80,0x00,0xbe,0x01,0x01,0xff,0xd0,0xff, 0x2e,0x00,0x55,0xfd,0x97,0x01,0x76,0x00, // 11920
0x12,0x01,0x96,0xff,0x7f,0x07,0xb7,0xfe, 0xef,0x00,0xec,0x09,0x00,0xfd,0xb6,0xff, // 11936
0x3a,0x00,0xcd,0xf8,0x20,0x00,0x23,0x02, 0x71,0x01,0xcd,0x00,0x1c,0x00,0x68,0x03, // 11952
0x3d,0xff,0x17,0x01,0x6e,0xfe,0xcd,0xff, 0xba,0x02,0xc0,0x00,0xef,0xfe,0x28,0xfd, // 11968
0xc9,0x00,0xf7,0x00,0xe2,0xff,0xc6,0x00, 0xdd,0xfe,0x60,0x00,0x22,0xf8,0xca,0x06, // 11984
0xc7,0x00,0xe9,0xff,0x73,0x00,0x71,0xfe, 0xee,0xff,0x23,0x00,0x6e,0x00,0xbc,0xfe, // 12000
0x60,0xfe,0x50,0x00,0x6c,0x03,0xeb,0x02, 0x5d,0x02,0xae,0x00,0xd4,0x06,0x86,0x00, // 12016
0xe7,0x02,0xa0,0x01,0xfa,0xfd,0x99,0x02, 0x54,0x00,0xd9,0xff,0x88,0xff,0x3a,0x01, // 12032
0x9e,0x01,0xb4,0xfb,0xf0,0xfb,0x3f,0x01, 0xaa,0x01,0x5c,0x00,0x3c,0x00,0x40,0xff, // 12048
0x2f,0x00,0x51,0xff,0x76,0xff,0x9f,0xff, 0x20,0x00,0x65,0x01,0xdc,0xfe,0xc7,0xfe, // 12064
0xb7,0x00,0xa3,0xff,0x53,0xff,0xb4,0x07, 0xe2,0xfd,0x58,0x01,0x28,0xff,0xd4,0xff, // 12080
0x1b,0xff,0xe0,0x00,0x40,0xfe,0x8d,0x00, 0xf4,0xfd,0x5e,0x00,0x9a,0x00,0xf5,0xff, // 12096
0x48,0xff,0x63,0x03,0x6d,0x00,0x62,0xff, 0xb2,0xff,0x7a,0x02,0x1e,0xff,0x94,0x00, // 12112
0xf6,0x00,0xad,0x00,0xd7,0x03,0x49,0x01, 0x4b,0xff,0x00,0x01,0x7d,0xff,0x57,0xfd, // 12128
0xd2,0x01,0x36,0x00,0xa5,0x00,0xb3,0xfe, 0xbe,0x00,0xea,0x00,0xb4,0xff,0x9d,0xfe, // 12144
0x0d,0x02,0xac,0xfe,0x28,0x00,0x35,0xfe, 0xd8,0xfd,0x24,0x03,0xe7,0x00,0x22,0x00, // 12160
0x33,0x02,0x4f,0x00,0x2b,0x00,0xa2,0xfe, 0x64,0x00,0xcc,0x01,0x20,0xfe,0x92,0x01, // 12176
0x58,0x00,0xbc,0xfe,0xea,0x00,0xe4,0xfe, 0xb1,0x00,0x8e,0xfd,0x60,0x00,0x18,0x01, // 12192
0x57,0xfe,0x26,0xff,0x07,0x04,0xcd,0xfc, 0xf2,0xfe,0x95,0x00,0xdc,0xff,0x04,0xfe, // 12208
0x02,0x00,0xd8,0xff,0x4f,0xfd,0x78,0x01, 0xdd,0xfe,0x47,0x00,0xc2,0xff,0x98,0xff, // 12224
0x6b,0xff,0xaa,0xff,0xa5,0x00,0x47,0xff, 0xda,0xff,0xde,0x00,0xfd,0xff,0x72,0xff, // 12240
0xef,0x00,0xf7,0xfd,0xef,0xfd,0xd3,0x00, 0x9c,0xfc,0x15,0xff,0x0a,0xfd,0x39,0x02, // 12256
0xf3,0xfc,0x10,0xfe,0xe1,0xff,0x97,0xff, 0xe2,0x04,0x16,0xfe,0x29,0xff,0x94,0xfd, // 12272
0x19,0x01,0xdf,0xfe,0x74,0xfe,0x05,0xff, 0xc6,0xff,0x21,0x02,0x42,0xff,0xec,0xff, // 12288
0x0a,0x02,0x14,0x00,0xff,0x00,0x08,0x00, 0xcf,0x01,0x95,0x01,0xea,0xff,0x79,0x02, // 12304
0x06,0x02,0x8c,0xff,0xa7,0xfe,0xcc,0xff, 0xde,0xff,0xef,0x00,0x26,0xff,0x8c,0xfe, // 12320
0xb3,0xff,0x95,0x05,0x5b,0x01,0xcf,0x02, 0x12,0x01,0x3f,0x00,0x8e,0x01,0x47,0x00, // 12336
0xab,0xff,0xd3,0x00,0x70,0x02,0x68,0x00, 0x8e,0x00,0xf4,0xfe,0x46,0x02,0xfa,0xff, // 12352
0xa7,0xff,0x1e,0x00,0xdc,0xff,0xec,0xfe, 0xe1,0x01,0x44,0x00,0xb8,0x00,0xfb,0xfe, // 12368
0xac,0xff,0x3f,0xff,0xdb,0xf6,0xd7,0xff, 0x79,0x00,0x2c,0x00,0xbb,0x02,0xa9,0xff, // 12384
0x16,0x00,0x96,0xff,0x33,0x01,0xff,0xff, 0x38,0xff,0x54,0x01,0xb9,0xfe,0x9d,0xfc, // 12400
0x88,0xff,0x16,0x00,0x0c,0x05,0x4a,0xff, 0x9d,0xff,0xc9,0x01,0xaf,0xff,0xb2,0x00, // 12416
0x08,0x00,0x3b,0xfa,0x2b,0x01,0x76,0x00, 0xab,0xff,0x5b,0xff,0xd9,0xfe,0x1f,0x00, // 12432
0x6d,0x00,0xb3,0xff,0x9d,0xff,0x03,0x00, 0x5e,0xff,0x5b,0xfe,0x86,0xff,0x3e,0x00, // 12448
0x0a,0x00,0xc9,0xff,0x89,0x00,0xce,0xff, 0xc2,0xff,0xbb,0xff,0x4a,0x00,0xd7,0xff, // 12464
0x3d,0x00,0xc7,0xff,0xa0,0x00,0x3a,0xf9, 0xdd,0x05,0x59,0x00,0xfe,0xff,0x36,0x00, // 12480
0x8c,0x00,0xa6,0xff,0xa5,0xff,0x06,0x00, 0x71,0xfe,0x71,0x00,0xb0,0xfe,0xe9,0xff, // 12496
0x7a,0xfe,0x0a,0x00,0x00,0x00,0x98,0x00, 0x26,0x00,0xe0,0xff,0x42,0x00,0xb0,0x00, // 12512
0xe6,0xff,0xb8,0xff,0xd6,0xff,0x88,0x00, 0x69,0xff,0x06,0x00,0xb9,0xff,0x6e,0xff, // 12528
0xf9,0x02,0xf3,0xff,0xee,0xff,0xff,0xff, 0x9a,0xff,0x42,0x02,0x8c,0xff,0xab,0xff, // 12544
0x1b,0x00,0x51,0xff,0x43,0x01,0x23,0x00, 0xea,0xff,0xa7,0xff,0x09,0x05,0x30,0x00, // 12560
0x19,0x02,0xaa,0xfe,0xd6,0x00,0x89,0x00, 0x08,0x00,0x1f,0x00,0x95,0xff,0x06,0x00, // 12576
0x54,0x00,0xf4,0xff,0xee,0x01,0xf5,0x00, 0xe9,0x01,0x57,0x00,0xcb,0xff,0xba,0xff, // 12592
0x79,0x00,0x64,0xff,0xc6,0xff,0xe8,0xff, 0xf9,0xff,0x5c,0xff,0x1d,0x00,0x8f,0xff, // 12608
0xc6,0xfe,0x31,0x00,0xbb,0xfd,0x2e,0xff, 0x55,0x00,0x88,0xff,0xc0,0xff,0x1e,0x00, // 12624
0xb0,0xff,0xd8,0xfe,0x72,0x00,0x8f,0x00, 0x16,0x01,0xc0,0xfe,0xf1,0x00,0xd6,0x00, // 12640
0x35,0x00,0x00,0xff,0xf2,0x00,0x5d,0x01, 0x50,0x00,0x8c,0x00,0xc9,0xff,0x94,0xf6, // 12656
0xbe,0xff,0x19,0x00,0x38,0xff,0xbe,0xff, 0x66,0x00,0x34,0xfe,0x29,0x00,0x8f,0xfe, // 12672
0xcd,0x02,0xf6,0xfe,0xbe,0xff,0x77,0xff, 0x4d,0x08,0x62,0xff,0x09,0x00,0x94,0x00, // 12688
0x58,0xff,0xbc,0xfe,0x26,0x00,0xfe,0x00, 0xc3,0xfd,0xc1,0xff,0xf2,0xff,0xe1,0xfe, // 12704
0xff,0xfe,0xf7,0xff,0x6e,0x00,0x6e,0x02, 0x1b,0x00,0xb5,0xfe,0x15,0x03,0xb4,0x02, // 12720
0x08,0x01,0xec,0xff,0x73,0x01,0x17,0x03, 0x20,0x00,0xab,0xff,0x7e,0xff,0x53,0x00, // 12736
0x68,0x03,0x2f,0x00,0x56,0xff,0x0a,0x01, 0x8f,0xff,0xae,0xff,0x86,0xff,0xd6,0xff, // 12752
0x43,0x00,0xb6,0x00,0xc4,0xf9,0x42,0x04, 0xbb,0xff,0x34,0xff,0xc7,0xfd,0x31,0x08, // 12768
0xde,0x00,0xb5,0xf7,0x22,0x01,0x0b,0x00, 0x47,0x00,0xc8,0x01,0xd8,0xff,0xd2,0xfd, // 12784
0x3c,0xfe,0x97,0x01,0x65,0xff,0xf6,0xfd, 0x83,0x03,0xfa,0xf7,0xd0,0x00,0x4c,0xff, // 12800
0x7f,0xff,0x8b,0x00,0x3e,0x00,0x30,0x01, 0xff,0xff,0xb9,0xff,0xe4,0x00,0x1a,0xff, // 12816
0x67,0x01,0x97,0x00,0xcc,0x01,0x42,0xfa, 0xc4,0xfc,0x08,0x01,0x30,0x00,0xbe,0x01, // 12832
0xf4,0xff,0x67,0x00,0x85,0x00,0x7e,0x08, 0x03,0xff,0xad,0xff,0x65,0xfa,0x17,0xff, // 12848
0xf9,0xfb,0x74,0xff,0x58,0xfc,0x01,0x01, 0xf7,0xfd,0x0e,0xfe,0x98,0xff,0x80,0xff, // 12864
0xc4,0xfe,0x8a,0x00,0x24,0x08,0x65,0x00, 0xfe,0xff,0xde,0x00,0x19,0x02,0x72,0xff, // 12880
0x11,0x01,0x77,0xff,0x85,0xff,0x95,0xff, 0xcf,0xff,0x6b,0xff,0x9c,0xff,0x0e,0x00, // 12896
0x0c,0x00,0x9d,0xf7,0x1c,0x00,0xbc,0xff, 0xf2,0xff,0x4f,0x00,0x08,0xff,0x43,0xfd, // 12912
0xa7,0xfe,0x0e,0x01,0x2e,0x00,0x4a,0x00, 0x30,0x00,0x3f,0x00,0xe7,0x01,0x09,0x02, // 12928
0xfc,0xff,0x79,0xff,0x06,0x00,0x07,0xfd, 0x35,0x00,0xbe,0xff,0x56,0xff,0x05,0xff, // 12944
0xcd,0xff,0x60,0x00,0x46,0xff,0x53,0x00, 0x90,0x06,0xe6,0xff,0x48,0x00,0xef,0xff, // 12960
0x50,0x05,0xef,0x01,0xf7,0xff,0x29,0xfe, 0xd6,0x00,0x1d,0x00,0x00,0x03,0x5c,0x00, // 12976
0x3d,0xf8,0xf6,0xff,0x17,0x00,0x56,0xfd, 0x9f,0x00,0x36,0xff,0xd7,0xff,0x91,0x00, // 12992
0xd8,0xff,0x17,0xfd,0x96,0x01,0x8d,0x01, 0x31,0x00,0x1d,0x00,0x39,0x02,0xf1,0x09, // 13008
0x6b,0xff,0x99,0x00,0x6a,0x00,0x81,0xff, 0x8d,0x02,0x66,0xff,0x26,0x01,0x71,0xfe, // 13024
0x96,0x01,0xd5,0xfe,0x26,0x00,0x8a,0x00, 0xb6,0xff,0x1b,0x01,0x63,0xfe,0xb9,0x02, // 13040
0x6c,0x00,0x90,0x00,0x84,0xfe,0x5e,0x04, 0xcc,0xff,0x36,0xfc,0x99,0x00,0xd6,0x00, // 13056
0x4c,0x00,0x83,0x01,0xc5,0xff,0xaf,0xff, 0xd9,0xff,0x41,0xff,0x15,0x01,0xce,0xfd, // 13072
0x60,0x06,0x23,0xfa,0xbd,0xff,0x62,0x01, 0xf3,0xff,0xcc,0xfe,0xae,0xff,0x81,0x00, // 13088
0x5f,0x00,0x66,0xff,0x0b,0x00,0x2e,0xfb, 0x17,0xff,0x04,0x00,0xb3,0x00,0xa0,0xfe, // 13104
0xef,0xff,0xd3,0xff,0xc7,0xff,0xae,0x07, 0xd2,0xff,0x9c,0xff,0xb6,0xff,0xa8,0x04, // 13120
0x0b,0x00,0xc1,0xff,0x72,0xf9,0xdc,0xff, 0xad,0xfc,0xe2,0xff,0x2e,0xfe,0x9c,0xff, // 13136
0x99,0xff,0xba,0xfd,0xdd,0xff,0xb1,0x00, 0xfa,0x00,0x5b,0x00,0xf6,0x03,0x1e,0x00, // 13152
0xf9,0xff,0x87,0x00,0x79,0x01,0x9f,0x00, 0x16,0xff,0x50,0xff,0xf6,0x00,0x13,0x00, // 13168
0x02,0x00,0x29,0x00,0xdb,0xff,0x92,0xff, 0x1b,0x00,0x1f,0xf9,0x57,0x01,0xf2,0xff, // 13184
0xd0,0xff,0xd5,0xff,0x43,0x00,0xeb,0xfd, 0x03,0xff,0x58,0xff,0xae,0xfe,0x08,0x00, // 13200
0x8e,0x0b,0x0b,0x00,0xb9,0xff,0xba,0xff, 0xb6,0x00,0x62,0x00,0x77,0xfc,0xd6,0xff, // 13216
0x92,0xff,0x31,0x00,0x6e,0x00,0xdf,0xff, 0x30,0xff,0xad,0x00,0xca,0x00,0x68,0xfe, // 13232
0xb5,0x00,0xfc,0x00,0x85,0xfb,0x68,0xf7, 0xcd,0xff,0x60,0x01,0x28,0x01,0xac,0xff, // 13248
0x44,0xfe,0xd4,0xff,0xd6,0x00,0x47,0xff, 0x75,0x00,0x1c,0xfe,0x24,0x00,0x42,0x00, // 13264
0x9c,0xfe,0xb0,0xff,0x8d,0xff,0x33,0x01, 0x33,0x00,0x68,0x00,0xf5,0xff,0xab,0xff, // 13280
0x9a,0xff,0xf2,0xff,0x8c,0xfe,0xc1,0x00, 0x46,0xfe,0xfd,0xff,0x90,0xff,0x52,0x03, // 13296
0x33,0xff,0x0f,0x00,0x2d,0x00,0xbe,0xff, 0xf5,0xff,0xa1,0xff,0x54,0x01,0xea,0xfd, // 13312
0x31,0x04,0x83,0x00,0xd8,0xff,0x74,0x00, 0xe5,0xff,0x80,0xff,0x22,0x00,0x6d,0x00, // 13328
0x11,0x01,0xb1,0xff,0x95,0xff,0xa3,0x00, 0xb4,0xff,0xc2,0xff,0x9e,0xff,0xc4,0xff, // 13344
0xad,0xff,0x1e,0x01,0x46,0x00,0x9c,0xff, 0x39,0x00,0x83,0xff,0xc9,0xff,0x9e,0x00, // 13360
0xab,0x00,0x86,0xff,0xa2,0xfb,0x33,0x00, 0x81,0x07,0xae,0x00,0x95,0xfe,0x4c,0xff, // 13376
0xc3,0xff,0xb3,0x03,0x79,0xff,0x6f,0x00, 0xe4,0xff,0x71,0xff,0xa1,0xff,0x0b,0x00, // 13392
0x9e,0x00,0x41,0xff,0x93,0x04,0xa0,0x00, 0x4a,0xff,0xfe,0x00,0xf8,0xff,0x21,0x00, // 13408
0xbd,0x00,0x4a,0xff,0x33,0x00,0x71,0x00, 0xb9,0x00,0x46,0x00,0x16,0xff,0xa8,0x01, // 13424
0x3b,0x03,0xdb,0xff,0xb2,0x00,0x6a,0xff, 0x1e,0x01,0x24,0x00,0x6c,0xff,0x54,0x00, // 13440
0xb0,0x01,0x78,0x00,0x64,0x00,0xda,0xf9, 0x39,0x00,0x05,0x01,0x17,0xf7,0xed,0xff, // 13456
0x15,0x00,0xac,0xff,0x4a,0x00,0x86,0x00, 0x15,0x00,0x40,0x00,0x9b,0xfe,0x59,0x00, // 13472
0xe7,0xff,0xe7,0x00,0x7b,0x01,0x1d,0x01, 0x83,0x00,0xc7,0xff,0x4f,0xfe,0x32,0x03, // 13488
0x83,0xff,0xae,0x00,0xc9,0xff,0x95,0xff, 0xe3,0xf6,0x4f,0x03,0x80,0xff,0x0a,0x00, // 13504
0xeb,0xff,0x53,0x00,0x0b,0x00,0x34,0x00, 0x26,0x00,0x2b,0x00,0x5d,0xff,0x5c,0xff, // 13520
0x9a,0xff,0x18,0xff,0xdc,0xff,0x32,0x00, 0x7b,0x00,0x90,0xff,0x93,0xff,0x6a,0x00, // 13536
0x4d,0x01,0x7d,0x00,0xe4,0xff,0xa6,0xff, 0x14,0x00,0xfa,0xff,0x7d,0xff,0x7b,0xff, // 13552
0x81,0x00,0x1d,0x03,0x4e,0x08,0xd0,0x01, 0x54,0x1b,0xfe,0xff,0x78,0x02,0xd4,0xff, // 13568
0x77,0x00,0xf9,0xff,0xb3,0xf2,0xd9,0xff, 0x98,0x03,0x29,0x00,0x72,0x00,0xf9,0xff, // 13584
0x1c,0x00,0x14,0x00,0xf2,0xff,0x2f,0x00, 0x79,0x00,0x2b,0x00,0xb1,0x00,0x8e,0xff, // 13600
0xa2,0xe8,0x36,0x00,0x17,0xfa,0x20,0xff, 0x33,0x00,0x04,0xff,0xff,0x00,0x23,0x00, // 13616
0xaa,0xff,0xf4,0x0a,0xf7,0xff,0x2a,0xff, 0xb1,0xff,0xe0,0xff,0x09,0x00,0x4c,0xfc, // 13632
0x30,0xff,0x62,0x00,0xf4,0xff,0xe7,0xff, 0xe4,0xff,0x67,0x00,0xef,0xff,0xea,0x19, // 13648
0xdc,0xff,0x3e,0x00,0x3d,0x00,0x67,0x00, 0xa8,0xff,0x2a,0x00,0x99,0x01,0x70,0xff, // 13664
0xb3,0xff,0x6d,0xff,0x60,0x00,0x19,0xff, 0xc8,0x01,0xf0,0xff,0x1b,0x00,0x6a,0xff, // 13680
0x63,0xff,0xd5,0xff,0xa8,0xff,0x5f,0xff, 0x88,0x00,0x9f,0xff,0x12,0xff,0xb9,0xff, // 13696
0xcc,0xfe,0xf6,0x00,0xb5,0xff,0xf7,0xff, 0xeb,0xff,0x62,0x00,0x5a,0xff,0xe5,0xff, // 13712
0x31,0xff,0x1d,0x09,0xf4,0x01,0xeb,0xeb, 0xb0,0xff,0x51,0x02,0xe2,0xff,0xfb,0xff, // 13728
0x38,0x00,0x56,0x00,0xaa,0xff,0x8b,0x00, 0x7b,0x00,0x00,0x00,0x82,0x00,0x33,0x00, // 13744
0x47,0x00,0x1e,0x01,0xd3,0xff,0x08,0xf4, 0x6f,0x00,0x18,0x00,0x5d,0xff,0x71,0xff, // 13760
0xee,0x05,0xb7,0xff,0xc1,0xff,0x78,0xff, 0xf8,0xff,0x48,0x00,0x55,0xf7,0x27,0x00, // 13776
0xd3,0xff,0x3c,0x00,0x49,0x02,0xc8,0xff, 0xb3,0xff,0xc3,0x00,0xc8,0xff,0x27,0x00, // 13792
0x14,0x00,0x1e,0x00,0xcf,0xfd,0x57,0xfb, 0xcd,0xff,0x48,0xff,0xf3,0x03,0xfa,0xff, // 13808
0x2e,0xfe,0x86,0x00,0xb3,0xff,0xf7,0xff, 0xed,0xff,0xc4,0xfb,0xf2,0xff,0x90,0x00, // 13824
0xd6,0xff,0xd7,0xff,0x29,0xff,0x17,0x00, 0x79,0xff,0x8f,0x00,0xe9,0xff,0x69,0xff, // 13840
0x8a,0xff,0xa3,0xff,0x06,0xff,0x09,0x00, 0x0a,0x01,0x30,0x00,0xf2,0xff,0xdb,0x00, // 13856
0x0c,0x00,0x2a,0x00,0xae,0x00,0xaa,0xff, 0x53,0x00,0x9f,0xff,0x13,0x00,0x5a,0xfc, // 13872
0x55,0x07,0xa8,0xff,0xce,0xff,0xca,0xff, 0x47,0x00,0x3e,0x00,0xa0,0x00,0xe0,0xff, // 13888
0x5b,0xff,0x0f,0x00,0x71,0xfe,0x09,0x00, 0x84,0xfe,0x33,0x00,0x83,0xff,0xc7,0xff, // 13904
0xd3,0xff,0x8a,0x00,0xcb,0xff,0xf0,0xff, 0xe7,0xff,0xb0,0xff,0xe4,0xff,0xf8,0xff, // 13920
0x56,0x00,0xaf,0xff,0x46,0xfe,0x86,0x00, 0x56,0x03,0x9a,0xff,0xc0,0xfe,0x65,0xff, // 13936
0x68,0x00,0x35,0x03,0xdf,0xff,0x6a,0x00, 0xe3,0xff,0x5a,0xff,0xc1,0x00,0x14,0x00, // 13952
0xe4,0xfe,0x41,0x00,0x64,0x05,0x1e,0x00, 0xc5,0x01,0x41,0x00,0xbc,0xff,0xe9,0xff, // 13968
0x03,0x00,0xd1,0xff,0x27,0x00,0xd9,0xff, 0xbb,0x00,0x51,0x00,0x9c,0x01,0x4f,0x00, // 13984
0x8c,0x02,0x08,0xff,0x33,0x00,0x36,0x00, 0x28,0x00,0x08,0x00,0x62,0xff,0x0d,0x00, // 14000
0x24,0x00,0x67,0x00,0x8e,0xff,0xad,0xfd, 0x2c,0xff,0xf8,0xff,0xbb,0xfb,0xb2,0x00, // 14016
0x93,0xff,0xe2,0xff,0x01,0xff,0x07,0x00, 0xb1,0x00,0xbc,0xff,0x63,0xff,0x0c,0x00, // 14032
0x13,0xff,0xd9,0x00,0x62,0xfe,0x1e,0xff, 0xfc,0x00,0xf8,0x02,0x96,0xfe,0x59,0xff, // 14048
0x96,0xff,0x2b,0xfe,0x13,0xff,0xd6,0x05, 0x71,0xff,0xd2,0x00,0x37,0x00,0xe9,0xff, // 14064
0x02,0xff,0x45,0x01,0x57,0x01,0x01,0x01, 0x97,0xfb,0x55,0x01,0xe9,0xfe,0x60,0xff, // 14080
0x20,0xf7,0xad,0x00,0xac,0x00,0x79,0xff, 0xa1,0xff,0x28,0x01,0x30,0x00,0x6a,0xff, // 14096
0x42,0x03,0x73,0xff,0x57,0x01,0x21,0x00, 0xdf,0xff,0x82,0xff,0xbc,0xfe,0xb5,0xfe, // 14112
0x89,0x00,0x51,0x02,0x7e,0xfe,0x9d,0xfd, 0x10,0x01,0xd5,0xfe,0x28,0xff,0xb1,0xfc, // 14128
0xac,0xff,0x1b,0x00,0x14,0xff,0xb4,0x00, 0xa9,0xfd,0xc4,0xff,0x30,0x00,0x2e,0xff, // 14144
0x60,0x00,0xe5,0xfe,0x4b,0x01,0xaa,0xff, 0x16,0x01,0x10,0x00,0x3e,0x08,0x90,0xfd, // 14160
0x11,0xff,0x6f,0xff,0x72,0x02,0xbf,0xfb, 0x76,0xff,0x6c,0x04,0xe9,0xff,0x12,0x00, // 14176
0x56,0xff,0xf6,0xfe,0x4b,0x01,0xd9,0x00, 0x3d,0x02,0x25,0xff,0xec,0x00,0xb3,0x01, // 14192
0xd7,0xfc,0xdf,0x05,0x64,0xff,0x6e,0x00, 0x02,0xff,0x49,0xfe,0x7b,0xfe,0x7a,0x00, // 14208
0xe3,0x00,0xee,0xfe,0x93,0x00,0x3b,0x01, 0x5d,0xff,0x88,0x00,0x6b,0xfd,0xea,0x03, // 14224
0xfe,0x03,0x5f,0xff,0x16,0x00,0x1b,0xfe, 0xe8,0x00,0xcb,0xff,0x76,0x00,0x1e,0xf9, // 14240
0xd3,0x00,0x98,0xfe,0xae,0x06,0x94,0x00, 0x95,0x02,0x8f,0x00,0x9a,0x03,0xde,0xfd, // 14256
0x3e,0x01,0x0f,0x04,0x0e,0x01,0x3e,0xff, 0xdb,0x01,0xcc,0x00,0x82,0xfa,0xe8,0xfe, // 14272
0xda,0xff,0x6e,0x00,0x13,0xff,0x95,0xff, 0x9e,0xfe,0xd1,0x00,0xa4,0x00,0xdf,0xfe, // 14288
0xc7,0xff,0x66,0x01,0x7d,0xff,0x0b,0x00, 0x62,0x01,0xc3,0x05,0x48,0x01,0x6a,0x01, // 14304
0xdc,0xfd,0x30,0xff,0x26,0x00,0x46,0x00, 0xf1,0x00,0x60,0xfd,0x45,0xff,0xe9,0xff, // 14320
0xf0,0x00,0x2e,0xff,0x4c,0x02,0x0b,0xff, 0xcb,0x02,0x0c,0x00,0xe3,0xff,0x0a,0x00, // 14336
0xf9,0x00,0xff,0xff,0x65,0x00,0x44,0x01, 0x73,0x00,0xb4,0xff,0x72,0xff,0xf2,0xfb, // 14352
0x7e,0x00,0x9c,0xff,0xb0,0xff,0x8a,0xff, 0x73,0x03,0x51,0x01,0xbc,0xff,0xe9,0xff, // 14368
0x6e,0xfe,0x26,0x00,0x5e,0x03,0xa3,0xff, 0x40,0xfb,0xf2,0xff,0xdf,0xff,0x72,0xff, // 14384
0x9f,0xfc,0xae,0x01,0x63,0x00,0x43,0x09, 0x8e,0x00,0x17,0xfc,0xee,0xfe,0x87,0xff, // 14400
0xa0,0xfe,0x4e,0x00,0x32,0xff,0xeb,0x05, 0x00,0xfd,0x2b,0xff,0x26,0x02,0x8b,0x02, // 14416
0x8b,0xff,0xc2,0x00,0xd2,0xff,0x56,0x02, 0x86,0x00,0x04,0x01,0x88,0xff,0x4b,0x00, // 14432
0x7f,0x00,0x18,0x00,0x14,0xf8,0x97,0x15, 0xfa,0x00,0x7d,0xff,0xe1,0x00,0xf2,0x0a, // 14448
0x18,0x00,0x96,0x00,0xcd,0xff,0xdc,0xfe, 0xe4,0xff,0x3c,0xfe,0x1a,0x00,0x1a,0x00, // 14464
0x1a,0x00,0xc4,0x02,0x27,0xfe,0x1e,0x01, 0x5c,0x03,0xee,0xf8,0x3d,0x00,0x9b,0x00, // 14480
0xd6,0xff,0x5e,0x00,0x5b,0xff,0xc7,0xfe, 0x87,0x00,0x30,0x01,0x14,0x00,0x2c,0xfa, // 14496
0x42,0x00,0x5d,0x00,0x9c,0xff,0x82,0x00, 0xb8,0xfc,0x2c,0x00,0xea,0xff,0x96,0x03, // 14512
0xfe,0xff,0xe1,0x00,0x69,0xff,0xfb,0x05, 0x20,0x00,0x14,0x00,0x80,0xff,0xda,0xff, // 14528
0x8f,0xfd,0x74,0x00,0x72,0x00,0x3e,0x00, 0xc7,0x00,0xea,0xfe,0x5b,0x00,0x15,0x00, // 14544
0x61,0x00,0x8e,0x00,0x52,0x0a,0x62,0x00, 0xe8,0xff,0xe8,0xfe,0x97,0xff,0x61,0x00, // 14560
0x96,0x04,0xef,0xfe,0x38,0xfe,0x90,0xff, 0xd2,0xff,0xaf,0xff,0x4e,0xff,0x55,0x00, // 14576
0x14,0x00,0x4d,0xfa,0x60,0x00,0x61,0xff, 0x8a,0x00,0x92,0xff,0x9e,0xfd,0x89,0x01, // 14592
0x5e,0x01,0xae,0xfe,0x62,0x00,0xbc,0xfd, 0xc4,0xff,0xb1,0x01,0x42,0xff,0x8b,0xfe, // 14608
0x36,0x02,0xfb,0xff,0x2f,0x00,0xa1,0xff, 0x59,0xff,0xda,0x00,0x84,0x01,0x1e,0xfa, // 14624
0xe2,0xff,0x98,0xfe,0x74,0xff,0x21,0x00, 0xd8,0xfe,0x69,0x00,0xf5,0x00,0xa9,0x00, // 14640
0xa1,0xff,0x0c,0x01,0xd7,0xff,0x0a,0x01, 0xf7,0x00,0x15,0x01,0x61,0x00,0x7e,0x00, // 14656
0x24,0x00,0xcc,0xff,0x5e,0x00,0x4d,0x02, 0x47,0xff,0x6c,0xf7,0xd7,0xff,0xd0,0x00, // 14672
0xfe,0xff,0x83,0x00,0x14,0x00,0x51,0x00, 0xff,0xff,0x97,0xff,0x77,0xfc,0x1a,0x00, // 14688
0x70,0xff,0xac,0x0d,0x7f,0xff,0x6b,0x02, 0x15,0xff,0xa7,0xf6,0xd8,0xfd,0x81,0xfd, // 14704
0x70,0x00,0xcb,0x00,0x6b,0x00,0x3c,0x00, 0xb7,0xff,0x1d,0x00,0xa5,0x00,0xe8,0xff, // 14720
0x54,0xff,0x22,0x01,0x00,0x01,0x81,0xff, 0xa8,0xfd,0xdd,0xff,0x85,0xff,0x4c,0x0a, // 14736
0x16,0x00,0xa7,0xff,0xb4,0xff,0x0e,0x00, 0xac,0x00,0xd5,0x00,0x62,0x01,0x59,0x02, // 14752
0x4e,0xff,0xb1,0x00,0xd1,0xff,0xc4,0xff, 0xc0,0xff,0x63,0x00,0xa5,0x00,0x21,0x00, // 14768
0x2a,0xff,0xc2,0x01,0xd1,0xfe,0xa1,0xfe, 0x1b,0x00,0x7a,0xfe,0xf5,0xfe,0xb2,0xff, // 14784
0x7d,0xff,0x42,0xfe,0xb8,0xff,0xe1,0xff, 0x8c,0x00,0x59,0xf8,0xb7,0xff,0x5a,0xff, // 14800
0x92,0x01,0x9f,0x00,0x6a,0x00,0xd3,0xff, 0x8b,0x00,0xf4,0xff,0x50,0xfe,0x7d,0xfe, // 14816
0x3d,0x01,0xb9,0x00,0x95,0x00,0x0a,0xff, 0xca,0xff,0x79,0xff,0x13,0x00,0x76,0xff, // 14832
0x5b,0xff,0x40,0x00,0x9d,0xfe,0x61,0xff, 0x94,0x01,0xd3,0x00,0x30,0x06,0x88,0x00, // 14848
0x8f,0x00,0x39,0x00,0x15,0x01,0xdb,0xff, 0xda,0xff,0x4b,0x00,0x0e,0xff,0x1d,0x00, // 14864
0xee,0xff,0x39,0x00,0x8c,0x00,0x60,0x00, 0x82,0xfd,0xf4,0x08,0xfc,0xff,0xab,0x00, // 14880
0xb8,0x01,0x3a,0x00,0x6e,0x00,0x06,0x00, 0x73,0xf9,0xc3,0x00,0x1a,0xff,0x2d,0x02, // 14896
0x24,0x01,0x09,0xff,0xad,0xff,0xcf,0xff, 0x66,0x00,0x2b,0x03,0xf7,0xff,0x2e,0x03, // 14912
0x0b,0x00,0x4e,0xff,0x5d,0xff,0x84,0xfe, 0xf4,0xff,0x5d,0xff,0x80,0xff,0x52,0xfe, // 14928
0x2d,0x02,0xb1,0xff,0x5a,0xfe,0x88,0xfe, 0x99,0x00,0xb6,0x00,0x8c,0xff,0x77,0xfe, // 14944
0x99,0x08,0xc8,0xff,0x65,0x00,0xa5,0xf9, 0x19,0xfe,0xcc,0xff,0x4e,0xff,0x05,0x00, // 14960
0x77,0xff,0xab,0x00,0x8a,0x02,0xfc,0xfd, 0x3d,0x03,0x58,0x00,0x6d,0x00,0xee,0xfc, // 14976
0x11,0x00,0x89,0xff,0x57,0x03,0x98,0xfe, 0x9f,0x02,0x34,0xff,0xc5,0xff,0x8f,0x00, // 14992
0x3f,0x01,0x9b,0xfe,0x1d,0x02,0x23,0xfe, 0x21,0x01,0x9c,0x00,0x70,0xff,0x21,0xfe, // 15008
0x94,0xff,0x80,0x00,0xfd,0xfe,0xe5,0xff, 0xcc,0xfe,0xd6,0xff,0x1f,0x00,0x27,0x00, // 15024
0x9d,0xff,0x00,0xf9,0x85,0x01,0xb8,0xff, 0x61,0x00,0x95,0x00,0xe6,0xfe,0x2c,0xff, // 15040
0x54,0x01,0xb8,0xff,0x31,0xfe,0x5d,0xff, 0x46,0x01,0xd7,0xfb,0xb3,0xff,0x95,0x03, // 15056
0x68,0xfc,0x1f,0x01,0x78,0x00,0x0a,0x00, 0x8e,0x07,0x65,0xfe,0x2f,0x01,0x64,0xfe, // 15072
0xab,0xff,0xae,0xff,0x3f,0x00,0x43,0xff, 0x9f,0xff,0x9e,0xfe,0xb7,0x00,0x3d,0x00, // 15088
0x41,0x00,0x15,0x00,0x34,0x02,0xdb,0xff, 0xb8,0x00,0xe7,0xfe,0x3a,0xfe,0x0c,0x03, // 15104
0x24,0x02,0x6f,0x00,0xf3,0xfe,0xbf,0xff, 0xb3,0x01,0xbc,0xfe,0x48,0xff,0xf0,0x00, // 15120
0xee,0xf6,0x54,0xff,0x73,0x00,0xdb,0xff, 0x5f,0xff,0xe6,0xff,0xd2,0xfe,0x26,0x00, // 15136
0x34,0x00,0x37,0x01,0x39,0x00,0x1b,0x00, 0xc7,0xff,0xf4,0xfe,0x4e,0x03,0x37,0x00, // 15152
0x0f,0xfe,0x6f,0x00,0xa4,0xff,0x02,0x01, 0xb4,0x00,0xa9,0x00,0xb8,0x00,0xe0,0x00, // 15168
0xad,0x00,0x20,0x00,0x5f,0x00,0x82,0xff, 0x6a,0x00,0xdb,0xff,0xee,0xfe,0x63,0xfa, // 15184
0xc6,0xff,0x6a,0x01,0x6a,0x00,0x60,0x01, 0xb8,0x00,0x04,0x00,0x0a,0xff,0x77,0xff, // 15200
0x49,0x01,0x81,0x00,0x33,0x00,0xb4,0xfe, 0x63,0x00,0xaf,0xff,0x5e,0x00,0x01,0xff, // 15216
0x66,0xff,0x22,0x00,0x62,0x00,0x93,0xff, 0xa2,0x02,0xdc,0xfa,0x45,0x00,0x1e,0x00, // 15232
0x4f,0x00,0x24,0xff,0x60,0xff,0x51,0xfe, 0xed,0xfe,0xc0,0xff,0xa1,0x01,0xa7,0x00, // 15248
0x68,0x00,0xf4,0x02,0x4e,0x00,0x27,0xfe, 0xfb,0xfd,0xe8,0xfa,0xb1,0x01,0x57,0xfa, // 15264
0xa4,0x00,0x7b,0x00,0x4e,0x00,0xc9,0xff, 0xe9,0xff,0x14,0x01,0x87,0xff,0xba,0x00, // 15280
0x74,0x00,0xab,0xfe,0x9d,0x01,0x77,0x00, 0x53,0x01,0x43,0x00,0x2f,0x00,0xf6,0x04, // 15296
0x21,0x00,0x59,0xff,0x76,0x01,0xe5,0x00, 0x06,0x00,0xee,0xfd,0x35,0x07,0x1a,0x00, // 15312
0xa2,0x00,0xf3,0xff,0xc0,0xfe,0xba,0x00, 0x77,0x00,0x42,0x00,0xed,0xff,0x92,0xff, // 15328
0x75,0x00,0xee,0xfd,0xa1,0x00,0x18,0xff, 0x32,0xff,0x84,0x01,0xd5,0xfd,0xfa,0x00, // 15344
0xbb,0x00,0x78,0x00,0x3a,0x00,0x8f,0x00, 0x46,0x00,0xeb,0xfc,0x92,0x00,0xba,0x00, // 15360
0xce,0xff,0x3b,0xff,0x16,0xff,0x0f,0x01, 0x65,0xff,0x65,0x01,0x31,0x00,0x61,0xff, // 15376
0xab,0xff,0xb7,0xff,0x8f,0xfe,0xc7,0x00, 0xdd,0xff,0x96,0x01,0x80,0x00,0xc1,0xff, // 15392
0xb2,0x00,0x3a,0xff,0x17,0x00,0xd7,0x00, 0x5c,0xfe,0x6a,0xff,0x95,0x05,0x33,0x00, // 15408
0xf4,0xff,0x61,0x00,0xcb,0xfe,0xf1,0xfe, 0x39,0x02,0x92,0xff,0x86,0xff,0x40,0x00, // 15424
0x9b,0xff,0x53,0xff,0x7b,0x01,0xbd,0x00, 0xec,0x00,0x31,0xff,0x48,0x00,0x0c,0x01, // 15440
0xba,0x00,0xc1,0x01,0xdd,0x01,0x56,0xff, 0x3e,0x01,0x84,0xfc,0x28,0xff,0xcf,0xfd, // 15456
0xf2,0xff,0xb3,0xff,0xc4,0xff,0xb5,0xff, 0x79,0xfe,0x41,0xfe,0x7f,0x03,0xa9,0xff, // 15472
0xf4,0xff,0xff,0x01,0xda,0xfe,0xb1,0xff, 0x82,0x01,0xb1,0x02,0x96,0x00,0x7c,0xfe, // 15488
0x15,0xfe,0xe9,0xff,0x62,0x02,0x7f,0x02, 0x23,0xfe,0x37,0xff,0x9e,0x01,0x3d,0xff, // 15504
0x73,0xff,0x1e,0x00,0x05,0xff,0x93,0x01, 0xb7,0x08,0x82,0xfe,0x04,0x00,0x97,0x00, // 15520
0x22,0x00,0x39,0xfe,0x32,0x01,0x3c,0x04, 0x12,0xfe,0x7c,0x00,0x79,0xff,0xa8,0x00, // 15536
0xab,0x01,0x95,0xff,0x99,0xff,0x93,0xff, 0xb3,0xfe,0xa9,0xfe,0x0a,0x02,0x2c,0xff, // 15552
0x8f,0x00,0xcb,0x09,0xaf,0xfd,0x56,0x01, 0x15,0x00,0xf5,0xfc,0xdd,0xff,0x3d,0x02, // 15568
0xf7,0xff,0x76,0xfe,0xc1,0x00,0x08,0x00, 0x4e,0xff,0x92,0xff,0x2e,0x00,0xdf,0xff, // 15584
0x0e,0x00,0x20,0x01,0x90,0x00,0xed,0xff, 0x75,0x02,0x6f,0xfe,0xc7,0xff,0xdb,0x08, // 15600
0xb0,0xfd,0xd6,0xfd,0xea,0xfe,0xe9,0xff, 0x1a,0x01,0x1b,0xfe,0x94,0x02,0xbf,0xfb, // 15616
0xfd,0x00,0x44,0x01,0x83,0x00,0xb1,0xfe, 0x2e,0xfd,0xe1,0xff,0x8b,0x00,0x4c,0x05, // 15632
0xbb,0xff,0x66,0xff,0x1d,0x01,0xb5,0x00, 0x30,0x00,0x19,0xff,0x1a,0x00,0x5c,0x00, // 15648
0xb3,0xfc,0xa0,0x00,0x41,0xfe,0x9e,0xfe, 0x76,0xff,0x16,0xff,0x75,0x00,0xb0,0xfe, // 15664
0x94,0x01,0x39,0x01,0xa4,0x01,0xdc,0xfd, 0xaa,0xff,0xd1,0xff,0x5c,0x01,0xdc,0x00, // 15680
0xd0,0x00,0x12,0xfe,0x76,0x00,0xed,0xfe, 0x88,0xff,0x6b,0x02,0x3b,0xff,0xad,0xff, // 15696
0xf2,0x00,0x1b,0xfd,0xbf,0x03,0x2d,0x02, 0x9a,0xfc,0x12,0x00,0x36,0xfe,0xf3,0xff, // 15712
0xe3,0xfb,0x4c,0x04,0x14,0x01,0x3e,0x06, 0xaa,0x00,0xd5,0xff,0xcc,0xff,0x19,0x00, // 15728
0x6e,0xfc,0x98,0xff,0x89,0xff,0xa2,0xfe, 0x7c,0x00,0x14,0x00,0xcd,0xfd,0xb6,0x00, // 15744
0xa0,0x00,0x4a,0x04,0x9d,0xfe,0x8c,0x00, 0xa7,0x00,0xac,0xff,0x57,0xff,0xd3,0xff, // 15760
0x64,0x00,0x5e,0xfe,0xb9,0xfe,0xc0,0xfe, 0xb5,0x01,0xec,0xfe,0x17,0xff,0xdd,0xfe, // 15776
0xa8,0xff,0xfa,0x00,0x36,0xff,0xfe,0xfc, 0x38,0x02,0x12,0x00,0x9a,0x01,0x15,0xff, // 15792
0xdc,0xff,0xf2,0xff,0xac,0xff,0x20,0x02, 0x12,0x00,0x06,0x01,0xd2,0x05,0xfa,0xff, // 15808
0x2f,0x05,0xa4,0xff,0xe2,0xff,0x85,0xfd, 0xdb,0x00,0xd3,0xff,0x9c,0x0e,0x94,0xfe, // 15824
0xc9,0x05,0xbf,0xfe,0xe9,0xff,0x43,0x00, 0xfc,0xff,0xf1,0x00,0xac,0xff,0xd5,0xff, // 15840
0x19,0x00,0x93,0x00,0xc5,0xff,0xa7,0x00, 0xda,0x00,0x8b,0xfe,0x69,0xff,0xca,0xff, // 15856
0xf9,0xfe,0x22,0x00,0xc0,0xff,0x91,0xfe, 0xa6,0xff,0xe3,0xfd,0xdf,0xff,0x88,0xfe, // 15872
0x7d,0xff,0xc1,0xfe,0xf6,0xff,0xca,0xfe, 0x73,0x02,0x46,0xff,0xa2,0xfe,0xda,0xff, // 15888
0xd7,0xff,0x7e,0xfb,0x6b,0x01,0xc6,0x01, 0xb7,0xfe,0x6e,0x00,0xf9,0x00,0x5a,0xfe, // 15904
0x84,0x02,0x96,0xff,0xb3,0x00,0x64,0xff, 0x21,0xff,0x85,0x00,0x21,0x00,0x98,0x00, // 15920
0x0e,0xfc,0x6a,0xfe,0xe4,0xfd,0x55,0xfe, 0xe3,0xff,0x88,0xff,0xa8,0xff,0x67,0x00, // 15936
0x16,0xff,0xe0,0xff,0x2d,0xf7,0x34,0x06, 0x17,0x01,0xbb,0x00,0x18,0x00,0x68,0x00, // 15952
0xe6,0x02,0xcc,0xff,0x76,0x00,0x1f,0x00, 0x7c,0xfc,0xbc,0xff,0xfc,0xff,0x26,0x00, // 15968
0x00,0xff,0x85,0xff,0xd1,0xff,0x87,0x00, 0x4c,0x00,0xe3,0xff,0x85,0x00,0xf5,0xff, // 15984
0x24,0x00,0x71,0xff,0xc2,0x00,0x6e,0xff, 0x21,0xfe,0xe2,0xff,0x48,0x00,0x04,0x00, // 16000
0x10,0x02,0x32,0x01,0x39,0xff,0xd3,0x01, 0x23,0xff,0xf5,0xf7,0x44,0xff,0xe9,0xff, // 16016
0x7f,0xff,0x97,0x00,0xb3,0xff,0xfa,0xff, 0x2d,0x00,0xa5,0x03,0xf3,0x01,0x6b,0xff, // 16032
0x69,0x00,0x77,0x00,0xa7,0xfd,0x06,0xfe, 0x86,0xfe,0xca,0x00,0x32,0x00,0x98,0xfd, // 16048
0x12,0xfe,0xc2,0xff,0x11,0x00,0xcf,0xff, 0x60,0x00,0x28,0x00,0x3a,0x00,0x2f,0xfd, // 16064
0xe2,0xff,0x95,0xff,0x43,0x00,0x71,0x00, 0xe2,0x06,0x00,0x01,0xaf,0x00,0xf2,0x00, // 16080
0x44,0x01,0x28,0x00,0xd9,0x02,0x46,0x00, 0x24,0x00,0x7f,0xff,0xe2,0xfe,0xf4,0x00, // 16096
0xae,0x02,0xff,0xff,0x38,0x02,0x81,0xff, 0x40,0x00,0xe0,0xf8,0xe9,0xff,0xa6,0xff, // 16112
0xbe,0x01,0xe0,0x04,0xea,0x00,0x3a,0xff, 0x60,0xff,0x58,0xfe,0x64,0xff,0x5b,0x00, // 16128
0x8e,0x00,0x96,0xfe,0x45,0x01,0x0d,0x00, 0xea,0xfe,0xf9,0xff,0xc7,0xff,0xa4,0xff, // 16144
0x42,0x00,0xec,0xff,0x2c,0x00,0x9f,0xfe, 0x01,0xff,0xca,0xfe,0xda,0xff,0x91,0x03, // 16160
0x8a,0x00,0x62,0xf6,0x9c,0xfd,0xdd,0x00, 0xd6,0x01,0xdb,0xfd,0xf2,0x02,0xd2,0xff, // 16176
0x46,0xff,0x95,0x03,0xf4,0xff,0xac,0xff, 0x0f,0x01,0xd4,0xff,0xa9,0x00,0x84,0xff, // 16192
0x8f,0x00,0xc0,0xff,0xbf,0x00,0x15,0x00, 0x8a,0xff,0xb9,0xfe,0xd5,0xfe,0xa9,0xff, // 16208
0xaf,0x01,0xf4,0xff,0x4b,0x00,0x9b,0xff, 0x19,0xfe,0xe6,0x01,0x63,0xff,0x9a,0x01, // 16224
0x1d,0x03,0x6b,0x01,0xca,0xff,0x43,0xff, 0xe3,0xff,0xd5,0x00,0xdb,0x03,0x6d,0xff, // 16240
0xca,0xff,0x4c,0x00,0x7f,0x00,0x87,0xfe, 0xde,0xfe,0x06,0x00,0xbd,0xfd,0xb6,0x00, // 16256
0xee,0x01,0x7a,0x00,0xbf,0x09,0xa9,0x00, 0xe8,0xfc,0x51,0xff,0xbd,0xfe,0x2e,0xfe, // 16272
0x44,0xff,0xa4,0xff,0xd1,0xfc,0xd2,0xfe, 0x28,0x00,0xef,0x00,0x79,0x00,0x9c,0xff, // 16288
0x06,0x00,0x44,0x00,0xe2,0xff,0x96,0x06, 0x15,0x00,0xbf,0xff,0x8b,0x01,0x28,0xff, // 16304
0xb4,0xff,0x56,0x00,0xe6,0x00,0xd5,0x00, 0xe4,0xfb,0x12,0x00,0xb7,0xff,0x81,0xff, // 16320
0xf3,0xfd,0x39,0x00,0x8d,0x00,0x61,0xff, 0x15,0x00,0xfd,0x00,0xf9,0x00,0xd2,0xff, // 16336
0x75,0x00,0x91,0xff,0xe0,0x00,0x6f,0x02, 0xf7,0xff,0x9a,0xff,0x9c,0xfe,0x41,0xff, // 16352
0x42,0xff,0x21,0x00,0x0b,0xff,0xf7,0xfa, 0xfa,0xff,0x13,0xff,0x17,0xfe,0x8b,0xfe, // 16368
0xe5,0xfe,0x74,0x00,0x26,0x00,0xa5,0x00, 0x3c,0xfd,0x71,0xff,0xd0,0xfe,0x12,0xff, // 16384
0x4c,0xfd,0xf0,0xff,0x79,0x00,0xea,0xff, 0x48,0x00,0xb5,0xff,0x49,0x02,0xe3,0xfe, // 16400
0x56,0x00,0xa5,0xfe,0xff,0x01,0xa2,0xfd, 0x3c,0xff,0x3e,0x07,0xf1,0xfe,0x45,0x00, // 16416
0xa4,0xff,0x4e,0xff,0x8f,0x03,0x87,0x08, 0xcb,0x09,0x8e,0xff,0xa6,0x00,0xad,0x01, // 16432
0x0f,0xff,0x6d,0x02,0xda,0xf9,0xcb,0xff, 0x42,0x00,0x69,0xff,0x46,0x00,0x03,0x00, // 16448
0x13,0x00,0xd4,0xff,0xf0,0xff,0x74,0x00, 0x80,0xfe,0x47,0x00,0xdb,0xfa,0x50,0x06, // 16464
0x5e,0x02,0x30,0xff,0x20,0x00,0x72,0xff, 0xe6,0xff,0x9b,0xff,0x76,0x00,0xe6,0xfd, // 16480
0xb5,0x00,0x7c,0xfe,0x4a,0x08,0x59,0x07, 0xaa,0x00,0x86,0x04,0xa8,0x04,0x88,0xfd, // 16496
0xa0,0x01,0x3f,0x00,0xdf,0xff,0x1c,0xff, 0xd7,0x00,0x89,0x01,0xca,0xfd,0xe8,0xff, // 16512
0x26,0x02,0x98,0xff,0x7a,0xfe,0x3b,0x00, 0xfd,0xff,0xb8,0xff,0x8e,0x00,0xe4,0xff, // 16528
0x54,0xff,0x25,0x00,0xc6,0xff,0x2f,0xfc, 0x9e,0x02,0x1c,0x02,0x83,0xff,0x69,0x00, // 16544
0x84,0xff,0x91,0xff,0xe6,0x00,0x46,0x00, 0x8e,0xfe,0x6c,0x00,0x0e,0xff,0x87,0x00, // 16560
0x61,0x07,0xb5,0x00,0xc3,0x00,0x25,0x00, 0x44,0xff,0xa9,0xff,0x8d,0xf3,0xc7,0xff, // 16576
0xfc,0x00,0x2c,0xff,0xe6,0x00,0x8c,0xff, 0x2d,0x00,0xd8,0x00,0x3d,0x01,0xea,0xff, // 16592
0x3d,0x00,0x72,0x00,0x95,0xfc,0xa5,0xf6, 0x33,0x00,0x73,0x00,0xe8,0x01,0x16,0xfe, // 16608
0x5b,0x00,0xda,0xff,0x41,0x00,0x25,0x00, 0x78,0xff,0x06,0xff,0x5c,0x00,0x56,0xff, // 16624
0xb1,0x00,0x17,0x00,0xd9,0xfe,0x1a,0x00, 0xf3,0xff,0x14,0xff,0x28,0x00,0x83,0xff, // 16640
0x64,0xff,0xc1,0xff,0x01,0x01,0xe7,0x00, 0x76,0x00,0x72,0x00,0x8d,0x00,0x63,0xff, // 16656
0xe2,0xff,0xf8,0xff,0xf0,0x00,0x45,0xff, 0x49,0x00,0x1d,0xff,0xd0,0xff,0x12,0xff, // 16672
0x38,0x10,0x0f,0x00,0x5f,0xff,0x7b,0x00, 0x2e,0x00,0x58,0x00,0x5d,0x00,0x30,0x00, // 16688
0x95,0x00,0x61,0x00,0xcf,0xfe,0x13,0x00, 0xb4,0xfa,0xdf,0xff,0x29,0x00,0xf5,0x00, // 16704
0xea,0x00,0xa1,0xff,0x49,0x00,0x3e,0x00, 0xac,0x00,0x70,0xff,0xad,0xff,0x30,0x01, // 16720
0x73,0x00,0x76,0xff,0xfa,0xfd,0xed,0xff, 0xfa,0x05,0x39,0xff,0x7c,0xff,0xdb,0xff, // 16736
0xaf,0xfe,0x83,0x08,0xfa,0xff,0x7b,0x00, 0x61,0x00,0xc2,0xfe,0xfa,0x01,0x2f,0x00, // 16752
0x68,0xff,0x8f,0xff,0x3e,0x03,0x00,0x00, 0x00,0x00,0x7d,0xff,0x84,0x00,0x5f,0x00, // 16768
0x0c,0x00,0x82,0x00,0x92,0xff,0x95,0xff, 0x3a,0x00,0x3e,0xff,0x24,0xff,0x27,0x01, // 16784
0xae,0x02,0x98,0x00,0x86,0x00,0xee,0xff, 0x86,0x00,0xcd,0xff,0xb4,0xff,0x1e,0x01, // 16800
0x39,0xff,0x0c,0xff,0x25,0x00,0xe6,0xfc, 0x96,0xfd,0x18,0x00,0x99,0xf8,0x6f,0xff, // 16816
0x9e,0x00,0xb8,0xff,0xcc,0x00,0xd2,0xff, 0x43,0x00,0xa8,0xfc,0x69,0x00,0xe3,0xff, // 16832
0xa1,0xfe,0xf7,0xfe,0xf5,0xff,0xd9,0xfc, 0x71,0x00,0x57,0x01,0x24,0x01,0x49,0xfe, // 16848
0xda,0x00,0xaa,0xfc,0xc6,0xff,0xca,0xfe, 0x90,0x02,0xda,0xfd,0x92,0x02,0xc1,0xff, // 16864
0x43,0xf6,0x15,0x00,0x2e,0x01,0xf3,0xff, 0x80,0x00,0x80,0x03,0x92,0xff,0xc9,0xff, // 16880
0x3d,0x00,0xee,0x01,0x65,0x00,0x13,0xfe, 0x6d,0xff,0x49,0x03,0x78,0x01,0xf1,0x03, // 16896
0x00,0xff,0x0f,0x00,0xc6,0x03,0x42,0x00, 0x0e,0xff,0x77,0xff,0xa8,0xf7,0xf1,0x00, // 16912
0x61,0x02,0xd1,0xff,0xb1,0xfe,0x6e,0x00, 0x28,0xfe,0xbb,0xfc,0xa0,0xff,0x78,0x01, // 16928
0x4b,0xff,0x78,0x00,0x60,0x01,0x78,0x01, 0x29,0x00,0xca,0xff,0x7a,0xff,0xbc,0xfe, // 16944
0x1d,0xff,0xa5,0xff,0xba,0x07,0xc5,0xff, 0x8b,0x00,0x23,0x02,0xf9,0xff,0xf3,0xff, // 16960
0x31,0x02,0x43,0x00,0xd0,0x00,0x45,0x00, 0x8a,0xfe,0xc9,0xfe,0x25,0xfc,0x54,0x00, // 16976
0xa4,0xfa,0x13,0xff,0xdf,0xff,0x8f,0xff, 0x58,0xff,0xc4,0x00,0xf9,0xff,0x1d,0x01, // 16992
0xa7,0x00,0x46,0xff,0x1b,0x01,0x0d,0x02, 0x4b,0xfc,0x51,0xfd,0x91,0xff,0xff,0xfd, // 17008
0x33,0x00,0xe9,0xff,0xfa,0xfe,0xfd,0xfe, 0x9a,0xfc,0xaf,0xff,0x9e,0xff,0x9f,0xff, // 17024
0x56,0x01,0xf9,0xfc,0xe1,0x02,0xbf,0x01, 0xb1,0xfc,0x33,0xff,0xfc,0xff,0x4b,0x00, // 17040
0x40,0x03,0x85,0xff,0x22,0x00,0x38,0x00, 0x74,0xfe,0xcf,0xff,0x3b,0xff,0xe4,0xff, // 17056
0x51,0x01,0x11,0xff,0xe2,0x02,0x80,0x00, 0x07,0x01,0xfd,0xff,0xb6,0x00,0x73,0xfb, // 17072
0xa3,0xfe,0x3b,0xfe,0x40,0x00,0xee,0x01, 0xce,0x00,0x5c,0xff,0x57,0x00,0x90,0xff, // 17088
0x28,0xfd,0xb8,0x05,0x97,0xff,0xe4,0xff, 0x52,0x00,0x30,0xff,0x4e,0xff,0xf1,0x05, // 17104
0xf2,0xfd,0x2a,0xfe,0xdb,0xff,0xca,0x01, 0x71,0xff,0xc2,0xff,0x6c,0xfe,0xe3,0xff, // 17120
0xf2,0xff,0x65,0x00,0x7e,0xff,0x76,0xff, 0x59,0x00,0x7b,0xff,0x05,0x00,0xc3,0x06, // 17136
0x29,0x00,0x03,0x00,0xe1,0xff,0x64,0x00, 0xc6,0xff,0x9b,0x01,0x10,0x00,0xc3,0x00, // 17152
0xff,0xfc,0x81,0x00,0x08,0x00,0x2c,0x00, 0x61,0xf8,0x38,0x00,0xfc,0xff,0xcf,0xff, // 17168
0xa0,0xff,0xfe,0xff,0x92,0x00,0xf6,0xfe, 0x2c,0x03,0x2f,0x00,0xf0,0xff,0x2e,0x01, // 17184
0x27,0x00,0x5b,0x00,0x0d,0x00,0x38,0xff, 0xa9,0x00,0x22,0x02,0x0d,0xff,0x48,0xfc, // 17200
0x7d,0x00,0x43,0x00,0xa6,0xfe,0xf1,0xfd, 0x92,0xff,0xa2,0xff,0x76,0x00,0x5f,0x00, // 17216
0x25,0xfc,0x57,0x00,0x8c,0xff,0x8f,0xff, 0xa5,0xff,0x16,0x00,0x02,0x00,0x30,0x00, // 17232
0x18,0x00,0x2b,0x00,0x2f,0x04,0x68,0xfa, 0xf3,0xff,0xe4,0xff,0xab,0x03,0xea,0xf7, // 17248
0x07,0x00,0x32,0x06,0xd7,0x00,0x8d,0xff, 0x3b,0x00,0x32,0xff,0x19,0x00,0x00,0x05, // 17264
0x1d,0x03,0x3e,0x00,0xe8,0xff,0x30,0x01, 0xa2,0xfc,0xae,0x08,0x85,0xfb,0x5a,0x00, // 17280
0x8a,0x00,0xf0,0xff,0xb5,0xff,0xbb,0xff, 0x0e,0x00,0x85,0x00,0xe2,0xff,0xf9,0xff, // 17296
0x2b,0x00,0xcf,0xff,0xee,0xfa,0x22,0x07, 0x0a,0x01,0x6b,0x00,0xf5,0xff,0x60,0xfe, // 17312
0x41,0x00,0x01,0x00,0xec,0xff,0x87,0xf8, 0x9e,0xff,0x5a,0x00,0xfd,0x04,0x99,0x03, // 17328
0x9f,0x04,0x38,0x01,0x05,0x05,0xa9,0xff, 0xff,0x00,0x6f,0x03,0x69,0xff,0x24,0x01, // 17344
0x9e,0x00,0x2b,0x00,0x7e,0xf8,0xcd,0xff, 0x1c,0x01,0x08,0x00,0x45,0xff,0x31,0x00, // 17360
0x4c,0x00,0x2c,0x00,0xf9,0xff,0xd6,0xff, 0xea,0xff,0x0b,0x00,0xfb,0xff,0x73,0xfe, // 17376
0xcf,0xff,0xa5,0x06,0xbf,0xff,0x30,0x00, 0xec,0xff,0xfe,0xff,0x9a,0xff,0x4e,0x00, // 17392
0xda,0x00,0x17,0x00,0x14,0x00,0xa6,0x01, 0xe2,0xfe,0x62,0x00,0x21,0x00,0xdd,0x00, // 17408
0xd5,0xff,0xfa,0xff,0xa4,0x0a,0xdc,0xff, 0xfd,0xfe,0x86,0x01,0x5b,0xfa,0x5d,0x00, // 17424
0x6e,0x00,0x96,0xff,0xa3,0xff,0x44,0x00, 0xeb,0xff,0xdd,0xff,0x76,0x00,0x8c,0x03, // 17440
0x2f,0x00,0x0f,0xfe,0xab,0xfa,0xc9,0x01, 0x70,0xff,0x6c,0xfd,0x2f,0xff,0xc8,0xff, // 17456
0xea,0xff,0xd7,0x04,0xdc,0xff,0x14,0x00, 0x4f,0x00,0x3c,0x00,0xcd,0x01,0xa6,0xff, // 17472
0x7e,0xff,0x02,0x00,0x6b,0x00,0x15,0x00, 0xb3,0xff,0x9a,0x00,0x0f,0x00,0x31,0x00, // 17488
0xa8,0x00,0x71,0xff,0x46,0x00,0xd5,0xfe, 0xed,0xff,0x0d,0x00,0x8f,0x00,0x19,0x00, // 17504
0x4d,0x00,0x63,0x00,0xcd,0xff,0x3f,0x05, 0x67,0xf9,0x89,0xff,0x09,0x00,0xac,0xff, // 17520
0x32,0x00,0x14,0x00,0x5d,0xff,0xc2,0xff, 0xa6,0x03,0xea,0xff,0xf8,0x03,0x79,0xff, // 17536
0xd5,0x03,0x22,0x00,0x0a,0x00,0x20,0x00, 0x5d,0x00,0x1c,0x00,0x03,0x00,0x39,0xff, // 17552
0xef,0xff,0xca,0xff,0x69,0x00,0xde,0xfe, 0xc3,0x00,0xb4,0x00,0x40,0x01,0x79,0x00, // 17568
0x42,0xfe,0x52,0x00,0xeb,0x00,0x21,0x00, 0x2f,0x01,0xe6,0xfd,0x11,0x00,0x29,0x00, // 17584
0x10,0x00,0x83,0x01,0xf4,0xfb,0x0e,0x00, 0x14,0x02,0xee,0x00,0x12,0xfd,0x41,0x00, // 17600
0xd0,0xfb,0xae,0xff,0xf2,0xff,0xf9,0xff, 0x09,0x00,0xd4,0xff,0x35,0x00,0xee,0xff, // 17616
0x42,0xff,0x9b,0xff,0x14,0xfe,0xf9,0xff, 0x08,0xfe,0xdc,0xff,0x03,0x00,0x84,0xff, // 17632
0x22,0x00,0x33,0x00,0x92,0x00,0xaa,0xff, 0x0c,0x00,0xbd,0xff,0xf6,0xff,0xc7,0xff, // 17648
0x61,0x04,0xd1,0xff,0x74,0x01,0x05,0x00, 0x08,0x00,0x28,0x00,0xe3,0xff,0xc2,0xff, // 17664
