#if defined __ICCARM__
#define __ALIGNED(x) __attribute__((aligned(x)))
#else
#define __ALIGNED(x) __attribute__((aligned(x)))
#endif
const unsigned char model3[] __ALIGNED(16) = {
0x4e,0x4e,0x43,0x55,0x01,0x00,0x01,0x00, 0x01,0x0e,0x07,0x00,0x07,0x00,0x00,0x00, // 16
0x02,0x00,0x00,0x00,0x00,0x00,0x00,0x00, 0x18,0x01,0x00,0x00,0x02,0x00,0x00,0x00, // 32
0xe0,0x01,0x00,0x00,0xc8,0x00,0x00,0x00, 0x18,0x01,0x00,0x00,0x00,0x00,0x00,0x00, // 48
0x00,0x00,0x00,0x00,0x00,0x00,0x00,0x00, 0x00,0x00,0x00,0x00,0x00,0x00,0x00,0x00, // 64
0x00,0x00,0x00,0x00,0x00,0x00,0x00,0x00, 0xff,0xff,0xff,0xff,0xff,0xff,0xff,0xff, // 80
0x43,0x4d,0x44,0x00,0x20,0x00,0x80,0x00, 0x50,0x00,0x00,0x00,0x00,0xfe,0x00,0x00, // 96
0x73,0x6d,0x61,0x72,0x74,0x63,0x61,0x72, 0x5f,0x61,0x64,0x5f,0x64,0x65,0x6e,0x73, // 112
0x65,0x5f,0x64,0x72,0x6f,0x70,0x5f,0x30, 0x32,0x35,0x5f,0x61,0x64,0x53,0x69,0x7a, // 128
0x65,0x5f,0x31,0x5f,0x6e,0x6f,0x62,0x6e, 0x2e,0x68,0x35,0x0d,0x0a,0x57,0x65,0x64, // 144
0x20,0x4d,0x61,0x79,0x20,0x31,0x33,0x20, 0x31,0x39,0x3a,0x35,0x37,0x3a,0x31,0x36, // 160
0x20,0x32,0x30,0x32,0x30,0x0d,0x0a,0x31, 0x34,0x20,0x62,0x69,0x74,0x73,0x0d,0x0a, // 176
0x6e,0x6e,0x63,0x75,0x20,0x76,0x65,0x72, 0x20,0x30,0x2e,0x30,0x70,0x0d,0x0a,0x00, // 192
0x00,0x00,0x00,0x00,0x00,0x00,0x00,0x00, 0x00,0x00,0x00,0x00,0x00,0x00,0x00,0x00, // 208
0x43,0x4d,0x44,0x00,0x20,0x02,0x00,0x00, 0xd0,0x00,0x00,0x00,0x10,0x02,0x00,0x00, // 224
0x00,0x01,0x00,0x02,0x07,0x06,0x06,0x0b, 0x00,0x00,0x00,0x00,0x00,0x00,0x00,0x00, // 240
0x01,0x00,0x07,0x00,0x01,0x00,0x01,0x00, 0x8c,0x00,0x01,0x00,0x00,0x00,0x00,0x00, // 256
0x0c,0x00,0xff,0xff,0xff,0xff,0xff,0xff, 0x00,0x01,0x01,0x00,0x18,0x01,0x00,0x00, // 272
0x00,0x00,0x03,0x00,0x0e,0x00,0x00,0x00, 0x00,0x00,0x00,0x00,0x00,0x00,0x00,0x00, // 288
0x00,0x00,0x00,0x00,0x00,0x00,0x00,0x00, 0x00,0x00,0x00,0x00,0x00,0x00,0x00,0x00, // 304
0x00,0x00,0x00,0x00,0x00,0x00,0x00,0x00, 0x00,0x00,0x00,0x00,0x00,0x00,0x00,0x00, // 320
0x00,0x00,0x00,0x00,0x00,0x00,0x00,0x00, 0xa8,0x07,0x00,0x00,0x18,0x01,0x00,0x00, // 336
0x6c,0xfc,0x1d,0x00,0x4e,0xfd,0xa9,0xfa, 0xf6,0x0d,0x40,0x04,0x89,0xf2,0x41,0x02, // 352
0x70,0x02,0xc5,0xfd,0x53,0xf1,0x7b,0xff, 0xe3,0xfc,0xdf,0x06,0x18,0xfa,0xd7,0xfc, // 368
0x89,0xfc,0x9c,0xfc,0x0b,0x08,0xf5,0x04, 0xe8,0xf6,0x80,0xfa,0x1d,0xf5,0xde,0xf1, // 384
0xc0,0x00,0x64,0xfc,0x43,0xff,0x7a,0x01, 0xc1,0xf5,0x9a,0xfe,0xa5,0xfb,0x3b,0x09, // 400
0xd0,0x01,0xc3,0x01,0x2b,0xf8,0xa6,0x05, 0xef,0x05,0xc9,0x06,0xaf,0x02,0x85,0x07, // 416
0xa6,0x03,0x92,0xf9,0x10,0x08,0xa7,0xfb, 0xb2,0x07,0x3e,0xf8,0xa0,0x11,0xb5,0xfd, // 432
0x3a,0x01,0x26,0xfa,0x99,0x04,0xa4,0x04, 0x59,0xfb,0xe0,0x0b,0xe9,0xff,0x3c,0xf4, // 448
0xb8,0xf9,0x66,0x04,0xba,0x00,0x0a,0x01, 0x1f,0x0c,0x73,0x0a,0xe5,0xf1,0x1b,0xf9, // 464
0x21,0xfb,0x21,0xf8,0xfc,0x00,0xd8,0xf6, 0xb3,0x00,0xad,0x0d,0xe1,0x02,0x5b,0x00, // 480
0xfc,0x02,0xf9,0x03,0x81,0xf5,0x4b,0x00, 0xfc,0xf8,0x09,0x0a,0x81,0xf4,0xcc,0x09, // 496
0x66,0xfa,0xfe,0x05,0xe2,0xfa,0x65,0x01, 0xcf,0xfb,0xce,0xf9,0xd2,0xf3,0xce,0xfc, // 512
0xc3,0x01,0xa7,0x00,0xc6,0x09,0x3e,0x05, 0x1c,0x03,0xf1,0x06,0x9f,0x06,0x19,0xf7, // 528
0xa6,0x00,0xfd,0xf4,0xa8,0x10,0x00,0xfd, 0xaa,0x01,0x8e,0x01,0x5b,0xf9,0x3d,0xfd, // 544
0x31,0x08,0x1d,0x01,0x6f,0x04,0x1f,0x05, 0xc0,0x06,0x18,0xf1,0x2a,0xfd,0xc9,0x0b, // 560
0xbe,0x0e,0x5b,0xfc,0xfa,0xff,0xc8,0xff, 0xe4,0xfc,0x32,0xfd,0x0d,0x09,0x5f,0xf8, // 576
0x49,0x00,0xe2,0x01,0x47,0xff,0xbb,0x0a, 0xca,0x10,0x68,0xfc,0x2a,0x02,0x34,0xef, // 592
0x6a,0xf9,0xee,0xff,0xa2,0xfd,0x6e,0xe7, 0x73,0x01,0x24,0x09,0xd4,0xf8,0x91,0x0e, // 608
0x49,0xf7,0x8e,0x0a,0x63,0xfe,0x11,0x0b, 0x75,0x13,0xb4,0xfa,0x7b,0x01,0x5b,0x02, // 624
0x51,0xf6,0x01,0xff,0xd8,0x04,0x11,0xfe, 0x24,0xfc,0x34,0xf7,0x0a,0x00,0x19,0x01, // 640
0x11,0x01,0x8f,0xf5,0x39,0xf9,0x9f,0xfe, 0x7a,0xfa,0x8a,0xfc,0xa9,0x07,0x30,0x01, // 656
0xdc,0x08,0x6b,0xf7,0x95,0x08,0xae,0xf5, 0xc0,0x07,0xde,0xfb,0xf4,0x01,0x01,0xf3, // 672
0xc2,0xf5,0x0c,0x05,0x3a,0x01,0xea,0x07, 0xc7,0xf3,0x00,0xff,0xf0,0x0a,0x3d,0xff, // 688
0x5d,0x00,0x11,0x05,0x3e,0x0f,0x01,0x01, 0xa5,0x04,0x46,0xfb,0xe9,0x04,0xa4,0xff, // 704
0xfb,0xfa,0x2d,0x02,0x04,0xf3,0x20,0xf1, 0x2c,0x08,0xcf,0x02,0xef,0x04,0x9d,0xfe, // 720
0x50,0xf2,0x2a,0x00,0x3e,0xfb,0x51,0x03, 0x68,0xee,0xc8,0x06,0x22,0x01,0xc1,0xfb, // 736
0x66,0x0c,0x5a,0xff,0xb3,0xfa,0x3d,0x02, 0x71,0x06,0x2c,0x05,0xc8,0x05,0xa0,0xf5, // 752
0x8a,0xf5,0x45,0x0b,0x3e,0x04,0x66,0x05, 0xe2,0x0a,0x8d,0xff,0x2c,0x04,0x58,0xfd, // 768
0xc0,0xf2,0xae,0x09,0x8a,0xfe,0x01,0x01, 0xb7,0xfc,0x1d,0xf3,0xb4,0xef,0xae,0x09, // 784
0x33,0xf6,0x86,0x00,0x54,0xfc,0xd2,0xff, 0x2f,0x00,0x83,0x01,0x64,0xf6,0xde,0xf7, // 800
0x49,0xfa,0x61,0xf7,0xd0,0xfa,0xe6,0xfd, 0x88,0xff,0x91,0x0c,0x4c,0xfc,0xec,0xf8, // 816
0x1d,0xf7,0x79,0xf9,0xa1,0x0e,0x2c,0x04, 0x77,0xf5,0x25,0x00,0x24,0xfc,0xb6,0xfa, // 832
0x7e,0x06,0x94,0xf8,0x8f,0x00,0x02,0xf7, 0x62,0x0a,0x7a,0xfa,0x48,0xfd,0x96,0x03, // 848
0x82,0xf6,0xcf,0xfe,0x7b,0x0a,0xfd,0xf2, 0x65,0xfd,0x42,0xf5,0xfc,0xfa,0x7d,0x0b, // 864
0x87,0x00,0x58,0xfc,0x7a,0xfb,0xc6,0xf7, 0x40,0xfa,0x0d,0xfc,0xb9,0xf9,0x70,0xfc, // 880
0x2f,0x07,0x72,0x12,0xd5,0xf9,0x6b,0x00, 0x27,0x03,0x4f,0xf6,0x37,0xff,0xc3,0x03, // 896
0xd7,0x01,0x88,0x08,0xa5,0x05,0x57,0x03, 0xd6,0x01,0xfd,0x0b,0x7e,0xfe,0xe4,0x07, // 912
0x9e,0x05,0xe2,0x00,0xfb,0xf7,0x49,0xfb, 0x37,0xf8,0x65,0xff,0x77,0x07,0x26,0x00, // 928
0xf3,0x03,0x16,0xf3,0xf5,0x00,0x64,0xfe, 0x07,0x0a,0x43,0xfb,0x28,0xf2,0xe7,0xed, // 944
0x74,0xfa,0x7f,0x04,0x92,0x03,0x40,0xfd, 0x3e,0x04,0x73,0xf5,0x5c,0xfe,0x03,0xfe, // 960
0x3a,0xf9,0xd8,0xeb,0x29,0x07,0x23,0x05, 0xf2,0xfc,0x6b,0x04,0xa0,0x00,0xc8,0xf2, // 976
0x6b,0xfc,0x29,0x0e,0xa0,0xfb,0x77,0xfc, 0xc9,0xf5,0xe8,0xf9,0x16,0x0f,0x80,0x00, // 992
0x3d,0xfa,0x57,0x09,0x88,0x08,0xc1,0x0a, 0xa0,0xfd,0x90,0x03,0xad,0xff,0xf7,0xf6, // 1008
0x1e,0xfd,0x51,0x05,0xef,0x02,0x59,0x04, 0xd6,0xf5,0xb3,0xfb,0x88,0x0e,0x69,0x00, // 1024
0x12,0xf6,0xb0,0xfc,0x58,0xfd,0xb3,0xf9, 0xf0,0xf4,0x66,0x02,0x55,0x02,0x11,0x02, // 1040
0x81,0x04,0xc2,0x06,0x56,0xf0,0x9b,0xfc, 0xf4,0x0b,0x05,0x01,0xaa,0x09,0xb6,0x0d, // 1056
0x88,0xfd,0x1a,0x07,0xa2,0xfc,0x87,0xf9, 0x83,0xfd,0x7b,0xfd,0x86,0xfc,0x47,0x02, // 1072
0xb0,0xf2,0xde,0xfe,0x78,0x0d,0xf8,0x0b, 0xd7,0xfc,0x6e,0x00,0xd4,0xf0,0xae,0xfe, // 1088
0x37,0xfd,0x6b,0x0a,0xa4,0x04,0x2d,0xfc, 0xb3,0x00,0xd8,0xfd,0x41,0x07,0x9d,0x0f, // 1104
0x61,0xf5,0x21,0x04,0x62,0x08,0xe6,0x05, 0x61,0x06,0x83,0x04,0xe0,0x04,0x1a,0xfd, // 1120
0x3a,0xfa,0xb6,0xfc,0x37,0x00,0x22,0x0d, 0x49,0xfe,0xf0,0x04,0xdb,0xfd,0x3b,0x00, // 1136
0x1a,0x0d,0x93,0xfc,0xeb,0x09,0x60,0xf7, 0xac,0x04,0x4d,0xfa,0xa7,0xfc,0x97,0x01, // 1152
0xcf,0xfe,0xe0,0x03,0x45,0xf4,0x71,0xff, 0xc4,0xf9,0x4e,0xf8,0xc7,0xfe,0xb0,0xfe, // 1168
0x96,0x0d,0xec,0xff,0x10,0x03,0xb5,0xfb, 0x9c,0xef,0x94,0x00,0x14,0xfa,0x62,0xfd, // 1184
0x5d,0x00,0x51,0x03,0x6a,0x00,0xf7,0xfd, 0x1e,0xfc,0x85,0xf6,0x46,0x07,0x9e,0xf9, // 1200
0xa9,0xfb,0x14,0xfc,0x51,0x05,0x58,0xf5, 0xd6,0x07,0x21,0xf7,0x28,0x05,0xd4,0xfe, // 1216
0x9e,0x0a,0xef,0xfc,0x04,0x0b,0x47,0x0b, 0x13,0xfc,0x44,0x07,0x35,0xfd,0x03,0x08, // 1232
0xb8,0x02,0x1e,0xfb,0xa8,0xf8,0x0f,0xfb, 0x5b,0x06,0xab,0xfe,0xc5,0x09,0x59,0xfa, // 1248
0x05,0xf5,0x9a,0xf4,0x2c,0xfc,0xba,0x04, 0xa0,0x07,0xfe,0x01,0xa3,0xfa,0xe6,0xf8, // 1264
0x3b,0x00,0x5b,0x0c,0x5e,0x02,0x2a,0x05, 0xf2,0xfd,0xa8,0x09,0xc0,0xfe,0x1f,0x03, // 1280
0x7e,0xf3,0x1a,0xff,0x48,0xfe,0xfb,0x0a, 0x00,0xfd,0x7b,0xfd,0x75,0xfb,0x8f,0x00, // 1296
0xa6,0xf6,0xc2,0xf9,0xf8,0xfe,0x53,0x0b, 0x52,0x01,0x72,0x07,0x5c,0x02,0x44,0xf4, // 1312
0xb0,0xf8,0x7e,0x05,0xfa,0xff,0x21,0xfc, 0x66,0xfa,0xe2,0x02,0xaf,0xfb,0x04,0xfc, // 1328
0xaf,0xf5,0x0d,0xfd,0xdb,0xfd,0x99,0xf7, 0x2f,0x07,0x4e,0xf6,0x09,0xfd,0x21,0xfa, // 1344
0x47,0x08,0x07,0x01,0xb9,0x02,0x94,0xf1, 0x90,0x02,0x40,0xfd,0x96,0x04,0x70,0x0c, // 1360
0x1d,0x05,0xbc,0x0c,0x6b,0x05,0x14,0xfa, 0x32,0xff,0x15,0xf8,0x2b,0x01,0xe8,0xed, // 1376
0x36,0x03,0x3e,0xfb,0x33,0x00,0xc8,0xfa, 0x94,0x02,0x9c,0xf5,0x85,0x08,0x0e,0x02, // 1392
0x26,0x06,0x0b,0xf8,0xf3,0xf7,0x6d,0x0c, 0xe4,0x01,0xd6,0x05,0xcf,0x04,0x38,0x05, // 1408
0x94,0x05,0x47,0x06,0xed,0xf3,0x14,0xf9, 0xa3,0x03,0xbf,0x02,0x69,0xf9,0x97,0x0c, // 1424
0x99,0x03,0x00,0xf4,0xaf,0xee,0x1b,0x08, 0x50,0x02,0x02,0xfe,0xa9,0x08,0xf1,0xff, // 1440
0x52,0x06,0xc2,0x04,0x49,0xfd,0x75,0x0b, 0xa3,0xf9,0xbd,0x0a,0xc0,0x01,0x8c,0x05, // 1456
0xb6,0xfb,0xb1,0xfe,0xc4,0x00,0x40,0x0e, 0xa1,0x00,0x11,0x03,0x69,0xf8,0xc9,0x09, // 1472
0x60,0xfd,0xb5,0xff,0x15,0xf3,0x91,0xfa, 0xac,0xfa,0xec,0x0d,0xb7,0x10,0xdc,0xf8, // 1488
0x17,0xfe,0x01,0x04,0x81,0xf3,0x38,0x00, 0xe8,0x05,0x66,0xfd,0xb9,0xf9,0xbf,0xf8, // 1504
0xd9,0xf7,0x54,0x0f,0xeb,0x05,0x0f,0xf7, 0xc7,0x05,0xb6,0xf0,0x28,0xef,0xfe,0xfd, // 1520
0x4d,0xf8,0xb1,0x01,0xee,0x00,0x96,0x06, 0x3a,0x00,0x91,0xff,0xa3,0xff,0xdf,0xf5, // 1536
0x80,0xf2,0x47,0x00,0xd7,0xf8,0xf3,0xfb, 0x6e,0xfe,0xcd,0x0c,0x72,0x00,0xa2,0x03, // 1552
0xa2,0xfb,0xc9,0xed,0xfa,0x02,0x9d,0xfa, 0xd9,0xf9,0x1f,0x0d,0x26,0x00,0x3b,0xfc, // 1568
0x59,0xf5,0xea,0x02,0x60,0xff,0x2d,0x0e, 0xbb,0x02,0x5c,0x03,0x65,0xf3,0xcc,0x02, // 1584
0x2a,0xfa,0x77,0xff,0xb7,0xf7,0x2f,0xfc, 0xf8,0xf3,0x2c,0x04,0x9e,0xf7,0x23,0xf9, // 1600
0xb9,0xf6,0x7d,0x00,0x8e,0x02,0x39,0xfd, 0xb0,0xfc,0x65,0xf8,0x04,0xfa,0xa1,0xf6, // 1616
0x73,0xfc,0x8b,0xfb,0xce,0xfe,0xbc,0x0c, 0x07,0x03,0x5d,0xfe,0x3a,0xfd,0xe5,0xfe, // 1632
0x85,0x04,0x08,0x01,0x97,0xf1,0x02,0xfa, 0xa8,0xfc,0xaf,0xfa,0xc6,0xff,0x42,0x00, // 1648
0x07,0xff,0xc5,0xf7,0x83,0x00,0x9f,0x09, 0x9c,0x0c,0x16,0x03,0x91,0x01,0x3f,0xff, // 1664
0xf1,0xf4,0x84,0x03,0x8d,0x03,0xba,0x08, 0x6e,0x03,0x33,0xfd,0x46,0x05,0xe2,0xf2, // 1680
0x82,0x0f,0xc3,0xfb,0xa5,0xfe,0x23,0xff, 0xb3,0xfd,0xc3,0xfd,0xc5,0xf5,0xc8,0x08, // 1696
0x18,0xfe,0x36,0x00,0x18,0x03,0x6f,0xf9, 0x67,0xff,0x38,0x0b,0xd3,0xfc,0x69,0xfb, // 1712
0xcf,0x01,0x0a,0x0e,0x43,0x00,0x1c,0x05, 0xe1,0xfc,0xb3,0xf8,0xf9,0xfb,0x33,0xfe, // 1728
0x0f,0x0d,0xfe,0x00,0x66,0x03,0x5c,0xfb, 0x26,0x0a,0x9d,0xf0,0x70,0xf3,0xd7,0xfc, // 1744
0x58,0xfe,0x13,0x02,0xfc,0xf7,0xa4,0x13, 0x0c,0xf8,0xc1,0xfd,0xcf,0x01,0x4d,0xf8, // 1760
0xf8,0xff,0xec,0x02,0xb0,0xed,0xbd,0x07, 0x88,0x02,0xba,0xff,0x1d,0x05,0x03,0x01, // 1776
0x32,0x09,0xbc,0xf4,0x4c,0xfa,0xe5,0xf3, 0xf4,0x03,0xa8,0xfc,0x65,0xfb,0x68,0x01, // 1792
0x4f,0x06,0xc9,0x03,0xff,0x00,0xec,0xf2, 0x25,0x00,0x04,0xfd,0x5b,0x05,0x67,0x04, // 1808
0x79,0x03,0x41,0x03,0x21,0xf7,0x1b,0xff, 0x47,0xff,0x8d,0x0c,0xfb,0xfa,0xbc,0xfc, // 1824
0x31,0x00,0x20,0x0d,0xd7,0x00,0x7b,0x04, 0xf7,0xfa,0x2e,0xfb,0x96,0x01,0x0e,0x00, // 1840
0x1e,0xfd,0x62,0x0b,0x6b,0x06,0xc9,0xf1, 0xef,0xf5,0x49,0x03,0x19,0xff,0x95,0x04, // 1856
0xb6,0x0a,0xe8,0x10,0x80,0xf5,0x53,0xf4, 0x36,0xf9,0xc8,0xf6,0x59,0xfc,0x97,0x02, // 1872
0x9b,0x00,0xa2,0xfd,0x0d,0x07,0xfa,0x03, 0x2a,0x01,0xe1,0xf1,0x9d,0x01,0xf0,0xfc, // 1888
0x40,0x04,0xec,0xfa,0xda,0xff,0x85,0x05, 0x1e,0xfd,0x95,0x0c,0xc2,0x0e,0xc0,0xf8, // 1904
0xb2,0x12,0xfc,0xf8,0x1e,0xff,0x0e,0xfe, 0x59,0x01,0xe0,0xfe,0x26,0x00,0x2c,0x03, // 1920
0x6b,0xfd,0x18,0xfd,0x0a,0xfd,0x9e,0x07, 0xbe,0x01,0x6d,0xf0,0xe9,0xf1,0x77,0xfd, // 1936
0xea,0xfd,0xd3,0xfc,0x2f,0x06,0xa4,0x01, 0xb0,0x07,0xb5,0xf8,0x21,0x00,0x58,0x01, // 1952
0x50,0xff,0x86,0x0c,0x7a,0x0f,0x84,0xfa, 0x5b,0x09,0xf7,0x03,0xec,0x02,0x71,0xf4, // 1968
0xe9,0xfd,0xfb,0xfc,0xb1,0x05,0xb7,0x04, 0x46,0xfb,0xd3,0xff,0x26,0xf9,0x91,0x0b, // 1984
0x89,0x09,0xae,0xf2,0xa0,0xf1,0x52,0x08, 0x0a,0x04,0x41,0xfa,0x9e,0x11,0x46,0xff, // 2000
0xdb,0xf9,0xd4,0xf9,0x46,0x04,0x17,0x04, 0x33,0x04,0xcb,0xf9,0xc7,0x01,0xc4,0xf6, // 2016
0x85,0xf0,0x2e,0x08,0x1f,0x03,0xa9,0xfd, 0xaf,0x07,0x1d,0xff,0x82,0x08,0xf4,0xf8, // 2032
0xa4,0xfa,0xea,0xfd,0xf3,0x0b,0xe3,0x01, 0x3f,0x04,0x4d,0xfb,0x60,0xf9,0xaa,0xf5, // 2048
0x6f,0xf6,0xc5,0xfe,0xb8,0x01,0x99,0x00, 0xb4,0xfc,0x91,0x00,0xfd,0x04,0xe4,0x07, // 2064
0x91,0xfd,0xd1,0x05,0xd4,0x0f,0x50,0x04, 0x4d,0x02,0xc4,0x00,0xfa,0x05,0xc5,0xfc, // 2080
0xe6,0x00,0x21,0x01,0x43,0x09,0xe8,0xfd, 0x57,0xfa,0x62,0xfc,0x53,0xfe,0x88,0xf6, // 2096
0xa3,0xfb,0x7c,0x0a,0x05,0xfe,0xe1,0x03, 0xd4,0x07,0xdb,0xf8,0x2e,0x0b,0x36,0x10, // 2112
0x61,0xf8,0x5f,0x06,0x56,0x05,0x69,0x01, 0x78,0xf3,0x2e,0xfe,0x85,0xfc,0x50,0x05, // 2128
0x0a,0x07,0x71,0x02,0xaf,0x01,0x37,0x00, 0xb8,0xf5,0x95,0xf5,0x10,0x01,0x6c,0x05, // 2144
0x65,0xfd,0xef,0xfc,0x64,0x00,0x77,0xfc, 0xba,0xfe,0x33,0xf3,0x30,0xf7,0x98,0x02, // 2160
0xdc,0xf6,0x29,0x0a,0xc4,0xf0,0x74,0x01, 0x5a,0x06,0x44,0x07,0x3a,0xf4,0x97,0xf2, // 2176
0x3e,0x04,0x7f,0xf5,0x39,0xfe,0xb0,0x03, 0x73,0x0c,0x83,0xf0,0x49,0xf3,0x36,0xfe, // 2192
0xbd,0xfa,0x8d,0x01,0x77,0xfa,0x46,0xfe, 0x0a,0xfc,0x23,0xf7,0x17,0x06,0x4b,0xf9, // 2208
0x18,0xf0,0xe9,0x06,0xce,0xf6,0x44,0xf6, 0xe7,0xf4,0x20,0x01,0x96,0xfd,0x18,0x00, // 2224
0xfb,0xfd,0x7b,0x01,0x57,0x06,0x56,0x08, 0x59,0xfc,0x0b,0x03,0x67,0xfd,0xc5,0x08, // 2240
0x9b,0xfe,0x51,0xf4,0x38,0xf9,0xbb,0xfd, 0xbe,0xfa,0x8b,0xee,0x49,0x06,0x76,0xfe, // 2256
0x4d,0xf7,0xbe,0xf7,0x08,0xfd,0xd0,0x00, 0x9e,0x00,0xa2,0xf9,0xc3,0x06,0x43,0xfe, // 2272
0x6b,0xff,0xda,0x08,0x15,0xee,0x65,0xfd, 0xd7,0x0b,0xdc,0xef,0xad,0x03,0x9b,0xfe, // 2288
0x84,0xfc,0x51,0x0d,0x71,0x02,0x3c,0xf8, 0x18,0xf8,0x7c,0xfc,0xa0,0xf4,0xf9,0xf9, // 2304
0x2a,0xfb,0xfe,0x09,0x78,0x0e,0x37,0xec, 0xfe,0xff,0xda,0x03,0xd0,0xe9,0x21,0xf1, // 2320
0x2e,0x12,0x9f,0xe7,0x64,0x19,0x84,0x05, 0x90,0x1c,0xaa,0x06,0xff,0x01,0x19,0xff, // 2336
0x71,0x11,0x15,0xf5,0x78,0x10,0x1c,0x02, 0xad,0xfa,0x10,0x0b,0x4d,0x02,0xd9,0xfc, // 2352
0x36,0xee,0x62,0x0e,0x61,0xed,0xe5,0xf9, 0x8d,0xe7,0xd4,0x02,0x5f,0xfb,0x58,0xf2, // 2368
0x4b,0x16,0x08,0xfd,0x15,0xf4,0x98,0x12, 0x11,0x02,0xd1,0xff,0xfa,0xff,0xf2,0x00, // 2384
0x94,0x02,0x35,0xff,0x89,0x0a,0x99,0xfe, 0xcb,0x0b,0x20,0xf5,0x7d,0x03,0x48,0xf7, // 2400
0xc3,0x01,0xe9,0x00,0x35,0xf9,0x29,0x0e, 0x0a,0x01,0x45,0x11,0xf7,0xe7,0x31,0x03, // 2416
0xe2,0xec,0xa7,0xfe,0x24,0xf4,0x07,0x0c, 0xe3,0x1c,0x74,0xfe,0xbf,0xfe,0x67,0x02, // 2432
0x2a,0xf1,0xbd,0xfe,0x4a,0xf9,0x56,0xf5, 0x33,0xfe,0xcd,0xf9,0xeb,0xe2,0x53,0x07, // 2448
0x2c,0xff,0x3f,0xed,0x81,0x00,0x9b,0x03, 0x14,0x02,0x71,0x01,0xb8,0x10,0x81,0xfd, // 2464
0xc4,0x03,0xd4,0xf5,0x21,0xff,0xe8,0xf4, 0x04,0xfe,0x42,0xf2,0x55,0xf2,0xeb,0x02, // 2480
0x99,0xf2,0x7a,0xeb,0x58,0xee,0x80,0xe9, 0xa0,0xff,0x5d,0x18,0xdb,0x04,0x19,0x00, // 2496
0x0d,0xfb,0xbf,0x14,0xe7,0xff,0xc0,0xf7, 0xb8,0x00,0x89,0x0a,0x31,0x02,0x36,0xf7, // 2512
0x1c,0x05,0x7f,0xe9,0xe5,0x00,0x25,0xfe, 0xff,0x18,0x7a,0xf4,0x33,0xf9,0xff,0x03, // 2528
0x97,0x02,0x34,0xf5,0x96,0xf6,0x76,0xe0, 0x5e,0x04,0xfe,0xfe,0xec,0xec,0xb6,0xfe, // 2544
0xd9,0x09,0x7b,0xfd,0x74,0xf9,0xf2,0x00, 0x85,0xf9,0xd0,0xec,0x34,0x04,0xf7,0x0c, // 2560
0x9e,0xfe,0x9b,0x08,0x28,0xee,0x27,0x0d, 0x1c,0x01,0x49,0xee,0xb3,0x0c,0x98,0xf2, // 2576
0x43,0x4d,0x44,0x00,0x20,0x03,0x80,0x00, 0x10,0x0a,0x00,0x00,0x10,0x0a,0x00,0x00, // 2592
0x01,0x01,0x00,0x02,0x0c,0x00,0x00,0x00, 0x00,0x00,0x00,0x00,0x00,0x00,0x00,0x00, // 2608
0x01,0x00,0x8c,0x00,0x01,0x00,0x01,0x00, 0x8c,0x00,0x01,0x00,0x00,0x00,0x00,0x00, // 2624
0x0d,0x00,0xff,0xff,0xff,0xff,0xff,0xff, 0x00,0x00,0x00,0x00,0x00,0x00,0x00,0x00, // 2640
0x00,0x00,0x00,0x00,0x00,0x00,0x00,0x00, 0x00,0x00,0x00,0x00,0x00,0x00,0x00,0x00, // 2656
0x00,0x00,0x00,0x00,0x00,0x00,0x00,0x00, 0x00,0x00,0x00,0x00,0x00,0x00,0x00,0x00, // 2672
0x00,0x00,0x00,0x00,0x00,0x00,0x00,0x00, 0x00,0x00,0x00,0x00,0x00,0x00,0x00,0x00, // 2688
0x00,0x00,0x00,0x00,0x00,0x00,0x00,0x00, 0x00,0x00,0x00,0x00,0x00,0x00,0x00,0x00, // 2704
0x43,0x4d,0x44,0x00,0x20,0x05,0x00,0x00, 0x90,0x0a,0x00,0x00,0x10,0x02,0x00,0x00, // 2720
0x01,0x00,0x00,0x02,0x0d,0x0a,0x0c,0x09, 0x00,0x00,0x00,0x00,0x00,0x00,0x00,0x00, // 2736
0x01,0x00,0x8c,0x00,0x01,0x00,0x01,0x00, 0x64,0x00,0x01,0x00,0x00,0x00,0x00,0x00, // 2752
0x0c,0x00,0xff,0xff,0xff,0xff,0xff,0xff, 0x00,0x00,0x01,0x00,0xc8,0x00,0x00,0x00, // 2768
0x00,0x01,0x02,0x00,0x18,0x01,0x00,0x00, 0x00,0x00,0x00,0x00,0x00,0x00,0x00,0x00, // 2784
0x00,0x00,0x00,0x00,0x00,0x00,0x00,0x00, 0x00,0x00,0x00,0x00,0x00,0x00,0x00,0x00, // 2800
0x00,0x00,0x00,0x00,0x00,0x00,0x00,0x00, 0x00,0x00,0x00,0x00,0x00,0x00,0x00,0x00, // 2816
0x00,0x00,0x00,0x00,0x00,0x00,0x00,0x00, 0x60,0x6d,0x00,0x00,0xc8,0x00,0x00,0x00, // 2832
0xb2,0x00,0x53,0x00,0xe7,0xfe,0x95,0xff, 0x56,0xff,0xa5,0x00,0x8d,0xff,0x15,0xfe, // 2848
0x5f,0xff,0x7f,0x01,0x33,0xfd,0x6c,0xff, 0xfd,0x02,0xee,0xfa,0x9e,0x03,0xaa,0x00, // 2864
0x10,0x07,0xbd,0xfe,0x09,0xff,0x9a,0xff, 0x53,0x02,0x95,0xfe,0xbd,0x02,0x4e,0x00, // 2880
0x20,0x00,0xef,0xff,0xa4,0x01,0x8e,0xff, 0x2a,0xfc,0x53,0xff,0xca,0xfd,0xe2,0x00, // 2896
0x83,0xfc,0xb3,0x00,0x13,0x00,0xce,0xfe, 0x18,0x03,0xa2,0x00,0x95,0xff,0xb4,0x01, // 2912
0x24,0x00,0xfb,0xff,0xe9,0x00,0x38,0x00, 0x5a,0xff,0x2a,0xff,0x2f,0x01,0xa4,0x00, // 2928
0x80,0x00,0x62,0xff,0x48,0x00,0xbf,0xfe, 0xc0,0x00,0x1b,0x01,0x91,0x00,0x92,0x00, // 2944
0x12,0x00,0xda,0x00,0x07,0xff,0xf1,0xff, 0xac,0xff,0x70,0xff,0x36,0xff,0x44,0x01, // 2960
0xf9,0x04,0x6c,0x00,0xc4,0xff,0x9b,0x00, 0xac,0xfe,0xf6,0xfe,0x49,0xff,0x3a,0xff, // 2976
0xb7,0x00,0x51,0xff,0x29,0xff,0x44,0xff, 0x21,0x00,0x15,0xff,0x89,0x01,0x71,0x00, // 2992
0xf6,0xff,0x6b,0x00,0x2d,0x03,0xce,0x00, 0xbe,0x00,0x4d,0x00,0xfb,0xff,0xa1,0xfe, // 3008
0x50,0xff,0x64,0xff,0x17,0xff,0xa2,0x00, 0xc1,0xfe,0x2c,0xfe,0x05,0xfd,0x8e,0xfe, // 3024
0x45,0xff,0x6d,0x03,0xab,0xff,0xc7,0xff, 0xd8,0xff,0xfd,0x03,0x2d,0x01,0x61,0xff, // 3040
0xd6,0xff,0x66,0x00,0xf4,0xff,0xef,0xff, 0x0e,0xff,0xec,0xfe,0x12,0x00,0x5f,0xfe, // 3056
0xa5,0x02,0x9b,0xfe,0x2b,0x00,0xc7,0xfe, 0x2a,0x00,0xc0,0xff,0x4c,0xff,0x12,0xfb, // 3072
0xed,0x00,0xe4,0xff,0x32,0xff,0xd8,0x00, 0x7e,0x01,0x13,0x00,0x79,0x00,0x2c,0x00, // 3088
0xd0,0xff,0xcb,0xfd,0x16,0x00,0x91,0xff, 0xf8,0xfe,0x99,0xff,0x36,0xff,0x0c,0x01, // 3104
0xd3,0xfe,0x41,0xfe,0x6f,0x00,0xbd,0xfe, 0xad,0x00,0x1c,0x00,0xa7,0x01,0x59,0xff, // 3120
0x36,0x00,0x59,0xff,0x9b,0xff,0x5c,0x00, 0x4c,0x00,0x7d,0x00,0x18,0x00,0x0d,0x00, // 3136
0xfc,0xff,0x4a,0xff,0x7f,0x00,0x70,0xfe, 0xdd,0xff,0x1d,0x00,0xb7,0x00,0x0b,0x00, // 3152
0x1e,0x00,0x0b,0x01,0x1f,0x00,0x52,0x00, 0x33,0x00,0xa2,0xff,0x17,0xff,0xca,0x00, // 3168
0x10,0x00,0x74,0xff,0xf4,0xff,0x67,0xff, 0x61,0x00,0xd1,0xff,0x93,0x00,0x3b,0x00, // 3184
0x67,0xff,0xe8,0xff,0xbb,0xff,0x46,0x00, 0xd4,0xfe,0x1e,0x00,0x69,0x00,0x7b,0x00, // 3200
0xf9,0x00,0xac,0xff,0x7c,0x01,0xb0,0x00, 0x88,0xff,0xb5,0x00,0x95,0xff,0xdd,0x00, // 3216
0xca,0xff,0xd3,0xff,0x77,0xff,0x52,0xff, 0x6e,0xff,0x64,0xff,0x48,0x02,0x31,0xff, // 3232
0x31,0xff,0x24,0x00,0xa2,0x00,0x38,0xff, 0xfb,0xff,0x86,0xfe,0xac,0xff,0xfe,0xff, // 3248
0x69,0x02,0x0a,0x00,0xa7,0x03,0xed,0x00, 0x91,0x00,0xb9,0x00,0x0a,0x01,0x86,0x00, // 3264
0x1d,0xff,0xa9,0xff,0x92,0xff,0x3b,0xff, 0x8c,0xff,0xb7,0xff,0x03,0x00,0xd3,0x00, // 3280
0x66,0xff,0xba,0xff,0xf6,0xff,0xdd,0xff, 0x3d,0x00,0x8d,0x00,0xde,0x00,0x31,0x00, // 3296
0xfe,0xff,0x1c,0x01,0x16,0x00,0xdc,0xff, 0x54,0x00,0x71,0xff,0xc6,0xff,0xcd,0xff, // 3312
0xee,0xff,0x45,0x00,0xa1,0xff,0x5a,0x00, 0x9c,0x00,0xea,0xff,0xc9,0xff,0xc1,0x00, // 3328
0x19,0x00,0x1c,0x00,0x96,0x00,0x38,0x00, 0xf9,0xff,0x1d,0x00,0x5d,0xff,0x07,0x00, // 3344
0x0f,0x00,0xee,0xff,0x12,0x00,0x94,0x00, 0x20,0x00,0xa5,0xff,0xae,0x00,0x54,0xfe, // 3360
0x37,0xff,0xcf,0x00,0x00,0x00,0x23,0x00, 0x93,0xff,0x23,0x00,0xf2,0xff,0x6d,0x00, // 3376
0x32,0x00,0x12,0x00,0x9d,0x00,0xcd,0xff, 0x56,0x01,0x9e,0x00,0xdb,0xff,0x54,0x00, // 3392
0x12,0x01,0xf1,0xff,0xc8,0xfe,0xcf,0xfd, 0xbc,0xff,0xbe,0x01,0xdf,0xff,0xe1,0xff, // 3408
0x15,0xff,0x11,0xff,0x30,0xff,0x5e,0xfc, 0x71,0x00,0xb1,0xfe,0x3e,0x02,0xd8,0xff, // 3424
0x13,0x02,0xfb,0xfe,0x87,0xfe,0x76,0x00, 0x8e,0x01,0xc0,0xfe,0x45,0x00,0x3f,0x00, // 3440
0x19,0xff,0xef,0xff,0x57,0x01,0xf6,0xff, 0x88,0xff,0x8d,0xff,0xaf,0xff,0x90,0x00, // 3456
0x68,0xfe,0xcd,0x00,0x2f,0x00,0x48,0xfe, 0x86,0x00,0xe4,0xff,0x4f,0xfd,0x53,0x01, // 3472
0x38,0x01,0xba,0xff,0x5f,0x00,0xfc,0xfd, 0xe7,0xfe,0x16,0xff,0xa3,0x00,0xa0,0x00, // 3488
0x42,0x00,0x0d,0xfe,0x26,0xff,0x98,0x00, 0x01,0xff,0xca,0xff,0x06,0x00,0xc1,0x02, // 3504
0xc6,0xff,0x36,0x04,0x03,0xff,0xab,0xff, 0xd7,0xfe,0x52,0xff,0xbd,0xfe,0xa3,0x01, // 3520
0x1e,0x01,0xa6,0xff,0x0a,0x00,0x3f,0x00, 0x66,0xfe,0x9b,0xff,0xea,0xfd,0x40,0xfe, // 3536
0xe3,0xff,0xcd,0xff,0x4d,0xf8,0xa7,0xfe, 0x1a,0x02,0xaa,0xff,0xb5,0x01,0x5d,0x01, // 3552
0xb4,0xff,0x06,0x01,0x38,0x01,0xb1,0x00, 0xf0,0xfe,0x1b,0x01,0xdd,0xff,0x02,0xfe, // 3568
0x31,0xff,0xa2,0xff,0x45,0xfd,0xd6,0xff, 0x13,0x00,0x27,0xfc,0xa2,0xff,0x2c,0xff, // 3584
0xeb,0xff,0xd8,0x00,0xfd,0xff,0x49,0x00, 0x59,0xfe,0x63,0x00,0x58,0x01,0xef,0xfd, // 3600
0x6f,0x00,0x21,0x01,0x1a,0x00,0xa5,0xff, 0xba,0xfe,0x3c,0xfd,0x4f,0x00,0x2f,0xff, // 3616
0x9c,0x00,0x5e,0x00,0x53,0xff,0x95,0xfe, 0x51,0x00,0xe9,0x00,0x78,0xfe,0xa2,0xfd, // 3632
0x43,0x01,0xc9,0xff,0xe4,0xfc,0x4b,0x00, 0xfb,0x00,0xe8,0xfe,0xda,0xff,0x52,0x00, // 3648
0x1e,0x00,0x7e,0xff,0xc6,0xff,0xdc,0xff, 0xde,0xfd,0x2d,0x00,0xee,0xfc,0xf3,0x01, // 3664
0x95,0xfe,0xf3,0xfd,0x6f,0x00,0x17,0xfe, 0x2a,0x00,0x9f,0x00,0x08,0x01,0x6b,0x00, // 3680
0x22,0x00,0x17,0xff,0x8a,0xfc,0x0e,0x02, 0xb4,0xff,0x39,0xff,0x8d,0x02,0x76,0xff, // 3696
0xeb,0xfe,0xd6,0x04,0xdf,0xfd,0xd0,0xff, 0x50,0xfd,0x0f,0xff,0xb3,0xff,0x02,0xfe, // 3712
0x4e,0xff,0xb6,0x01,0x88,0xfb,0xe1,0x01, 0xa0,0x01,0x0e,0xff,0xa9,0xff,0x8f,0x00, // 3728
0x1c,0x01,0xd6,0x00,0x8b,0x02,0x0b,0x01, 0xd3,0x03,0x6b,0xff,0x90,0xff,0x2d,0x01, // 3744
0xa4,0xfd,0x75,0x01,0x77,0x00,0x1a,0xff, 0xa6,0xff,0x12,0x01,0xd9,0xff,0xf1,0xff, // 3760
0x08,0x00,0x5e,0xff,0xa3,0xff,0x91,0xff, 0x2a,0x00,0x40,0x00,0x1a,0x00,0x45,0x01, // 3776
0x14,0x00,0xe0,0xff,0x37,0xfe,0x9c,0xff, 0xb3,0xff,0x5d,0x00,0xbd,0x03,0x89,0xff, // 3792
0xb2,0x01,0xc3,0x00,0x73,0xfe,0x20,0xff, 0x53,0xfb,0x76,0xff,0x8e,0xff,0x0b,0x00, // 3808
0x96,0x00,0x8b,0x00,0x5d,0x00,0x01,0x02, 0x1c,0x00,0xf7,0x00,0xe5,0xff,0xd4,0x01, // 3824
0x79,0xff,0x84,0x00,0x7a,0xfd,0x0d,0xfd, 0x9f,0xff,0x24,0x00,0x97,0xff,0x66,0xff, // 3840
0xe1,0x00,0x5c,0x01,0x52,0xff,0xd4,0x00, 0x00,0x00,0x40,0x01,0xd9,0x01,0xcc,0xff, // 3856
0xcf,0x00,0x51,0x02,0x24,0x01,0xaa,0x01, 0x26,0x03,0x52,0xfd,0x5e,0xff,0xdd,0xff, // 3872
0x04,0x01,0xb2,0xff,0x25,0xfe,0xb7,0x01, 0x55,0x00,0x16,0x00,0x15,0xff,0x16,0x01, // 3888
0x96,0xff,0x79,0x01,0xfb,0xff,0xe1,0xff, 0xbe,0xfd,0x1d,0x01,0xbe,0xfd,0x76,0xff, // 3904
0x6c,0x00,0x82,0xfe,0xb1,0xff,0x52,0x04, 0x21,0xfe,0xe3,0xff,0x2f,0x00,0xc0,0xff, // 3920
0xf2,0xfe,0xea,0x00,0x8e,0xff,0x54,0x00, 0xe8,0x01,0x7c,0x03,0x14,0x01,0x2d,0x00, // 3936
0xf2,0x00,0xc3,0x00,0xd5,0x00,0xcd,0xff, 0x19,0x00,0x0b,0x01,0x07,0xff,0x3b,0x00, // 3952
0xde,0x02,0x8f,0x00,0xad,0x00,0x11,0x00, 0x08,0x00,0xb3,0xff,0x11,0x00,0x3d,0x03, // 3968
0x17,0x01,0xa3,0xff,0x2b,0x01,0xae,0x00, 0xa7,0xfd,0xfe,0x02,0xac,0xfa,0x18,0xfc, // 3984
0x2c,0xfc,0xa5,0x01,0x88,0x00,0xde,0x00, 0x98,0xfc,0xf7,0xff,0x93,0xff,0xd9,0xfe, // 4000
0xb9,0xfe,0x6c,0xff,0x4f,0xff,0xc6,0xff, 0xe2,0x04,0x29,0xfb,0x09,0x02,0x96,0xfe, // 4016
0x1a,0x02,0x84,0xff,0x68,0x04,0xc3,0x00, 0x81,0xfc,0xa4,0xff,0xc9,0x00,0xa5,0xfc, // 4032
0xe8,0xff,0x06,0x00,0xe1,0x00,0xb3,0x00, 0x13,0x00,0xf7,0xff,0xbf,0xfe,0x5f,0x00, // 4048
0x34,0xfc,0x75,0x00,0x16,0xfc,0x2b,0x00, 0x4f,0xff,0x89,0x00,0x1c,0x02,0x1c,0xff, // 4064
0x98,0xff,0x28,0xff,0xb6,0x00,0xe2,0xff, 0xf4,0x01,0x91,0xff,0x8d,0x00,0x76,0xfe, // 4080
0xb7,0xfc,0xf2,0x00,0xb9,0xff,0x45,0x00, 0xd2,0x00,0xa0,0xfe,0x74,0x00,0xdc,0xfe, // 4096
0x83,0x00,0xe0,0x00,0xcb,0x00,0xaf,0xfa, 0x47,0xff,0x7f,0x05,0xf1,0xff,0x30,0x01, // 4112
0xb7,0xff,0x53,0x00,0x65,0xfb,0x73,0x03, 0xdd,0xff,0x3f,0xfe,0xb4,0xff,0x7a,0x02, // 4128
0x83,0xff,0x1c,0x00,0xc1,0xff,0x6d,0xff, 0xb9,0x00,0x6f,0x01,0xf9,0x00,0x05,0x03, // 4144
0x71,0xfe,0x68,0xfd,0xd1,0xff,0x05,0x00, 0xe7,0x01,0xc5,0xfb,0x96,0xff,0x51,0xff, // 4160
0x1c,0x00,0xa0,0xff,0x42,0xff,0xd3,0x00, 0xaf,0x00,0xe9,0x01,0xe6,0xff,0x64,0x01, // 4176
0xe5,0xfe,0xc9,0x00,0x83,0x00,0x7d,0x01, 0x6c,0x00,0x82,0x05,0xb7,0x02,0xfa,0x03, // 4192
0x52,0xfe,0x67,0xff,0x81,0x00,0x97,0xff, 0x28,0x00,0x77,0x00,0x9c,0x02,0x4a,0x00, // 4208
0xe8,0xfd,0x43,0x00,0xa4,0xfe,0xc3,0xfe, 0x8c,0x01,0xb7,0xfe,0x40,0x00,0x46,0xff, // 4224
0x1c,0x00,0x06,0x01,0x52,0xfb,0x3e,0x04, 0xc7,0xfe,0xa0,0xff,0xd2,0xff,0xc0,0xff, // 4240
0x03,0x00,0x99,0xff,0x5b,0xff,0xdf,0xfe, 0x11,0x00,0x0d,0x00,0x0f,0x01,0x32,0x00, // 4256
0x21,0xff,0xf4,0x01,0x6c,0x01,0x57,0x01, 0xbd,0x01,0xf1,0xff,0x2a,0x00,0x48,0x00, // 4272
0xbd,0x02,0x20,0xff,0x93,0xfd,0x8d,0xff, 0x98,0xff,0x5f,0x00,0x3f,0x00,0xa9,0xff, // 4288
0x5e,0xf7,0x03,0x00,0xc3,0x00,0xbf,0xff, 0x37,0xff,0xee,0xff,0xb8,0xfe,0x00,0x00, // 4304
0x19,0x02,0x73,0xfc,0x7f,0x00,0x71,0x06, 0x74,0xff,0x41,0x00,0xc8,0xff,0xf9,0xff, // 4320
0x89,0x00,0xbb,0x00,0x41,0xfb,0x15,0x00, 0xf2,0xff,0xc1,0x00,0x2b,0x01,0xb5,0xff, // 4336
0xf2,0x00,0xdf,0xff,0x25,0x00,0xa6,0xff, 0x55,0x00,0x4b,0x00,0xe5,0x00,0xed,0xff, // 4352
0xa1,0xfe,0x5f,0xff,0x39,0x00,0x5a,0xff, 0x7c,0xff,0x27,0xff,0x4e,0x00,0xad,0xff, // 4368
0x43,0x01,0x30,0x00,0x6f,0x00,0x10,0x00, 0xa1,0xff,0xed,0x01,0xa6,0xff,0x47,0xff, // 4384
0xbf,0xff,0xa8,0xfe,0x72,0xfa,0xf0,0xff, 0x33,0x00,0xb1,0xff,0x8b,0x06,0xf3,0xfe, // 4400
0x92,0x01,0xb9,0xff,0x24,0x00,0x86,0xf8, 0x51,0x00,0x66,0x00,0xae,0xfe,0xf9,0xff, // 4416
0xd2,0x00,0xf2,0xff,0x99,0xff,0xf9,0xff, 0x5a,0x02,0x4e,0x01,0x24,0x00,0x02,0x00, // 4432
0x29,0x02,0x11,0x09,0x81,0xfc,0xc7,0xff, 0xf4,0xff,0x22,0x00,0xff,0xff,0x0b,0x00, // 4448
0x2d,0x00,0x56,0xfe,0xea,0xff,0xf3,0xff, 0x1d,0x03,0xbd,0x00,0x81,0xfd,0x44,0x00, // 4464
0xe1,0xff,0x83,0xff,0x9a,0xfa,0x23,0x00, 0xaa,0xfb,0xf2,0xff,0x3e,0xff,0xc2,0xff, // 4480
0x3c,0x00,0x21,0x01,0x97,0xff,0x15,0x00, 0xe5,0xff,0xf5,0x01,0xc1,0xff,0xdd,0x00, // 4496
0xa1,0x03,0x8a,0x00,0x8b,0xff,0x52,0x00, 0x69,0x00,0xce,0xff,0x7c,0x01,0xa8,0xfe, // 4512
0x35,0x00,0xc6,0x00,0x92,0xff,0xbc,0xfd, 0x92,0xff,0x20,0x01,0x1b,0x01,0x1d,0x00, // 4528
0x57,0x01,0xda,0xfe,0xfa,0xfe,0xee,0xff, 0xc3,0xff,0xf4,0xfe,0xe6,0x02,0xa8,0x00, // 4544
0x3d,0x02,0x93,0x00,0x4f,0x00,0xae,0x00, 0x50,0x03,0x34,0xfe,0x3d,0x00,0x24,0x00, // 4560
0x6e,0xff,0x95,0xff,0xbb,0xfe,0xc3,0x00, 0x1a,0xfd,0x67,0x00,0xeb,0xff,0x42,0xff, // 4576
0xfd,0xfe,0xcd,0xfe,0x54,0xff,0x3d,0xff, 0x69,0x00,0x76,0xfd,0x79,0xff,0xf9,0x02, // 4592
0xcf,0xff,0x46,0x01,0x6e,0x00,0xd0,0xfd, 0xfb,0xff,0x7e,0xff,0xe3,0xfe,0x6a,0x01, // 4608
0x6b,0x00,0xed,0xff,0x65,0x00,0x77,0x00, 0xb5,0xff,0x53,0x00,0xd3,0xff,0x29,0x00, // 4624
0x8b,0xfe,0x9a,0x00,0x9e,0xfe,0xc0,0xfe, 0x15,0xfd,0xc5,0xff,0x40,0xff,0xbf,0x01, // 4640
0x76,0x00,0xb0,0xff,0xdd,0xfe,0x69,0x00, 0xd4,0xff,0x6d,0xff,0xde,0xff,0x2b,0xff, // 4656
0x03,0x01,0x7b,0x02,0xb5,0xff,0x22,0x00, 0xeb,0x00,0x98,0xff,0x8a,0xff,0x32,0x01, // 4672
0x0b,0xff,0xe3,0xff,0xd5,0x00,0x7d,0xff, 0x76,0xfe,0xdf,0xfe,0xb0,0xfe,0x79,0xfc, // 4688
0xda,0xff,0x68,0x00,0x11,0xfd,0x05,0xfe, 0x74,0xff,0x2e,0xfe,0xea,0x00,0x45,0x00, // 4704
0xd7,0x00,0x93,0x00,0x54,0xff,0x9f,0xfe, 0xc9,0xff,0x32,0x04,0x4a,0xff,0xf3,0xfd, // 4720
0x32,0x01,0xcc,0xff,0x44,0xff,0x81,0x00, 0x5b,0x00,0x99,0xfb,0xc6,0x00,0x37,0x01, // 4736
0xda,0x02,0x9e,0xff,0x6e,0xfe,0xec,0x00, 0x29,0x01,0x34,0x00,0x9e,0xff,0xa8,0xfe, // 4752
0x49,0xff,0x0d,0xff,0x5b,0xfb,0xad,0xff, 0xa6,0x00,0xf2,0xff,0x0a,0x01,0xdc,0x00, // 4768
0x2a,0xff,0xae,0xff,0x53,0xff,0xdb,0xff, 0x21,0xff,0x9a,0xff,0x50,0xfb,0xb2,0x00, // 4784
0xc1,0xff,0x3f,0xfe,0xf4,0xff,0xa7,0xfe, 0xd6,0xff,0x02,0xff,0x51,0xff,0x37,0xff, // 4800
0x17,0x00,0x45,0x01,0x74,0xfd,0x2c,0x00, 0x82,0x05,0x36,0xfd,0x89,0x00,0x7c,0xff, // 4816
0xd2,0xff,0x5a,0x04,0xb4,0xff,0xab,0x00, 0x5d,0xff,0xf8,0x00,0xa7,0xff,0xa9,0xfe, // 4832
0x86,0xff,0x54,0x00,0x22,0xff,0x06,0x01, 0xba,0xff,0xc7,0x00,0xab,0xfe,0xac,0xff, // 4848
0xeb,0xff,0x2a,0x00,0xa0,0x00,0x48,0xfc, 0xba,0x00,0x98,0xfd,0x3c,0xff,0xee,0x00, // 4864
0x1c,0x00,0x3f,0x00,0x09,0xff,0xef,0xff, 0x3a,0x00,0x39,0x00,0x9c,0xfe,0xc9,0xff, // 4880
0x61,0x00,0x13,0xfd,0x82,0xff,0xa9,0x00, 0x83,0x00,0xad,0xff,0xf7,0x00,0x9d,0xff, // 4896
0x83,0xfd,0x25,0xff,0x38,0x00,0x06,0x02, 0xd7,0x00,0xf7,0x00,0xd8,0x01,0x1d,0x00, // 4912
0x1e,0x00,0xab,0x00,0x38,0xff,0x93,0xff, 0x60,0xff,0x13,0xff,0x3c,0x00,0x2f,0xff, // 4928
0xf6,0xfe,0xe1,0xfe,0x4a,0x00,0xeb,0x00, 0x28,0xff,0x7d,0x00,0xdf,0xff,0x79,0xff, // 4944
0x6d,0x01,0x20,0x00,0x3f,0x00,0xda,0xfe, 0xa4,0x00,0xbf,0xfe,0xdb,0xff,0xfd,0xff, // 4960
0x1a,0x00,0x83,0xff,0x8d,0x00,0xad,0xff, 0xe9,0x00,0xb3,0xfe,0xd6,0xff,0x49,0xfd, // 4976
0xfc,0x00,0x2f,0x00,0x1e,0x00,0x9b,0x03, 0x18,0x00,0xe6,0xff,0x8b,0x00,0x68,0x00, // 4992
0x81,0x00,0xa4,0xff,0x87,0x00,0x5f,0x00, 0x0e,0xff,0x3d,0xff,0x7d,0x00,0x77,0x02, // 5008
0x38,0x04,0x48,0x00,0x1e,0xff,0xac,0x00, 0x38,0xff,0x3d,0x00,0xe4,0xff,0xb2,0x01, // 5024
0xbc,0xff,0xe7,0xff,0x09,0x00,0x1f,0x00, 0xe6,0xff,0x38,0x00,0x4b,0xff,0x4e,0x00, // 5040
0x6e,0xfe,0xc8,0xfe,0x9a,0x00,0xb5,0xff, 0x52,0xff,0xa7,0x00,0x70,0x01,0x87,0xff, // 5056
0x38,0x00,0x86,0xff,0x89,0xff,0x46,0xff, 0x34,0x00,0x8c,0xff,0xca,0xff,0x19,0x00, // 5072
0x33,0xfc,0x61,0x00,0x2e,0x00,0xa0,0xfe, 0x8f,0xff,0xdd,0xff,0xc7,0xfe,0x98,0xff, // 5088
0x28,0xff,0xe0,0x01,0x04,0x01,0x95,0xff, 0x8d,0xfe,0x3e,0x02,0xb3,0x00,0x35,0x05, // 5104
0xd2,0xff,0xd7,0xff,0x5e,0xff,0x9c,0x00, 0xf4,0xff,0x55,0xfe,0x3a,0xff,0x6f,0xff, // 5120
0xb2,0x01,0x95,0xff,0xb5,0xff,0xeb,0xff, 0x9b,0x00,0xb2,0x02,0xde,0x00,0x44,0x00, // 5136
0xd0,0xff,0xca,0x01,0x5c,0xfb,0x74,0xfe, 0x6c,0x00,0x5b,0xfd,0x4f,0x00,0x2c,0xff, // 5152
0x5d,0x00,0x4d,0x00,0x16,0x00,0x11,0xfc, 0xc3,0xff,0x47,0x02,0x77,0xfa,0x6f,0x00, // 5168
0xfa,0x05,0x1c,0x00,0x04,0x06,0x55,0x01, 0x64,0x03,0x0b,0x00,0x9a,0xfd,0x5a,0x00, // 5184
0xd3,0xff,0x65,0x00,0x3c,0x01,0x3f,0x00, 0xc9,0x01,0xbc,0xfe,0x53,0x00,0x64,0x02, // 5200
0x55,0xfe,0x3e,0xff,0x78,0xff,0x1f,0x00, 0xd2,0xff,0xf7,0x00,0x90,0xff,0x32,0xff, // 5216
0x29,0x00,0x92,0x01,0xe2,0xff,0x13,0x03, 0x03,0x00,0x75,0xff,0xbf,0x01,0x9b,0x00, // 5232
0x2a,0x00,0x1e,0x00,0x36,0xff,0x4a,0xfc, 0x0d,0xff,0x43,0x00,0xa3,0xff,0xd0,0xfe, // 5248
0x16,0x00,0x6a,0x00,0x62,0xff,0xa4,0x00, 0x83,0xfd,0x9c,0xfe,0x14,0x01,0x50,0x00, // 5264
0x98,0xfe,0x22,0x00,0x96,0xff,0x38,0x00, 0xaa,0xfc,0x8c,0xfe,0x2b,0x02,0xe3,0xfe, // 5280
0x22,0x00,0x54,0x00,0xc9,0xff,0xcf,0xff, 0x86,0xff,0x58,0xff,0x49,0x00,0x3b,0x00, // 5296
0xc6,0xfd,0xa5,0xfc,0x10,0x01,0x94,0xff, 0x00,0x00,0x2a,0xfd,0x29,0x00,0xed,0x01, // 5312
0x04,0x03,0xfe,0xff,0xc2,0xfe,0x4a,0x00, 0x49,0x01,0x0c,0x00,0xf0,0xfe,0xa8,0xff, // 5328
0xa5,0x00,0x9e,0xfe,0x86,0x00,0x34,0xfe, 0x6f,0xfd,0x2c,0x00,0x04,0xff,0xd2,0x01, // 5344
0xa5,0xff,0x4c,0xfe,0x61,0x01,0xa2,0xff, 0x37,0xff,0x10,0xff,0xb5,0x00,0x20,0x00, // 5360
0x83,0x02,0x29,0x00,0xc1,0xfe,0x7c,0x00, 0x0e,0x00,0xca,0xff,0x2c,0x01,0xd9,0xff, // 5376
0xe1,0xfe,0xf1,0x01,0xe6,0xfd,0x6e,0x01, 0xea,0xfd,0x57,0xff,0x2b,0x00,0x0d,0xff, // 5392
0xc7,0xfd,0x63,0xff,0x0d,0xfe,0x9d,0x00, 0x7d,0x02,0x25,0x01,0x44,0x00,0x6f,0xff, // 5408
0x8f,0x01,0xf3,0xff,0x4d,0x00,0x44,0x00, 0x47,0x00,0x09,0xff,0x28,0xff,0x60,0x01, // 5424
0xc6,0xff,0xef,0xfe,0x26,0x00,0x07,0xfe, 0x13,0x00,0xc2,0xff,0x65,0xfc,0xe3,0xfe, // 5440
0xe2,0xff,0xc5,0x00,0x8c,0xfe,0x3b,0xff, 0x20,0x00,0xe8,0xff,0x5e,0x01,0x38,0x00, // 5456
0x04,0x00,0x23,0xf8,0x54,0x00,0x39,0x00, 0xe2,0x00,0x25,0x00,0x85,0x00,0xf1,0x01, // 5472
0xdc,0xff,0x8e,0x00,0xcf,0xff,0x25,0x00, 0xe7,0xfd,0x0b,0x00,0x7b,0x00,0xe6,0xfa, // 5488
0xca,0xff,0x71,0x00,0x1a,0x00,0xb7,0x00, 0x16,0xfc,0x00,0x01,0x45,0x00,0x50,0x00, // 5504
0x21,0x00,0x2e,0x00,0xbc,0x01,0x1a,0xff, 0x26,0x02,0x3d,0xfb,0xf3,0xfe,0xc6,0xfe, // 5520
0xc5,0xfe,0x98,0x00,0x44,0x01,0x1b,0xff, 0x44,0x06,0xf4,0xff,0x19,0x00,0x70,0xff, // 5536
0xc7,0xff,0x3b,0x00,0xf6,0x00,0xb1,0x00, 0x6b,0xfd,0x94,0xff,0x2f,0x00,0xcd,0x01, // 5552
0x0b,0xff,0x67,0xfb,0x5f,0x02,0xcc,0x00, 0x62,0xfe,0x64,0xfe,0x5d,0x01,0x11,0x00, // 5568
0xd8,0xff,0x6b,0x00,0xe7,0xfd,0xaa,0xff, 0x14,0xfa,0x22,0xff,0x2d,0x00,0x6f,0xff, // 5584
0x76,0xfe,0xc5,0xff,0xe9,0x00,0x8b,0x02, 0xa0,0x00,0x1d,0x01,0xc9,0xff,0xee,0xff, // 5600
0x01,0x00,0x03,0x00,0x6e,0xff,0x86,0xfe, 0xaa,0x00,0x2b,0x00,0x5e,0x00,0x1b,0xff, // 5616
0xb0,0xfe,0xcb,0x00,0x05,0x01,0xa7,0xff, 0xed,0xff,0xdd,0xff,0x96,0x00,0x02,0x01, // 5632
0x45,0xff,0x78,0xff,0x80,0xfd,0x53,0x00, 0x95,0x00,0xa8,0x01,0x6c,0x01,0x88,0xff, // 5648
0xca,0xff,0x06,0xff,0xae,0xfe,0xf7,0xff, 0x47,0xff,0x2d,0x00,0xa4,0x00,0x0e,0x00, // 5664
0xfb,0x00,0xde,0xff,0xfa,0xff,0xae,0x00, 0x22,0x00,0x60,0xff,0x77,0xff,0xed,0xff, // 5680
0x19,0x00,0x2f,0x00,0x05,0x01,0x64,0xff, 0x79,0x00,0x60,0x01,0x9d,0x00,0x0b,0x00, // 5696
0x05,0xff,0x6e,0xff,0xaa,0xff,0xcc,0xff, 0x9c,0xff,0x2f,0xff,0x12,0xff,0xb8,0x00, // 5712
0x9f,0x00,0xd9,0xff,0xbf,0xff,0x58,0xfe, 0xee,0xff,0x29,0x00,0xbd,0xfe,0x43,0x00, // 5728
0x17,0x00,0x81,0xff,0x84,0x00,0xa2,0x00, 0xb5,0xff,0xbf,0xff,0x17,0xff,0x40,0x00, // 5744
0x80,0x00,0xbc,0xff,0x13,0xfe,0x41,0x00, 0x3a,0xfe,0x4e,0x00,0x34,0x00,0xa3,0x00, // 5760
0xb9,0x00,0x2d,0xfe,0x43,0x00,0x8b,0xff, 0xe0,0xfe,0x31,0x01,0x9b,0xff,0x7a,0xff, // 5776
0x8f,0xff,0xef,0xff,0x66,0x00,0x32,0x00, 0x74,0x00,0x7f,0xff,0x2d,0x00,0x5c,0x00, // 5792
0x98,0x00,0xe6,0xff,0xef,0xff,0xd9,0xff, 0x4c,0xfd,0x3a,0x00,0x01,0x00,0x71,0xff, // 5808
0xe1,0xff,0x54,0xff,0x17,0x01,0xe7,0xff, 0xa5,0xff,0xe4,0xff,0x84,0x00,0x70,0xff, // 5824
0x13,0x00,0xa0,0x00,0x08,0x00,0xa1,0x00, 0x09,0x00,0x18,0x00,0x0b,0x00,0x7f,0x00, // 5840
0xf4,0xff,0xc6,0xff,0x5c,0x00,0x8f,0xfd, 0x0c,0x00,0xfe,0xff,0x81,0xff,0x4d,0xff, // 5856
0x0a,0xff,0x2d,0xff,0x26,0x00,0x63,0xff, 0x30,0xff,0x5c,0x00,0xe4,0xff,0x92,0xff, // 5872
0xff,0xff,0x8c,0x00,0xdd,0xff,0x35,0x00, 0x32,0x00,0xe1,0xfe,0x37,0xff,0x90,0xff, // 5888
0x35,0x00,0x29,0x00,0xcd,0xff,0xe5,0xff, 0xef,0xff,0x54,0x00,0x40,0x00,0x5f,0x00, // 5904
0xae,0xff,0xb4,0xff,0x0d,0x00,0x75,0xff, 0x85,0x00,0x88,0x01,0x94,0xff,0xae,0x00, // 5920
0xb8,0xfe,0xc8,0xff,0x10,0x00,0x60,0x00, 0x2c,0xff,0x99,0x01,0xb7,0xfe,0xf7,0xfe, // 5936
0x32,0x01,0xf5,0xfe,0xee,0x01,0x87,0xff, 0xb5,0x00,0x44,0xff,0x64,0xff,0xd6,0xff, // 5952
0x2f,0x01,0x38,0x00,0xc7,0x00,0x92,0xff, 0x8c,0x00,0x69,0xff,0xba,0x00,0x48,0x01, // 5968
0x68,0xff,0xca,0xff,0x01,0x00,0x0b,0x00, 0xf5,0xfe,0xe1,0x00,0x31,0x00,0xe4,0xfe, // 5984
0x62,0x00,0x70,0xff,0xb7,0xff,0x78,0x00, 0x40,0x00,0x54,0x00,0xbb,0x01,0x65,0x00, // 6000
0x62,0xff,0x51,0xff,0x82,0x00,0x6f,0xff, 0x71,0x00,0x30,0xff,0x04,0xff,0x9e,0x00, // 6016
0xfd,0xff,0x53,0x00,0x64,0x00,0xde,0xff, 0x6d,0xff,0xad,0x00,0x8b,0xff,0xda,0xff, // 6032
0x9f,0xff,0xb9,0xff,0x02,0xff,0x96,0x02, 0x3d,0x01,0x0c,0x00,0x98,0xfe,0x79,0x01, // 6048
0x8f,0xff,0x4e,0x01,0x9b,0xff,0x71,0xff, 0x47,0x00,0xc1,0xfe,0xbb,0xfe,0x4c,0x00, // 6064
0xc4,0xff,0x0c,0x00,0xf5,0x01,0x86,0xff, 0x6e,0xfe,0xac,0xff,0xf7,0x00,0x3c,0x00, // 6080
0xec,0xfd,0x26,0x00,0x16,0xff,0xd0,0xff, 0xd8,0xff,0x95,0xff,0x8d,0xff,0x76,0x00, // 6096
0x1e,0x00,0x46,0xff,0x54,0x00,0x36,0xff, 0x31,0xfe,0x71,0x00,0xd6,0xfe,0xa8,0xfe, // 6112
0xaf,0xfe,0x20,0x01,0x7e,0x01,0x53,0x00, 0x92,0x01,0x08,0x04,0xcb,0xfe,0x0a,0x00, // 6128
0xad,0xff,0x0a,0xff,0x58,0x01,0x51,0xff, 0xba,0xff,0x1d,0x00,0xa6,0x00,0xb5,0xff, // 6144
0x4f,0x00,0x6c,0xff,0xce,0xff,0x29,0xff, 0x57,0x01,0x5b,0xfe,0x94,0xff,0xd4,0x00, // 6160
0x18,0x01,0x18,0x00,0x5a,0xff,0x92,0x01, 0x0c,0x00,0x52,0xff,0x37,0x01,0x39,0xff, // 6176
0x36,0xfe,0x7f,0x00,0x4f,0xff,0xc7,0x00, 0xc9,0xff,0x05,0x00,0xbf,0xff,0xa1,0xfe, // 6192
0x48,0x00,0xcc,0x01,0x4c,0x00,0xc3,0xfe, 0xc1,0xff,0x32,0x00,0xf8,0xff,0x38,0x00, // 6208
0xd9,0xff,0x00,0x00,0xfa,0x00,0xf4,0xff, 0x20,0x00,0x20,0x00,0x55,0xff,0xca,0xff, // 6224
0x07,0xff,0xe3,0xff,0x77,0x00,0x52,0x00, 0x86,0xff,0xd5,0x00,0xdf,0xfe,0xf6,0xff, // 6240
0x43,0xff,0xff,0xfc,0x3f,0x00,0x02,0x01, 0xe6,0x00,0x5f,0x00,0x0a,0x00,0x33,0x00, // 6256
0x03,0x01,0x4e,0xff,0xec,0xff,0x86,0x00, 0x1e,0xff,0x37,0x00,0x86,0x00,0xa4,0xff, // 6272
0xb6,0xff,0x25,0x00,0xfe,0x00,0x58,0xff, 0x98,0x00,0xce,0xff,0x2c,0x00,0x0e,0x01, // 6288
0x43,0x00,0x6b,0x00,0xd0,0xff,0xdd,0x00, 0xb3,0xff,0xdd,0x00,0xf2,0xff,0xb1,0xff, // 6304
0xba,0xfe,0xdd,0xfe,0x72,0x00,0x9c,0xfe, 0x24,0xff,0x77,0xff,0x8c,0x00,0x41,0x00, // 6320
0xaa,0xff,0x12,0xff,0x4e,0xff,0x18,0x01, 0xed,0xff,0x0a,0x00,0x2c,0x00,0x0d,0x00, // 6336
0xc1,0x01,0xf4,0xff,0xfe,0xff,0x2c,0x00, 0xea,0xff,0x52,0x00,0xb7,0xfe,0xaf,0xff, // 6352
0xca,0xfe,0xef,0x00,0x47,0xff,0xb9,0xff, 0xb2,0xfe,0xb9,0xff,0x4c,0xff,0x72,0x00, // 6368
0x1a,0xff,0x63,0x00,0xc9,0xff,0x12,0x00, 0x08,0x01,0x6a,0x00,0x7f,0x00,0x90,0xff, // 6384
0xea,0x00,0xcb,0xff,0xd2,0xfe,0xe2,0xfe, 0x68,0x00,0x59,0xff,0x7f,0xff,0x5e,0xff, // 6400
0xe5,0x00,0x03,0x00,0xfb,0xfe,0x58,0x00, 0x67,0x00,0xc9,0xff,0x34,0x01,0xde,0xff, // 6416
0xeb,0xff,0xd6,0x00,0x29,0x00,0x63,0x00, 0x7c,0x00,0x56,0x00,0x2f,0x01,0x23,0x00, // 6432
0xb8,0xff,0x67,0xff,0x58,0x00,0xc7,0xff, 0x92,0xff,0x8a,0xff,0x80,0x00,0xbb,0x00, // 6448
0x3b,0x00,0xb8,0x00,0x39,0x00,0xe9,0xff, 0x79,0x00,0xea,0xff,0x9a,0xff,0x08,0x00, // 6464
0x4f,0x00,0x81,0x00,0xea,0xff,0x58,0x00, 0x08,0x01,0x3c,0x02,0x8f,0x00,0x24,0xfc, // 6480
0xb5,0xfb,0xcf,0x00,0xfc,0xff,0x0a,0x02, 0x8b,0x01,0xf9,0xfe,0x57,0x00,0xde,0xff, // 6496
0x92,0xfe,0xed,0x00,0xc1,0xff,0x48,0xff, 0x19,0x00,0x25,0x01,0x2a,0x00,0xcc,0xff, // 6512
0x96,0xff,0x7a,0xff,0x08,0x01,0xc9,0x00, 0x91,0xfd,0xe7,0xfe,0x2a,0xfe,0x49,0x03, // 6528
0x99,0x00,0x52,0xff,0xc1,0x01,0x26,0xfe, 0xe2,0xff,0x13,0xff,0x73,0x00,0xc9,0xfd, // 6544
0x03,0xff,0xc5,0xff,0x0c,0xff,0x26,0xff, 0x42,0x00,0x14,0x01,0x59,0x03,0xed,0xfd, // 6560
0xbf,0xff,0xee,0xfe,0x9d,0x01,0x96,0x04, 0x13,0xff,0xd6,0xff,0x2f,0xfe,0xde,0x00, // 6576
0xa5,0xfe,0xad,0x02,0x85,0x00,0x8b,0x00, 0xb8,0xfd,0x8d,0x00,0x91,0x00,0xdb,0xfc, // 6592
0x66,0x00,0x4b,0xfb,0xc4,0xff,0x77,0x01, 0x14,0xff,0xc2,0xfe,0x6e,0xfd,0x65,0x03, // 6608
0x43,0x00,0xac,0xfe,0x2c,0x00,0xcc,0xfd, 0x5c,0x03,0xa6,0x01,0xda,0xff,0xed,0xfd, // 6624
0xee,0xff,0x37,0x02,0xa4,0x00,0x29,0x01, 0x11,0xfd,0xc5,0x01,0x83,0xfd,0xb5,0x00, // 6640
0xa6,0xff,0x76,0xfe,0x3b,0xfc,0x96,0xff, 0xd5,0xfd,0x12,0x00,0x64,0xfb,0x0c,0xff, // 6656
0x42,0x00,0xc9,0xfe,0x32,0x01,0x5a,0x02, 0x36,0x00,0xa3,0xff,0x96,0xfe,0x6e,0xfc, // 6672
0x42,0xff,0x0a,0xff,0x38,0xff,0xf5,0xfc, 0x0e,0x03,0xb0,0x02,0x95,0xfd,0x8d,0x01, // 6688
0xea,0x01,0x59,0xfd,0x43,0x04,0x86,0x01, 0x62,0x03,0xa8,0x00,0x6b,0xfb,0x0d,0x02, // 6704
0x69,0x03,0xd6,0x01,0x00,0x03,0x6b,0x00, 0x2e,0x00,0xeb,0xfc,0x08,0xfc,0x3a,0x00, // 6720
0xa1,0x00,0x5e,0xff,0x3b,0x03,0xe7,0x02, 0x86,0xfe,0x54,0x00,0x44,0xfe,0x5f,0xfd, // 6736
0x93,0xff,0x03,0xfd,0xbc,0xfb,0xbd,0x01, 0x08,0x00,0x3e,0xfe,0x80,0xfd,0xd1,0x00, // 6752
0xc3,0xff,0x54,0x00,0x21,0xfe,0x88,0xff, 0xf7,0xff,0xa4,0x00,0x97,0xfe,0xa6,0xff, // 6768
0x82,0xff,0xaf,0xff,0x96,0xff,0x7c,0xff, 0x75,0xff,0xd6,0x01,0x08,0x01,0x0a,0x00, // 6784
0x94,0x01,0x0d,0xfb,0x90,0xff,0xd3,0xfe, 0xe6,0x05,0x4f,0x00,0x64,0xfd,0xbd,0x00, // 6800
0x53,0xff,0x5c,0xff,0x2f,0x02,0x6d,0x00, 0x63,0xfd,0xce,0x00,0x5b,0x00,0x46,0x03, // 6816
0xc8,0xfe,0x97,0xfe,0xa7,0xff,0xc2,0x00, 0x09,0x00,0xeb,0xfe,0x7b,0xfe,0x75,0x03, // 6832
0x23,0x00,0xe8,0x01,0xf1,0xff,0x75,0xfe, 0xd8,0xff,0x35,0x01,0x82,0xff,0x9d,0x01, // 6848
0xeb,0xff,0xd9,0xff,0x25,0x00,0x5f,0xfe, 0x5b,0x00,0x7f,0xff,0x88,0x00,0x78,0x01, // 6864
0xe8,0xff,0xbe,0x01,0xc8,0x00,0x00,0x00, 0xc1,0xfe,0xd5,0x00,0x81,0xfe,0x34,0xff, // 6880
0x5b,0x00,0x09,0xff,0x12,0xff,0x3c,0x00, 0x2b,0x00,0x22,0x04,0x24,0x00,0xb4,0x00, // 6896
0x1f,0x00,0xaa,0x02,0x99,0xff,0xf9,0xff, 0x39,0x00,0x52,0xff,0xad,0xfd,0x26,0xfe, // 6912
0xaf,0xff,0x65,0x00,0xb4,0x02,0x65,0xff, 0x99,0x00,0xe5,0x03,0x93,0xff,0x42,0xfd, // 6928
0x5d,0x00,0xfa,0xff,0x57,0xff,0xa0,0xff, 0x78,0x00,0xc5,0xfd,0x3d,0x01,0xab,0x01, // 6944
0xeb,0x01,0xbe,0x00,0x52,0xff,0x38,0xff, 0x0a,0x00,0x2d,0x04,0x22,0xff,0x51,0x00, // 6960
0x4d,0x00,0x62,0x00,0x62,0xff,0xb2,0xff, 0xa0,0xfd,0xda,0xfc,0x33,0x00,0x1d,0xfd, // 6976
0xa3,0x01,0xa6,0x00,0xad,0xfc,0x39,0xfc, 0x5f,0x00,0xfc,0xff,0x5c,0xfe,0x4f,0x00, // 6992
0x56,0xff,0xb0,0xff,0x60,0xfd,0xfc,0xff, 0x34,0xff,0xc1,0xff,0x54,0x00,0xf3,0x00, // 7008
0xd3,0x07,0xcc,0x00,0x01,0x01,0x8f,0x00, 0x42,0x00,0x9d,0xff,0x77,0xfe,0x22,0x00, // 7024
0xe2,0xff,0x4f,0xfe,0xfc,0x00,0x37,0xfc, 0x44,0x00,0x07,0x00,0xab,0xff,0xe7,0x00, // 7040
0xdb,0xff,0x90,0x01,0xd7,0x04,0xee,0x00, 0x12,0x00,0x2b,0xff,0xb1,0xf8,0xef,0xff, // 7056
0x54,0x02,0x4c,0xfa,0x83,0xff,0x64,0xff, 0x2b,0x00,0x56,0x00,0xf4,0xff,0x7f,0x00, // 7072
0xe9,0xfc,0x9d,0xff,0x06,0x03,0x51,0x00, 0xb9,0xff,0xeb,0xff,0xd1,0xff,0x37,0x00, // 7088
0xec,0x06,0xae,0x00,0xfd,0xfe,0x51,0xff, 0x04,0xff,0x13,0xff,0x9f,0x00,0x46,0xff, // 7104
0xfc,0xfe,0x80,0x03,0x97,0xfe,0x97,0xfa, 0xf6,0xff,0x81,0xff,0x5c,0x00,0x5f,0xff, // 7120
0xe5,0xff,0x5e,0xfe,0x3a,0x04,0xa7,0xfe, 0xa9,0x00,0xcd,0xff,0x50,0xff,0x17,0x00, // 7136
0xc7,0xfd,0x74,0x00,0x9f,0xff,0xe1,0x01, 0xb9,0xff,0x00,0x00,0x94,0xf9,0x14,0x00, // 7152
0x15,0xfe,0xe1,0x00,0xcd,0xff,0x10,0x01, 0xfc,0x02,0x55,0x00,0xdc,0xff,0x26,0x00, // 7168
0x7c,0xff,0x71,0xfe,0xd2,0xff,0xbc,0xff, 0x2e,0x00,0x9e,0xfd,0x94,0xff,0x3f,0x01, // 7184
0x31,0x00,0xc4,0xff,0xf4,0x03,0x26,0x00, 0xcc,0xff,0x19,0x00,0x9f,0xfa,0x62,0x00, // 7200
0x5e,0xfb,0x89,0xff,0xfa,0xff,0x3d,0x06, 0xae,0xff,0x5f,0xff,0x6f,0x03,0x5b,0xff, // 7216
0x00,0xff,0x0c,0x00,0x5b,0x00,0x6e,0xfd, 0x37,0xfe,0x22,0x00,0x02,0x00,0xd2,0xff, // 7232
0x1f,0xfd,0x49,0xf7,0xb6,0x02,0xea,0x01, 0x34,0x00,0x14,0x00,0xd7,0xff,0xfc,0xff, // 7248
0xc8,0xff,0x9e,0x00,0x24,0x00,0x46,0x00, 0xbc,0xfe,0xa3,0xff,0xad,0x04,0x13,0x00, // 7264
0x33,0x00,0x1c,0xff,0xd7,0x05,0xf1,0xfc, 0xdd,0x03,0x23,0x00,0x8a,0x01,0x9d,0xff, // 7280
0xcf,0xfe,0xd7,0xfe,0x99,0xfe,0x60,0x00, 0x31,0xff,0x6f,0xfe,0x67,0xff,0xa8,0xff, // 7296
0x5a,0xfc,0x78,0x01,0xc8,0x00,0xc5,0xff, 0x38,0x00,0xfd,0xff,0x0c,0xff,0xfe,0x02, // 7312
0x31,0x03,0xb2,0xff,0x27,0x00,0xcd,0xff, 0x8e,0x01,0xfa,0x02,0x00,0x00,0x4d,0x04, // 7328
0x1c,0x00,0x69,0xf9,0x65,0xff,0x13,0x00, 0x0c,0xfe,0xa7,0x02,0x7b,0xfd,0xbe,0xfe, // 7344
0x7f,0xfc,0x35,0xff,0x20,0xfe,0xad,0xff, 0xa4,0xfc,0x79,0x01,0x9f,0xfd,0x48,0x00, // 7360
0x6e,0xff,0xe6,0x00,0x81,0x00,0x65,0xff, 0xa6,0x02,0xbd,0xff,0x76,0x03,0x99,0xff, // 7376
0xf6,0x01,0xd2,0xfb,0xaa,0xff,0x4b,0x02, 0xdb,0xfc,0x7c,0x00,0xb9,0xfe,0x22,0xff, // 7392
0xc9,0x01,0x80,0xff,0x65,0xfd,0x3c,0xfe, 0xf1,0xfd,0xc9,0xfd,0xcd,0x00,0x16,0x00, // 7408
0xd1,0xfd,0xb4,0xfd,0xf7,0xfd,0xde,0x01, 0x20,0xf7,0xe3,0xfa,0x9b,0x01,0xc1,0x01, // 7424
0x4b,0x00,0x5e,0x00,0x83,0xff,0x35,0x01, 0x67,0x00,0xde,0x00,0xd4,0xff,0x89,0x00, // 7440
0xe0,0xfc,0x2f,0xff,0x5d,0x00,0x00,0xfd, 0xb6,0xfe,0xec,0xfd,0x51,0xff,0xac,0x00, // 7456
0xda,0xfe,0x11,0x02,0x0e,0x00,0xd8,0xfe, 0x05,0x09,0x55,0x02,0x9a,0xff,0xeb,0xff, // 7472
0x5e,0x00,0xd4,0xfa,0xb5,0xfc,0x6d,0x00, 0x23,0xfd,0x35,0x00,0x7d,0x00,0xce,0xff, // 7488
0xbf,0x04,0x2f,0xfd,0xc6,0x00,0x80,0xfb, 0xaa,0x03,0x24,0x01,0xd1,0x04,0x40,0x01, // 7504
0x16,0x02,0xa0,0xfd,0x8e,0x00,0x99,0x00, 0x05,0xff,0x3d,0xfe,0xcd,0xfe,0x05,0x00, // 7520
0x70,0xff,0xfb,0xfe,0x8a,0x00,0x45,0x00, 0x45,0x00,0xc5,0x00,0x7b,0xff,0xc0,0xff, // 7536
0x90,0xfe,0x74,0x03,0xd1,0xff,0xd8,0xff, 0x7c,0xff,0x22,0x01,0x61,0x02,0x0a,0x03, // 7552
0x3f,0xfe,0x9f,0x00,0x84,0x00,0x67,0x00, 0xcb,0xfe,0xb2,0xf7,0x05,0x00,0x81,0xff, // 7568
0x33,0x00,0xc3,0x02,0x22,0x00,0xd0,0xfe, 0x6c,0xff,0x8b,0x00,0x80,0x00,0xc1,0xff, // 7584
0x46,0xfc,0xa6,0x00,0xa9,0xfd,0xad,0x02, 0x7c,0xff,0x32,0xfe,0xbd,0xff,0xd5,0x03, // 7600
0x05,0x04,0x78,0xff,0x1e,0xff,0xb4,0xfd, 0x87,0xfe,0x43,0x01,0xfe,0xff,0xb8,0xff, // 7616
0x34,0x01,0x5c,0x00,0x7d,0xff,0xc0,0x00, 0xcc,0xff,0x11,0xfd,0x7f,0xff,0xf7,0xff, // 7632
0xa8,0xff,0x3e,0x00,0xe0,0xfe,0x62,0xff, 0x52,0x01,0xc2,0x00,0xc9,0x01,0xe6,0xfc, // 7648
0xae,0xfe,0x25,0x00,0xfb,0xfd,0x1c,0x02, 0xc6,0xff,0x92,0x01,0xd7,0xff,0xc5,0x01, // 7664
0xae,0x01,0xb1,0x00,0xb7,0x00,0x89,0x00, 0x03,0x00,0x74,0xff,0x2b,0xfc,0xe2,0x02, // 7680
0xc8,0xff,0xb6,0x00,0x46,0xff,0x45,0xfc, 0xea,0x00,0xc7,0xff,0xdf,0x00,0xd1,0xfe, // 7696
0x78,0x01,0x48,0xfd,0xb8,0xff,0x86,0xff, 0xaf,0x02,0x76,0xff,0x73,0xff,0xf9,0x02, // 7712
0xb0,0x00,0x08,0x04,0x62,0x00,0xb3,0xfe, 0x71,0x00,0x22,0x01,0x17,0x02,0xb0,0xfc, // 7728
0xda,0xff,0x84,0x01,0x67,0xff,0xfe,0x01, 0x46,0xfb,0x5f,0xfe,0x15,0x00,0xc0,0x00, // 7744
0xdd,0xff,0xfc,0xfd,0x1f,0xff,0xd2,0xfd, 0xb7,0x02,0x87,0xfd,0x29,0x02,0x40,0xff, // 7760
0xb2,0x01,0xd5,0x02,0xd6,0x02,0x36,0x00, 0x38,0x02,0xe2,0xff,0xbb,0x03,0xf6,0x00, // 7776
0x31,0xff,0xa7,0x01,0x9a,0xfe,0x84,0xff, 0x8d,0xff,0xac,0x00,0x07,0x01,0xd5,0x03, // 7792
0xa4,0x00,0x11,0x01,0xb6,0x00,0x6b,0x03, 0x74,0xfc,0x39,0xfd,0xce,0x02,0x15,0xff, // 7808
0x57,0xfe,0x18,0x03,0x18,0xfc,0xb7,0xfe, 0xa5,0xfd,0x6b,0xff,0x11,0x04,0xbb,0xfd, // 7824
0xf5,0xfb,0x7f,0xfe,0x5a,0xfd,0x8f,0x00, 0x5a,0xff,0x3d,0x03,0x74,0x03,0x0d,0x00, // 7840
0x7b,0xff,0x85,0x00,0xdd,0xfc,0x69,0xfc, 0x9e,0x01,0x7a,0x00,0x59,0x01,0xf6,0x01, // 7856
0x95,0x01,0x7b,0x03,0x6e,0x05,0xdd,0xfe, 0x7f,0xff,0x00,0x02,0xef,0x01,0x5f,0xff, // 7872
0xa7,0x01,0xb2,0xff,0x55,0x01,0x05,0x01, 0xb4,0x01,0x86,0xff,0x0c,0xff,0xa8,0x01, // 7888
0x08,0x02,0x9f,0x00,0x2d,0x00,0x60,0xff, 0xa7,0x00,0x74,0xff,0x57,0xf7,0xea,0xfe, // 7904
0x04,0xfa,0xef,0x01,0x98,0xff,0xfa,0xfe, 0x50,0xec,0x15,0x00,0x88,0x02,0xc6,0x00, // 7920
0xbe,0x01,0xf4,0xff,0x7b,0xfe,0x00,0x00, 0x21,0x07,0x9a,0xff,0xe7,0xfe,0x9a,0xfc, // 7936
0xd3,0x01,0x7e,0x01,0x78,0x01,0x39,0x00, 0xe6,0xfc,0x29,0x02,0xb3,0xff,0x77,0xf9, // 7952
0x62,0x00,0x06,0xff,0x16,0xff,0xfb,0x00, 0xc6,0xff,0xcf,0xfe,0xc2,0x00,0x5d,0xfe, // 7968
0x1d,0x00,0xb6,0xff,0x3a,0xfe,0x11,0x00, 0xa1,0x00,0x86,0xfd,0x70,0x00,0xf9,0xff, // 7984
0x57,0x00,0xab,0x00,0x2a,0x00,0xc1,0x00, 0x8b,0x03,0xb2,0xff,0x4e,0xff,0xff,0xff, // 8000
0x4b,0xff,0x8e,0x00,0xab,0x00,0xeb,0xfe, 0x24,0x00,0xfa,0xfa,0x8b,0x00,0xeb,0x00, // 8016
0x7a,0xff,0xd2,0xfd,0x86,0xff,0x67,0x01, 0x66,0x00,0x61,0x02,0x80,0x07,0x2f,0xff, // 8032
0x40,0x00,0xb0,0xfd,0x96,0xfa,0x20,0x01, 0x45,0x00,0x55,0xfe,0x56,0x00,0x23,0x05, // 8048
0xa8,0x01,0xa6,0xff,0x07,0x01,0x91,0x01, 0x7d,0xff,0x9a,0x00,0xeb,0xff,0xf0,0xff, // 8064
0xc5,0xfc,0xf6,0xfe,0x6c,0x00,0x90,0x00, 0xb8,0xff,0x97,0xf7,0xce,0x04,0xc3,0x00, // 8080
0xbc,0xff,0x55,0xff,0x56,0x00,0x28,0x01, 0x4c,0x02,0x83,0x01,0xf1,0xff,0x32,0x01, // 8096
0x11,0xfa,0xfc,0xff,0x29,0x01,0x68,0x01, 0x32,0xff,0x49,0x00,0x2b,0x03,0x1a,0x02, // 8112
0xac,0x03,0x4f,0x00,0xbf,0x01,0xc8,0xff, 0x47,0xff,0xc3,0xff,0x77,0x00,0x40,0x00, // 8128
0xdb,0xfc,0xbb,0xff,0xd6,0x00,0xf0,0xfe, 0x27,0xff,0x85,0xff,0x3c,0x01,0x9c,0xff, // 8144
0x9e,0xff,0xb4,0x00,0x44,0xfe,0x97,0x0b, 0x5b,0x00,0x3f,0x00,0x81,0x04,0x43,0x00, // 8160
0x4c,0x00,0x0f,0xff,0x8c,0x00,0x79,0x00, 0x54,0x00,0x65,0x00,0x4e,0x00,0xce,0x00, // 8176
0xb3,0xff,0xf0,0xff,0xa6,0xf8,0x64,0xff, 0x00,0xfb,0x74,0x01,0xf7,0xff,0x60,0x00, // 8192
0x2b,0xf3,0xc9,0xff,0x04,0x00,0xca,0xff, 0xe2,0xff,0xa9,0xff,0x60,0xfd,0xb4,0xff, // 8208
0xae,0x05,0x62,0xff,0x5e,0xff,0x24,0xff, 0xbd,0x01,0x5f,0x00,0x3c,0x00,0x5a,0x00, // 8224
0x20,0xfe,0x79,0x00,0x87,0x00,0x66,0xf9, 0xed,0xff,0xc2,0xff,0xfe,0xff,0x91,0x00, // 8240
0xb2,0xff,0x1c,0x00,0x3b,0xff,0x76,0xff, 0xdd,0xff,0x64,0x00,0x24,0xff,0x95,0xff, // 8256
0x67,0xff,0xb4,0xff,0x84,0x00,0x49,0xff, 0x30,0x00,0x1f,0xff,0xc5,0xff,0xfa,0xff, // 8272
0x08,0x03,0xcf,0xff,0x73,0x00,0xaa,0xff, 0x59,0xfe,0x81,0x00,0x55,0x00,0x77,0xff, // 8288
0x72,0x00,0x35,0xff,0x4e,0x00,0x60,0xff, 0x31,0x00,0xce,0xfe,0xb9,0x00,0xe0,0xff, // 8304
0x79,0xff,0xfc,0x00,0x43,0x01,0xe8,0x00, 0xe8,0xff,0x1e,0xff,0xf2,0xfb,0xa5,0x00, // 8320
0x57,0x00,0x80,0xfe,0xb1,0xff,0x2c,0x04, 0xe6,0x00,0x47,0x00,0x3c,0x00,0xf5,0x00, // 8336
0x46,0x00,0x25,0x01,0x4f,0x00,0xa9,0x00, 0xf7,0xfe,0x42,0xfe,0x14,0x00,0xf6,0xff, // 8352
0x39,0x00,0xe2,0xf8,0x00,0x01,0x63,0x00, 0xbe,0xff,0x36,0x00,0xe2,0xff,0xa5,0x01, // 8368
0x99,0x00,0x4b,0x01,0x32,0x00,0xb6,0x02, 0xd6,0xfc,0xda,0xff,0x0f,0x01,0xcc,0x01, // 8384
0xc1,0xff,0x37,0x00,0x29,0x02,0xad,0x02, 0xc1,0x00,0xea,0xff,0xc7,0x00,0xe6,0xff, // 8400
0xc0,0xff,0x18,0x00,0xa2,0x00,0xe3,0xff, 0x85,0xfe,0x94,0xff,0xb8,0xff,0x54,0xff, // 8416
0xce,0x00,0xc9,0xff,0x89,0x00,0x84,0xff, 0x13,0x00,0xc1,0x00,0x23,0xff,0x99,0x07, // 8432
0x07,0xfc,0x56,0x00,0x38,0x00,0x45,0xff, 0x72,0xff,0x0e,0xfd,0xa4,0xfe,0xcd,0xfe, // 8448
0x36,0x00,0x79,0x03,0xf5,0x03,0x47,0x00, 0xf7,0xfd,0xfe,0x02,0xfe,0xfe,0xcd,0x05, // 8464
0x9b,0xff,0xdc,0xff,0xe0,0xff,0xb7,0xff, 0xd7,0xff,0xa5,0xfd,0x78,0xff,0x07,0x00, // 8480
0x58,0x02,0x69,0xff,0x3b,0x00,0x6b,0x00, 0x39,0xfe,0xf3,0x00,0x96,0x00,0x26,0x00, // 8496
0x4b,0x00,0xf9,0x01,0x8e,0xfc,0x9c,0xfe, 0x63,0x00,0x59,0xfd,0xae,0x01,0x6c,0x00, // 8512
0x3a,0xfe,0x04,0x00,0x12,0x01,0xe0,0xfe, 0xdb,0x01,0xba,0x00,0x42,0xfa,0xc4,0x00, // 8528
0x86,0x04,0x49,0x02,0xf2,0x04,0x55,0x00, 0xba,0x06,0x33,0x00,0x5a,0xff,0x74,0xfe, // 8544
0xb9,0xff,0x7a,0xff,0xde,0x03,0x67,0xff, 0x72,0x01,0xc0,0xfe,0x44,0x00,0x9f,0x00, // 8560
0x8b,0xfd,0x4b,0xfd,0x92,0xff,0x69,0x00, 0xa5,0x05,0x14,0x00,0x18,0x01,0xf3,0xfe, // 8576
0x90,0x00,0xa7,0xff,0x71,0x01,0x8c,0x00, 0x00,0xfe,0x2f,0x00,0x97,0x00,0xbf,0x00, // 8592
0xdb,0xff,0x8b,0x00,0x6d,0x00,0xdf,0xfd, 0x2b,0x01,0x13,0x00,0x62,0xff,0x55,0xfe, // 8608
0x15,0x00,0xc9,0x00,0x49,0xfe,0xc3,0x02, 0x83,0xfd,0xca,0xfe,0xf1,0xff,0x73,0x00, // 8624
0xb1,0xff,0xd4,0xff,0x80,0xff,0xe0,0xff, 0x20,0x00,0xbd,0x00,0x2f,0x00,0xd5,0xff, // 8640
0x62,0x00,0x77,0x00,0x09,0x00,0xb0,0xff, 0xcf,0xff,0x22,0x00,0xa3,0x00,0xe6,0xff, // 8656
0x4c,0xff,0x5f,0xfc,0x2d,0x00,0xe4,0xff, 0x58,0x00,0x0f,0xff,0x10,0xfe,0x42,0x02, // 8672
0x2f,0x00,0x7f,0xff,0xf9,0xff,0x85,0xff, 0x98,0x01,0x09,0x04,0x48,0x00,0x99,0x00, // 8688
0x94,0x00,0x87,0xfe,0x05,0x01,0x0c,0x00, 0x72,0x00,0x94,0xff,0xe1,0xff,0x9d,0x01, // 8704
0x49,0x02,0xb8,0xfd,0x93,0x01,0xc1,0xff, 0x89,0xff,0xe2,0xfe,0x3d,0x03,0x00,0x00, // 8720
0x76,0x00,0x25,0x00,0x01,0x02,0xc6,0xff, 0x85,0x00,0x6e,0xff,0x11,0x02,0x9a,0x03, // 8736
0x71,0xfd,0x65,0x02,0x84,0xff,0xac,0x00, 0xd3,0xfe,0x52,0x00,0x36,0x00,0xc8,0x01, // 8752
0x13,0xff,0xe9,0xff,0x31,0xff,0x88,0xff, 0xbc,0x00,0x37,0x01,0x47,0xfe,0xb8,0xff, // 8768
0xa3,0xff,0x8e,0xff,0x59,0x01,0x81,0x00, 0xf2,0x00,0x65,0xfd,0x9a,0xff,0x4d,0x01, // 8784
0x20,0x00,0x7a,0x00,0x83,0xff,0x2d,0x00, 0x6d,0xff,0x3a,0x00,0xc9,0xff,0x59,0x00, // 8800
0x05,0x00,0xd1,0xff,0x52,0xff,0xb2,0xff, 0x47,0x00,0xcc,0x00,0x3e,0x00,0x40,0x01, // 8816
0x61,0x00,0xec,0xff,0x54,0x00,0x20,0xff, 0x73,0x00,0x94,0xfe,0xae,0x00,0x41,0x00, // 8832
0xc5,0xff,0xa3,0xff,0x81,0x00,0x2a,0xff, 0x8e,0xfc,0x72,0xff,0x0d,0x01,0x24,0x00, // 8848
0xf7,0x00,0xe4,0xff,0x67,0x01,0xbc,0xff, 0x59,0xff,0x53,0x02,0x71,0x02,0xa3,0xff, // 8864
0x35,0x00,0x09,0x00,0xf0,0xfe,0x96,0x02, 0xcd,0x00,0x46,0xff,0x35,0x00,0x2d,0x00, // 8880
0xf2,0xff,0x3a,0x00,0xd3,0x00,0x5a,0xff, 0x9c,0x00,0x27,0x01,0x55,0x01,0xcf,0xfd, // 8896
0x65,0xff,0x87,0x01,0xfc,0x02,0x20,0x03, 0x98,0x00,0x34,0x00,0x8e,0x00,0x19,0x00, // 8912
0xe2,0xff,0xb0,0x00,0x28,0xff,0xd8,0xff, 0x95,0xff,0x8b,0xfe,0x85,0x00,0xa9,0x01, // 8928
0x40,0xff,0xc9,0x00,0xba,0xff,0x73,0x01, 0x39,0x01,0x41,0xff,0x48,0xff,0x14,0x00, // 8944
0xa4,0xff,0x2a,0x00,0x38,0x00,0x7d,0x02, 0x46,0xff,0x20,0x00,0x32,0x01,0x8c,0xff, // 8960
0xa1,0xff,0x94,0xff,0x90,0x01,0xb5,0xff, 0x25,0x00,0x84,0xff,0x45,0xfd,0x8a,0xfe, // 8976
0x25,0x00,0xba,0xfd,0x38,0x01,0x35,0xff, 0x56,0x00,0x8a,0x00,0x6e,0x00,0x40,0x01, // 8992
0x97,0x00,0xd9,0xff,0x46,0x04,0x40,0xfe, 0xce,0xff,0x47,0xff,0x2f,0xfe,0x7d,0x00, // 9008
0x17,0x03,0x9d,0xfe,0xcd,0x02,0xae,0x01, 0x74,0xfd,0xa2,0x03,0x56,0xff,0x2b,0x00, // 9024
0x07,0xff,0x57,0x01,0x1b,0xff,0x6d,0x00, 0x7c,0x00,0x63,0xff,0xf6,0xfe,0x66,0x00, // 9040
0xe1,0xff,0x70,0x00,0x61,0xfd,0x94,0xff, 0x19,0xff,0x1b,0x00,0x68,0x01,0xca,0xfe, // 9056
0xbd,0x01,0xc1,0xfe,0xcd,0xff,0xe4,0xff, 0x3b,0x00,0x71,0x01,0x5a,0x00,0xfc,0xff, // 9072
0x99,0x00,0xe4,0xff,0xf2,0xff,0x40,0x00, 0xb4,0xff,0x1e,0xfe,0xf3,0xff,0x43,0x01, // 9088
0xf1,0xff,0x65,0xff,0xbc,0xff,0x39,0x01, 0x2f,0xff,0x3b,0x00,0xf6,0xff,0x83,0xff, // 9104
0x83,0x00,0xd7,0xfd,0x6a,0x04,0x5c,0x00, 0x5b,0x01,0x81,0xff,0x53,0x01,0x47,0x00, // 9120
0x9b,0xfd,0x55,0xff,0x28,0x00,0x91,0xff, 0x20,0x01,0xdf,0xfe,0xfb,0x00,0x6d,0x00, // 9136
0x59,0xff,0x2c,0x01,0x8b,0x01,0x36,0x00, 0x49,0x00,0x81,0x00,0x7e,0xfe,0x44,0x00, // 9152
0x6d,0x00,0x2e,0x00,0x87,0x00,0xc3,0xff, 0x08,0x01,0x37,0xff,0xd5,0xff,0x72,0x00, // 9168
0x42,0x00,0x93,0x00,0x47,0xff,0x71,0xfe, 0x6e,0xff,0x0f,0x00,0x67,0x01,0xb9,0x05, // 9184
0x77,0x00,0x3f,0xff,0x47,0x00,0x5b,0x00, 0x51,0x00,0x4d,0x01,0x7e,0xfe,0x50,0xff, // 9200
0xcd,0xff,0x11,0x00,0xd7,0xff,0x99,0x05, 0x14,0x02,0x03,0x01,0xd1,0xff,0x85,0x02, // 9216
0xfb,0x00,0xb5,0xff,0x47,0xff,0x6b,0x01, 0xc1,0xff,0xce,0xff,0x76,0xff,0x39,0x02, // 9232
0x45,0xff,0x64,0x00,0xc3,0xff,0xc6,0xff, 0xd7,0xff,0x2f,0xff,0xb3,0x01,0xdc,0xff, // 9248
0x1d,0x00,0xda,0xff,0xa8,0x00,0x5d,0x00, 0x21,0x01,0xaa,0xfe,0xee,0xfe,0x80,0x00, // 9264
0x6e,0xff,0x4c,0xff,0xad,0xff,0x08,0x00, 0x6b,0x01,0x3a,0xfe,0x25,0x01,0x2a,0x00, // 9280
0x8d,0x04,0x54,0xff,0x22,0x02,0xb5,0x02, 0x5f,0x01,0x29,0x00,0x53,0x00,0x7d,0x00, // 9296
0xdc,0xff,0xfa,0xff,0x4f,0xfa,0xd1,0xfd, 0x73,0xfb,0x45,0x00,0xae,0xff,0xdc,0x00, // 9312
0x01,0xf6,0x83,0xff,0x4d,0x01,0xec,0xff, 0xb5,0xff,0xcb,0x01,0xaf,0xff,0x0f,0xff, // 9328
0x9b,0x06,0xf2,0xfe,0x6c,0x01,0x40,0xfe, 0x38,0x02,0xce,0xff,0xb4,0x01,0x82,0xff, // 9344
0x37,0xfd,0xd9,0x01,0x29,0x00,0xe2,0xf9, 0xf4,0xff,0x56,0xff,0x69,0xfc,0xa0,0x00, // 9360
0xe1,0xff,0x3d,0xff,0x9c,0x00,0x01,0x00, 0x1e,0xff,0x7f,0x00,0x98,0xfd,0x46,0x01, // 9376
0x2d,0xff,0x91,0xf9,0x2e,0x00,0x43,0xff, 0x12,0x02,0x64,0xfe,0x34,0x00,0x5d,0x02, // 9392
0x58,0x01,0x6a,0xff,0xaa,0x01,0x90,0x00, 0xea,0xfe,0x70,0x00,0x11,0x01,0xa5,0xfa, // 9408
0x10,0x00,0xe2,0xfc,0xfb,0xff,0x24,0xff, 0xa3,0xfd,0x64,0xfe,0xb3,0x00,0xaf,0xfe, // 9424
0xdf,0xff,0x4d,0x02,0x76,0x04,0xfb,0x00, 0xbe,0x02,0x76,0xf7,0xec,0xfa,0x37,0x02, // 9440
0x67,0xfe,0x51,0xff,0xda,0x01,0xbb,0x04, 0x74,0x06,0x33,0x00,0x0b,0x01,0x4b,0x00, // 9456
0xe3,0xff,0x76,0x01,0xec,0x00,0x13,0x01, 0xc2,0xfd,0xd4,0xfd,0xac,0x00,0x23,0x02, // 9472
0x58,0xff,0x90,0xf8,0xeb,0x02,0x95,0x00, 0xd6,0xfd,0xbc,0xfc,0x33,0x02,0x3f,0x01, // 9488
0x5b,0x01,0xe5,0x01,0xde,0xfd,0x32,0x00, 0xa4,0xfc,0xeb,0x00,0x01,0x01,0xca,0x00, // 9504
0x18,0xfd,0xf6,0x00,0x94,0x04,0xce,0x01, 0xfa,0x02,0x24,0x02,0x88,0x01,0xff,0xff, // 9520
0x06,0x00,0x56,0x00,0x52,0x00,0x6b,0xfe, 0xfc,0xfd,0xb2,0xff,0xe5,0xfe,0x9d,0xfe, // 9536
0x3f,0xff,0xc9,0xff,0xd4,0x00,0xfe,0xff, 0xf9,0xff,0x56,0x00,0x8d,0xfc,0x40,0x08, // 9552
0x1a,0x00,0x6d,0xff,0xdf,0x06,0x6f,0xff, 0x14,0x00,0x25,0xff,0xcb,0x00,0x13,0x01, // 9568
0x8f,0x00,0x19,0xff,0x00,0x03,0x37,0x01, 0x8d,0xfc,0xfb,0x01,0x76,0xfc,0x51,0xff, // 9584
0x91,0xfc,0xb7,0x02,0x3d,0x00,0x47,0x01, 0xc3,0xfc,0xdf,0xff,0xf3,0xff,0x10,0xff, // 9600
0x83,0xff,0x4f,0x00,0x39,0xfc,0xa0,0xff, 0xf1,0x01,0xa8,0xff,0x06,0x02,0xa6,0xfe, // 9616
0x58,0x01,0x3e,0xff,0xa4,0x00,0x9b,0xff, 0xab,0xfe,0x9b,0xff,0x8d,0x00,0xee,0xfc, // 9632
0xe0,0xfe,0xed,0xff,0x56,0xff,0xa2,0xff, 0x3e,0x00,0x10,0x00,0x8e,0xff,0x5e,0x00, // 9648
0x0f,0x00,0xc5,0x00,0xcf,0xfe,0x15,0x02, 0x70,0xff,0x12,0xff,0xc9,0xff,0x7d,0xfe, // 9664
0x22,0x00,0x46,0xff,0x6c,0x00,0x84,0x00, 0x3a,0x01,0x19,0xfe,0xc2,0x00,0x7e,0xff, // 9680
0x2c,0xfc,0xae,0xff,0x4c,0x00,0x08,0xff, 0x7d,0x01,0x43,0xff,0x3d,0x01,0x31,0xfe, // 9696
0x12,0x00,0xd5,0x01,0xde,0x00,0xa8,0xff, 0x0b,0xff,0xb0,0x01,0x7e,0xff,0x15,0x01, // 9712
0x84,0x00,0x35,0xfe,0x04,0xfd,0x96,0x00, 0xe2,0xff,0xc8,0xfd,0xd5,0xff,0x16,0x01, // 9728
0xd6,0x00,0x06,0x01,0xce,0xff,0xe0,0xfe, 0xf5,0xff,0x6b,0x00,0xe7,0x01,0x94,0x04, // 9744
0x37,0x00,0xf1,0xfe,0x35,0x00,0xc1,0xff, 0xe0,0xff,0xc1,0xfc,0x52,0xff,0x76,0xfe, // 9760
0x79,0xff,0xe3,0xff,0x14,0x00,0x79,0x02, 0xcd,0x00,0x76,0x00,0xd8,0xff,0x88,0x04, // 9776
0xbe,0x01,0x54,0x00,0xcc,0xff,0xcd,0x01, 0xf0,0xff,0xae,0x00,0x39,0x04,0x07,0x04, // 9792
0x37,0x00,0xe4,0xff,0x61,0x00,0x35,0xfe, 0x3d,0x00,0x78,0x00,0x07,0x02,0x13,0x00, // 9808
0xb8,0xfe,0xa4,0xff,0xa3,0xfe,0x04,0xfe, 0x36,0x00,0xbb,0xfe,0xd0,0xff,0x5f,0xff, // 9824
0xc2,0x00,0xbd,0x00,0x23,0xff,0x16,0x05, 0x56,0xff,0x52,0xfd,0x9e,0xff,0xf5,0xff, // 9840
0xaf,0x02,0xf2,0xff,0xf2,0xfd,0x16,0xff, 0x13,0x00,0xcc,0x00,0x24,0x00,0x33,0xff, // 9856
0x57,0x00,0x74,0x00,0x1f,0xff,0xe8,0x00, 0x9c,0xfe,0x97,0xff,0x2e,0x00,0x1d,0xff, // 9872
0xf0,0xfd,0xbf,0xff,0xad,0xff,0x51,0x00, 0x98,0x02,0x81,0x03,0x16,0x00,0x0e,0xfe, // 9888
0x1b,0x00,0xae,0xff,0xc1,0xfe,0x53,0xff, 0x42,0x00,0x2f,0x00,0x4b,0xff,0x59,0x00, // 9904
0xb6,0x00,0x11,0xff,0xbe,0xff,0xa7,0xff, 0x08,0x00,0xc2,0xff,0x60,0xfd,0x51,0xfe, // 9920
0x24,0x00,0xb4,0x00,0xa7,0xfe,0x21,0xfe, 0xf5,0xff,0x16,0x00,0x29,0x01,0x40,0xff, // 9936
0x30,0x01,0xc1,0xf8,0x01,0x00,0x66,0x00, 0x38,0x03,0xa3,0x00,0x25,0x00,0xc4,0x03, // 9952
0x9f,0x00,0xdd,0xff,0x92,0xff,0x3d,0x00, 0xab,0xfe,0x89,0xff,0x10,0x01,0xf9,0xfc, // 9968
0xfb,0xff,0xa2,0x00,0xcd,0xff,0xf6,0x00, 0xe0,0xfa,0x63,0x00,0x35,0x00,0x1b,0x01, // 9984
0x80,0xff,0xe2,0xfe,0x58,0x02,0x62,0xff, 0x43,0x03,0x0e,0xfb,0x72,0x00,0x97,0xfe, // 10000
0x8d,0xff,0x17,0x00,0x32,0x02,0x63,0xfe, 0x8e,0x04,0x28,0x00,0xc3,0xff,0xaa,0x00, // 10016
0xef,0xff,0xc1,0xff,0x6e,0xff,0xe7,0xff, 0x38,0xfd,0x8e,0x00,0x7f,0x01,0x70,0x02, // 10032
0x57,0xfe,0x51,0xfe,0xc3,0x02,0xb6,0x00, 0x3a,0xfd,0xb2,0xff,0x19,0x02,0x09,0x00, // 10048
0x80,0x01,0xaa,0xff,0x94,0xfc,0xa6,0xff, 0xa4,0xfb,0xb2,0xff,0x35,0x01,0xc7,0xff, // 10064
0x72,0xfd,0x31,0xff,0xe5,0xfe,0x9a,0x01, 0x43,0x01,0xd8,0x01,0x74,0xff,0x39,0x00, // 10080
0x36,0x00,0x36,0x00,0xd6,0xff,0xf2,0xfd, 0xeb,0xff,0x03,0x00,0xee,0x01,0x88,0xff, // 10096
0x01,0xff,0xb3,0xff,0xe0,0xff,0x4d,0xff, 0x23,0x00,0x95,0xff,0xed,0x00,0xe4,0xff, // 10112
0x8a,0xff,0xaa,0xff,0xbb,0x00,0x23,0x02, 0x66,0x01,0x6f,0xff,0x39,0xff,0xc2,0xff, // 10128
0x36,0x00,0xa5,0x01,0x9a,0x01,0x2c,0x01, 0x6f,0xff,0x65,0x00,0xa4,0xfd,0x94,0xff, // 10144
0xb5,0xfd,0x3e,0xff,0xcd,0xff,0xa0,0xff, 0xbf,0xfb,0x73,0xff,0xdb,0xff,0x3e,0x00, // 10160
0x6c,0x00,0x89,0x00,0x64,0x00,0x48,0xff, 0x60,0x01,0x31,0xff,0x21,0xff,0xea,0x00, // 10176
0x0c,0x01,0xbb,0x00,0x52,0x00,0x77,0x01, 0x77,0x00,0x6f,0x00,0xc7,0x00,0x7e,0xfe, // 10192
0xf3,0xff,0x04,0xff,0x9f,0xff,0x41,0x01, 0xc8,0xff,0xc1,0xff,0xd6,0xfe,0xbf,0xfd, // 10208
0x04,0xff,0x0d,0x00,0x34,0x00,0xaa,0xfe, 0x9c,0x00,0xa0,0xff,0x55,0x01,0x4a,0xff, // 10224
0xb1,0x00,0xc7,0xfe,0xa6,0x00,0x8c,0x00, 0x2e,0x02,0x8f,0x01,0xde,0x00,0xf6,0xfd, // 10240
0x85,0xfe,0x8d,0x01,0x5b,0x01,0xd7,0xff, 0xed,0x00,0xa2,0xfe,0xe9,0xff,0xea,0x00, // 10256
0x3d,0xff,0x32,0x00,0xa0,0x00,0xfb,0xff, 0x97,0xff,0x1f,0x00,0x98,0x00,0x78,0x00, // 10272
0x3d,0x00,0x46,0xff,0xe0,0xfd,0x6a,0x00, 0x85,0xff,0x14,0x00,0xb5,0x00,0x2b,0x02, // 10288
0xb3,0x00,0x9d,0x00,0x3e,0x01,0xa5,0xff, 0x99,0xff,0x36,0x01,0x85,0xff,0x2f,0x00, // 10304
0x9a,0xfe,0x9c,0xff,0x0f,0x01,0x89,0x00, 0x97,0x00,0x53,0xfd,0xcc,0x00,0x0b,0x01, // 10320
0x02,0xff,0x2c,0xfe,0x43,0x00,0x15,0x00, 0x2d,0xff,0xd4,0x03,0x38,0xff,0x95,0xff, // 10336
0xc9,0xfa,0xad,0xff,0x15,0x04,0xb3,0xff, 0x15,0xff,0xc4,0xff,0x19,0x00,0x4d,0x02, // 10352
0x8e,0xff,0xc6,0x00,0x91,0x03,0x68,0x00, 0x9c,0xff,0x76,0x00,0x3f,0xff,0x2f,0xff, // 10368
0x9e,0xff,0x2f,0x00,0xc7,0xff,0x83,0x00, 0xd8,0xff,0x5d,0x00,0xd7,0x03,0x6a,0xfd, // 10384
0xf4,0xff,0xae,0x01,0x70,0x00,0xc3,0x01, 0xa1,0xff,0xa7,0x00,0x5b,0x01,0x81,0x00, // 10400
0x09,0x00,0x39,0xfc,0x30,0xff,0xc2,0xff, 0x78,0xff,0x66,0x03,0x0e,0x02,0xb1,0x00, // 10416
0xee,0xff,0xaa,0x00,0x0e,0x00,0x3a,0xff, 0x88,0x00,0x3c,0x01,0x40,0x00,0xaa,0x00, // 10432
0x35,0x01,0x44,0xfe,0xcf,0x00,0x6d,0xff, 0x8f,0xfe,0xe8,0xfe,0x57,0xfe,0x25,0x00, // 10448
0x10,0xfe,0x49,0xff,0xe1,0xff,0x4d,0xff, 0xb0,0x00,0xce,0x03,0xad,0x00,0xb8,0xfe, // 10464
0xfc,0x00,0x8e,0xff,0xe2,0x02,0x84,0x00, 0x0e,0xff,0xe1,0xff,0xff,0x00,0x32,0x01, // 10480
0x5e,0x00,0x08,0x02,0xc8,0xfe,0xf0,0xff, 0xb6,0xff,0x2f,0x01,0x9d,0x00,0x92,0xff, // 10496
0x65,0x03,0x9e,0x01,0xd1,0x00,0xec,0xfc, 0xac,0xff,0x23,0xff,0x45,0x01,0xb3,0xff, // 10512
0x21,0x02,0x99,0xfe,0x82,0x00,0xfe,0xfe, 0x53,0x00,0x7e,0x00,0xc6,0xff,0x4a,0x01, // 10528
0x1d,0x00,0x65,0xff,0x90,0xff,0x2c,0xfe, 0x99,0x00,0xd3,0xfe,0xa8,0x00,0x86,0xfe, // 10544
0xb6,0xfd,0xff,0xff,0x8e,0xfe,0xa6,0x00, 0x87,0xff,0xfa,0x00,0x8a,0x01,0xbe,0x00, // 10560
0x83,0x02,0x34,0xff,0x31,0x00,0x4e,0xff, 0x5b,0xfe,0x4b,0x02,0xd0,0xff,0xac,0x02, // 10576
0x07,0xff,0x4e,0x00,0x79,0xfd,0x73,0x01, 0x76,0x00,0x9c,0xff,0xbc,0xff,0xec,0xff, // 10592
0xac,0x01,0x5e,0x01,0xf8,0xfd,0x04,0x00, 0x4e,0x00,0x83,0x00,0x6b,0xff,0x39,0x00, // 10608
0x70,0x00,0x76,0x01,0x0d,0x00,0x65,0x01, 0x9e,0x01,0x08,0xff,0x37,0x00,0x6e,0x01, // 10624
0x0b,0x00,0x4e,0x01,0xf7,0xfd,0xfa,0x00, 0xed,0xfe,0x88,0xff,0x6c,0x00,0x6c,0x00, // 10640
0x44,0x02,0x23,0x03,0xba,0x00,0xdc,0xff, 0x1e,0xff,0x7b,0x00,0x3d,0xff,0x8f,0x00, // 10656
0x78,0x01,0x29,0xff,0x48,0x00,0x1d,0x00, 0x0d,0x01,0x89,0x00,0xb8,0xff,0xde,0xfe, // 10672
0xbd,0x00,0x30,0x00,0x58,0xff,0x82,0x00, 0x8b,0x00,0x28,0xff,0x83,0xfe,0x4e,0x00, // 10688
0x7a,0xfe,0x4a,0x01,0x46,0x01,0x5a,0xff, 0x04,0x00,0x0c,0x01,0xdd,0xff,0xd9,0xff, // 10704
0x14,0xff,0x17,0xfd,0xe1,0xff,0xec,0xfe, 0xec,0xff,0xb3,0xff,0x18,0x00,0xbc,0x00, // 10720
0x11,0x01,0x8a,0xff,0xa7,0x02,0x01,0x00, 0x7f,0x00,0xdd,0xff,0xc3,0x00,0x31,0x02, // 10736
0x81,0x00,0x0f,0x00,0xdf,0xff,0xb0,0xff, 0x9a,0xff,0x63,0xff,0x24,0x01,0x1d,0x00, // 10752
0xc3,0xff,0xc4,0x00,0xfe,0xff,0xbc,0xfe, 0x02,0x00,0x42,0x00,0xe3,0xfd,0x09,0xff, // 10768
0x01,0x00,0x08,0x00,0x0a,0x00,0x3d,0x00, 0x09,0x01,0xf4,0xff,0xae,0xff,0x31,0xff, // 10784
0xa5,0xff,0xb3,0xff,0x11,0x01,0xff,0xff, 0x1a,0xff,0x01,0x00,0x48,0x00,0x19,0xff, // 10800
0x17,0xfe,0xc6,0xff,0xd2,0xff,0xe3,0xff, 0x98,0x00,0xeb,0x00,0x64,0x00,0x3d,0x00, // 10816
0xc9,0x00,0x2b,0x00,0x22,0x00,0x4d,0x00, 0xa9,0xff,0x83,0x00,0x1c,0x00,0x1f,0x00, // 10832
0x23,0x00,0xdc,0xff,0xb1,0xff,0xf9,0xff, 0x9d,0xff,0x69,0x02,0xef,0xff,0x43,0xff, // 10848
0x1a,0x00,0x01,0x00,0x10,0x02,0xfc,0xff, 0x1c,0xff,0xff,0x01,0x93,0x00,0xff,0xfe, // 10864
0x41,0xff,0xc7,0xff,0xa9,0xff,0xdb,0xff, 0x56,0xff,0xfa,0xff,0x58,0x00,0xd1,0x00, // 10880
0x10,0x00,0x84,0xff,0xff,0xff,0x33,0xff, 0x78,0xfd,0x13,0x01,0x3c,0x00,0x3e,0xfd, // 10896
0x4e,0xfe,0xd7,0xfe,0x34,0x01,0x2a,0xfd, 0xfb,0xff,0x10,0x00,0x4a,0x00,0x6a,0x01, // 10912
0xbd,0xff,0xcb,0xff,0x33,0x01,0x1a,0x00, 0xe5,0xff,0x4f,0x00,0x22,0x00,0x5c,0x00, // 10928
0x5a,0x01,0x22,0xff,0x91,0xff,0x41,0x00, 0x4e,0xff,0x0b,0x00,0x4e,0x01,0xa4,0xff, // 10944
0xe2,0xff,0x11,0x01,0x88,0xff,0xd7,0xff, 0x3a,0x00,0xec,0xff,0x6f,0x00,0xcb,0xff, // 10960
0x0c,0x01,0xb1,0x00,0x3c,0x01,0x4b,0x01, 0x8b,0xff,0xc3,0xfe,0x31,0x00,0x43,0x00, // 10976
0xc0,0xfe,0x1b,0x01,0xd3,0xfd,0xdb,0xff, 0xe9,0xfe,0x38,0x00,0x61,0x00,0x9a,0xff, // 10992
0x11,0xfb,0x4d,0x00,0xc0,0xfe,0x24,0x00, 0xab,0xfe,0x14,0x00,0xd8,0xff,0xb9,0xff, // 11008
0xbb,0x02,0xc6,0xff,0x52,0x02,0x6a,0x00, 0xb1,0xff,0xaf,0xfe,0xb8,0x00,0xa4,0x00, // 11024
0x87,0xff,0x67,0xff,0x06,0xff,0xb7,0xfe, 0x7e,0xff,0xdc,0xff,0x23,0xfd,0x5f,0xff, // 11040
0xb2,0x00,0x5b,0xff,0x5f,0x00,0x36,0x00, 0x66,0xff,0x75,0x00,0x5b,0xff,0x7d,0x01, // 11056
0x2c,0xff,0xb5,0xf9,0x7b,0x00,0x24,0x00, 0x06,0x00,0x90,0x00,0x82,0xff,0x76,0x00, // 11072
0xbd,0xfe,0xf4,0xff,0x99,0xff,0xc0,0xff, 0x6d,0xff,0xce,0xff,0x67,0x00,0xca,0xfb, // 11088
0xa1,0xff,0x23,0x00,0x7f,0x00,0x70,0xff, 0x64,0xff,0x5f,0x01,0x81,0x00,0x06,0xff, // 11104
0x59,0x00,0xba,0x00,0x87,0x00,0x70,0xff, 0x95,0x00,0x27,0xf7,0xd4,0xfd,0x0f,0x00, // 11120
0xbd,0xfe,0xd0,0xff,0x67,0x00,0x6c,0x00, 0xb0,0x07,0x7c,0x00,0xad,0x00,0xbd,0xfe, // 11136
0x2e,0x00,0x04,0x00,0x34,0x01,0x96,0x00, 0x0d,0x00,0x61,0x00,0xfb,0xff,0x1d,0x00, // 11152
0xd9,0x00,0x08,0xfd,0x61,0x00,0x9c,0xff, 0x82,0xff,0xd7,0xfe,0x34,0x00,0xe4,0xff, // 11168
0xac,0xff,0x0f,0xff,0xe9,0xff,0xbf,0xff, 0xea,0xfe,0x12,0x01,0xa5,0xff,0x0f,0x00, // 11184
0x4f,0xff,0x35,0x00,0x4f,0x02,0xb7,0xff, 0x71,0xff,0x2b,0x00,0xc8,0xff,0x26,0xff, // 11200
0x0f,0x00,0x3f,0xff,0x6a,0xff,0xe6,0xff, 0x21,0xff,0x60,0x00,0xbe,0xff,0xc6,0xff, // 11216
0x38,0x01,0x2c,0x00,0x3d,0xff,0xee,0xff, 0x79,0x00,0x66,0x00,0x49,0xff,0xa3,0x02, // 11232
0xbd,0xff,0x16,0x03,0x25,0x00,0xff,0xfe, 0xc3,0xfa,0x1d,0xff,0xfd,0xff,0xef,0xff, // 11248
0xca,0x00,0x3e,0x00,0x4d,0x00,0x12,0x01, 0x90,0xff,0x52,0x00,0xa8,0xff,0xa6,0x00, // 11264
0xd1,0xff,0x4e,0x00,0x52,0x00,0x6d,0x00, 0x8a,0x02,0xc7,0xfe,0x84,0xff,0xa6,0xff, // 11280
0x6b,0x00,0x44,0xfe,0x9b,0xff,0x55,0x04, 0x5b,0xfc,0xf8,0xff,0x09,0x01,0x58,0xff, // 11296
0x69,0x00,0xe2,0xff,0x97,0xfe,0x5b,0xfe, 0x2f,0x00,0xa4,0xfd,0x80,0x00,0xf9,0x01, // 11312
0xc7,0xff,0xe4,0x05,0x23,0x05,0x58,0xfe, 0x72,0x00,0xef,0xff,0x4c,0xfe,0xa4,0x01, // 11328
0xe6,0x00,0xe6,0x00,0x24,0x01,0xed,0xff, 0xc3,0x00,0xa6,0x02,0xb2,0xff,0x8e,0xff, // 11344
0x79,0xfb,0x5a,0xff,0x38,0x01,0x12,0xfa, 0x06,0x00,0x5f,0xff,0x61,0x00,0xc1,0x00, // 11360
0xda,0xfe,0x06,0xff,0xbc,0xfa,0x69,0x04, 0xf4,0x00,0x81,0x00,0x69,0x00,0x5d,0x00, // 11376
0xb2,0x05,0x9f,0x00,0x79,0x00,0x0f,0x00, 0xfd,0xff,0xdf,0xff,0x7d,0xfe,0x88,0x00, // 11392
0xe5,0xfb,0x68,0x01,0x08,0x02,0xca,0xff, 0xf9,0xfe,0xa3,0xff,0xf2,0xf8,0x1d,0xfd, // 11408
0x6b,0xfd,0x18,0x01,0x3c,0xff,0xb5,0x00, 0x08,0xff,0x37,0x00,0xb0,0x00,0x7a,0x00, // 11424
0xa2,0x01,0x17,0x01,0x06,0xfa,0xb7,0xf9, 0x29,0xff,0x29,0x04,0x68,0xff,0xaa,0xff, // 11440
0xeb,0x05,0xf8,0x01,0x8c,0xfa,0x74,0x00, 0x00,0x00,0x62,0xfe,0x15,0x06,0xb6,0x00, // 11456
0x82,0x02,0x45,0xff,0xb5,0xfe,0xd9,0x00, 0xdd,0x05,0xe9,0xff,0xbb,0xfe,0xe7,0x00, // 11472
0x89,0x00,0x6a,0xf9,0xb4,0xfe,0xae,0xff, 0x55,0x00,0xa8,0x00,0x79,0x00,0x79,0x05, // 11488
0xd9,0xff,0x09,0xff,0x7e,0x00,0x8c,0x00, 0x8c,0xfe,0x71,0xff,0xbc,0xfe,0xc6,0x00, // 11504
0xba,0x00,0x05,0xff,0x78,0x00,0x02,0xff, 0x90,0x00,0xb2,0xff,0x8e,0x05,0x4e,0x00, // 11520
0x3c,0x00,0x9a,0xff,0x0d,0x02,0x65,0x00, 0x23,0x01,0x35,0xff,0x83,0x01,0xc7,0x01, // 11536
0x7f,0xff,0x9c,0x02,0x5d,0xff,0x01,0xff, 0x0f,0xff,0x0c,0x05,0xdc,0xff,0x05,0x01, // 11552
0x7c,0xff,0x9d,0xff,0xea,0xfe,0xb3,0xfe, 0x2e,0xff,0xc3,0x00,0xab,0xf6,0xa3,0xff, // 11568
0xd9,0x00,0xf6,0xff,0xc2,0x00,0x4d,0xfe, 0x61,0x00,0xf5,0xff,0xcc,0x00,0x7d,0xff, // 11584
0x68,0xff,0x83,0xfe,0xe8,0x00,0x80,0xff, 0xf9,0xff,0x00,0x00,0xad,0xff,0x34,0x00, // 11600
0xfe,0xff,0x0a,0x01,0x0b,0x00,0x33,0x00, 0x94,0xff,0x6b,0x00,0xe2,0xfe,0xa8,0x00, // 11616
0x6b,0xff,0x5c,0xff,0x15,0x00,0xf5,0xfe, 0x24,0x00,0x31,0xff,0x01,0xff,0xd1,0xff, // 11632
0x1e,0x00,0xb2,0xff,0x21,0x01,0x20,0x00, 0xa5,0xff,0x51,0x00,0x34,0x00,0xd7,0xff, // 11648
0xdc,0xff,0xd6,0xff,0x9f,0x00,0x67,0xff, 0x0e,0x00,0xab,0x01,0xc6,0x00,0xa2,0xff, // 11664
0x7d,0xff,0x3d,0x00,0xf3,0xff,0xaa,0x01, 0xf6,0xff,0xb5,0xff,0x53,0xff,0xc0,0x00, // 11680
0x30,0xff,0x81,0xfc,0xf9,0xff,0xa5,0x00, 0xab,0x00,0x6b,0x00,0xb0,0xff,0x69,0xff, // 11696
0x34,0x00,0xf0,0xff,0x63,0x00,0xbb,0x03, 0xf4,0xff,0x37,0xff,0x4c,0x00,0xfa,0xff, // 11712
0x23,0x00,0xa5,0xff,0x36,0xff,0xc3,0xff, 0xbd,0xff,0x87,0xff,0xe8,0xff,0x1a,0x02, // 11728
0x73,0x01,0x11,0x00,0x55,0x00,0x28,0x09, 0xc8,0xff,0x0f,0x00,0xb5,0xff,0xbf,0x04, // 11744
0x19,0x00,0x5a,0x00,0x30,0x01,0x52,0x00, 0x56,0x00,0x81,0x00,0x5e,0x00,0xe9,0xff, // 11760
0x77,0x00,0x79,0x00,0x73,0x01,0x05,0x00, 0x22,0xfe,0x78,0x00,0x85,0xfd,0xaf,0xff, // 11776
0xe6,0xff,0x22,0xff,0x22,0x00,0xad,0xff, 0x1a,0x00,0xf4,0x00,0xe5,0xff,0xb3,0x00, // 11792
0x31,0x02,0xca,0xff,0x2a,0x00,0xf2,0xff, 0xfa,0xff,0xed,0xfe,0xa9,0xfd,0x86,0x01, // 11808
0xb8,0xff,0x6d,0x01,0x79,0x01,0x85,0xff, 0xb8,0xfe,0xd0,0x02,0x4e,0xfe,0x61,0xfe, // 11824
0x31,0xfe,0xb0,0xff,0x40,0xfe,0x73,0x00, 0xce,0xfe,0xdf,0xfe,0x73,0xff,0x90,0xff, // 11840
0x58,0x00,0x00,0x00,0x08,0x00,0x16,0x00, 0xc4,0x00,0xd0,0xfc,0xe2,0x01,0xf2,0xff, // 11856
0x0f,0x01,0x78,0x01,0x40,0x01,0xbc,0xfe, 0x59,0xfe,0x88,0xff,0x41,0x01,0xde,0xfd, // 11872
0x3f,0x01,0x95,0xff,0x65,0x00,0x45,0x01, 0xd2,0xfe,0xaa,0xff,0xca,0xfe,0x85,0x00, // 11888
0x5b,0xfd,0x59,0xff,0xc2,0xfd,0x95,0x00, 0xe4,0x00,0x2b,0x00,0xc0,0x02,0x76,0xff, // 11904
0x18,0x00,0x7d,0x00,0xd1,0x00,0x88,0xff, 0x3b,0x03,0xfc,0xfb,0x4c,0x00,0xe6,0xff, // 11920
0x9b,0xfc,0x9f,0x00,0xdb,0xff,0x39,0x00, 0x89,0xff,0x9b,0xff,0xb3,0xfe,0xbe,0xfc, // 11936
0x4f,0x00,0x1b,0x00,0xdb,0xff,0xa8,0xfc, 0x40,0x00,0x45,0x02,0x93,0xfe,0x8e,0x02, // 11952
0xdf,0xff,0xe0,0xff,0xa9,0xff,0xbe,0x02, 0x64,0x00,0x83,0x00,0xee,0xff,0x5d,0x01, // 11968
0xd3,0xff,0x7a,0xff,0x28,0xff,0x80,0x00, 0x18,0x00,0x1d,0x00,0xfd,0x00,0x3a,0x01, // 11984
0xa3,0xff,0x7a,0xfe,0x3e,0x00,0xb4,0xff, 0x0c,0x01,0xf4,0xfe,0x24,0xfe,0xe6,0xfe, // 12000
0xee,0xff,0x28,0x00,0x85,0xff,0xb3,0xff, 0xa8,0xff,0x41,0x01,0xc4,0xff,0x84,0xff, // 12016
0x06,0xff,0x61,0x00,0xad,0xff,0x8b,0xff, 0xdd,0xff,0xa1,0x03,0xfd,0xff,0x00,0x06, // 12032
0xea,0xfd,0xf5,0xff,0x67,0x00,0xb7,0x01, 0x03,0x02,0xdd,0x00,0xe2,0xff,0xf2,0xff, // 12048
0x95,0xff,0x74,0x01,0x71,0xff,0xf3,0xfd, 0x11,0x01,0x21,0xff,0x80,0x00,0xb4,0x00, // 12064
0xdf,0xfe,0xf5,0xff,0xd4,0xfd,0x88,0x01, 0xbc,0x00,0xa6,0x01,0xb2,0x00,0xd3,0xfc, // 12080
0x7c,0xfc,0xd3,0xff,0xbc,0xff,0xad,0x01, 0x65,0x01,0x2b,0xff,0x2c,0x00,0xb1,0xff, // 12096
0x58,0xfe,0x1d,0xff,0x3b,0x00,0x77,0xfe, 0x3b,0x01,0xc0,0x01,0x11,0x00,0xa4,0x00, // 12112
0x61,0x00,0xea,0xff,0x45,0x01,0x42,0x00, 0x1d,0xfe,0x37,0xff,0x84,0xfe,0x47,0x01, // 12128
0x5f,0x00,0x86,0xff,0x75,0x00,0xde,0xfe, 0x39,0xff,0xf8,0xff,0x21,0x01,0x7b,0xfc, // 12144
0x83,0xff,0x8e,0x00,0x68,0xff,0x34,0xff, 0xd6,0xff,0xbe,0x00,0x92,0x02,0x72,0xff, // 12160
0xdd,0xff,0xf7,0xfe,0x45,0x01,0x08,0x04, 0x04,0xfe,0x13,0x00,0x31,0xfe,0x1f,0x01, // 12176
0xf4,0xfe,0xde,0x01,0x06,0x00,0xed,0xff, 0x27,0xfe,0xf7,0xff,0xd1,0xff,0x61,0xfe, // 12192
0x4e,0x00,0xb7,0xf9,0x90,0x00,0xd9,0x02, 0x3e,0x00,0xc9,0xff,0x8e,0xfd,0x39,0x03, // 12208
0x18,0x00,0x48,0xfe,0xdf,0xff,0x3c,0xfd, 0x65,0x03,0xac,0x00,0xa1,0xff,0xfc,0xfe, // 12224
0x70,0x00,0xdf,0x02,0x29,0x02,0x88,0x02, 0x9a,0xfe,0x26,0x01,0xb8,0xff,0x6a,0x01, // 12240
0x82,0xff,0x64,0xfe,0x38,0xfd,0xd5,0xff, 0x47,0xfe,0xd3,0xff,0xd2,0xfa,0x71,0xff, // 12256
0x92,0xff,0x08,0xfd,0x1d,0x00,0xcd,0xff, 0xf4,0xfe,0x19,0x00,0xc7,0xfe,0x69,0xfd, // 12272
0x41,0xff,0x9e,0x01,0xea,0xff,0x15,0xfc, 0x36,0x02,0x1e,0x03,0x9f,0xfd,0xaa,0x01, // 12288
0xa0,0x01,0xe2,0xfd,0x78,0x02,0x5f,0x01, 0x3b,0x05,0xa4,0x00,0x21,0xfc,0xce,0x01, // 12304
0xa9,0x02,0xe0,0x02,0x94,0x03,0xb0,0xff, 0x8b,0x00,0xb0,0xfd,0x06,0xfd,0x27,0x00, // 12320
0x9b,0x01,0xfd,0xff,0xa2,0x03,0x8e,0x02, 0xae,0xfe,0x58,0xff,0xe1,0xfe,0xfc,0xfc, // 12336
0x04,0xff,0xed,0xfc,0x8b,0xfb,0x0b,0x03, 0xe8,0xff,0x3c,0xfd,0x95,0xfd,0x57,0x01, // 12352
0x01,0x00,0x54,0xff,0x20,0x01,0x45,0x02, 0x7c,0x01,0x1e,0xfe,0xea,0x00,0x37,0x00, // 12368
0x04,0x00,0xb8,0x01,0xbd,0x00,0xaa,0x01, 0x93,0x00,0x0e,0x00,0x6c,0xfd,0x98,0xfe, // 12384
0x8c,0xfd,0x8e,0x00,0x35,0x01,0xe7,0xfe, 0xfd,0xfc,0xab,0x00,0xec,0x00,0xde,0xff, // 12400
0x55,0xff,0x1c,0x01,0x7b,0x00,0x21,0xff, 0x21,0x01,0x53,0x00,0x0b,0xff,0x6c,0xff, // 12416
0x30,0x03,0x24,0x02,0xfe,0x00,0x0d,0x01, 0xb1,0xff,0x3a,0x03,0x28,0x02,0x73,0xfd, // 12432
0xcf,0xfd,0x9e,0xff,0x16,0xff,0xbf,0x05, 0xfc,0x00,0x52,0xff,0xcb,0x01,0x4c,0xfe, // 12448
0x1d,0x00,0xb5,0x01,0x35,0x00,0xa9,0xff, 0xac,0x00,0x24,0xff,0xc8,0xfe,0x8a,0xfe, // 12464
0x1e,0x01,0xb1,0xfc,0x2a,0x01,0xfa,0x00, 0x27,0x02,0x42,0x01,0x27,0x01,0xea,0xfc, // 12480
0x91,0xff,0x7c,0x00,0xea,0x00,0x5e,0xff, 0x68,0x01,0xe3,0xff,0x61,0x01,0x26,0x02, // 12496
0xe9,0xfe,0x78,0xfc,0xb9,0x02,0x17,0x00, 0x82,0xfe,0x2d,0x01,0x3d,0xfe,0x2b,0xfe, // 12512
0xdc,0x00,0x5a,0xff,0xae,0xfe,0x59,0x00, 0x3d,0x04,0xf3,0xff,0x4e,0x01,0xa0,0x03, // 12528
0x5d,0x01,0xf0,0x00,0x3e,0x02,0xc7,0x01, 0x24,0x00,0xbb,0x03,0xe4,0xfd,0x5c,0xff, // 12544
0xf4,0x00,0x1c,0xff,0x76,0x00,0x60,0x01, 0x20,0x03,0xa4,0xff,0x69,0xfe,0xc5,0x02, // 12560
0x04,0xff,0xd8,0xfd,0xad,0x00,0x52,0x00, 0x88,0x00,0xf6,0x05,0x89,0xfe,0x44,0xff, // 12576
0x18,0x00,0xc6,0xff,0x39,0x01,0xc0,0xff, 0xa8,0xff,0x4a,0xff,0xe0,0x00,0x14,0x01, // 12592
0x1a,0x00,0x31,0x01,0xbe,0x05,0x1c,0xfe, 0xed,0xfe,0x09,0x02,0x92,0xff,0x1f,0xff, // 12608
0xff,0xff,0x93,0x00,0xbf,0x00,0xaa,0x00, 0xe2,0x03,0xb1,0x00,0xeb,0x04,0x4e,0xfd, // 12624
0x23,0x02,0xba,0x01,0x88,0xfe,0xef,0x02, 0xbc,0xff,0x74,0x00,0x2a,0x00,0xc6,0xfe, // 12640
0xbe,0xff,0x1f,0x00,0xea,0xfe,0xde,0xff, 0x62,0xff,0x5d,0xfe,0xd0,0x01,0x34,0xff, // 12656
0x39,0xfe,0xa8,0x02,0x07,0x02,0x88,0x00, 0x75,0xff,0x5c,0xfb,0x58,0xff,0x4b,0xfd, // 12672
0x71,0x05,0x8e,0x00,0x08,0xfa,0x27,0x02, 0xcc,0xff,0xad,0xff,0x02,0x02,0x9e,0x00, // 12688
0x14,0xfe,0xd9,0x00,0x0a,0x02,0x0f,0x03, 0xd7,0x00,0xb8,0xfd,0x0b,0x00,0x5b,0x00, // 12704
0x7c,0xff,0x71,0xff,0x32,0xfe,0xd7,0x00, 0x2c,0x00,0x15,0x05,0x2a,0x00,0x0f,0x00, // 12720
0xfd,0xff,0x32,0x00,0x2b,0x01,0xde,0x02, 0xf0,0xff,0x96,0xff,0x78,0x00,0x80,0x01, // 12736
0x69,0xff,0xed,0xff,0xa9,0xff,0x84,0x00, 0x21,0xff,0x8f,0x01,0x4f,0x01,0xb2,0xfe, // 12752
0xb4,0xfe,0xa5,0x00,0x2d,0xfe,0x71,0xff, 0x7f,0xfe,0xc3,0xfe,0xad,0xfe,0xd0,0xff, // 12768
0x34,0x00,0xbd,0x02,0xc8,0xff,0x2a,0x00, 0x48,0x00,0x9e,0x02,0xf7,0xfe,0x08,0x00, // 12784
0x0e,0x00,0x9c,0xff,0x59,0xfa,0x6c,0xfe, 0xba,0xff,0x6c,0xff,0xd5,0x00,0xf7,0xff, // 12800
0xf6,0xff,0x7a,0x05,0x29,0xff,0x4d,0xfe, 0x7d,0x00,0x0b,0x00,0xe8,0xfe,0x2d,0xfe, // 12816
0x4c,0x01,0x34,0x00,0xa0,0x01,0xc1,0x01, 0x3b,0x06,0xe1,0xfe,0xd2,0xfe,0x63,0xff, // 12832
0x21,0x00,0xcd,0x02,0x99,0xfb,0x7b,0xff, 0xcc,0x00,0x98,0x00,0x19,0xff,0xfa,0x00, // 12848
0x84,0xfd,0x98,0xfd,0xa1,0x00,0x77,0xfe, 0x1d,0x02,0x28,0x02,0x47,0xf6,0x15,0xfb, // 12864
0x3d,0x01,0xe9,0xff,0x82,0xff,0x63,0x01, 0xba,0xfd,0x24,0xff,0x24,0xfe,0x14,0x00, // 12880
0x71,0xff,0x21,0x00,0x71,0xff,0xe6,0x00, 0x9e,0x0b,0x2d,0x02,0xe0,0xff,0xc5,0xff, // 12896
0x1c,0x02,0x59,0x00,0xc3,0xfd,0x55,0x00, 0x12,0x00,0xac,0xff,0x57,0x00,0x72,0xfc, // 12912
0x12,0x00,0x3a,0xfc,0x9d,0xff,0xa8,0xff, 0x6d,0x01,0xd9,0x00,0xb2,0x00,0x1b,0x00, // 12928
0xb9,0xff,0x45,0xff,0x7e,0xff,0x16,0x00, 0x60,0xff,0x85,0x00,0xc6,0xff,0x60,0xff, // 12944
0x07,0x01,0x39,0x00,0x53,0xff,0x1a,0x00, 0x27,0x00,0x50,0x00,0xe4,0xfe,0xca,0xff, // 12960
0x69,0xff,0x90,0x02,0xc8,0xff,0xf0,0xfb, 0x42,0x00,0xfa,0xff,0x79,0x00,0xd3,0xff, // 12976
0x03,0x00,0x12,0xff,0xd1,0xff,0x0e,0x00, 0xde,0xff,0x8f,0x00,0xbe,0xff,0x60,0x00, // 12992
0xa8,0xff,0x61,0xff,0x78,0xfd,0xcc,0xff, 0x66,0xff,0x07,0x00,0x53,0x00,0x3a,0x00, // 13008
0xff,0xfe,0x87,0xff,0x7e,0xff,0xac,0xff, 0xe0,0xff,0x22,0xff,0x96,0x00,0xad,0x00, // 13024
0x69,0x02,0xf5,0x00,0xaa,0xfe,0x02,0x02, 0x37,0xff,0xa8,0xff,0x49,0xff,0x4b,0xfe, // 13040
0x0d,0x00,0x37,0x00,0xff,0x02,0xbe,0xfe, 0x56,0xff,0x27,0x00,0x9d,0xff,0xc2,0xff, // 13056
0x73,0xfe,0xf4,0x00,0x25,0x00,0xbf,0xff, 0xc9,0x00,0xeb,0xff,0x00,0xfe,0xa4,0xff, // 13072
0xc6,0x02,0xec,0xff,0x3a,0x00,0x1a,0x00, 0x2e,0x00,0xf5,0xff,0x39,0x02,0x4d,0x00, // 13088
0xf3,0x00,0x2a,0xff,0x6e,0x00,0x83,0xff, 0x82,0x00,0x40,0x00,0x53,0x00,0x55,0xff, // 13104
0xf4,0x00,0x1a,0x00,0x69,0x04,0x0c,0x02, 0xfb,0x00,0x71,0x00,0x53,0xfe,0x66,0xff, // 13120
0x2c,0xfd,0xdf,0xfd,0x1e,0x02,0xad,0xff, 0xac,0xff,0x8d,0x00,0x24,0xfd,0xd4,0xff, // 13136
0xa8,0x00,0x19,0x00,0x38,0xff,0xee,0xff, 0x8d,0xfd,0x11,0x00,0x66,0xff,0xa4,0xfe, // 13152
0xb6,0xfe,0x88,0x02,0xff,0xff,0x3c,0x00, 0xbb,0xff,0xd6,0xff,0x01,0x00,0x24,0xfd, // 13168
0x23,0x00,0xac,0x00,0x34,0xff,0x67,0x00, 0xed,0x00,0xe2,0xff,0x27,0x00,0xb6,0xff, // 13184
0x8f,0xff,0xf1,0xff,0x18,0x00,0x34,0x00, 0x1a,0x04,0x09,0x00,0xe8,0x00,0xae,0xff, // 13200
0x30,0x00,0xf7,0x01,0x81,0x00,0x07,0x03, 0x85,0x00,0xa9,0xfd,0x1e,0xff,0x8d,0xff, // 13216
0x68,0xff,0xd3,0xff,0xf7,0xfe,0x4d,0xff, 0xc9,0xfe,0x86,0x00,0x70,0xfe,0xf5,0xff, // 13232
0xa5,0xfe,0x30,0x01,0x05,0x00,0x12,0x00, 0x3b,0x00,0x73,0x00,0xa4,0xff,0x25,0x00, // 13248
0x40,0x02,0x62,0xff,0x78,0x01,0x49,0xff, 0xf2,0x00,0x96,0xfe,0x74,0x00,0x4f,0x00, // 13264
0x9f,0xfd,0xf0,0x01,0xa5,0xfe,0x91,0xfe, 0x75,0x02,0xa8,0x00,0xc8,0xff,0xfa,0xff, // 13280
0x7d,0xfd,0xd6,0xfe,0xe1,0x01,0x96,0x00, 0xbe,0xfe,0x73,0xfd,0x5f,0xfc,0xd0,0x00, // 13296
0xab,0xfb,0x1e,0xff,0x30,0x01,0x10,0x02, 0x2d,0x00,0x48,0x00,0x54,0xff,0xc3,0xff, // 13312
0x3f,0x00,0x4f,0x00,0xa6,0xff,0x1a,0x00, 0x13,0x00,0xdc,0xff,0xc0,0xff,0x33,0x00, // 13328
0xa1,0xfe,0x5e,0xff,0xf4,0xff,0x70,0x00, 0x44,0x00,0xda,0xff,0x67,0xff,0xc1,0xff, // 13344
0x04,0x03,0xea,0x01,0xa3,0x01,0x73,0xff, 0xe6,0xff,0x14,0xff,0x4a,0xfe,0x12,0x00, // 13360
0x35,0xff,0x71,0xff,0x93,0xff,0x47,0x02, 0xaf,0x00,0x4f,0xfe,0xea,0xff,0x6a,0xff, // 13376
0x91,0x02,0x17,0x00,0x0e,0x01,0x6c,0xff, 0xe0,0x00,0x3e,0xfe,0xf5,0xff,0x67,0xff, // 13392
0xf2,0xff,0xab,0xfe,0xab,0x00,0x50,0x00, 0x1a,0x00,0x1f,0x00,0x1c,0x00,0xb0,0x00, // 13408
0x4b,0x00,0x9e,0xff,0x85,0x00,0xd1,0x00, 0xb5,0xfe,0xc0,0x03,0x6b,0xff,0xe1,0x00, // 13424
0x64,0x00,0xac,0x00,0xc0,0x01,0x43,0x00, 0x0d,0x00,0xa7,0xff,0xf4,0xfe,0xe9,0x00, // 13440
0x11,0xff,0x77,0xfc,0x5e,0x00,0x3a,0x00, 0x0c,0xff,0x8e,0x01,0xd8,0xff,0xdb,0xfe, // 13456
0xe3,0xff,0x41,0x00,0x44,0xff,0xed,0xff, 0xfb,0xfc,0x68,0xff,0x3b,0xfe,0x81,0x01, // 13472
0x44,0x00,0xf5,0xfe,0xaf,0xff,0x77,0x02, 0xe2,0x01,0x3a,0x00,0x45,0xfe,0xef,0xfe, // 13488
0xce,0x00,0xcc,0x00,0x74,0xff,0xbc,0xff, 0x4e,0x01,0x34,0xff,0xf1,0xfe,0xe7,0xff, // 13504
0x5d,0xff,0x64,0xff,0x50,0x00,0xc5,0xfe, 0x58,0xfe,0xda,0x00,0x24,0x01,0xfb,0x00, // 13520
0x26,0x01,0x54,0x00,0x54,0x00,0x40,0xff, 0xa6,0xff,0x78,0xff,0xeb,0xfd,0xd7,0xff, // 13536
0x11,0x00,0xb2,0x00,0x15,0x00,0x26,0x01, 0xd7,0x00,0x7c,0x01,0x2a,0x00,0xeb,0xff, // 13552
0xc8,0xff,0x7a,0xfd,0xfb,0xfe,0x7d,0x01, 0x0c,0x00,0x0e,0xff,0xb2,0x00,0x13,0xfc, // 13568
0x68,0xff,0x00,0x00,0x20,0x00,0x36,0xfe, 0x26,0x00,0xc3,0xff,0x7f,0x00,0x0b,0xff, // 13584
0xbe,0x00,0x96,0xff,0x8e,0xff,0xee,0x00, 0x36,0x00,0x39,0x02,0x38,0x00,0x60,0xff, // 13600
0x55,0x00,0x71,0x01,0x59,0x01,0x02,0xff, 0x26,0x00,0x5e,0xff,0x41,0x00,0x9f,0x01, // 13616
0x77,0xff,0x91,0xfe,0x52,0x00,0xbf,0x00, 0x36,0x00,0xb5,0xfe,0xc5,0x00,0x1e,0x00, // 13632
0x79,0x00,0xa4,0xff,0x9d,0x00,0x32,0x00, 0xf9,0xff,0xef,0xff,0xa9,0x01,0x82,0x00, // 13648
0x10,0x01,0x15,0x00,0xe9,0x02,0x8f,0x00, 0x37,0x00,0x83,0x01,0x5b,0xff,0x4e,0xff, // 13664
0x8d,0xfe,0xb2,0xff,0x73,0x01,0xfb,0x00, 0xf2,0xff,0x5a,0xfe,0x74,0x00,0x37,0x02, // 13680
0xe0,0xfe,0x7b,0xfe,0x02,0x01,0xbd,0xff, 0x96,0xff,0x7d,0x02,0x25,0xff,0xdf,0xff, // 13696
0x5f,0xfc,0xc8,0xff,0x20,0x04,0xb7,0xff, 0x91,0xfe,0xa5,0xff,0x66,0xff,0x5c,0x01, // 13712
0xf5,0xfe,0xef,0x01,0x95,0x02,0x9d,0xff, 0x77,0xff,0xab,0xff,0x49,0xff,0x38,0xfe, // 13728
0xf5,0xff,0x51,0x00,0x97,0x01,0x85,0x01, 0x8e,0x00,0xed,0x00,0xc1,0x04,0xb3,0xfd, // 13744
0x7b,0x00,0xa8,0x01,0x26,0x01,0x18,0x00, 0x37,0xff,0xd8,0xfe,0xe9,0x01,0x81,0x00, // 13760
0xf4,0x00,0xab,0x00,0x20,0x02,0x2f,0xff, 0xe9,0x00,0x8c,0xff,0xca,0x00,0xb4,0x00, // 13776
0xe8,0xff,0x7b,0x00,0x78,0xff,0x71,0xff, 0xdf,0xfe,0xe3,0xff,0xfe,0xff,0xb1,0xfe, // 13792
0x5f,0xfd,0x1d,0x00,0x3e,0xff,0x04,0x01, 0x3e,0xff,0xb6,0x00,0x3c,0x00,0x13,0xff, // 13808
0xa6,0xff,0x25,0xff,0x01,0x00,0x54,0x00, 0x0c,0x00,0xc5,0xfd,0xe4,0x00,0xa2,0x02, // 13824
0x61,0x01,0xa1,0x00,0xae,0xff,0xfb,0xff, 0xd3,0xff,0x55,0x00,0x20,0xff,0xd3,0x02, // 13840
0xd7,0xff,0x98,0xff,0x51,0x01,0x0d,0x00, 0x00,0x00,0xe6,0x00,0xab,0xff,0x4a,0x01, // 13856
0xf0,0xff,0x39,0xff,0xaf,0x01,0x5b,0xfe, 0x3c,0x01,0x12,0xff,0x31,0x00,0xb2,0x00, // 13872
0x20,0xff,0xc8,0x01,0xdd,0xfe,0x10,0xfd, 0xe7,0xff,0x78,0x00,0x5f,0x00,0x13,0xff, // 13888
0xe2,0xff,0x39,0xff,0x77,0x01,0x75,0x00, 0x5b,0xff,0x39,0x01,0x78,0x00,0x9e,0xff, // 13904
0x2d,0x00,0x75,0xfe,0xd5,0xfe,0x58,0xff, 0xf1,0x00,0x82,0xff,0x7e,0xff,0x34,0x01, // 13920
0xae,0x01,0x6e,0x00,0xc0,0x00,0x2e,0x01, 0x56,0x00,0x4b,0x01,0x4f,0x01,0xbf,0xfe, // 13936
0x04,0x00,0x3b,0x01,0xc7,0xff,0xfb,0x00, 0x3f,0x01,0xae,0xff,0x95,0x00,0x9a,0x01, // 13952
0xaa,0x00,0x07,0xff,0x51,0xff,0x94,0xff, 0xf2,0xfe,0xd1,0xfd,0xdc,0x00,0xf5,0x00, // 13968
0x50,0xff,0xdc,0x01,0x95,0xff,0x8b,0xff, 0xce,0x00,0x4a,0x00,0x2b,0xff,0x1e,0x00, // 13984
0x3c,0xff,0xdb,0x00,0x84,0x00,0xfc,0xff, 0xe0,0xfe,0x4d,0x01,0x38,0x01,0x19,0x00, // 14000
0x71,0xfe,0x82,0xff,0xb1,0xff,0xf3,0xfe, 0x28,0x00,0x16,0x00,0x25,0xfd,0x4c,0x01, // 14016
0xa1,0x00,0xad,0x00,0x43,0x00,0x73,0xfd, 0xd5,0xff,0x56,0x01,0x7d,0x00,0xdb,0x01, // 14032
0xf0,0x06,0xa8,0xff,0xab,0x00,0x6e,0x00, 0x17,0x00,0xad,0x00,0xff,0xff,0xdd,0x00, // 14048
0x97,0x00,0x9e,0xfe,0x3e,0xff,0xc3,0xff, 0x02,0x00,0x83,0xff,0xad,0xff,0xb5,0xf8, // 14064
0x06,0x00,0x12,0x00,0x33,0x00,0xe6,0xff, 0x91,0xff,0x79,0x01,0x1a,0x01,0x39,0x00, // 14080
0x0e,0xfe,0x06,0x00,0x99,0xff,0x8a,0xff, 0xea,0xff,0xec,0xf9,0x24,0x00,0x8e,0xff, // 14096
0x6c,0x00,0x81,0xff,0x88,0x07,0xb9,0x00, 0x45,0xff,0x1a,0x02,0x0e,0xff,0xe9,0x00, // 14112
0xc6,0xff,0xf3,0xfe,0xc3,0xff,0x65,0x04, 0xff,0xff,0xb7,0xfd,0xfb,0x02,0xa4,0xff, // 14128
0xeb,0xf8,0xef,0xff,0xe3,0xf6,0xde,0xff, 0xf8,0xfb,0xcd,0xff,0xe7,0x03,0x9c,0x00, // 14144
0xb7,0x00,0x79,0x00,0x0a,0xff,0x03,0x00, 0x68,0x00,0x1c,0x00,0xbf,0xff,0x88,0xfe, // 14160
0xf0,0xff,0xc2,0x01,0x47,0x00,0xb1,0xff, 0x18,0xff,0x65,0xff,0xff,0xff,0x92,0xff, // 14176
0xaf,0xff,0x31,0x00,0xf7,0xff,0xce,0xfa, 0xcb,0x01,0x45,0x02,0x7e,0xfd,0xdd,0xff, // 14192
0x3c,0x00,0xc0,0xff,0x74,0x00,0x84,0x06, 0x33,0x01,0x76,0xff,0x02,0x00,0xa4,0x01, // 14208
0x48,0x00,0x1a,0xfe,0x17,0x01,0xc9,0xfe, 0x92,0x01,0x44,0x01,0xe4,0xff,0xf6,0xff, // 14224
0xce,0x00,0xdd,0xfe,0x54,0x00,0x90,0x00, 0x8f,0x03,0x4b,0x02,0xa3,0xfd,0xf6,0xff, // 14240
0xb6,0xff,0x75,0xff,0x60,0x00,0xac,0x00, 0xa1,0x00,0x66,0x01,0xa8,0xff,0xac,0x00, // 14256
0x10,0x02,0xa5,0x02,0x9a,0xfe,0x48,0x00, 0xcd,0xff,0xbe,0x04,0x3b,0x00,0x67,0x00, // 14272
0xd6,0xfc,0x5c,0x00,0x7c,0x01,0x22,0x00, 0x77,0xff,0x9c,0xfe,0x71,0x01,0x24,0xff, // 14288
0x77,0xff,0x83,0x00,0x5a,0xff,0x06,0x00, 0x3c,0x03,0x4a,0xfe,0x7d,0x00,0xe2,0xfe, // 14304
0xe4,0xff,0xc9,0x01,0x1e,0xfd,0xa7,0x01, 0x5f,0x00,0x31,0x02,0x84,0x00,0x7d,0x00, // 14320
0x0d,0xfc,0xe6,0xff,0x02,0x01,0x18,0x00, 0x9a,0xff,0x91,0xff,0x1b,0x01,0x7d,0x02, // 14336
0xa4,0xfe,0x10,0x02,0x1d,0xff,0xef,0xff, 0x1a,0xff,0x72,0xff,0x75,0x01,0xc0,0x01, // 14352
0xbf,0x00,0x27,0x00,0xf8,0xfd,0x84,0xff, 0x4a,0xff,0xa2,0xfc,0x32,0x00,0x06,0x02, // 14368
0x90,0xfe,0xa5,0xff,0xeb,0x01,0x5d,0x00, 0x71,0x00,0x8e,0xff,0x5d,0x00,0xa4,0xff, // 14384
0x70,0xff,0x43,0xfe,0x84,0x00,0x1e,0x01, 0x0f,0xff,0x3e,0x03,0x95,0x03,0x67,0xff, // 14400
0x3d,0x01,0x55,0x00,0xf0,0xfe,0x8d,0x00, 0x3b,0xff,0xb5,0x00,0xa9,0xff,0xf3,0x00, // 14416
0x2c,0x00,0xe0,0x02,0xf8,0xff,0xb2,0xfe, 0x8f,0xfc,0x0f,0xfe,0xf1,0x00,0x71,0xfb, // 14432
0x7b,0x00,0x7b,0xff,0xac,0x01,0x18,0x00, 0x03,0xff,0x43,0x00,0x9d,0xfd,0xf6,0x02, // 14448
0xbb,0x00,0x35,0x00,0xd3,0x00,0x00,0x00, 0xe9,0x04,0x6e,0x00,0x00,0x02,0x6c,0xff, // 14464
0x09,0xff,0x98,0x00,0x70,0xfd,0x2c,0x01, 0x68,0xfd,0xe3,0x00,0xcc,0x00,0x80,0x00, // 14480
0x6b,0xff,0x76,0x00,0x2f,0xfe,0x37,0xfe, 0x3c,0xfe,0x85,0x02,0x11,0x00,0x8e,0xff, // 14496
0x86,0x00,0x8c,0xff,0x46,0x01,0xb7,0x00, 0xd9,0x01,0xd8,0xff,0xc4,0xfb,0xb3,0xfb, // 14512
0x12,0x01,0x6f,0x02,0xa0,0xfd,0xe7,0xff, 0xdb,0x02,0xf8,0x00,0xe3,0xfc,0xc0,0x00, // 14528
0xc9,0xff,0x12,0x00,0x74,0x03,0xca,0xff, 0x5a,0x00,0x18,0x00,0x23,0x00,0xfe,0xff, // 14544
0x79,0x02,0x79,0x00,0xfc,0xfe,0x94,0x01, 0x78,0xff,0x24,0xfd,0xd2,0x00,0xb9,0xff, // 14560
0x5f,0x00,0xa2,0x00,0xb3,0xff,0xf1,0x02, 0x37,0x00,0x9c,0x01,0xda,0xfc,0x74,0xff, // 14576
0x97,0x00,0x9d,0xff,0xbf,0x00,0xa0,0x00, 0xff,0x00,0xc3,0x00,0xfa,0xfe,0xe4,0xff, // 14592
0x15,0xff,0x00,0xff,0x2c,0xff,0x0f,0x00, 0xcb,0xff,0x73,0x00,0xa2,0xff,0xc5,0xfe, // 14608
0xd5,0xff,0xc9,0x00,0xbe,0xff,0xd9,0xff, 0xcb,0xff,0xf9,0xff,0x8e,0x00,0xd7,0x00, // 14624
0x9e,0x00,0x09,0x00,0x74,0xff,0x5c,0x01, 0xf8,0x00,0x8c,0xff,0x96,0x00,0x8b,0xff, // 14640
0xa1,0xff,0x97,0x01,0x7b,0x00,0x78,0xfe, 0xc5,0xfe,0x66,0x00,0x2d,0xff,0x04,0x00, // 14656
0x4f,0x00,0x8c,0x00,0xc7,0xff,0x1e,0x00, 0xe7,0x00,0x20,0x01,0x6e,0xff,0xe2,0x00, // 14672
0xfd,0xff,0xf7,0xfd,0x13,0xff,0x2d,0x00, 0xf7,0xff,0xac,0x00,0x84,0xfe,0x26,0xff, // 14688
0xc5,0xff,0xde,0xff,0x42,0x01,0x4a,0xfd, 0xf6,0x00,0xb0,0xff,0xd8,0xff,0x26,0x00, // 14704
0xb6,0x01,0x6e,0xff,0x07,0x00,0x10,0x01, 0xe8,0x00,0x76,0x00,0x1b,0x01,0x4a,0xfe, // 14720
0x16,0x00,0x0a,0x01,0x2e,0x01,0xfe,0xff, 0xed,0xff,0x5b,0x00,0x11,0x00,0xb8,0x00, // 14736
0xaf,0xfe,0x2b,0x00,0x13,0x00,0x7f,0xff, 0xdc,0xff,0xbb,0xff,0x74,0xff,0xcd,0x00, // 14752
0xac,0x00,0x63,0xff,0x4e,0x01,0xae,0xff, 0xee,0x00,0x0a,0x00,0x19,0x01,0x63,0x00, // 14768
0xd8,0xff,0xcc,0xff,0x54,0x00,0xa6,0xff, 0x6b,0xff,0x9d,0x00,0xb0,0xfe,0xdf,0xff, // 14784
0x4f,0x00,0xdd,0xff,0x7d,0x01,0xa1,0x00, 0x49,0x01,0x31,0x01,0x39,0xff,0x9d,0xff, // 14800
0x16,0xff,0x41,0x00,0x3a,0x01,0x76,0xff, 0x0d,0x00,0xfd,0x00,0xe6,0xfe,0xbd,0xff, // 14816
0x51,0x00,0x7e,0xff,0xe1,0x01,0x0a,0x00, 0xce,0xff,0x15,0x00,0xb7,0xff,0xd6,0xff, // 14832
0xb7,0xff,0x37,0x01,0xa2,0x00,0x38,0x00, 0x5d,0x00,0x26,0x00,0xe0,0xff,0x66,0xfe, // 14848
0x93,0xff,0x44,0x00,0x19,0x01,0xed,0x00, 0xe7,0x01,0x80,0x00,0xc1,0x00,0x49,0x00, // 14864
0xfd,0xff,0x32,0x00,0x7a,0x00,0x31,0xff, 0x25,0x02,0xe1,0x00,0x8d,0xff,0x7b,0x00, // 14880
0x66,0x00,0xb2,0xff,0xa5,0xff,0xc7,0x00, 0xf7,0xff,0xcd,0xff,0xb3,0xff,0xec,0xff, // 14896
0x83,0x00,0x89,0x00,0xc8,0xfd,0x44,0xfd, 0xa5,0xfe,0x2b,0x00,0x3b,0x00,0x28,0x00, // 14912
0xf8,0xfe,0x46,0x01,0x71,0x00,0xc6,0xff, 0x46,0xfe,0x82,0xfe,0x46,0x00,0x96,0x00, // 14928
0xad,0x00,0x77,0xfd,0x81,0xff,0x2e,0x00, 0x82,0x01,0x48,0x01,0xcc,0x02,0x97,0x01, // 14944
0xeb,0xfe,0x75,0x00,0x11,0x01,0xdc,0xfe, 0xeb,0xff,0x5e,0x00,0x56,0x00,0x68,0x02, // 14960
0xef,0xff,0xeb,0xff,0xb8,0x00,0x58,0x00, 0x56,0xfc,0xb7,0xff,0x49,0xfd,0xee,0xfd, // 14976
0xb7,0xff,0xc6,0x00,0xc4,0x01,0x9b,0xff, 0x11,0xff,0x05,0xff,0x6f,0x00,0xec,0xfe, // 14992
0xa1,0x01,0x25,0x00,0xdc,0x00,0xff,0xfc, 0x85,0xff,0x6f,0x01,0x22,0xff,0x10,0x00, // 15008
0xa5,0xff,0x32,0xff,0x60,0xff,0xb7,0x00, 0xd9,0x00,0xe3,0xff,0xd1,0x00,0x35,0xfe, // 15024
0x04,0xff,0xbb,0x01,0x32,0xff,0xec,0xff, 0x71,0xff,0x61,0x00,0xef,0xfe,0xf3,0x01, // 15040
0x78,0x01,0xa2,0xff,0x33,0xff,0x51,0x01, 0x1b,0xff,0x1c,0x00,0x71,0xff,0xce,0x00, // 15056
0xca,0x00,0x6e,0x01,0x39,0xfe,0x54,0x00, 0x90,0x00,0xe6,0xff,0x1d,0xff,0x0f,0xff, // 15072
0x58,0x03,0x23,0x00,0x05,0xff,0x97,0xff, 0x2b,0x01,0xbb,0xff,0x0a,0xff,0xc4,0xff, // 15088
0x2c,0x00,0x48,0x01,0xc1,0x00,0x09,0x00, 0xc0,0x00,0xd6,0x01,0xea,0xff,0x3c,0x00, // 15104
0xc3,0x00,0xe6,0x01,0x63,0x00,0x4a,0x01, 0x8c,0xfe,0x20,0xff,0xc9,0x00,0x7a,0x00, // 15120
0xb1,0xff,0x5c,0x00,0xf9,0xff,0xa3,0x00, 0x9d,0xff,0x9b,0x01,0x7a,0xff,0x91,0x00, // 15136
0xc6,0x03,0x6d,0xff,0x2c,0x00,0x24,0xfe, 0xe9,0xff,0x83,0x00,0xee,0xfd,0x58,0x01, // 15152
0x85,0xf7,0xb0,0xff,0x52,0xfd,0x41,0x00, 0x54,0x00,0xe0,0xfe,0x39,0x01,0x47,0xfe, // 15168
0x3e,0xfe,0x4e,0x01,0xe8,0xff,0xa2,0x00, 0x63,0xff,0x68,0xff,0x2c,0x03,0xd4,0x02, // 15184
0xee,0x01,0x0f,0xff,0x26,0x01,0xd7,0x00, 0x0a,0x02,0xfc,0xfd,0x24,0xff,0xc2,0xfe, // 15200
0x04,0x01,0xd1,0xff,0xed,0x00,0x2f,0x00, 0x40,0xfe,0x09,0x03,0xa7,0x00,0x5a,0x01, // 15216
0x2e,0xfd,0x21,0x00,0x03,0xfd,0x70,0x00, 0x90,0x02,0xfa,0xfb,0x5c,0x02,0x62,0x02, // 15232
0x34,0xff,0x12,0x00,0xed,0xff,0xe1,0xfe, 0x86,0x01,0xc1,0x03,0x0d,0xfd,0xdf,0xfe, // 15248
0x35,0x02,0xb5,0x00,0x59,0x08,0x3a,0x01, 0x26,0x04,0xe9,0x00,0xb4,0xfe,0x1c,0xfe, // 15264
0x25,0x00,0x52,0xff,0x59,0xfe,0x48,0x00, 0x06,0xfe,0xce,0xff,0x1a,0x01,0x1b,0x01, // 15280
0x41,0xff,0x68,0x00,0x64,0x00,0x42,0x00, 0x82,0xff,0x5e,0x02,0x1e,0x00,0x5b,0xff, // 15296
0x01,0x00,0x01,0x01,0x05,0x00,0x41,0x01, 0xca,0xfd,0xeb,0xfc,0x96,0x00,0xdc,0x00, // 15312
0xbb,0xff,0xa8,0x00,0x1b,0x02,0x19,0xfe, 0xb2,0xff,0x8e,0x01,0xf8,0xff,0x96,0xfc, // 15328
0xe8,0xff,0x71,0x02,0xa8,0x00,0x4b,0x01, 0x38,0xfe,0xf1,0xff,0xff,0x00,0xe5,0xfe, // 15344
0x6d,0xfe,0x8e,0x01,0xdc,0xff,0x18,0x00, 0xf4,0xfe,0xa2,0x00,0xed,0x00,0x03,0x00, // 15360
0xfc,0xff,0x15,0x00,0xde,0xff,0x8b,0xfd, 0x98,0xfe,0x9f,0x00,0xdb,0xff,0xdb,0xfe, // 15376
0x26,0x00,0x5e,0xfd,0xe0,0x00,0xbc,0xfe, 0x2e,0x00,0x7e,0xfd,0xd8,0xfe,0x53,0xff, // 15392
0x0b,0x00,0xf6,0xff,0x9d,0x00,0x38,0xff, 0xc0,0x00,0x31,0x01,0xae,0xfd,0x95,0xff, // 15408
0x70,0x00,0xf9,0xfe,0x3c,0xff,0x9b,0x00, 0x84,0xff,0x85,0x01,0x06,0x00,0x86,0x00, // 15424
0x43,0x01,0xe1,0x00,0xb3,0x03,0x31,0xfd, 0x19,0xff,0x38,0x01,0xd2,0xff,0x10,0x01, // 15440
0x45,0xff,0xd0,0xfc,0x3a,0xff,0xba,0x00, 0xf5,0xff,0xc2,0x02,0x1e,0x02,0x4e,0x00, // 15456
0x46,0xfe,0xf3,0x01,0x2d,0xff,0xcf,0x01, 0xa9,0xfe,0xa4,0x00,0x5d,0x02,0xb6,0xff, // 15472
0x88,0x00,0x6a,0xfe,0xc4,0xff,0x4c,0x00, 0xeb,0x01,0xe9,0xfe,0x95,0xff,0x83,0x00, // 15488
0xfe,0xff,0x40,0x01,0x3b,0x01,0xd6,0xff, 0xe2,0x00,0x19,0x01,0x11,0xfe,0xb9,0xfe, // 15504
0xd0,0xfe,0xf0,0xfe,0xc0,0x01,0x7c,0xff, 0x12,0xfc,0x3a,0x00,0xaf,0x00,0xa0,0xfe, // 15520
0xc5,0x04,0x21,0x02,0x7b,0xfe,0x5a,0xff, 0xe1,0x01,0xb5,0x04,0x6e,0x02,0x4c,0x01, // 15536
0x0a,0x04,0xb7,0x00,0xb9,0xfe,0x79,0xfd, 0x97,0xff,0xe2,0xfe,0x03,0x03,0x3c,0xff, // 15552
0xcc,0x01,0x41,0xff,0x57,0x00,0x80,0x00, 0x4f,0xfd,0x99,0xfe,0xed,0xff,0x8f,0x00, // 15568
0x5f,0x06,0x23,0x00,0x8b,0x01,0x7a,0xff, 0xbd,0x00,0x95,0x00,0x1a,0x02,0xe1,0x01, // 15584
0x08,0xfb,0xbf,0x00,0x8e,0x00,0xaf,0xff, 0xef,0xfe,0xd8,0x00,0x83,0xff,0x25,0xff, // 15600
0x78,0xff,0x84,0xff,0xa2,0xff,0x49,0xfe, 0x8c,0xff,0x3f,0x03,0xe3,0xff,0xa3,0x02, // 15616
0xae,0xfd,0x59,0xff,0x7d,0x00,0x7e,0x00, 0xcb,0xfe,0x1d,0xff,0xac,0xff,0x6b,0xff, // 15632
0xe2,0xfe,0x0a,0xff,0x21,0x00,0x57,0x00, 0x7a,0x00,0xe5,0x00,0x2b,0xff,0x02,0x00, // 15648
0x97,0xff,0x2c,0x00,0x49,0x00,0x80,0x00, 0x8d,0xfe,0xd7,0xfd,0x3c,0x01,0x7e,0x00, // 15664
0x73,0x00,0x6b,0xff,0x32,0x00,0x96,0x02, 0x15,0x01,0x95,0xff,0xda,0x00,0x75,0xfe, // 15680
0x1c,0x01,0xb5,0x06,0x65,0x00,0x54,0x00, 0xfe,0xff,0x31,0xfe,0x4d,0x00,0x38,0xff, // 15696
0x6c,0xff,0xf9,0xff,0x44,0x00,0x42,0x01, 0x20,0x05,0x02,0xff,0x83,0x00,0xb9,0xff, // 15712
0x28,0x01,0x89,0xff,0xbd,0xff,0x2a,0xff, 0x3b,0x00,0x18,0x01,0x1b,0x02,0x84,0x04, // 15728
0x24,0xff,0xf4,0xfb,0xf3,0xff,0xd2,0x00, 0xc6,0xff,0x3a,0xff,0xb7,0x00,0x27,0xfc, // 15744
0x2f,0x00,0xb2,0xff,0xee,0xff,0x9f,0xff, 0x2f,0x00,0x8a,0x01,0x25,0xfe,0xc1,0xff, // 15760
0x44,0xfd,0x8d,0x00,0xa8,0x00,0x94,0xff, 0x4a,0x02,0xb6,0xfe,0x89,0x02,0x8b,0x00, // 15776
0xb3,0xff,0x42,0xfd,0x8e,0x01,0xc4,0x01, 0x9a,0xfd,0x19,0x01,0x23,0xff,0x0a,0x00, // 15792
0xfe,0xff,0x21,0x00,0xd9,0xfe,0x90,0xff, 0x9c,0x00,0x9f,0xff,0xd2,0x01,0x59,0x01, // 15808
0x84,0xfb,0xd1,0x00,0x3b,0xfd,0x37,0x01, 0x93,0xfc,0x84,0xff,0xbd,0xff,0xb6,0xff, // 15824
0x22,0x00,0x7a,0xff,0x91,0xff,0x48,0x00, 0xaa,0xfd,0xd2,0x00,0x01,0x00,0xaf,0xff, // 15840
0xd5,0xff,0x32,0xff,0x4d,0x00,0x71,0xff, 0x3a,0x00,0x7c,0x00,0x66,0x00,0x65,0x00, // 15856
0xa8,0xff,0xc9,0x01,0x5d,0x00,0xbf,0xfd, 0x0c,0x00,0xfd,0x01,0x23,0xfe,0x99,0xfe, // 15872
0x5e,0x00,0xb2,0xff,0xc8,0xfe,0x6f,0x01, 0xe6,0xfe,0x5a,0x01,0x90,0x00,0x2e,0x00, // 15888
0x69,0x00,0xa8,0x01,0xe9,0x00,0x67,0xfe, 0xa8,0x04,0x9a,0x00,0x46,0x02,0x21,0xff, // 15904
0x84,0x04,0xee,0xfe,0x92,0x00,0x5d,0x00, 0x8d,0x01,0xa9,0x00,0x73,0xfd,0xf6,0xff, // 15920
0x6e,0xff,0xed,0xfe,0x50,0x00,0xe9,0xff, 0xc7,0xff,0x62,0xff,0x38,0xff,0x8b,0xff, // 15936
0x5a,0x01,0x66,0x05,0x76,0xfe,0xc3,0xff, 0x53,0xff,0x8a,0x01,0x5c,0x01,0x79,0xff, // 15952
0xb3,0xfd,0x6e,0x00,0x31,0x00,0x01,0x00, 0x96,0xfd,0x35,0x00,0x69,0x00,0xac,0xff, // 15968
0xb9,0x00,0x7b,0x02,0x3b,0xff,0x0c,0xff, 0xd5,0x00,0x6e,0xff,0x10,0xff,0x4c,0xfe, // 15984
0x2e,0x00,0xb6,0x00,0x8a,0xfd,0x4b,0x00, 0x45,0xff,0x59,0x03,0x34,0x00,0x8d,0x00, // 16000
0x13,0xff,0x9e,0xff,0x42,0xfe,0xbf,0xff, 0x64,0x00,0x20,0x00,0xb0,0x00,0xa4,0xff, // 16016
0x6e,0x00,0xd8,0xff,0x6b,0xff,0x75,0x00, 0x47,0xff,0xab,0xff,0xea,0xff,0x12,0xfe, // 16032
0xe7,0xfd,0xd5,0xff,0x7d,0x00,0x77,0x01, 0xd0,0x00,0x57,0xf9,0xf5,0xff,0x89,0x02, // 16048
0xb2,0x00,0x2f,0x00,0x84,0xff,0xd1,0x00, 0x1f,0x00,0x5d,0x00,0xc5,0xff,0xc1,0x00, // 16064
0x04,0x00,0x4a,0x00,0x7c,0x00,0x5b,0xff, 0x2a,0x00,0xeb,0x00,0xcf,0xff,0x57,0x00, // 16080
0x10,0x00,0x05,0x00,0x91,0xff,0xae,0xff, 0x6d,0x00,0xfb,0xff,0x9b,0x00,0x9c,0xff, // 16096
0x0c,0x00,0x43,0x01,0xf6,0xff,0xd4,0xff, 0x76,0xfd,0xf1,0xff,0xc0,0x00,0x65,0xfd, // 16112
0x6c,0x01,0xa1,0x00,0xd9,0xff,0x46,0xff, 0xd5,0xff,0x52,0x00,0x16,0xfe,0xe9,0x00, // 16128
0x92,0x00,0x7a,0x00,0x9e,0x00,0x9e,0x00, 0x13,0x01,0x10,0x00,0x72,0x00,0xd2,0x00, // 16144
0x0c,0x00,0xba,0xff,0x1d,0x00,0xd8,0xfe, 0x81,0xfd,0x19,0x02,0x43,0xff,0x30,0xff, // 16160
0x23,0x01,0x91,0x00,0x88,0xfe,0x6f,0x01, 0xc2,0xfe,0x1e,0x00,0xb6,0xff,0x3a,0x00, // 16176
0x41,0xff,0x70,0x00,0xfe,0xfe,0xc3,0x00, 0x0d,0xff,0xff,0xff,0xbb,0xfd,0xee,0xfd, // 16192
0xec,0xff,0x83,0xfe,0x0e,0x00,0x42,0x00, 0xa1,0x01,0x5c,0x00,0x74,0xfe,0x8b,0x00, // 16208
0xb8,0xff,0xac,0x00,0x7e,0x01,0x06,0x00, 0xe3,0xfd,0x35,0xff,0x7a,0xff,0xf3,0xfe, // 16224
0xc6,0x01,0x08,0xff,0x93,0xff,0x7d,0x00, 0x4e,0x00,0xae,0xfe,0x52,0x00,0xcd,0xff, // 16240
0x8e,0xff,0xc3,0xff,0x71,0xff,0x89,0x01, 0x88,0x00,0x6b,0x00,0xa1,0x00,0x67,0x00, // 16256
0xe4,0xff,0x9e,0x00,0x85,0x00,0x58,0x00, 0xec,0xff,0xc6,0xff,0xc1,0x00,0x79,0x00, // 16272
0x79,0xfe,0x2d,0x01,0xe9,0xfe,0x57,0xff, 0xb0,0xfd,0x90,0xff,0xce,0x00,0xb3,0xff, // 16288
0x5f,0xff,0xa6,0xff,0xe2,0xff,0x73,0x01, 0x86,0xff,0xe8,0x00,0xab,0x03,0x0c,0x01, // 16304
0xd9,0x02,0x99,0xff,0x35,0x00,0xe5,0x00, 0x20,0x07,0x50,0xff,0x71,0xfe,0xde,0xfe, // 16320
0xde,0xff,0x68,0xfe,0x6b,0x00,0x38,0x01, 0x1c,0xfd,0x9c,0x00,0x16,0x01,0x6d,0x01, // 16336
0xfa,0xfe,0x8d,0x00,0x8a,0xff,0x33,0xff, 0xb5,0x00,0xbc,0xff,0x0f,0x00,0x86,0x03, // 16352
0x54,0x00,0x0a,0x00,0x11,0x03,0xc6,0xfe, 0xfd,0xff,0x9e,0x00,0xea,0xfe,0x94,0x00, // 16368
0x7d,0x00,0xec,0xff,0xb1,0x01,0xff,0xff, 0x4d,0x00,0x19,0x0a,0x5a,0xff,0xfd,0xff, // 16384
0x61,0xfe,0xbe,0xff,0xc9,0xff,0x8e,0xfd, 0x38,0xfe,0xb0,0xff,0xe2,0x00,0xb2,0x00, // 16400
0x39,0x00,0x60,0xff,0x9c,0xff,0xf6,0x05, 0x0f,0x00,0x62,0x02,0x20,0xff,0xa4,0xff, // 16416
0x02,0x02,0x4f,0x00,0x5e,0x00,0x03,0x00, 0xe2,0xff,0x3d,0xff,0x24,0xfe,0xd4,0x00, // 16432
0x06,0xfe,0xa5,0x0a,0x45,0x03,0x53,0xff, 0x9e,0xff,0x9c,0x00,0x01,0xff,0x16,0xfd, // 16448
0x84,0xf6,0x54,0x00,0xc3,0xff,0xf0,0xff, 0x82,0xff,0x3e,0xff,0x83,0x00,0x34,0x00, // 16464
0x29,0x01,0xb5,0x00,0x9f,0xff,0xfc,0xfe, 0x2e,0x00,0xea,0x03,0xd1,0xfd,0x7f,0xff, // 16480
0x49,0x01,0xcb,0x01,0x0f,0xff,0x93,0xff, 0xc1,0xfe,0xfd,0xff,0x25,0x01,0x69,0xff, // 16496
0xfb,0x03,0x4f,0xff,0xde,0xff,0x27,0xff, 0x7a,0x01,0x49,0xff,0x06,0xfe,0xda,0xfe, // 16512
0x7a,0xff,0x25,0xff,0xd1,0xff,0x59,0x00, 0x38,0x00,0x6c,0x00,0x66,0xff,0xf2,0x00, // 16528
0x94,0x01,0xb0,0xff,0xb9,0xfe,0x5c,0x00, 0x65,0x00,0x2d,0x00,0xb2,0xff,0x76,0x00, // 16544
0xdf,0xff,0xa5,0xff,0x6a,0x01,0xe9,0xfa, 0xb3,0xff,0x82,0xff,0xc8,0xfe,0xc2,0xff, // 16560
0x5a,0x00,0xf0,0xff,0xc3,0xff,0xfb,0xfe, 0xf7,0xff,0x2c,0xfd,0xb4,0x01,0xf9,0x00, // 16576
0x8d,0xfd,0xb2,0x04,0x2c,0x01,0x0e,0x00, 0x36,0x01,0xfe,0xff,0x16,0x01,0x18,0x00, // 16592
0x2a,0x06,0x40,0x00,0x12,0xfa,0xc6,0xff, 0xcd,0xfe,0x6c,0x00,0xb2,0xff,0x2c,0xff, // 16608
0x76,0xf9,0xc0,0xff,0xd4,0x02,0xed,0xff, 0x12,0xff,0x93,0xfc,0x18,0x00,0xc7,0x01, // 16624
0x6c,0x01,0xc4,0xfc,0x92,0xff,0x7a,0x05, 0x0e,0x00,0xdb,0xff,0x6c,0xff,0xe3,0xfe, // 16640
0x62,0x00,0xd1,0x00,0x48,0xfd,0xe7,0x00, 0x2f,0xfe,0x08,0x00,0x11,0x01,0x5e,0x00, // 16656
0xca,0xfe,0xf8,0xff,0x7f,0x00,0xf7,0xff, 0x96,0x00,0x07,0x00,0x25,0x00,0x6f,0x00, // 16672
0x61,0xfd,0xe5,0xff,0x9a,0x00,0x8a,0xff, 0x3b,0xfd,0x66,0x00,0x08,0x01,0xd3,0xff, // 16688
0xd3,0xff,0xbb,0x01,0x77,0xff,0x05,0x00, 0xb8,0xff,0x85,0x04,0x2f,0x00,0xa0,0xfe, // 16704
0x5e,0x00,0xe1,0xff,0x92,0xf3,0x70,0x00, 0x89,0x00,0x8a,0x00,0x29,0x05,0x71,0xff, // 16720
0x83,0x00,0xc7,0x00,0x80,0x00,0xab,0xfa, 0xd2,0xff,0x1f,0x00,0x3e,0xff,0x06,0xfd, // 16736
0x59,0x02,0x49,0x00,0xd1,0x02,0x95,0x01, 0x64,0x06,0x2f,0x01,0x6e,0x00,0x5c,0x00, // 16752
0xfc,0x01,0xc3,0x06,0xfb,0xf7,0xec,0xfe, 0x30,0xff,0xc6,0xff,0xad,0x00,0x0d,0x00, // 16768
0x5f,0xff,0x63,0xff,0x9b,0xff,0xbd,0xff, 0x32,0x03,0x31,0x02,0x6e,0xfc,0xab,0xff, // 16784
0x93,0xff,0xaa,0x00,0xbf,0xfc,0x0c,0x02, 0xe8,0xf9,0xdd,0x00,0x59,0x00,0x36,0x00, // 16800
0xc5,0xff,0x90,0xff,0x54,0x00,0x48,0xff, 0xb9,0x00,0xd3,0x03,0xd3,0xfe,0x70,0xff, // 16816
0x86,0x03,0x4e,0xff,0xee,0xff,0xa3,0xff, 0x4a,0x00,0xed,0x00,0xf6,0x01,0x1d,0xfc, // 16832
0xd9,0xff,0xc4,0xff,0x62,0xff,0xef,0xff, 0xd1,0xff,0x64,0x00,0xa0,0x00,0x48,0xfe, // 16848
0xab,0xff,0xa2,0xfe,0x20,0x00,0x7a,0x00, 0xd9,0xff,0x19,0x00,0x91,0x03,0x62,0xff, // 16864
0xf0,0x03,0x54,0x00,0xfc,0xff,0xc0,0xff, 0x1b,0x08,0x7e,0x00,0xa2,0xfe,0xed,0xff, // 16880
0x09,0xfe,0x5f,0x00,0x09,0x00,0x87,0xff, 0x69,0xf6,0xbf,0xff,0x1b,0x00,0x06,0x00, // 16896
0x2e,0xfe,0x0f,0xfe,0x87,0x00,0xab,0x00, 0xfd,0x01,0x3e,0xff,0xe2,0xff,0xe4,0x09, // 16912
0xd8,0xff,0x1a,0x00,0x61,0x00,0xff,0xff, 0x31,0x00,0xdc,0xff,0xe8,0xff,0x98,0x00, // 16928
0x58,0xff,0xf6,0xff,0x8f,0xff,0x40,0xff, 0x64,0xff,0x74,0x00,0xf4,0xff,0x54,0x00, // 16944
0x22,0x00,0xa1,0xff,0xa9,0xff,0x57,0x00, 0x49,0xfc,0x69,0x00,0x47,0x00,0x33,0xff, // 16960
0x9d,0x01,0xf2,0xff,0x33,0x00,0x7a,0x00, 0x12,0x00,0xb5,0x00,0xda,0xff,0x07,0x00, // 16976
0xcc,0xff,0xd3,0x01,0x25,0x00,0x4c,0xff, 0x27,0x00,0x64,0xfe,0xd2,0xf9,0xbd,0xff, // 16992
0x56,0x00,0x06,0x00,0xb0,0x07,0x23,0x00, 0xaf,0x01,0xac,0xff,0x49,0x00,0xb5,0xfa, // 17008
0xa9,0xff,0xf4,0xff,0x25,0x00,0xd3,0xfe, 0x5e,0x00,0xa2,0xff,0x49,0xff,0x2e,0xff, // 17024
0xd8,0x04,0x88,0x01,0x69,0x00,0xde,0xff, 0xdb,0x00,0x97,0x15,0xff,0xfa,0xe6,0xff, // 17040
0x08,0x00,0x22,0x00,0x11,0x00,0x77,0xff, 0x0c,0x00,0x40,0xff,0x10,0x00,0x11,0x00, // 17056
0x81,0x0d,0xd8,0x00,0x26,0xfe,0xf7,0xff, 0xfb,0xff,0x21,0x00,0xbb,0xfa,0x59,0xfd, // 17072
0xe1,0xfc,0x0d,0x00,0x17,0x00,0xaf,0xff, 0xa9,0xff,0xb9,0xff,0xa6,0xff,0xba,0xff, // 17088
0xb9,0xff,0x55,0x01,0x48,0xff,0xdd,0x01, 0x34,0x01,0x63,0x00,0xe0,0xff,0x71,0xff, // 17104
0xe0,0xff,0x55,0x00,0x67,0x01,0x32,0xfc, 0xe5,0xfb,0xe7,0x00,0x6e,0xff,0x50,0x00, // 17120
0x3e,0xff,0x7b,0xfb,0x47,0x00,0x62,0xff, 0x2c,0xff,0x3f,0x07,0x5d,0xff,0x4b,0x00, // 17136
0x54,0x01,0xca,0xfb,0x9b,0xff,0x7e,0x00, 0x09,0x01,0xc3,0xff,0x87,0x02,0x6d,0x00, // 17152
0x7d,0x00,0x89,0xfe,0x29,0x03,0x88,0xff, 0x9b,0x00,0x91,0xfe,0xed,0xff,0xfc,0x00, // 17168
0x5c,0xff,0xaf,0x00,0x84,0xfe,0xb9,0x00, 0xe3,0xff,0x75,0x04,0xbe,0x00,0x0d,0xfd, // 17184
0x29,0x01,0x21,0x00,0x49,0x01,0xc3,0xff, 0x60,0xfc,0xc7,0x00,0x50,0x02,0x29,0x01, // 17200
0x55,0x04,0xa6,0x03,0xdc,0xff,0x5f,0xff, 0x08,0x02,0x91,0x03,0x24,0x01,0xcc,0xff, // 17216
0x2b,0x07,0xfa,0x01,0x90,0xfe,0xe7,0xfc, 0x31,0xff,0x37,0xff,0x26,0x00,0x8f,0xff, // 17232
0xa4,0x01,0xe0,0xfe,0x46,0x00,0x36,0x00, 0xd8,0x00,0xa9,0xff,0xa8,0xff,0xb6,0x01, // 17248
0x53,0x01,0x7f,0x00,0xec,0xff,0x08,0xfe, 0x1d,0x01,0xf6,0xfc,0x08,0x00,0xdb,0x00, // 17264
0xaa,0xf0,0xcf,0xff,0x35,0x01,0x13,0x00, 0x64,0xff,0x61,0x02,0x1e,0x00,0x3a,0x00, // 17280
0xf0,0x00,0x4e,0x00,0xe4,0xff,0x58,0x01, 0x1a,0xfe,0x03,0x08,0x79,0x00,0x60,0x06, // 17296
0x31,0xfd,0x51,0xff,0xb3,0xfe,0x4c,0xfe, 0x50,0xfe,0xa0,0x00,0xf7,0xfe,0xa1,0xff, // 17312
0xdf,0xff,0x05,0x01,0x13,0x01,0x68,0x00, 0xbe,0x00,0xd9,0x01,0x9c,0xfe,0x46,0xff, // 17328
0x13,0xff,0xb5,0x00,0xf2,0x00,0x45,0x00, 0x17,0x01,0x7f,0xfc,0xad,0xff,0xfa,0xff, // 17344
0x2d,0x00,0xee,0xfe,0x26,0x00,0xc3,0xfe, 0x87,0x02,0xee,0xff,0x82,0xff,0x01,0xff, // 17360
0x3b,0x02,0x35,0x0b,0x3d,0xff,0x6e,0x00, 0x6d,0xff,0x37,0xfd,0x3c,0x00,0x09,0x01, // 17376
0x8a,0xff,0x59,0x00,0xe5,0xff,0x15,0x01, 0xf9,0x05,0xc9,0xff,0x77,0x00,0xc1,0xff, // 17392
0x7d,0xff,0x5a,0x00,0xa2,0x00,0x7c,0xff, 0xcf,0xff,0x7d,0xfe,0x4e,0x03,0x69,0x00, // 17408
0x5d,0xfe,0x3a,0x01,0xef,0x00,0x6f,0x01, 0x6e,0xff,0x6d,0x00,0x3b,0xff,0x98,0xff, // 17424
0xb9,0xff,0xdc,0xfe,0x3b,0x00,0x78,0x00, 0xbb,0xff,0x5c,0x00,0x96,0xff,0x9f,0xfe, // 17440
0x6f,0xff,0xd5,0xff,0xf9,0x00,0x75,0x00, 0x2c,0x00,0x4a,0xff,0x8e,0x00,0x13,0x02, // 17456
0xfa,0xff,0x3d,0x01,0x6e,0x00,0xc2,0xff, 0x84,0xff,0x34,0x00,0xd3,0x01,0x16,0x00, // 17472
0x49,0xff,0xb2,0x00,0x3b,0x00,0xea,0xff, 0xd3,0x00,0x66,0x01,0x58,0x00,0xa8,0xff, // 17488
0x4a,0xff,0x7e,0x00,0xb5,0xfe,0x47,0x00, 0x30,0x01,0xe0,0xff,0xa5,0x00,0x78,0xfe, // 17504
0xd2,0xff,0xe4,0xff,0x9e,0xff,0x95,0xff, 0x70,0x00,0x40,0xff,0xbd,0x00,0x2e,0x00, // 17520
0xbc,0xff,0x3e,0x00,0xc0,0xff,0xe9,0xff, 0xf3,0xff,0x5a,0x00,0xdd,0xff,0x70,0xff, // 17536
0xf4,0xff,0x6f,0x00,0x72,0x00,0x3b,0xff, 0x7e,0xff,0x81,0x00,0x5c,0xff,0x8e,0x00, // 17552
0xc7,0xff,0xa2,0xff,0xda,0xff,0x45,0x00, 0x1b,0x00,0x60,0x00,0xa4,0xff,0x4a,0x00, // 17568
0xb7,0x00,0x62,0x01,0x58,0xff,0x45,0x01, 0xcc,0x00,0x44,0x00,0x77,0x00,0x54,0x00, // 17584
0x77,0x00,0x8f,0xff,0xaa,0xff,0xfc,0xff, 0xcc,0x00,0xf0,0xff,0x28,0xff,0x26,0xff, // 17600
0x6a,0x00,0x53,0x00,0xa8,0xff,0xfc,0xff, 0x1e,0xfe,0xbc,0xff,0x0c,0x00,0x29,0xff, // 17616
0x1e,0x00,0x1d,0x01,0x75,0xff,0xfe,0xfe, 0x0e,0x00,0xac,0x00,0xfb,0xff,0xa6,0x00, // 17632
0xa1,0xff,0xec,0xff,0x43,0x01,0x0d,0x00, 0x14,0x00,0xbf,0x00,0x1d,0x00,0xbd,0x00, // 17648
0x41,0x00,0xe3,0x00,0xf1,0xfc,0xba,0xff, 0x9a,0x00,0xc1,0xfe,0x13,0x01,0x39,0x00, // 17664
