#if defined __ICCARM__
#define __ALIGNED(x) __attribute__((aligned(x)))
#else
#define __ALIGNED(x) __attribute__((aligned(x)))
#endif
const unsigned char model1[] __ALIGNED(16) = {
0x4e,0x4e,0x43,0x55,0x01,0x00,0x01,0x00, 0x01,0x0e,0x0a,0x00,0x07,0x00,0x00,0x00, // 16
0x02,0x00,0x00,0x00,0x00,0x00,0x00,0x00, 0x30,0x02,0x00,0x00,0x02,0x00,0x00,0x00, // 32
0x30,0x02,0x00,0x00,0x18,0x01,0x00,0x00, 0x18,0x01,0x00,0x00,0x00,0x00,0x00,0x00, // 48
0x00,0x00,0x00,0x00,0x00,0x00,0x00,0x00, 0x00,0x00,0x00,0x00,0x00,0x00,0x00,0x00, // 64
0x00,0x00,0x00,0x00,0x00,0x00,0x00,0x00, 0xff,0xff,0xff,0xff,0xff,0xff,0xff,0xff, // 80
0x43,0x4d,0x44,0x00,0x20,0x00,0x80,0x00, 0x50,0x00,0x00,0x00,0x00,0xfe,0x00,0x00, // 96
0x73,0x6d,0x61,0x72,0x74,0x63,0x61,0x72, 0x5f,0x61,0x64,0x5f,0x64,0x65,0x6e,0x73, // 112
0x65,0x5f,0x64,0x72,0x6f,0x70,0x5f,0x30, 0x32,0x35,0x5f,0x61,0x64,0x53,0x69,0x7a, // 128
0x65,0x5f,0x31,0x2e,0x68,0x35,0x0d,0x0a, 0x4d,0x6f,0x6e,0x20,0x4d,0x61,0x79,0x20, // 144
0x31,0x31,0x20,0x30,0x38,0x3a,0x33,0x37, 0x3a,0x35,0x35,0x20,0x32,0x30,0x32,0x30, // 160
0x0d,0x0a,0x31,0x34,0x20,0x62,0x69,0x74, 0x73,0x0d,0x0a,0x6e,0x6e,0x63,0x75,0x20, // 176
0x76,0x65,0x72,0x20,0x30,0x2e,0x30,0x70, 0x0d,0x0a,0x00,0x00,0x00,0x00,0x00,0x00, // 192
0x00,0x00,0x00,0x00,0x00,0x00,0x00,0x00, 0x00,0x00,0x00,0x00,0x00,0x00,0x00,0x00, // 208
0x43,0x4d,0x44,0x00,0x20,0x02,0x00,0x00, 0xd0,0x00,0x00,0x00,0x10,0x02,0x00,0x00, // 224
0x00,0x01,0x00,0x02,0x07,0x05,0x07,0x0a, 0x00,0x00,0x00,0x00,0x00,0x00,0x00,0x00, // 240
0x01,0x00,0x07,0x00,0x01,0x00,0x01,0x00, 0x8c,0x00,0x01,0x00,0x00,0x00,0x00,0x00, // 256
0x0c,0x00,0xff,0xff,0xff,0xff,0xff,0xff, 0x00,0x01,0x01,0x00,0x18,0x01,0x00,0x00, // 272
0x00,0x00,0x03,0x00,0x0e,0x00,0x00,0x00, 0x00,0x00,0x00,0x00,0x00,0x00,0x00,0x00, // 288
0x00,0x00,0x00,0x00,0x00,0x00,0x00,0x00, 0x00,0x00,0x00,0x00,0x00,0x00,0x00,0x00, // 304
0x00,0x00,0x00,0x00,0x00,0x00,0x00,0x00, 0x00,0x00,0x00,0x00,0x00,0x00,0x00,0x00, // 320
0x00,0x00,0x00,0x00,0x00,0x00,0x00,0x00, 0xa8,0x07,0x00,0x00,0x18,0x01,0x00,0x00, // 336
0x52,0x0a,0x54,0xf8,0xe4,0xfe,0xa4,0x02, 0x69,0xff,0x79,0xff,0x6a,0xff,0x8e,0x01, // 352
0x0a,0x04,0x74,0xfd,0x77,0x05,0xc2,0x00, 0x66,0xfe,0xfd,0xfe,0x9d,0xff,0x7d,0xff, // 368
0x82,0x00,0x98,0x05,0xb9,0xf6,0x6f,0x00, 0xab,0x00,0x58,0xfd,0xc3,0x04,0xdd,0x00, // 384
0x55,0xfd,0xb0,0xff,0x74,0xfa,0xaa,0xfa, 0xd4,0xf0,0xb5,0xea,0xf9,0x02,0x73,0x00, // 400
0xab,0x00,0x67,0xff,0xfc,0xfb,0xba,0x05, 0xc6,0x02,0x51,0x03,0x80,0x02,0x36,0xfd, // 416
0xbc,0xfe,0x62,0x01,0x01,0xfd,0xea,0x01, 0x84,0x06,0x49,0xf3,0x61,0xf8,0xa3,0xfd, // 432
0xca,0xf7,0x3e,0xfe,0x13,0xf4,0x51,0xfe, 0x70,0xfd,0x93,0x05,0x7f,0xfa,0x13,0x06, // 448
0xd3,0xfb,0xfd,0x00,0x24,0xfe,0xa8,0x00, 0x27,0xfc,0x0c,0x02,0x0b,0x02,0xc2,0xf2, // 464
0x52,0x08,0xe9,0x02,0xf7,0xfb,0xb4,0x00, 0x87,0x00,0x1d,0x01,0x98,0xfc,0x79,0x04, // 480
0xf2,0xff,0xf8,0x00,0xb9,0x03,0x1c,0x01, 0x5c,0xfa,0x63,0x02,0x0e,0xfc,0x92,0x02, // 496
0x65,0xfb,0x0b,0x02,0xf2,0x01,0x37,0x03, 0xfa,0xfb,0xf7,0x00,0x15,0xff,0xf8,0xfe, // 512
0x8b,0xfc,0xee,0x02,0xf1,0x02,0x51,0x01, 0xcf,0xff,0xa0,0xfe,0xbc,0xfa,0x9f,0x0b, // 528
0x0f,0x00,0xc6,0x00,0x67,0xff,0x71,0x00, 0xbf,0x00,0xf3,0xf9,0x0f,0x06,0xcb,0xff, // 544
0x49,0xff,0xe3,0xfb,0xdb,0xff,0x06,0x00, 0x56,0xfc,0x16,0xfd,0x66,0x02,0xed,0x04, // 560
0x6c,0xff,0xe7,0xfd,0xe9,0x02,0x4a,0x05, 0x06,0xf5,0x71,0x00,0x76,0xfa,0x9a,0x02, // 576
0x15,0xff,0x82,0x01,0x09,0xff,0x81,0x04, 0x8d,0xfe,0xd8,0xfb,0x25,0xfc,0x81,0xfe, // 592
0x73,0x01,0x47,0xfc,0x90,0xff,0x1b,0x01, 0xaa,0xfb,0xad,0x02,0x2d,0xfe,0x33,0x02, // 608
0x54,0xfd,0x6d,0x03,0x46,0xfe,0xcf,0xfd, 0x3e,0xfe,0x11,0xfe,0x8d,0xff,0xd4,0x00, // 624
0x17,0xfc,0x76,0x02,0x23,0x03,0x01,0x06, 0xf8,0xfd,0xbf,0x01,0x52,0x01,0x07,0x02, // 640
0x4c,0xff,0xef,0x00,0x1b,0x00,0x25,0xff, 0x30,0x00,0x84,0x05,0x37,0xf8,0x88,0x00, // 656
0x93,0x00,0xa7,0x04,0x90,0xf9,0xca,0xf8, 0x84,0xfc,0xf3,0xf9,0xac,0xf9,0x4e,0x0b, // 672
0xd6,0x05,0xb3,0xfe,0x66,0x02,0x1b,0x01, 0x8a,0x03,0xaf,0xfe,0xf6,0xfe,0x66,0xff, // 688
0x81,0x00,0x55,0xfe,0xa0,0xf9,0xc0,0x05, 0xb6,0x00,0x9c,0x08,0x95,0x00,0xbe,0x02, // 704
0x95,0xfc,0x62,0xfb,0x37,0x0c,0x72,0xff, 0xeb,0x01,0xf3,0xfe,0x5b,0x00,0xd4,0x00, // 720
0x16,0xf9,0xb2,0x06,0xd8,0xff,0x6b,0xff, 0xec,0xfe,0x42,0xfc,0x93,0x00,0xd3,0x00, // 736
0x66,0xfc,0x53,0x02,0x6f,0x02,0xd5,0xfc, 0x5e,0x00,0xe8,0xfe,0xd2,0xfb,0x85,0xfc, // 752
0xdf,0x00,0x0e,0x10,0x6a,0x01,0x1d,0x00, 0x74,0x01,0x11,0xfd,0x86,0x04,0x55,0xff, // 768
0xb8,0xfd,0x96,0xff,0x71,0x00,0x10,0x01, 0x98,0xf9,0x25,0x06,0xde,0xff,0x69,0xff, // 784
0x2b,0x07,0xb5,0x01,0xea,0x02,0x5d,0x04, 0x9f,0x04,0xce,0xfe,0x28,0xff,0xa1,0x02, // 800
0xfc,0xff,0x76,0x00,0x50,0x00,0x98,0x04, 0x43,0xfe,0x0d,0xfb,0x7d,0x09,0xb8,0x09, // 816
0x9d,0xf9,0xd5,0x00,0xc6,0x00,0x8a,0xfe, 0xa9,0xff,0xb1,0xfc,0xa6,0xfe,0x8e,0xfe, // 832
0xe8,0x02,0xf6,0xfb,0xd3,0x04,0x86,0x01, 0x90,0xfe,0x30,0x03,0xc7,0xfe,0x8e,0xf9, // 848
0x56,0x08,0xd2,0xff,0xa4,0xff,0x86,0x04, 0x48,0xfa,0x2f,0x01,0xb6,0x02,0x10,0xff, // 864
0xab,0xfe,0xbc,0xfe,0x89,0xfc,0x16,0x07, 0x08,0x05,0xf8,0x03,0x68,0x04,0xe5,0x04, // 880
0xdd,0xf6,0xb8,0x05,0x2b,0xff,0x3b,0x01, 0xd2,0x01,0x43,0x02,0x80,0xfe,0xcb,0x00, // 896
0x25,0x00,0x5c,0xff,0x1a,0xff,0x49,0x06, 0xfe,0xf8,0x02,0x00,0x82,0x00,0x21,0x03, // 912
0xe0,0x03,0x59,0xff,0x4c,0x00,0xa5,0x04, 0xb0,0xfe,0x28,0xfd,0xba,0x01,0x0a,0xff, // 928
0x82,0xff,0xd8,0x07,0x88,0xf9,0x2f,0x00, 0x67,0x00,0xa8,0xfe,0x00,0xf9,0xb8,0xfa, // 944
0x70,0xff,0x31,0x00,0x14,0x05,0x0e,0xfd, 0x59,0x00,0x9f,0xf8,0x5f,0x03,0x80,0x00, // 960
0xaa,0xfb,0x3e,0xfd,0x83,0x00,0x3e,0x00, 0x26,0x01,0x62,0xff,0xda,0xfa,0x00,0x09, // 976
0x88,0xff,0x21,0xff,0xbe,0xfd,0xe4,0xf9, 0xef,0xfc,0xb1,0xfd,0x45,0x00,0x0d,0x04, // 992
0x93,0xfb,0x31,0xfb,0xf2,0xff,0x3c,0xff, 0x52,0x00,0x60,0xfd,0x83,0x00,0x8f,0xfd, // 1008
0x3e,0xff,0x2f,0xfe,0x88,0x01,0x84,0xfd, 0xac,0xf9,0xc6,0xfb,0xed,0x01,0x07,0x01, // 1024
0x08,0x01,0x41,0x01,0xed,0xfc,0x34,0x04, 0x84,0xff,0x5a,0xfe,0x56,0xfc,0xbd,0xff, // 1040
0xec,0xfe,0x69,0x01,0x8d,0xfc,0x21,0x04, 0x9b,0x01,0x5f,0xfe,0x76,0x04,0x41,0xfc, // 1056
0xc4,0x03,0x90,0xfe,0x7e,0xff,0x43,0xff, 0x17,0x02,0xa1,0x00,0xec,0xff,0xdd,0xff, // 1072
0x5f,0x06,0x08,0x01,0xcd,0xfc,0xab,0x00, 0x5a,0x00,0xa1,0xfe,0x50,0x06,0x45,0xfa, // 1088
0x1f,0x00,0xa0,0x00,0x12,0xfe,0xe0,0x02, 0xf1,0xfe,0xd7,0x00,0x1f,0x04,0x71,0x04, // 1104
0xf6,0xff,0xee,0x00,0xd3,0xfe,0x54,0xff, 0x86,0x06,0x89,0xf9,0x28,0x00,0xb5,0x00, // 1120
0x16,0xfc,0x35,0x04,0xfd,0xfd,0xc6,0xfa, 0xfd,0x03,0x24,0x00,0x96,0xff,0xba,0x00, // 1136
0xad,0x04,0x5c,0x02,0x2f,0xff,0xf1,0xfc, 0x4b,0x00,0x56,0x0d,0xf7,0x03,0xa8,0x00, // 1152
0x4f,0x01,0x3b,0xfe,0xb1,0x03,0x7d,0xfb, 0x1b,0xff,0x88,0x06,0x59,0xfc,0x97,0xfe, // 1168
0xb8,0x02,0xff,0x01,0x46,0xfb,0x5e,0x01, 0xa2,0xfe,0xec,0x00,0x96,0x04,0x96,0xfe, // 1184
0x76,0xf8,0xd3,0xf6,0x05,0xfd,0xf3,0xfa, 0x36,0x01,0xed,0x01,0xe7,0xfb,0x1d,0x00, // 1200
0x1c,0x01,0x3c,0xfd,0xf9,0x04,0x74,0x04, 0xb7,0x05,0x8b,0x01,0xec,0x00,0xfb,0xf6, // 1216
0xe7,0x02,0xe3,0xfc,0x0c,0xfc,0x3b,0xfd, 0xa9,0x02,0x74,0x00,0x12,0x03,0x76,0xf9, // 1232
0xed,0x03,0x5f,0xf8,0xa4,0xff,0x5b,0x03, 0x99,0xfd,0xba,0xff,0xf2,0x00,0xd1,0xfd, // 1248
0xeb,0xfe,0x40,0x00,0x96,0xfb,0x5e,0xfe, 0xbc,0xfd,0xae,0x01,0x30,0xfd,0x3e,0x02, // 1264
0xee,0xff,0xc4,0xf9,0xe8,0x04,0x72,0xff, 0xd4,0xfe,0x24,0x04,0xa7,0xf9,0xd3,0x00, // 1280
0x64,0x01,0x14,0x01,0xb2,0x04,0x7d,0x04, 0xc7,0xfe,0xd5,0xfa,0xe8,0xff,0xa9,0xfd, // 1296
0x7a,0x00,0x25,0x00,0xac,0xfb,0xf4,0x04, 0x38,0xf9,0x13,0x01,0x91,0x02,0xd6,0x00, // 1312
0x53,0x02,0xc3,0x00,0xbd,0xf9,0xa6,0xfe, 0xd1,0x00,0x48,0x02,0x6c,0xfb,0x8a,0x03, // 1328
0x1d,0xfd,0x06,0x00,0x98,0xfc,0x62,0x01, 0x17,0xfc,0x61,0xfe,0x59,0x02,0x5c,0x04, // 1344
0xd1,0xff,0xeb,0x01,0x22,0xff,0x4e,0xfa, 0xfd,0x08,0x65,0xff,0x29,0xff,0x09,0xfc, // 1360
0x82,0x04,0x4f,0x01,0xed,0xfe,0x04,0x02, 0x47,0x03,0x91,0xfd,0x66,0xf9,0xb2,0xfa, // 1376
0x9f,0xfc,0x0b,0xfc,0x0e,0xf9,0xec,0x00, 0x2a,0x00,0x76,0xf9,0x64,0x01,0x21,0x00, // 1392
0x04,0xfe,0xf2,0xfd,0xd2,0x02,0x70,0x00, 0x4e,0xfd,0x85,0xfe,0x2d,0x00,0xcf,0xfe, // 1408
0x70,0xfa,0xd8,0x01,0xda,0x06,0xd2,0xfc, 0xd4,0x00,0x9c,0xfd,0x3d,0x03,0x71,0xfc, // 1424
0xf2,0x02,0x31,0x01,0x3a,0x02,0x90,0xfe, 0xdc,0xfe,0xf0,0xfb,0x78,0x0b,0xf3,0xff, // 1440
0x8c,0x00,0x2c,0xfe,0x95,0xff,0x7c,0x01, 0xfe,0xff,0x0a,0xf9,0xdf,0xf6,0xa9,0x03, // 1456
0xc0,0xfd,0x35,0x00,0x58,0xfe,0xc7,0x01, 0x40,0xfc,0x91,0x02,0xe1,0x02,0x5f,0xff, // 1472
0x25,0x00,0x26,0x01,0xba,0xf9,0xf5,0x05, 0xd9,0xff,0x4a,0xff,0x72,0x01,0x96,0x01, // 1488
0x52,0xfd,0x3a,0x06,0x4f,0xfd,0xe5,0xff, 0xd4,0x00,0x27,0xff,0x94,0x01,0xd7,0xff, // 1504
0x62,0x02,0xf7,0xff,0x9d,0xfe,0x8a,0xf7, 0xef,0x05,0x94,0xfd,0x8e,0x01,0x7a,0x05, // 1520
0xdd,0xfe,0x18,0xff,0x80,0xff,0x16,0x04, 0x73,0x04,0xf5,0x00,0x2b,0xfd,0xe2,0xfc, // 1536
0x04,0xf7,0xad,0x03,0x84,0x00,0xd1,0x04, 0x14,0xfd,0xd7,0x04,0x88,0x00,0xb4,0xfd, // 1552
0x72,0xfd,0x1a,0xfe,0xee,0xff,0xe4,0x00, 0x58,0xfa,0xe5,0x02,0xe7,0xff,0xc1,0xfd, // 1568
0x8b,0xf2,0xf1,0x07,0xfd,0x02,0xc2,0xfb, 0xce,0x00,0x9c,0x00,0x01,0x01,0x97,0x04, // 1584
0x90,0xfd,0xc0,0x02,0xe7,0xff,0xbc,0x02, 0xf4,0xfe,0x89,0xff,0xfc,0xfc,0xee,0x00, // 1600
0xbd,0xfe,0xa4,0x00,0xe0,0xfa,0xdf,0x00, 0xb9,0x04,0xf5,0xf3,0x32,0xe8,0xc1,0x02, // 1616
0x1d,0x02,0xef,0x01,0x8e,0xff,0xab,0xfa, 0x69,0xfe,0x44,0x01,0x35,0x00,0x21,0xf9, // 1632
0x1a,0x06,0xcf,0xff,0x5c,0xff,0x4e,0xfc, 0x3f,0xfd,0xe0,0xfe,0xeb,0x03,0x24,0xff, // 1648
0xf3,0x04,0x7f,0xfd,0xd4,0x03,0xb6,0x05, 0xbc,0x02,0x93,0x06,0x58,0x03,0x00,0x00, // 1664
0xfb,0xff,0x81,0x02,0x2a,0xff,0x34,0x01, 0x75,0xff,0x2f,0x04,0xb5,0xfd,0x5c,0xfa, // 1680
0x7d,0xf5,0xa1,0x07,0x7e,0x01,0x45,0xfd, 0x3a,0x00,0x7f,0x00,0xea,0x00,0xfe,0xfc, // 1696
0x2c,0xf7,0x66,0xfc,0x0e,0xfd,0xcb,0xf8, 0x8b,0xff,0xfe,0xfe,0xdb,0xf8,0xb1,0x05, // 1712
0x42,0x01,0x4f,0xfc,0x72,0x01,0x81,0x00, 0xb2,0x00,0xb2,0xfc,0x84,0x04,0xce,0x01, // 1728
0x7d,0xfb,0xdd,0x00,0xe3,0xfb,0x07,0xfc, 0x41,0xfb,0x1c,0x01,0x95,0xfd,0x5c,0x00, // 1744
0x60,0xfc,0x3f,0x01,0x4b,0x00,0x25,0x01, 0xaa,0x00,0x52,0xfc,0x31,0x03,0x98,0x07, // 1760
0x9d,0x07,0x51,0x00,0x60,0xf6,0x15,0x0e, 0x4e,0x12,0x38,0x00,0xd1,0x0c,0x97,0xf8, // 1776
0x7c,0x00,0xbd,0x01,0x85,0xfd,0x21,0xfd, 0x6a,0xff,0x4e,0x05,0xd6,0x02,0xd0,0xfb, // 1792
0xa1,0x03,0x3b,0xfa,0x5d,0x01,0xa4,0xff, 0xea,0x01,0xf0,0x03,0xc2,0x03,0xb5,0xf8, // 1808
0xf3,0xef,0x22,0xfc,0xd4,0xff,0x81,0xff, 0x32,0x01,0xa1,0xf8,0x48,0xfd,0x9c,0x01, // 1824
0x98,0xfe,0x04,0x00,0x16,0xfb,0x25,0x01, 0x88,0x04,0x57,0x03,0x9d,0xff,0x89,0x00, // 1840
0x6d,0x00,0x83,0x03,0xb0,0xfc,0xa8,0xfc, 0xd5,0xff,0xbe,0xff,0x11,0x02,0xeb,0x05, // 1856
0x93,0xfa,0x48,0xff,0xca,0xf5,0x5e,0xfd, 0x5c,0xff,0x08,0x01,0xb5,0xfc,0x77,0xfd, // 1872
0xf1,0x02,0x74,0x04,0xe1,0xfb,0x46,0xff, 0x36,0xff,0x7f,0x00,0xe2,0xfc,0x49,0x05, // 1888
0x25,0x02,0xba,0xfe,0x17,0x06,0x0a,0x06, 0xa9,0xf9,0xbd,0xfc,0x33,0xff,0xc0,0xfc, // 1904
0x26,0xf1,0x16,0x09,0x47,0x05,0x09,0xfb, 0x1b,0x03,0x28,0x00,0xe3,0x00,0xf6,0xfa, // 1920
0xda,0x05,0xaa,0xfe,0x11,0xfe,0xf6,0x00, 0x67,0x01,0x42,0x01,0x22,0x02,0xbf,0xff, // 1936
0x95,0xff,0x5d,0x04,0x10,0xfd,0x16,0x01, 0x6c,0x03,0xa5,0x05,0x26,0xfa,0xc2,0x00, // 1952
0x27,0x02,0x66,0xff,0x29,0xff,0x45,0xff, 0xd5,0x05,0xfe,0xfc,0x35,0xff,0x39,0xfe, // 1968
0xf1,0xfd,0xd9,0xfd,0xc7,0x07,0x30,0x03, 0x89,0xfc,0x06,0x03,0x94,0xfd,0xf7,0x01, // 1984
0x43,0x00,0x64,0x01,0x65,0xfe,0x52,0xfb, 0xbc,0xfe,0xc7,0xfd,0x89,0x01,0xa0,0x00, // 2000
0xf3,0xf8,0xc3,0xf5,0x75,0x08,0xbe,0x00, 0xc0,0xfd,0x8a,0x00,0x58,0x00,0x9b,0x00, // 2016
0xeb,0x04,0x5f,0x12,0x8c,0x00,0x18,0x00, 0xfa,0xf8,0x9e,0xfc,0x27,0x05,0xb7,0x00, // 2032
0x7c,0x01,0x11,0x01,0x0b,0xfd,0x95,0x04, 0xc4,0xfe,0xde,0xfd,0x1f,0x07,0xcd,0xf8, // 2048
0x91,0x00,0xbd,0x01,0x9e,0xff,0x58,0xff, 0x24,0xff,0x95,0x03,0x65,0xfe,0x34,0xff, // 2064
0xd8,0x03,0x10,0x00,0xa4,0xfd,0xcd,0xfe, 0xd8,0x04,0xc0,0x08,0xd6,0x03,0xd1,0x03, // 2080
0x67,0x08,0xd3,0xfe,0x34,0x00,0x6e,0x00, 0x97,0xfd,0x2d,0x01,0x4f,0x05,0xc7,0xf6, // 2096
0x5c,0x00,0x17,0x01,0x6a,0x01,0x31,0xfd, 0x57,0x00,0x9a,0x05,0x70,0xf9,0x5a,0x00, // 2112
0xf2,0x00,0x4e,0xf7,0xc8,0x07,0x81,0x0f, 0x5b,0x0a,0xbb,0x08,0xd6,0xff,0x94,0x02, // 2128
0xa2,0x0b,0xca,0xf7,0xbf,0xfe,0xf3,0x02, 0x0c,0x00,0x5b,0xff,0x06,0xff,0xf6,0x02, // 2144
0xe9,0xfa,0x61,0xff,0x9f,0x04,0xad,0xfc, 0xe9,0xff,0xde,0x00,0xe2,0xfc,0x84,0x04, // 2160
0xce,0x02,0xb4,0xfb,0xd9,0xfe,0x53,0xfa, 0xaf,0xfa,0x41,0x01,0xba,0xfb,0xb6,0x03, // 2176
0xa0,0xfb,0xfc,0x01,0x61,0x00,0x2b,0x00, 0x11,0x02,0x50,0xfc,0xa0,0x03,0xed,0xfb, // 2192
0x18,0x03,0xb2,0xff,0x59,0xff,0x9e,0x05, 0x61,0x03,0x83,0xfe,0x8a,0xff,0xb6,0x01, // 2208
0x00,0xfd,0x53,0x05,0x7a,0x01,0xa6,0xfa, 0xaf,0xff,0xe0,0x02,0x0f,0xfd,0xe1,0x02, // 2224
0xf0,0x02,0xbe,0xfe,0xd5,0x00,0x73,0xfe, 0x0d,0x06,0xe2,0xfd,0x83,0xfe,0xe8,0xfb, // 2240
0x9e,0xfd,0x6d,0xf9,0x1a,0xfe,0x14,0x00, 0x18,0x02,0xd1,0x03,0x76,0xf8,0xa1,0xfc, // 2256
0xdf,0x04,0x12,0x00,0x45,0xfa,0x1a,0x02, 0x69,0x02,0x3b,0x03,0xc0,0x04,0xac,0xff, // 2272
0x61,0x01,0x5d,0xff,0x6b,0x03,0x67,0xff, 0x34,0x01,0xf7,0xf6,0x48,0xf8,0x2a,0x02, // 2288
0x7a,0x01,0x70,0x02,0x2b,0x03,0xc6,0xf8, 0xc9,0x07,0x96,0xfc,0x34,0xf8,0xda,0x04, // 2304
0x32,0x06,0x40,0xfa,0xc6,0x05,0xb6,0x0d, 0x72,0x05,0xb5,0xf4,0xb1,0x0b,0xd1,0xf8, // 2320
0x12,0x06,0xa3,0x0b,0xe9,0x04,0x62,0x06, 0xfa,0xef,0x36,0xf8,0xcc,0x05,0xb1,0xf8, // 2336
0xe3,0x06,0xf9,0xfa,0x6a,0xf9,0x4b,0xf6, 0x20,0xfd,0x24,0x0e,0xec,0x0d,0x08,0x05, // 2352
0xc5,0x06,0x08,0x10,0x21,0xf9,0x53,0x05, 0x77,0xfe,0xe1,0xf8,0x35,0xf7,0x5d,0x08, // 2368
0xba,0x07,0x30,0x07,0x67,0x09,0x66,0xfb, 0x10,0xfa,0x8c,0xfa,0x2a,0xfb,0xd1,0xfa, // 2384
0x38,0x06,0x7a,0x07,0x72,0xf9,0x2f,0x03, 0xef,0x04,0xc0,0xf9,0xfe,0x03,0x00,0xfc, // 2400
0x56,0xf9,0x02,0xfc,0x17,0xfa,0x42,0xfa, 0x61,0x06,0x02,0x09,0xe1,0xf8,0x85,0xf6, // 2416
0xfa,0x03,0x56,0x06,0x3e,0x06,0x02,0xfe, 0x67,0xf6,0x0e,0x04,0x75,0x06,0x56,0xfa, // 2432
0x94,0xfb,0x39,0x0b,0x80,0x06,0x7d,0xf6, 0x98,0x07,0xbb,0x0b,0xe3,0xff,0x16,0xf8, // 2448
0xec,0x08,0x09,0x07,0x01,0x0c,0x01,0x07, 0xdc,0x07,0xdf,0x04,0x8c,0xfa,0x2d,0xf3, // 2464
0xd0,0xfb,0xb2,0xfe,0x2c,0xfa,0x2d,0x06, 0x7c,0xf4,0x41,0xfe,0xb0,0x07,0x5a,0x06, // 2480
0xd7,0x04,0x58,0x00,0x03,0x00,0x49,0xf6, 0xa8,0xf7,0x75,0xff,0x44,0xf9,0xb2,0x05, // 2496
0x34,0x01,0xc4,0xfb,0x9b,0xf6,0x38,0xf6, 0xdc,0xf9,0xa5,0x01,0xf3,0x07,0x4e,0xf8, // 2512
0x5e,0xef,0x67,0xf8,0x03,0x07,0xb1,0x0b, 0x76,0xf3,0x19,0xf9,0xae,0xf9,0x1a,0x07, // 2528
0xcd,0xf5,0x87,0xf9,0x4d,0xf8,0xc6,0xf8, 0x3f,0xf7,0x2b,0x08,0x0e,0x05,0xe4,0xf8, // 2544
0xba,0x00,0xe9,0xf7,0x7b,0xf9,0x63,0xfa, 0x3e,0x09,0xc8,0xf7,0x97,0x04,0x01,0x03, // 2560
0xb0,0xfa,0x31,0xfa,0x23,0xf8,0xf5,0x06, 0x11,0xfc,0x61,0xf8,0x60,0xfb,0x8f,0x07, // 2576
0x43,0x4d,0x44,0x00,0x20,0x03,0x80,0x00, 0x10,0x0a,0x00,0x00,0x10,0x0a,0x00,0x00, // 2592
0x01,0x01,0x00,0x02,0x0c,0x00,0x00,0x00, 0x00,0x00,0x00,0x00,0x00,0x00,0x00,0x00, // 2608
0x01,0x00,0x8c,0x00,0x01,0x00,0x01,0x00, 0x8c,0x00,0x01,0x00,0x00,0x00,0x00,0x00, // 2624
0x0d,0x00,0xff,0xff,0xff,0xff,0xff,0xff, 0x00,0x00,0x00,0x00,0x00,0x00,0x00,0x00, // 2640
0x00,0x00,0x00,0x00,0x00,0x00,0x00,0x00, 0x00,0x00,0x00,0x00,0x00,0x00,0x00,0x00, // 2656
0x00,0x00,0x00,0x00,0x00,0x00,0x00,0x00, 0x00,0x00,0x00,0x00,0x00,0x00,0x00,0x00, // 2672
0x00,0x00,0x00,0x00,0x00,0x00,0x00,0x00, 0x00,0x00,0x00,0x00,0x00,0x00,0x00,0x00, // 2688
0x00,0x00,0x00,0x00,0x00,0x00,0x00,0x00, 0x00,0x00,0x00,0x00,0x00,0x00,0x00,0x00, // 2704
0x43,0x4d,0x44,0x00,0x20,0x04,0x80,0x00, 0x90,0x0a,0x00,0x00,0x10,0x0b,0x00,0x00, // 2720
0x01,0x00,0x00,0x04,0x0d,0x09,0x0d,0x06, 0x01,0x01,0x01,0x01,0x00,0x00,0x00,0x00, // 2736
0x01,0x00,0x01,0x00,0x8c,0x00,0x01,0x00, 0x01,0x00,0x8c,0x00,0x00,0x00,0x00,0x00, // 2752
0x0a,0x00,0xff,0xff,0xff,0xff,0xff,0xff, 0x00,0x00,0x01,0x00,0x18,0x01,0x00,0x00, // 2768
0x00,0x01,0x02,0x00,0x18,0x01,0x00,0x00, 0x00,0x00,0x00,0x00,0x00,0x00,0x00,0x00, // 2784
0x00,0x00,0x00,0x00,0x00,0x00,0x00,0x00, 0x00,0x00,0x00,0x00,0x00,0x00,0x00,0x00, // 2800
0x00,0x00,0x00,0x00,0x00,0x00,0x00,0x00, 0x00,0x00,0x00,0x00,0x00,0x00,0x00,0x00, // 2816
0x00,0x00,0x00,0x00,0x00,0x00,0x00,0x00, 0x18,0x01,0x00,0x00,0x18,0x01,0x00,0x00, // 2832
0xd9,0x01,0xcb,0x03,0xfc,0x01,0x86,0x08, 0xb9,0x13,0x4e,0x02,0xc0,0x0a,0xe8,0x03, // 2848
0xf7,0x03,0xa5,0x03,0xf3,0x05,0xe0,0x05, 0x58,0x03,0xae,0x01,0x91,0x02,0x7b,0x04, // 2864
0x93,0x02,0x97,0x04,0x6d,0x07,0x05,0x05, 0xad,0x04,0x03,0x07,0x35,0x02,0x26,0x00, // 2880
0x82,0x03,0xb8,0x02,0xc2,0x01,0xf6,0x01, 0xac,0x05,0x7d,0x0a,0x80,0x03,0x5e,0x02, // 2896
0x2a,0x09,0xed,0x03,0x96,0x08,0x37,0x05, 0x08,0x02,0x60,0x05,0x23,0x00,0x48,0x05, // 2912
0xb2,0x02,0xb5,0x06,0x77,0x02,0x15,0x00, 0xb1,0x07,0xd4,0x01,0x14,0x00,0xf2,0x03, // 2928
0x34,0x0d,0xee,0x03,0xe2,0x00,0x20,0x06, 0x1d,0x08,0x5b,0x02,0x83,0x0a,0xbb,0x02, // 2944
0xd9,0x02,0x31,0x00,0x49,0x03,0x81,0x04, 0x00,0x0e,0xb8,0x05,0x17,0x00,0x25,0x00, // 2960
0x45,0x04,0xd7,0x02,0x95,0x03,0xd5,0x07, 0x24,0x00,0x5b,0x03,0x37,0x08,0xdc,0x02, // 2976
0xdf,0x01,0xa0,0x03,0xc7,0x0f,0x68,0x00, 0x0c,0x09,0xd5,0x03,0x64,0x01,0xc0,0x0a, // 2992
0xd3,0x05,0x88,0x02,0x53,0x05,0xba,0x03, 0xe1,0x03,0x26,0x00,0x98,0x05,0x49,0x05, // 3008
0x8f,0x03,0x74,0x01,0x19,0x06,0x5c,0x11, 0x0c,0x02,0x2a,0x00,0x59,0x05,0x33,0x05, // 3024
0xf1,0x01,0xca,0x0e,0x8d,0x01,0x33,0x07, 0x3c,0x01,0x03,0x11,0xeb,0x0b,0x0b,0x04, // 3040
0x46,0x07,0x48,0x0e,0x33,0x06,0xef,0x03, 0x42,0x06,0x0f,0x02,0x1c,0x02,0x60,0x05, // 3056
0x66,0x05,0xe9,0x04,0x3e,0x07,0xc0,0x03, 0x6a,0x08,0xbb,0x05,0x29,0x00,0x0a,0x02, // 3072
0x1f,0x07,0x4b,0x04,0x26,0x01,0xbf,0x03, 0x82,0x10,0xed,0x01,0x76,0x02,0x3c,0x0b, // 3088
0xac,0x02,0x80,0x03,0x06,0x0a,0xcf,0x05, 0xa6,0x03,0x6a,0x09,0x15,0x04,0x40,0x03, // 3104
0x29,0x00,0xc9,0x05,0x4f,0x05,0xe0,0x08, 0x6b,0xfe,0x8f,0x03,0xa2,0x01,0x9e,0xf7, // 3120
0x4a,0xec,0x42,0x02,0x41,0xf5,0x1b,0xfc, 0x46,0xfc,0x6a,0x03,0x28,0xfa,0xae,0x05, // 3136
0xd8,0xfc,0x86,0xfe,0xea,0xfd,0xb0,0xfb, 0x65,0x02,0x68,0x04,0xa1,0xf8,0xb3,0x04, // 3152
0x86,0xfb,0xdc,0x06,0xc9,0x01,0x0c,0x00, 0x41,0x03,0x69,0xfd,0x6f,0xfe,0x5d,0xfe, // 3168
0x83,0xfa,0xa5,0xf5,0x5a,0x03,0x03,0xfe, 0xfd,0x08,0xc7,0x03,0x95,0x08,0xf4,0xfa, // 3184
0x36,0xfe,0xdf,0xfa,0xf4,0xff,0x21,0x05, 0x35,0x02,0x95,0x06,0x1d,0x02,0x05,0x00, // 3200
0x56,0xf8,0x90,0xfe,0x01,0x00,0x3a,0xfc, 0xe6,0xf2,0xc1,0x03,0x4d,0xff,0x26,0x05, // 3216
0x03,0x08,0xd3,0x01,0x69,0x0a,0x5a,0x02, 0x53,0xfd,0xf5,0xff,0x28,0x03,0x73,0x04, // 3232
0x15,0xf2,0x59,0xfa,0xf8,0xff,0xf4,0xff, 0x17,0x04,0x39,0xfd,0x97,0xfc,0xb4,0x07, // 3248
0xf6,0xff,0xc3,0xfc,0xe4,0xf7,0xc9,0x02, 0x79,0xfe,0x71,0xfc,0x66,0xf0,0x55,0x00, // 3264
0x18,0xf7,0x69,0xfc,0xc7,0xfe,0x49,0xf5, 0x69,0xfa,0xe3,0xfd,0x22,0x05,0x9d,0x03, // 3280
0xaa,0x03,0xfb,0xff,0x64,0x05,0xd6,0xfa, 0x54,0x03,0x16,0x01,0x14,0xfa,0xb3,0xee, // 3296
0x46,0xfe,0xfb,0xff,0x3c,0x05,0x0f,0x05, 0xb2,0x01,0x60,0xf1,0x59,0x01,0xea,0xf8, // 3312
0x0a,0xff,0xed,0x10,0xce,0x0b,0xf7,0x03, 0x21,0x07,0xc3,0xf1,0xff,0xf9,0xce,0x03, // 3328
0x19,0x06,0xeb,0x01,0x02,0xfe,0xa6,0xfa, 0x33,0x05,0xaf,0x04,0x23,0x07,0x7e,0xfc, // 3344
0x50,0x08,0x79,0x05,0x0a,0x00,0xb7,0x01, 0x0c,0x07,0xec,0xfb,0x11,0xff,0x9d,0x03, // 3360
0x61,0x10,0x9c,0x01,0x23,0x02,0x23,0x0b, 0x9c,0xfd,0x50,0x03,0x15,0xf6,0x68,0xfb, // 3376
0xfa,0x02,0x51,0x09,0xef,0x03,0xdd,0xfc, 0xf7,0xff,0xa2,0x05,0x2a,0x05,0x2e,0xf7, // 3392
0x00,0x00,0x00,0x00,0x00,0x00,0x00,0x00, 0x00,0x00,0x00,0x00,0x00,0x00,0x00,0x00, // 3408
0x43,0x4d,0x44,0x00,0x20,0x06,0x00,0x00, 0x50,0x0d,0x00,0x00,0x10,0x02,0x00,0x00, // 3424
0x00,0x01,0x00,0x02,0x0a,0x08,0x09,0x0a, 0x00,0x00,0x00,0x00,0x00,0x00,0x00,0x00, // 3440
0x01,0x00,0x8c,0x00,0x01,0x00,0x01,0x00, 0x64,0x00,0x01,0x00,0x00,0x00,0x00,0x00, // 3456
0x0c,0x00,0xff,0xff,0xff,0xff,0xff,0xff, 0x00,0x01,0x01,0x00,0xc8,0x00,0x00,0x00, // 3472
0x00,0x00,0x02,0x00,0x18,0x01,0x00,0x00, 0x00,0x00,0x00,0x00,0x00,0x00,0x00,0x00, // 3488
0x00,0x00,0x00,0x00,0x00,0x00,0x00,0x00, 0x00,0x00,0x00,0x00,0x00,0x00,0x00,0x00, // 3504
0x00,0x00,0x00,0x00,0x00,0x00,0x00,0x00, 0x00,0x00,0x00,0x00,0x00,0x00,0x00,0x00, // 3520
0x00,0x00,0x00,0x00,0x00,0x00,0x00,0x00, 0x60,0x6d,0x00,0x00,0xc8,0x00,0x00,0x00, // 3536
0xcc,0x02,0xad,0xff,0x4c,0x00,0xb8,0x01, 0x4c,0x02,0x18,0xff,0x56,0xf9,0x9f,0x03, // 3552
0x13,0xff,0x93,0xfd,0x58,0xff,0xac,0xfe, 0x9c,0xff,0x19,0x01,0x82,0xfc,0x4e,0xff, // 3568
0x79,0xff,0x80,0x01,0x7e,0xff,0x23,0x00, 0xc7,0x00,0xf2,0xfe,0x1b,0x02,0x1c,0x01, // 3584
0xc5,0x00,0x19,0xff,0x90,0x00,0x45,0xfb, 0xf2,0x00,0x3e,0xfe,0xb8,0xff,0xad,0xfb, // 3600
0x9e,0xff,0x39,0x01,0x20,0xfb,0x21,0xff, 0xbb,0xfa,0xd4,0x00,0x16,0xfd,0x20,0xff, // 3616
0x9e,0x02,0x36,0x00,0x1b,0x04,0x12,0x01, 0x68,0x02,0x25,0xfe,0x3e,0x00,0x29,0x00, // 3632
0xb5,0xff,0x2d,0x01,0x4c,0x00,0x09,0x01, 0x6a,0x00,0x09,0x02,0xc0,0x01,0x7f,0x01, // 3648
0xdb,0xfe,0x20,0xff,0x61,0x00,0x9c,0x01, 0x25,0xff,0x99,0xfe,0xd0,0xfe,0xd7,0x01, // 3664
0x30,0x00,0x4a,0xff,0x64,0xff,0x1f,0xfe, 0x91,0x00,0xf2,0xff,0x7d,0xff,0x9f,0xff, // 3680
0xc0,0xff,0xb3,0xfe,0xe6,0x00,0x27,0x01, 0xf0,0xfd,0xce,0x00,0x46,0xff,0x5d,0xff, // 3696
0x9e,0x00,0xad,0xfd,0x97,0xff,0xd3,0x01, 0x43,0x01,0xba,0xff,0x8d,0xff,0x98,0xff, // 3712
0xf0,0xfd,0x6e,0x00,0xba,0xff,0x68,0x02, 0x6a,0xfc,0xcc,0x00,0x2c,0x00,0x87,0x00, // 3728
0x6c,0xfe,0xe5,0x00,0xeb,0xfb,0x92,0x01, 0x24,0x00,0x05,0x01,0xd8,0xfe,0x2d,0xff, // 3744
0xfb,0xfe,0x2a,0x00,0xfc,0xfe,0xc9,0xff, 0x05,0x01,0x1b,0x00,0x1e,0x00,0xcb,0xfa, // 3760
0x45,0xfd,0xd0,0xff,0x5b,0x00,0x8b,0x02, 0x4f,0x00,0xe5,0xfe,0x63,0x00,0xc6,0xfd, // 3776
0x87,0xfe,0xb3,0xff,0x97,0x03,0x22,0x02, 0xa2,0xfe,0x03,0x03,0x18,0x03,0x45,0x00, // 3792
0xc1,0x01,0x29,0xff,0x42,0x02,0xc8,0xff, 0xdb,0x00,0x82,0xff,0x63,0xfd,0x8b,0xff, // 3808
0x96,0x01,0x26,0x00,0x0e,0xff,0x3c,0x00, 0x90,0x00,0xa0,0x02,0x11,0x00,0x6b,0xff, // 3824
0x90,0xff,0x21,0xff,0x81,0x01,0xca,0x01, 0xcf,0xfe,0x07,0x00,0xfc,0xfd,0xf4,0xff, // 3840
0x52,0xfe,0x48,0x00,0xe5,0xfe,0xd9,0xfe, 0x39,0xff,0xa8,0xfe,0xaa,0xfd,0x54,0xfe, // 3856
0xcd,0x01,0xe6,0x03,0x1b,0x00,0x8d,0x02, 0x1c,0x01,0x95,0x00,0xe4,0x00,0xd8,0xff, // 3872
0xe8,0x00,0x59,0x01,0xe2,0xfb,0x3c,0xff, 0xe4,0x05,0x34,0xfe,0xf6,0xff,0xab,0xfe, // 3888
0x03,0x01,0xfb,0xff,0xfd,0xfc,0xbd,0x02, 0xf4,0xfd,0x96,0xff,0x62,0x00,0x78,0xfe, // 3904
0x63,0x01,0x60,0x00,0x8f,0xff,0x54,0xff, 0xbc,0x01,0xa0,0xfe,0x15,0xff,0x54,0xff, // 3920
0x90,0xfd,0x07,0x02,0x0e,0xfe,0x94,0x00, 0x0f,0xfe,0x75,0x03,0x8b,0x01,0xce,0x02, // 3936
0xe5,0x00,0x0c,0xfe,0x48,0x00,0xe6,0xfe, 0x3f,0x02,0x4d,0x00,0x43,0xfc,0xaa,0x00, // 3952
0xf4,0xfd,0x71,0x01,0x61,0xfe,0xef,0x00, 0x4f,0x00,0x2d,0xfc,0x56,0xf9,0xc5,0x00, // 3968
0xf0,0x01,0x76,0xff,0x17,0x01,0x6c,0x01, 0xb1,0x00,0xa4,0xfd,0x7a,0x03,0x5b,0x00, // 3984
0x12,0x01,0x24,0x02,0x0f,0x01,0x1e,0xfa, 0x2a,0x01,0xb2,0x02,0xd1,0x02,0x82,0x01, // 4000
0x27,0xff,0x1f,0x01,0x1d,0x03,0x1d,0xff, 0xf3,0xfe,0xe2,0xfc,0xbb,0xfd,0xb2,0x00, // 4016
0xa2,0xfe,0x67,0xfd,0x99,0x04,0xf0,0xfe, 0xc8,0xff,0x4b,0xfd,0xec,0x02,0x51,0x00, // 4032
0x31,0x00,0xbe,0xfe,0xf2,0xfe,0x08,0x00, 0xc0,0x00,0x0e,0xfe,0x23,0x02,0x02,0x02, // 4048
0x9b,0x02,0x0a,0x02,0xad,0xfe,0xe6,0xfe, 0xe7,0x00,0x4f,0xfc,0x6b,0x00,0x5c,0xff, // 4064
0x37,0x06,0xde,0xfe,0xfe,0xfe,0x96,0x05, 0xb7,0xff,0xf1,0x04,0x7f,0xff,0x87,0xfe, // 4080
0x8d,0xfe,0xa9,0x01,0xcf,0x01,0xbe,0xff, 0xca,0xfc,0x1d,0x00,0x9e,0x00,0x5b,0xfe, // 4096
0x01,0x00,0xfc,0xff,0xee,0x00,0x91,0xff, 0xe5,0xfe,0xf2,0x02,0x11,0x00,0x35,0x01, // 4112
0xb4,0x00,0xfa,0xfe,0xd3,0xfd,0xc9,0xff, 0x82,0x02,0x7c,0xff,0x85,0xff,0x2a,0x07, // 4128
0x60,0x00,0x9b,0xf6,0x55,0xff,0xb0,0xf8, 0x55,0x06,0xe1,0x01,0x47,0x01,0x39,0xff, // 4144
0x06,0x00,0x69,0x01,0x8b,0xfe,0x8d,0xff, 0x0c,0x01,0x84,0x00,0x28,0xf8,0xda,0xfe, // 4160
0xca,0xff,0xa8,0xf4,0xee,0x00,0x7a,0xfe, 0x2a,0xff,0xe7,0xff,0x15,0x00,0xd0,0x00, // 4176
0x7c,0x00,0x70,0x00,0x34,0x01,0xe2,0xfd, 0x6b,0xff,0x17,0x00,0xec,0xfe,0x3d,0xfe, // 4192
0x10,0xff,0x9a,0xfd,0x0d,0x02,0x66,0x01, 0x2b,0xfc,0xb6,0x01,0xf4,0xff,0x5f,0x01, // 4208
0x7a,0xff,0x81,0x00,0x2f,0xff,0x05,0x00, 0xf4,0xff,0xfd,0xfb,0xc9,0xff,0x4c,0xfb, // 4224
0x80,0xfe,0x51,0xfd,0xbf,0xff,0xa6,0xff, 0x80,0xfc,0x81,0xfe,0x25,0x00,0x57,0xff, // 4240
0x0d,0xff,0xb5,0x00,0x30,0x00,0x26,0x02, 0x76,0x04,0x5e,0x01,0x2e,0xff,0x46,0xfe, // 4256
0x32,0x05,0x6e,0x00,0xc5,0x01,0x71,0xff, 0xe8,0x00,0xf6,0x01,0x18,0x00,0x58,0xfd, // 4272
0x53,0xff,0xb4,0xff,0x8e,0x06,0x93,0xff, 0x31,0xff,0x6d,0xff,0x17,0xff,0x80,0xfa, // 4288
0xdf,0xff,0xfd,0xff,0x56,0xff,0x2e,0xff, 0x85,0xff,0x45,0x02,0xf2,0xfc,0x8a,0xff, // 4304
0xff,0xfe,0xeb,0xfe,0xb3,0x07,0xf1,0xfb, 0x9a,0xff,0x8f,0x02,0x5d,0x01,0xac,0xff, // 4320
0xd6,0xfd,0xa5,0x01,0x90,0x02,0x8b,0x00, 0x6b,0x01,0xf8,0x00,0xe8,0xfe,0xcf,0xff, // 4336
0x22,0x00,0x20,0xf7,0x44,0xff,0x9a,0xff, 0xef,0xfe,0xc1,0x00,0xf5,0x00,0xeb,0xfd, // 4352
0xad,0x00,0x27,0x01,0xf7,0xfd,0xc3,0xfc, 0xea,0xfa,0x54,0x04,0xdb,0x01,0x9e,0xff, // 4368
0x66,0xfd,0x8b,0xfe,0xfd,0x00,0xc5,0xfd, 0xc5,0xfd,0xec,0x00,0x9b,0xfe,0x9e,0xfd, // 4384
0x4d,0xfc,0x45,0x02,0xfb,0x03,0xd5,0xfc, 0xf1,0xff,0x15,0x02,0x47,0x00,0xb2,0x01, // 4400
0x80,0x00,0x5d,0x01,0x88,0x04,0x83,0x00, 0xe3,0xfe,0xce,0xfe,0x39,0x00,0x43,0x00, // 4416
0x8a,0xff,0xb4,0x00,0xe0,0xfc,0x2e,0xfe, 0x19,0x01,0x84,0x00,0x22,0x01,0xaf,0x01, // 4432
0xe1,0xfe,0xf1,0xff,0x81,0x00,0xd4,0x05, 0x6d,0x00,0xa0,0x00,0x98,0x03,0x8b,0xff, // 4448
0x05,0x03,0x67,0xfe,0xa0,0x02,0x5e,0x00, 0x8c,0xf9,0x5d,0x00,0x8c,0xff,0x4e,0xfe, // 4464
0xb2,0xfe,0x26,0x02,0x88,0xfe,0x8b,0xff, 0x48,0x00,0xaa,0x00,0xab,0x00,0x41,0x00, // 4480
0x9a,0x00,0x66,0xfe,0xb9,0x00,0xb5,0xfb, 0xd6,0x01,0xb7,0x01,0x7b,0xfe,0x0e,0xfe, // 4496
0xa2,0xfe,0xcc,0x01,0x7f,0x00,0x2f,0xff, 0x6f,0xff,0xad,0xff,0x87,0x01,0xee,0x02, // 4512
0x3f,0xff,0x5f,0xff,0x16,0x01,0x10,0x00, 0x86,0x02,0x4d,0x01,0x72,0xff,0x52,0x00, // 4528
0x59,0x01,0x81,0x00,0xbc,0x00,0x04,0xff, 0x12,0x00,0xcd,0x01,0xf7,0xff,0x66,0xff, // 4544
0x81,0xff,0x9b,0xff,0x3e,0x00,0x74,0x01, 0x6b,0x00,0x00,0x00,0xfa,0xff,0x65,0xfc, // 4560
0x09,0x02,0xb5,0x00,0x01,0x01,0x8e,0xff, 0x57,0x01,0xd6,0xff,0x6f,0x02,0x05,0xff, // 4576
0x6b,0xff,0xca,0x00,0xe6,0xff,0x54,0xfe, 0x52,0x01,0x67,0xfe,0x88,0xff,0x94,0xff, // 4592
0x45,0xff,0x50,0x01,0x93,0x00,0xef,0x02, 0x10,0x02,0x98,0x02,0xcd,0x00,0xb1,0xfd, // 4608
0x15,0x00,0x09,0x00,0x11,0xff,0xf5,0x02, 0x9b,0x01,0x48,0x01,0x9e,0xfd,0xfb,0xfc, // 4624
0x6b,0x00,0x32,0xfb,0xe1,0xfb,0x15,0x00, 0x47,0xfe,0x96,0xfe,0x9c,0xfe,0x83,0xff, // 4640
0x47,0x00,0xaa,0xff,0x87,0x01,0x1f,0xff, 0x32,0xfe,0x24,0x01,0x35,0x01,0x21,0x00, // 4656
0x3d,0xf6,0x4e,0xff,0xd6,0xff,0x11,0xfe, 0x01,0xff,0x83,0xfe,0x0b,0xff,0xa5,0x00, // 4672
0x42,0x02,0x93,0x07,0x85,0xff,0x8b,0x00, 0x22,0x01,0x11,0xff,0x62,0x00,0xb8,0x00, // 4688
0x53,0x01,0x33,0x00,0x73,0xff,0x54,0xfd, 0xd7,0x02,0x28,0xfe,0xeb,0xff,0xa6,0x02, // 4704
0x1d,0xfe,0xdb,0xff,0x82,0xfe,0xb1,0xff, 0x91,0x02,0x00,0xfe,0x35,0x01,0x46,0xff, // 4720
0x89,0x00,0x5f,0x00,0xf6,0x09,0xd6,0x00, 0xc1,0xff,0x41,0x00,0xf9,0xff,0x70,0x00, // 4736
0x48,0x00,0x3f,0x02,0xee,0x00,0xb1,0xff, 0xc4,0xfc,0x25,0x00,0x71,0x00,0x12,0x01, // 4752
0xcb,0xff,0xe5,0x00,0x38,0x02,0x9f,0xff, 0xfb,0xfe,0x31,0x00,0x33,0x02,0x9a,0xff, // 4768
0xef,0xff,0x61,0xff,0x15,0x00,0x7b,0x00, 0x0d,0x00,0x2e,0xff,0x6f,0xfe,0x7c,0x01, // 4784
0xe9,0xff,0x59,0xfe,0xf9,0x00,0x71,0x00, 0xb6,0x00,0x48,0xff,0xa9,0xff,0x3e,0xff, // 4800
0x95,0x00,0x49,0xfe,0x09,0x00,0x26,0x01, 0x89,0xff,0x92,0x01,0xe5,0xfe,0x28,0xfd, // 4816
0xfa,0x02,0x99,0xff,0x77,0x01,0x00,0x00, 0x70,0xfe,0xc6,0xff,0x9e,0x00,0x8a,0x00, // 4832
0x8b,0x09,0x7e,0xfe,0x43,0x00,0x29,0x01, 0x27,0x00,0xaa,0xff,0xa9,0x00,0xe4,0xff, // 4848
0xff,0x07,0x82,0xff,0x3f,0x00,0xb0,0xfd, 0xab,0x00,0xb0,0x00,0x1b,0x01,0x02,0xff, // 4864
0xb3,0xff,0xb7,0x01,0x79,0x00,0x57,0xfd, 0xc5,0x00,0xfe,0x00,0x9f,0x00,0x5d,0x01, // 4880
0x2c,0x07,0xc8,0x00,0x49,0xff,0x32,0xfe, 0x06,0x01,0x21,0xff,0x34,0x01,0x7c,0x08, // 4896
0x48,0xff,0x99,0xff,0x11,0xfc,0x81,0xfe, 0x3f,0x00,0x7b,0xff,0x7e,0xff,0x92,0x01, // 4912
0xd5,0xf6,0x74,0x00,0xba,0xff,0xed,0xfe, 0xfa,0xfd,0x6c,0x00,0xe2,0x00,0x5b,0x00, // 4928
0xcf,0x01,0xe8,0xff,0xfa,0xfe,0x75,0x00, 0x1b,0x01,0x05,0x03,0x1f,0x00,0xc2,0x01, // 4944
0x67,0x00,0x01,0x03,0xf5,0xfd,0x2d,0xfb, 0xf9,0xfe,0x7b,0xff,0x7e,0x03,0x30,0xff, // 4960
0x69,0xfe,0xe1,0xfe,0x85,0xfe,0x41,0xfd, 0x5a,0x00,0x7b,0x00,0x4f,0x01,0x04,0xff, // 4976
0x60,0xff,0xab,0x01,0x26,0x00,0x67,0xfd, 0x85,0x01,0xef,0xff,0x4b,0xff,0xcf,0xfe, // 4992
0x27,0x00,0xac,0x00,0xaa,0x00,0x94,0xff, 0x3a,0x02,0x11,0x02,0xbe,0x03,0x36,0x04, // 5008
0x15,0xfe,0x66,0x01,0x37,0x02,0x8e,0x01, 0x9f,0x00,0x02,0x04,0x97,0x02,0xd0,0x00, // 5024
0x2a,0xfc,0x9c,0xff,0xce,0x00,0xf2,0xfe, 0x1f,0xfe,0xf4,0x00,0x87,0x01,0x27,0x01, // 5040
0x9b,0x02,0x46,0x01,0xfb,0x01,0x85,0x01, 0xe9,0xfb,0x10,0x00,0xf9,0xfc,0x1e,0xff, // 5056
0xaa,0xff,0xbc,0xff,0xd6,0xfe,0x37,0x01, 0xde,0x00,0x4e,0xfa,0xdb,0xfd,0x45,0xff, // 5072
0x29,0xff,0x9a,0x04,0x04,0x02,0x7b,0xfd, 0x6b,0xff,0xa5,0x00,0x5c,0xff,0xdd,0xfd, // 5088
0xe4,0xff,0xe8,0x01,0xd6,0xff,0x0d,0xff, 0xa8,0x00,0xa5,0xfe,0x18,0x02,0x63,0xfe, // 5104
0xcd,0x04,0x8e,0xff,0xc8,0x01,0xdf,0xfe, 0xfd,0xfe,0xbc,0x00,0x60,0xfe,0xb6,0x00, // 5120
0x1a,0xfe,0xf5,0x02,0x94,0x04,0x27,0x00, 0x23,0x01,0xbb,0xfe,0x8a,0xff,0xc6,0xff, // 5136
0xe3,0xff,0x52,0x00,0x7d,0x05,0xff,0xff, 0xc9,0xfe,0xa0,0x02,0x56,0xff,0x6c,0x00, // 5152
0xe8,0xfe,0x82,0xfc,0xae,0x00,0x29,0xff, 0x33,0xfe,0x86,0x00,0x00,0x00,0x20,0x01, // 5168
0xde,0xfc,0xb2,0xff,0xbb,0xff,0x87,0x00, 0x21,0xfe,0xc1,0xff,0x45,0xff,0xeb,0x01, // 5184
0xe4,0x01,0x8e,0x00,0xa4,0x01,0xd0,0x04, 0x9f,0x00,0xf5,0x01,0x40,0x00,0xcf,0xfc, // 5200
0xb0,0xff,0x25,0xfd,0x8d,0x00,0x61,0x03, 0x68,0xff,0xc4,0xfd,0x12,0xff,0xe2,0xfe, // 5216
0x34,0x00,0xfc,0x00,0x2e,0x04,0x56,0xff, 0x47,0x00,0x1d,0x00,0xbe,0xfe,0x30,0x01, // 5232
0x36,0x01,0x1a,0x00,0x3b,0x00,0xe8,0xff, 0xd8,0x00,0xfd,0xfd,0xf7,0xfe,0x59,0x00, // 5248
0xa4,0x00,0x4b,0xfd,0x00,0x00,0xd2,0xff, 0x9c,0x01,0xa7,0x00,0x8a,0x05,0xb8,0xfe, // 5264
0xd7,0xfe,0x7b,0x00,0xb3,0xfc,0x4d,0xfe, 0x7e,0x00,0x66,0x00,0x23,0xff,0x46,0xfe, // 5280
0x11,0x00,0xb7,0xfd,0x05,0x00,0xf1,0x00, 0x12,0xff,0x9a,0x00,0xa9,0x00,0x01,0x00, // 5296
0x53,0x03,0xba,0xff,0xf6,0x00,0xcc,0xfe, 0x0c,0x00,0xd8,0xfa,0xce,0xfe,0x09,0x00, // 5312
0x7e,0x00,0xe4,0xfe,0x2d,0x01,0x6e,0x00, 0x0e,0x00,0x65,0x01,0x55,0xfe,0x57,0x02, // 5328
0x8a,0x00,0xd5,0xff,0xd2,0xfe,0x56,0xff, 0x30,0x00,0x48,0xfe,0x26,0x01,0x10,0xff, // 5344
0xc2,0xff,0x54,0x00,0x16,0xfd,0x59,0x00, 0x5b,0x00,0xd1,0xff,0x4e,0x01,0xdf,0xff, // 5360
0xbf,0xf9,0x16,0x01,0x14,0x00,0xd1,0xfe, 0x9c,0x00,0xea,0x00,0x3a,0xff,0x4c,0x01, // 5376
0x1e,0x01,0x80,0xfe,0xb4,0x01,0x15,0xff, 0x9e,0xff,0x76,0xfe,0x03,0x00,0x4e,0xfe, // 5392
0x84,0xff,0xf5,0xff,0xc3,0x01,0x8c,0xff, 0x10,0xfd,0x19,0x00,0x6c,0xff,0x1a,0xff, // 5408
0x17,0x00,0xfe,0xff,0x0d,0x00,0xc6,0xff, 0x9f,0x00,0x62,0xff,0x80,0xfe,0xf8,0xff, // 5424
0x17,0x00,0xaf,0xfe,0x5d,0x00,0x5e,0xff, 0x75,0xff,0x1c,0xff,0x9f,0x01,0x1d,0xfe, // 5440
0x28,0xff,0x08,0xff,0xca,0x00,0x84,0x00, 0xdd,0xfe,0x71,0x00,0x8e,0x00,0x1d,0x00, // 5456
0x61,0x01,0xe4,0xff,0x2c,0x00,0x58,0xff, 0x5c,0x00,0x3f,0x04,0x3f,0x02,0x6f,0x00, // 5472
0x1a,0x00,0x40,0x00,0xa6,0xff,0x2f,0xff, 0xc4,0xff,0x57,0xff,0xb4,0x00,0xdb,0x00, // 5488
0x12,0x00,0xd4,0xfe,0xbf,0xff,0xe7,0x00, 0xdd,0x00,0x76,0xfa,0x7a,0xff,0x3d,0x02, // 5504
0xe6,0xff,0xb6,0x00,0xfe,0x00,0x3d,0xfe, 0x0e,0x01,0x93,0xff,0x4b,0x01,0x9d,0xff, // 5520
0x7c,0x01,0x85,0x00,0x25,0x01,0x6c,0x01, 0x61,0x02,0x90,0x01,0x5e,0x06,0x1d,0x01, // 5536
0x5b,0xff,0x10,0x00,0x5a,0xff,0xf1,0xfc, 0x8f,0xff,0xba,0xfd,0xea,0xff,0x47,0x01, // 5552
0x00,0x00,0x0a,0xfb,0xd6,0x03,0x7a,0x01, 0xd3,0x00,0x51,0xfe,0x8e,0xff,0xf4,0x00, // 5568
0x6c,0x00,0x0b,0xfe,0x4d,0x02,0x36,0xfd, 0x76,0xfe,0x88,0x01,0xd9,0xfe,0x0d,0x02, // 5584
0xec,0xfe,0xc3,0xff,0x32,0x03,0xe6,0xff, 0x52,0x02,0xad,0x04,0xdc,0x00,0xf9,0xfe, // 5600
0x93,0xfe,0xcd,0xfe,0x8b,0xff,0x9e,0xff, 0x10,0x03,0xfb,0xfc,0xd0,0x00,0xbe,0xfa, // 5616
0x8b,0x03,0xdc,0x06,0xe8,0xfa,0xc7,0xfe, 0xe0,0xf9,0xcc,0x00,0x98,0x03,0x2a,0xfc, // 5632
0x75,0xfd,0x9b,0xfe,0xaa,0x01,0x2e,0x00, 0x73,0x01,0xfa,0x01,0x79,0xfe,0xc4,0x02, // 5648
0xbe,0xfc,0xa3,0xfe,0xb1,0xff,0x54,0xfe, 0xef,0xfd,0x5b,0x01,0xa8,0xf8,0xf9,0x02, // 5664
0xda,0xfe,0x56,0x02,0x52,0xfb,0x89,0x05, 0xa0,0xff,0xc6,0xff,0x42,0xfe,0x8d,0xff, // 5680
0x24,0x01,0x48,0xfb,0x5c,0x00,0x64,0x05, 0xf0,0xff,0x2f,0xfe,0xc3,0xff,0x01,0x07, // 5696
0x4a,0x00,0x4c,0xfb,0x83,0xff,0x2a,0x00, 0x2b,0xfc,0xb4,0x00,0xb7,0x00,0x23,0xfc, // 5712
0xdb,0x01,0xb3,0x01,0xa4,0x00,0xf2,0x01, 0x1a,0xff,0x83,0x02,0xa2,0xfc,0x67,0xfe, // 5728
0x49,0xfd,0xcd,0xff,0x71,0x01,0x70,0x00, 0x73,0xfa,0x6b,0x03,0x27,0xff,0x5d,0xfb, // 5744
0x25,0x01,0xca,0xfe,0x5f,0xfe,0xa0,0xff, 0x1f,0x00,0x54,0xf5,0x9e,0x06,0x4a,0x03, // 5760
0x18,0x04,0xe1,0xfe,0x53,0xfb,0xce,0x00, 0xb3,0xff,0x7d,0x02,0x0c,0xff,0xc8,0x01, // 5776
0xac,0xfe,0xa0,0xfd,0xd7,0xff,0x63,0x02, 0x35,0x00,0x49,0x00,0x0f,0x01,0x32,0x00, // 5792
0x96,0xff,0x80,0x01,0x34,0xfe,0xd0,0xff, 0x47,0x00,0x18,0x01,0x2f,0x00,0x03,0x01, // 5808
0x08,0xfe,0xac,0xfe,0x6d,0x01,0x71,0x01, 0xc5,0x00,0xf1,0xff,0x48,0x00,0x44,0x00, // 5824
0x62,0x00,0x75,0x02,0x62,0xff,0xed,0xfe, 0xdd,0x01,0x5b,0x03,0x48,0xfe,0x06,0xff, // 5840
0x10,0xfd,0x5a,0xfe,0xf5,0xff,0x10,0x00, 0xe8,0xff,0x53,0x05,0x9d,0x00,0x3b,0x00, // 5856
0x32,0x00,0x79,0xff,0x55,0x00,0x7f,0xff, 0x1c,0x00,0xf7,0xff,0xaf,0xff,0xea,0x00, // 5872
0xb1,0x00,0xe8,0xff,0xe7,0xfe,0x81,0xfd, 0xc8,0xfc,0xd9,0xff,0x23,0xff,0x1c,0x01, // 5888
0x12,0xfc,0x2c,0xfe,0xcc,0x00,0x92,0xff, 0x3c,0x06,0xbf,0xff,0x39,0x01,0xa9,0x00, // 5904
0x6b,0xff,0x0a,0x00,0xb6,0xfe,0x35,0xfe, 0x54,0x02,0xec,0x03,0x34,0x00,0xd9,0x00, // 5920
0xc9,0xfe,0xc5,0xfe,0xf8,0x04,0x0f,0xfe, 0xd6,0x03,0xe6,0x00,0xb5,0x00,0x81,0xff, // 5936
0x75,0x00,0x84,0x00,0xfc,0xfe,0xeb,0xfc, 0xc4,0x00,0xef,0x01,0x83,0xfd,0x74,0x00, // 5952
0x9b,0x01,0x31,0x02,0x74,0x02,0xcc,0x01, 0x3b,0x00,0x51,0x00,0xcc,0xfd,0x83,0xfe, // 5968
0x6a,0x01,0x60,0x03,0x2c,0xfe,0xcc,0x02, 0xd5,0x00,0xd1,0xfc,0x94,0xff,0x7b,0xfe, // 5984
0x32,0xfe,0x4e,0x02,0xc9,0x00,0xcb,0x00, 0xef,0xfc,0x5a,0xfe,0xe9,0xfe,0xd0,0x01, // 6000
0xa2,0x01,0xb1,0xfc,0x93,0x00,0xd2,0x03, 0x49,0x01,0xa7,0x01,0xe8,0x00,0xdd,0x00, // 6016
0x17,0xfd,0xbc,0xfe,0x57,0x01,0x42,0x03, 0x13,0xfd,0x9d,0x01,0x8b,0x01,0x26,0xfd, // 6032
0xc7,0xfe,0xa1,0x01,0xe3,0x02,0xc7,0x01, 0xa5,0x01,0x1e,0xff,0x1c,0xff,0x05,0x01, // 6048
0x2a,0x01,0x74,0xf8,0x71,0xff,0xb2,0x00, 0x3b,0x00,0x90,0xfd,0x9a,0xff,0x1c,0xfc, // 6064
0x08,0x00,0x07,0xfa,0x62,0x00,0x22,0x05, 0xea,0x04,0x61,0xfe,0xc4,0xfe,0x66,0xfe, // 6080
0x9e,0x01,0x72,0x01,0x0f,0xff,0x39,0x03, 0x6d,0xff,0xf4,0xfd,0x90,0x01,0x49,0x00, // 6096
0x84,0x05,0xd2,0xfe,0x1e,0x00,0xe8,0xff, 0x14,0xfb,0x51,0x00,0x3b,0x01,0x01,0x01, // 6112
0x66,0x07,0x1a,0xfd,0x04,0xff,0x45,0x00, 0xb6,0xfe,0x9c,0xfe,0xc2,0xfd,0x06,0x01, // 6128
0xcf,0xff,0x1a,0x00,0xef,0xff,0xe1,0xfc, 0x3e,0x00,0x02,0xf8,0x63,0xff,0x49,0x00, // 6144
0x23,0x02,0xd4,0x00,0x21,0xff,0xae,0x01, 0x66,0x01,0x26,0xfc,0x06,0x01,0x25,0xfc, // 6160
0x4b,0xfe,0x10,0x00,0x2b,0xff,0xe1,0xff, 0xba,0x01,0xd3,0x01,0xff,0xfe,0xbb,0x01, // 6176
0x63,0xfe,0x3a,0x00,0x7a,0x00,0x19,0xff, 0x82,0x03,0x22,0x01,0xb4,0xff,0xd8,0x00, // 6192
0x28,0xff,0x13,0x01,0xc4,0x01,0x0f,0x00, 0x5f,0x00,0x59,0xfe,0x69,0x00,0x82,0xff, // 6208
0x64,0x03,0x92,0x00,0x16,0x01,0x5f,0x01, 0xe4,0x02,0xc1,0xff,0x1a,0xfe,0x5f,0x00, // 6224
0x54,0xfc,0xa9,0x00,0x80,0xfe,0x2d,0x00, 0x90,0xfd,0x87,0xfd,0x3f,0x03,0xca,0x01, // 6240
0xdc,0x00,0xf1,0xff,0xd7,0xff,0xfe,0xff, 0x2e,0x00,0x36,0x00,0xfc,0xfe,0x15,0xfe, // 6256
0xd1,0x02,0xf9,0x00,0xc4,0xfc,0x5a,0xfe, 0x1b,0x01,0xaf,0x02,0x59,0x02,0x0f,0x01, // 6272
0x83,0x00,0x9a,0xfe,0x35,0x01,0x2d,0x00, 0xd5,0xfd,0x86,0xff,0x26,0x00,0x2a,0x01, // 6288
0xf8,0xfd,0xc7,0x01,0xcb,0xfe,0xa1,0xfe, 0xa4,0xfb,0xcc,0xfe,0xae,0xff,0x3a,0x00, // 6304
0x7f,0xff,0x0f,0x00,0xfb,0x00,0x97,0xfe, 0x93,0x00,0xd5,0x00,0x3c,0xfd,0x78,0x04, // 6320
0x93,0x02,0xf9,0xfd,0x69,0x03,0x9a,0x02, 0x75,0xff,0xa6,0xfe,0xeb,0xfe,0x48,0x08, // 6336
0xe4,0xfd,0xf0,0x01,0x1d,0x00,0xe0,0xfd, 0x74,0x00,0xd3,0xfd,0x32,0xfe,0xb5,0xff, // 6352
0x0f,0x01,0xa1,0x00,0x37,0x01,0x8a,0xfe, 0x80,0xfd,0x1d,0x00,0x4a,0xff,0x0c,0xff, // 6368
0x83,0xfe,0x21,0x00,0x43,0x00,0xce,0x00, 0x63,0xff,0x89,0xfa,0x91,0x00,0x20,0xfe, // 6384
0x85,0xf7,0xb6,0x01,0xd6,0x00,0xd7,0xfe, 0x89,0xfe,0x4a,0x01,0x06,0xfe,0xc8,0xfe, // 6400
0xd2,0xf2,0xfa,0x00,0x99,0x00,0xb9,0xfe, 0xc8,0xff,0xb2,0xff,0x8e,0x02,0xb2,0xfc, // 6416
0xbe,0x01,0xd4,0xfe,0x39,0x01,0xeb,0x00, 0xea,0xff,0x01,0xff,0xb3,0x00,0x17,0x03, // 6432
0x7c,0xfe,0x77,0xff,0x9f,0xff,0x32,0x02, 0xc3,0x00,0xeb,0x01,0x6f,0x01,0xcc,0x00, // 6448
0x6e,0x00,0x1e,0x00,0x2e,0x00,0xd2,0xfe, 0x34,0xff,0x1d,0xff,0x41,0x00,0x53,0x01, // 6464
0x56,0xff,0x2e,0x00,0xd5,0xff,0xe6,0x00, 0x88,0x00,0xf6,0xfd,0x88,0x01,0x69,0xfc, // 6480
0x49,0x00,0xe1,0x02,0xe6,0x0a,0xb1,0xff, 0xd8,0xfe,0x72,0xff,0x86,0xff,0xf8,0xfe, // 6496
0x2d,0xfe,0x5d,0xff,0x41,0x03,0x1d,0xff, 0xc3,0xfc,0xa5,0xff,0x57,0x05,0x63,0xfd, // 6512
0x0e,0x01,0xcf,0xf5,0x82,0x00,0x84,0xff, 0x5f,0x00,0xfa,0x00,0xfb,0xfa,0xca,0xff, // 6528
0xe9,0x00,0x0f,0x08,0x1d,0x01,0x40,0xfe, 0xd9,0x0b,0x5e,0x01,0xec,0xfd,0xbd,0xff, // 6544
0x06,0x01,0xfd,0xfe,0x50,0x01,0x85,0x00, 0xc3,0xff,0xc6,0xfd,0x0e,0xff,0x3e,0x01, // 6560
0xf3,0x00,0x76,0x02,0x89,0x00,0x5b,0xfd, 0xa7,0xfd,0x8b,0xfc,0xd3,0xff,0xb6,0x00, // 6576
0xbb,0x02,0xbc,0xfe,0xe8,0xfe,0xf6,0x00, 0x4f,0xf5,0xbb,0x00,0x74,0x00,0xf9,0xff, // 6592
0x8c,0xff,0x93,0xfe,0xba,0xfd,0x0a,0xfc, 0x7f,0xfb,0x6e,0xfd,0x3d,0x01,0xa8,0x01, // 6608
0x4f,0x01,0xed,0x00,0x26,0xfb,0xa7,0xfd, 0xca,0xff,0xfa,0xfe,0xa6,0x00,0x1d,0xf4, // 6624
0x61,0x01,0x59,0xfe,0x41,0x00,0x7b,0x00, 0xb5,0xff,0x62,0xff,0x78,0x00,0xa5,0x09, // 6640
0xc1,0x01,0x41,0x00,0x3a,0x00,0x81,0x00, 0x91,0xff,0x8a,0xff,0x42,0xff,0x6f,0x00, // 6656
0xdb,0x01,0x96,0x01,0xad,0xff,0x9a,0xfe, 0xdd,0x01,0xbf,0x00,0xe7,0xfe,0xac,0x00, // 6672
0x52,0x01,0xed,0xfe,0x8e,0x00,0xb6,0xff, 0xac,0x00,0xae,0x00,0xdd,0xff,0x7d,0x00, // 6688
0x9e,0xff,0xb2,0xff,0x25,0x01,0x68,0x01, 0x11,0x00,0xcb,0xff,0xfa,0xff,0x8a,0x02, // 6704
0x66,0x01,0x63,0x00,0x5f,0x01,0x24,0xfe, 0x14,0x01,0xb4,0x00,0xa0,0xff,0xe4,0xfc, // 6720
0x6c,0x00,0x13,0x00,0x3f,0xff,0xb9,0x00, 0x18,0xfe,0xfc,0xff,0x5e,0xff,0x44,0xfe, // 6736
0x8b,0xfc,0x7f,0x00,0x29,0xfe,0xdb,0xff, 0x7d,0xfe,0x78,0x01,0xd5,0xfd,0xe9,0x11, // 6752
0x09,0x00,0x1f,0x01,0xac,0xfe,0x22,0x04, 0x8e,0x00,0x42,0x01,0xed,0xfe,0x9b,0xff, // 6768
0x0e,0xff,0x04,0x00,0x31,0x00,0x03,0x01, 0x1b,0xff,0xa2,0xff,0xa6,0xfe,0xb2,0xff, // 6784
0x20,0x01,0x0a,0x00,0x63,0xfc,0x40,0xff, 0xce,0xfe,0x36,0x01,0x8f,0xfe,0x0b,0x03, // 6800
0x4c,0x00,0xc5,0xfe,0xcb,0xfd,0xc2,0xff, 0xad,0xff,0xae,0xff,0xf6,0xff,0x89,0xf9, // 6816
0x50,0xfe,0x20,0x01,0x35,0xfb,0xf9,0x03, 0xcc,0x18,0xa4,0x02,0xe6,0xfe,0x5e,0xfe, // 6832
0x1f,0xff,0x0d,0x03,0x96,0x01,0xb4,0xff, 0x8c,0xfe,0x43,0xff,0x98,0x00,0x13,0x00, // 6848
0xab,0xff,0x84,0x02,0x83,0xff,0x59,0xff, 0xe0,0xfe,0xe0,0xff,0x10,0x00,0xaa,0xfc, // 6864
0x66,0x00,0x11,0x00,0xe3,0xff,0x62,0xfc, 0x1b,0x00,0x8d,0xff,0x10,0xfb,0x23,0x03, // 6880
0xf5,0x01,0xf4,0x00,0xd4,0x05,0x5c,0xfb, 0x73,0xff,0xb2,0x01,0x15,0x02,0x21,0x00, // 6896
0x2e,0xfa,0xc0,0xfd,0xf5,0xff,0xb9,0xfe, 0x05,0xfe,0x39,0x00,0x1c,0xff,0x17,0xfe, // 6912
0x05,0x00,0x44,0x07,0x74,0xff,0x05,0x01, 0x75,0xff,0x24,0x00,0x5e,0x00,0x27,0xff, // 6928
0x38,0xff,0x36,0x01,0x23,0x02,0xf6,0x01, 0xb8,0xff,0xd3,0xfd,0xc2,0xff,0x33,0xff, // 6944
0x31,0x00,0x5f,0x02,0x2d,0x01,0x99,0x00, 0x51,0xff,0x6a,0x01,0x9f,0x00,0x86,0x00, // 6960
0x2e,0xfd,0xca,0x00,0xc0,0x03,0x65,0x01, 0x8c,0x00,0xcf,0xfd,0xb9,0xff,0xce,0xff, // 6976
0xb4,0xff,0x28,0x01,0x28,0xff,0x23,0x02, 0xce,0xff,0xb4,0xff,0xf4,0x01,0xcc,0x01, // 6992
0x01,0x01,0x7b,0x00,0x13,0x00,0x3a,0x00, 0x55,0x00,0x37,0x00,0x17,0x00,0x37,0x00, // 7008
0x01,0x02,0xee,0xff,0x17,0x00,0x6a,0xff, 0xa4,0xfe,0x5c,0x02,0x80,0x00,0x5e,0x00, // 7024
0x87,0x00,0x14,0x03,0x43,0x02,0x99,0xff, 0x86,0x02,0xcf,0xfe,0x4c,0x00,0xeb,0x00, // 7040
0xef,0xff,0xa3,0xff,0xb4,0x02,0x41,0x00, 0x20,0x00,0xb4,0x00,0xbf,0xff,0x1f,0x01, // 7056
0x4c,0xfe,0xc5,0xff,0x12,0xfc,0xcf,0xfe, 0x30,0xfe,0xed,0xff,0x72,0xff,0x8b,0x02, // 7072
0xe9,0x07,0x00,0x00,0x63,0x00,0xe5,0xfe, 0x3a,0x00,0x70,0x01,0xb2,0xfb,0xe6,0xfe, // 7088
0x65,0x06,0xd1,0x03,0x6a,0x02,0x88,0x00, 0x50,0x00,0xbe,0x00,0x83,0xff,0x8d,0x00, // 7104
0xc4,0x00,0xa0,0xfe,0x26,0xff,0x50,0x01, 0x37,0xfe,0x2f,0xff,0x12,0x02,0xec,0xfe, // 7120
0x9c,0x04,0xdd,0x00,0xf5,0xfb,0x30,0xfd, 0x78,0x00,0x4a,0xff,0xfc,0x02,0x08,0x04, // 7136
0x02,0x03,0xa8,0x00,0x73,0xfe,0x4a,0xfe, 0x6f,0xfd,0x10,0x00,0xf0,0xff,0xe1,0x00, // 7152
0x70,0xf8,0x5a,0xff,0xba,0xff,0x9a,0x01, 0x2e,0x01,0x12,0xfe,0x08,0x00,0xf5,0xff, // 7168
0x8b,0x01,0x0d,0x00,0xe0,0xfd,0x89,0xfe, 0xce,0x00,0xf0,0xfe,0x70,0x01,0x71,0xff, // 7184
0x6a,0x02,0x16,0x00,0x2a,0x00,0x08,0x04, 0x08,0x00,0xa7,0xff,0x42,0x01,0x9b,0x00, // 7200
0x25,0x00,0x21,0x00,0xaa,0x00,0x98,0x00, 0x49,0x01,0xd9,0xff,0x3f,0xff,0xdc,0xff, // 7216
0xbc,0x00,0xd2,0x01,0x92,0x00,0x4c,0x01, 0xa2,0x01,0xda,0xff,0x5b,0xfe,0xe2,0xff, // 7232
0x2b,0x01,0x50,0x01,0xc2,0xfd,0x45,0xff, 0x6d,0x02,0xd9,0xfe,0x96,0xff,0x2c,0x01, // 7248
0x05,0xfd,0xb3,0x0a,0xd1,0xfe,0x51,0x01, 0x55,0x00,0xcc,0xfe,0xc4,0xff,0x91,0x00, // 7264
0x2c,0x00,0x06,0xfe,0xcd,0xff,0x69,0xfe, 0xa1,0x00,0xdd,0xfd,0x17,0xff,0x24,0xff, // 7280
0x3c,0xff,0xfe,0xff,0xb3,0xff,0xeb,0xff, 0xe8,0xfd,0x8d,0xff,0x1d,0xff,0x48,0xff, // 7296
0x7b,0xfe,0xc0,0xfd,0x22,0x00,0x1e,0x00, 0x4f,0x00,0xb5,0xfe,0x07,0x00,0xe8,0x00, // 7312
0xbb,0xff,0xbd,0x03,0xa1,0x00,0x2f,0x00, 0x3c,0xff,0x61,0xff,0xdf,0xfd,0x45,0xfe, // 7328
0x21,0x00,0xf9,0xfe,0x67,0xff,0x81,0x00, 0xa7,0x00,0x1f,0x00,0x19,0x04,0x07,0x00, // 7344
0x58,0x01,0x20,0xfe,0x10,0xff,0x69,0xfd, 0x09,0x00,0xe6,0x00,0x08,0x00,0xbd,0xff, // 7360
0x7a,0x01,0x02,0x02,0xd5,0x02,0x12,0xff, 0x48,0xff,0x4e,0xfd,0x69,0xfb,0x68,0xff, // 7376
0x95,0xfe,0x23,0x00,0x75,0x00,0x34,0x03, 0xff,0x00,0x20,0x01,0x60,0xff,0x1a,0x00, // 7392
0x15,0xff,0xc9,0xff,0x91,0xff,0xd9,0x01, 0xd2,0x00,0xf8,0xf8,0xcc,0x02,0xd3,0x09, // 7408
0xe4,0xfe,0x90,0x00,0xf1,0xfe,0x83,0xff, 0x98,0xfe,0xab,0xfe,0xf8,0x06,0x9b,0x04, // 7424
0xb9,0x03,0x1d,0x02,0x25,0x00,0x6c,0x00, 0xa2,0x00,0xf0,0x00,0x36,0xfe,0x77,0x00, // 7440
0x24,0x00,0x2d,0xff,0xe9,0x00,0x89,0x03, 0xa0,0xff,0xec,0xf6,0xbc,0x00,0xdf,0x00, // 7456
0x3c,0x01,0x13,0x00,0x62,0x00,0xe4,0xfc, 0xcc,0x00,0xc4,0xfe,0x90,0xfe,0xf9,0x02, // 7472
0xce,0xfe,0x53,0xfe,0x08,0xfd,0x36,0xfe, 0x7e,0xfc,0x47,0xff,0x13,0x00,0x4a,0xff, // 7488
0xfe,0x01,0xd9,0x01,0xce,0x00,0xd9,0x00, 0x3c,0x01,0xef,0x00,0x97,0x00,0x5b,0x08, // 7504
0x50,0x00,0xf3,0x00,0x99,0xff,0x37,0x00, 0x85,0xff,0x95,0x01,0x71,0x01,0x2f,0x00, // 7520
0x6e,0xff,0xce,0x00,0x8e,0xff,0x52,0xff, 0xcc,0xfe,0xfe,0x02,0xd7,0xf6,0x72,0xff, // 7536
0x9d,0x00,0x1b,0xff,0x4f,0xff,0x9e,0x01, 0x6b,0x01,0xa9,0x00,0xd2,0x01,0x20,0x01, // 7552
0xf6,0x00,0x11,0xfe,0x2b,0xfe,0x3a,0x02, 0x63,0x00,0xd2,0xff,0xac,0xfe,0xf5,0xff, // 7568
0x06,0x00,0xa3,0xff,0xb9,0x01,0x92,0x07, 0x97,0x02,0x3f,0x00,0x99,0xff,0xed,0x00, // 7584
0xe5,0x0e,0x88,0x04,0x19,0x00,0x63,0x04, 0xa7,0x00,0xa3,0xff,0x31,0xfd,0xcb,0x00, // 7600
0x09,0x00,0xf3,0xf4,0xed,0xff,0x19,0x02, 0xcf,0x00,0x54,0xff,0x40,0xff,0x82,0x02, // 7616
0x76,0xfe,0x55,0x00,0x02,0xfe,0xbc,0x01, 0x43,0x00,0x31,0xff,0xa1,0x01,0x4a,0x03, // 7632
0x07,0xfd,0xbb,0xfe,0xbe,0x00,0x1e,0x02, 0x4b,0x00,0xc6,0xfe,0x08,0xfe,0x57,0x00, // 7648
0x2c,0xff,0x89,0x00,0x78,0xfe,0xfe,0xfa, 0xd7,0x00,0xef,0xfd,0xd3,0xfe,0x9f,0xff, // 7664
0x11,0x01,0x7e,0x00,0x69,0x00,0xa1,0x02, 0x10,0x00,0x97,0xfe,0xfe,0xfc,0xa9,0xfd, // 7680
0x0e,0xfe,0xd8,0xfd,0xe1,0xfa,0x86,0x00, 0x5f,0x00,0x47,0x00,0xad,0x00,0x45,0xff, // 7696
0xd9,0xfe,0x0f,0xff,0x70,0xff,0xfb,0x02, 0xe6,0x00,0x2c,0x01,0x58,0x00,0xfd,0x01, // 7712
0xd1,0x00,0xf6,0x04,0xc3,0xfd,0x4f,0xff, 0xef,0xff,0x0e,0xff,0x21,0x05,0xec,0x01, // 7728
0x94,0x00,0xd8,0xfc,0x36,0xfe,0x04,0x02, 0x77,0x06,0x95,0x00,0xe9,0xff,0x0c,0xfd, // 7744
0xa2,0x00,0x88,0xff,0xf7,0xfb,0x15,0x00, 0xd9,0x00,0xcd,0xf9,0x0f,0x02,0x40,0x00, // 7760
0xd0,0xff,0xd7,0xff,0xfe,0xfd,0x45,0x01, 0xa0,0x00,0xa0,0x00,0x4c,0xff,0x05,0x01, // 7776
0xaa,0xfe,0x6c,0xff,0xf9,0xff,0xf4,0xff, 0xa3,0xfe,0xc8,0xff,0xec,0xff,0x86,0xfe, // 7792
0xcf,0xff,0x9a,0x00,0xe4,0x01,0x80,0xff, 0x5d,0xfd,0xc5,0xff,0x7d,0xfa,0x5b,0x00, // 7808
0x46,0xfe,0x86,0x00,0x92,0x00,0x2e,0xfe, 0x2e,0x01,0xe1,0xff,0x08,0x02,0x8d,0xff, // 7824
0xb8,0x01,0xa0,0xff,0xca,0xfe,0x4f,0x00, 0xca,0x01,0x5a,0x01,0xc0,0x00,0x7c,0xff, // 7840
0x28,0xff,0x6e,0x01,0xe0,0xfe,0xe7,0x01, 0x68,0xfe,0x28,0x01,0x64,0x00,0xe2,0x01, // 7856
0xd6,0xff,0x1c,0xff,0x2a,0x02,0x63,0xff, 0x1d,0x00,0xaf,0x00,0xdc,0xff,0x86,0x01, // 7872
0x68,0x00,0x05,0x02,0xf1,0xff,0x2d,0xfd, 0x75,0xfe,0xa2,0x00,0x9f,0x03,0x3d,0xfe, // 7888
0xa1,0xff,0x6f,0x00,0x99,0xff,0x77,0x02, 0x55,0xff,0xe8,0xfd,0x89,0x00,0xa9,0xfe, // 7904
0xd8,0x00,0x0b,0x02,0x2e,0x01,0x65,0xff, 0xa4,0xf8,0xb9,0xfe,0xa6,0xff,0x24,0x00, // 7920
0x97,0xfd,0xc1,0xff,0x3a,0xfe,0x3c,0xff, 0xbb,0xfa,0xe4,0x04,0xff,0xff,0xc9,0xfc, // 7936
0xd3,0x02,0xfe,0xff,0xd3,0xf9,0x6d,0xff, 0xe4,0x01,0xbd,0x04,0x46,0x00,0x53,0x00, // 7952
0xef,0xfe,0xc5,0xfe,0x88,0xff,0xc1,0xfb, 0x41,0xf7,0x64,0x00,0x1a,0x00,0x99,0xff, // 7968
0x77,0xfd,0x50,0xff,0xb9,0xff,0xaa,0xf9, 0x93,0xfe,0xe8,0x00,0xac,0xff,0xc8,0x00, // 7984
0x88,0xfb,0x19,0x01,0xf6,0x00,0xee,0xfb, 0xf6,0x06,0xa7,0x01,0x15,0xfc,0x6e,0x00, // 8000
0x9f,0x00,0x19,0xff,0xc4,0x01,0x8a,0x01, 0xd4,0xfe,0x19,0xff,0x41,0x00,0x3c,0x03, // 8016
0xd6,0xfe,0x77,0x00,0x2a,0x00,0xac,0x01, 0x32,0x01,0x34,0x01,0xd8,0x01,0x56,0xfd, // 8032
0x2b,0xfe,0x79,0x00,0x21,0x01,0x18,0xff, 0xb3,0xfe,0x77,0x00,0xf5,0xff,0x12,0x04, // 8048
0x23,0x00,0x3b,0x01,0xdc,0xfc,0xd7,0x01, 0x65,0xfe,0x1c,0x00,0xfc,0xff,0xfa,0x00, // 8064
0x0e,0xff,0x5b,0x01,0xad,0x00,0xc7,0x00, 0x2b,0xfd,0x05,0x00,0xad,0x01,0x41,0x00, // 8080
0xcd,0xff,0x4e,0x00,0x98,0xff,0x9b,0xfa, 0x55,0x00,0x20,0xfe,0x22,0xfe,0x68,0x00, // 8096
0xaf,0xff,0x16,0x00,0x5f,0xff,0xa3,0xfc, 0xc8,0xff,0x13,0x00,0x2d,0xfd,0x5e,0xfd, // 8112
0x4e,0x01,0xa9,0x01,0x61,0xfb,0xed,0x00, 0xd9,0x01,0x74,0xff,0xaa,0x00,0x0a,0x00, // 8128
0x52,0x01,0xc9,0x01,0xa5,0x04,0xba,0xff, 0x24,0x03,0x40,0xfe,0x44,0x04,0xb7,0xf9, // 8144
0xf6,0xfe,0xd2,0x00,0x44,0x02,0xf0,0xff, 0x69,0xfc,0x31,0xfe,0x92,0xfb,0x37,0xfd, // 8160
0x2f,0x00,0x89,0xfe,0xc4,0xfe,0xd8,0x00, 0xbd,0xfe,0xae,0xfa,0x3e,0x00,0x1c,0x02, // 8176
0x36,0xfd,0x83,0xff,0xe9,0xfe,0xc0,0xff, 0xa3,0xfd,0x4b,0x04,0xa7,0x01,0x01,0x00, // 8192
0x2f,0x01,0xe5,0xfd,0xb2,0xff,0xa6,0xfb, 0x72,0xff,0x9a,0xf9,0x74,0x00,0xda,0xff, // 8208
0x69,0x01,0xc1,0xfe,0xfe,0x01,0x97,0x00, 0xfe,0xff,0x3b,0xfe,0xfd,0x00,0xd9,0xff, // 8224
0x6b,0xff,0x5f,0xfd,0xb1,0xff,0xd9,0x00, 0x09,0x01,0xa1,0x00,0x24,0xfd,0x2e,0x02, // 8240
0xbc,0x01,0x28,0x03,0x72,0x00,0x6a,0xfd, 0x59,0xff,0xfb,0x00,0x29,0xfe,0x87,0x01, // 8256
0xbd,0x01,0xca,0x00,0x4b,0xfe,0xe8,0xfe, 0xc2,0x02,0x92,0xff,0xad,0xff,0xee,0x00, // 8272
0xc9,0xfe,0xab,0xff,0xfa,0x00,0xb2,0xff, 0x74,0x00,0xeb,0x06,0x40,0x00,0xdf,0x00, // 8288
0xb8,0xfa,0x65,0x01,0x09,0x03,0x29,0x00, 0x95,0xff,0xc6,0x00,0xb6,0xff,0x21,0x00, // 8304
0x8d,0xfe,0x85,0xfe,0xb9,0xff,0x26,0x00, 0x81,0x00,0x60,0x00,0x7b,0x0a,0xa9,0x00, // 8320
0x8a,0xfe,0x32,0x01,0xdc,0xff,0xa2,0xfe, 0xb9,0xff,0xe3,0x02,0x71,0x01,0xac,0x03, // 8336
0x22,0xfc,0x20,0xff,0xa7,0xff,0x83,0xfc, 0xf9,0xff,0xa1,0xff,0x31,0x00,0x28,0xff, // 8352
0x05,0xfe,0xab,0xff,0x5a,0x07,0x0e,0xff, 0xe5,0xff,0xda,0x04,0x97,0x00,0x28,0x01, // 8368
0x07,0x00,0x5b,0xff,0x63,0x04,0x6a,0xfe, 0xa1,0xff,0x6f,0x02,0x9e,0x00,0x00,0x00, // 8384
0x6a,0xf8,0xe2,0x00,0x77,0xff,0x8f,0x00, 0xe3,0xfe,0xc6,0x06,0x57,0xfd,0x0a,0x00, // 8400
0xcb,0x01,0xe3,0x00,0x89,0x00,0x47,0x00, 0x80,0x00,0x16,0x01,0x43,0x00,0xff,0xfd, // 8416
0xe0,0xfd,0x97,0x01,0x69,0x00,0xfc,0xff, 0x9c,0x00,0x06,0xff,0x0d,0x01,0xf6,0x01, // 8432
0xa9,0xff,0xb3,0x05,0xac,0x02,0x33,0xfe, 0xf2,0xff,0x5a,0x05,0x66,0xff,0x8c,0xf9, // 8448
0xcf,0xff,0xed,0xff,0x39,0x00,0x20,0xff, 0x0d,0xfd,0x4d,0xff,0xae,0xfe,0x66,0xfe, // 8464
0xc4,0xfe,0xcf,0xff,0x76,0x02,0xbb,0x00, 0x3c,0x00,0x86,0xfe,0xfb,0xfc,0x53,0xff, // 8480
0xdf,0xff,0x8a,0xff,0x9e,0x00,0x15,0xff, 0x6d,0x00,0xa4,0xff,0x42,0xff,0x4b,0x00, // 8496
0x68,0x00,0xb7,0x01,0x04,0xfd,0x93,0x01, 0xa8,0x01,0x16,0x02,0xa4,0xfe,0x30,0x06, // 8512
0x6e,0xfe,0x8b,0xfc,0x99,0x00,0xa6,0x02, 0xdc,0x00,0xa1,0xfe,0xbe,0xfe,0xdc,0x00, // 8528
0xa6,0xf9,0x79,0xfe,0xbe,0xff,0xee,0xff, 0x5d,0xfe,0xe0,0x05,0x3c,0xff,0xe5,0x03, // 8544
0x1e,0x00,0x46,0xff,0x37,0x00,0x88,0xfd, 0x86,0xff,0xd8,0xfe,0xae,0xff,0x43,0x01, // 8560
0x6d,0x02,0x1c,0xfd,0x9f,0xfd,0x36,0x03, 0x4d,0x00,0xc4,0xff,0x23,0xff,0x88,0x03, // 8576
0x32,0xff,0xa2,0x00,0x34,0x07,0x60,0xfe, 0x0f,0x00,0x61,0x01,0x76,0x02,0x21,0xff, // 8592
0x7c,0xff,0x4a,0x00,0x7d,0x00,0xc5,0x00, 0x6e,0x00,0xfe,0xfa,0x7f,0xfc,0x88,0xff, // 8608
0xbe,0x01,0xb4,0xfe,0xe9,0xfe,0xfd,0xff, 0x71,0x00,0x5c,0x01,0x7f,0x04,0x9b,0xff, // 8624
0x49,0x00,0x17,0xff,0x86,0xfc,0x20,0xfd, 0xe7,0xfd,0xac,0x01,0xb5,0xfd,0x17,0xfb, // 8640
0xf8,0xfe,0x71,0xff,0x3b,0x00,0x0a,0x00, 0x22,0xfd,0xf2,0xff,0xf8,0x01,0xaa,0x00, // 8656
0x18,0x04,0x6f,0xff,0x7b,0x02,0xb7,0xfe, 0xe4,0xff,0xc2,0xf9,0x63,0xfe,0x73,0xff, // 8672
0xfb,0x00,0x1b,0xff,0x08,0xfe,0xa5,0x00, 0x7c,0xff,0x1a,0x03,0xa5,0xfe,0xa7,0x04, // 8688
0x6f,0xfd,0x0f,0x01,0xc5,0xff,0x17,0xff, 0x98,0xff,0x4b,0xff,0x05,0x00,0xa9,0xfe, // 8704
0xa0,0xff,0xeb,0x01,0x3f,0xfc,0x42,0x01, 0x31,0xfc,0x80,0xfe,0xa1,0x00,0x7e,0x00, // 8720
0x3e,0xfa,0xbc,0x00,0x45,0x02,0x5c,0xff, 0x12,0x00,0xeb,0xfe,0x1c,0xfb,0x98,0x01, // 8736
0x12,0x01,0xf1,0xfb,0x3b,0x01,0xd1,0x01, 0x34,0x01,0x27,0x00,0x4e,0x00,0x9d,0xfc, // 8752
0x77,0x00,0x7a,0x01,0xed,0x00,0x94,0xff, 0x64,0xfd,0x10,0x00,0xa7,0xfe,0x17,0x00, // 8768
0x4e,0x00,0xca,0x01,0x5b,0x01,0xdd,0xfe, 0x51,0xfe,0x15,0xff,0xce,0x00,0x18,0xfe, // 8784
0xa9,0x00,0x29,0x00,0x0a,0x00,0x94,0x00, 0x08,0x01,0xe4,0xff,0x97,0xff,0x77,0x03, // 8800
0x32,0x01,0x5a,0xff,0x16,0x02,0x42,0x00, 0x9d,0xfe,0x07,0x01,0x35,0xfd,0xd9,0xff, // 8816
0xe7,0x02,0x14,0x00,0x80,0xfe,0x24,0x02, 0x12,0xff,0x77,0x04,0xc9,0x03,0xd6,0x00, // 8832
0x24,0xff,0x03,0x01,0x92,0xfe,0x78,0xff, 0xba,0xfe,0xb8,0xff,0xce,0xff,0x5a,0xfe, // 8848
0x7b,0xfd,0x56,0x01,0x10,0x01,0x7b,0xff, 0x19,0x01,0x6f,0xff,0x6d,0x00,0xb5,0x00, // 8864
0x69,0xfe,0x8e,0xfd,0x10,0x03,0x6e,0x02, 0xff,0x00,0x76,0x00,0x3e,0x01,0x5b,0xff, // 8880
0xdf,0x00,0x7c,0xff,0x86,0x04,0x6b,0x02, 0x65,0x00,0x34,0xff,0x0b,0x01,0x53,0x01, // 8896
0x2c,0x01,0xae,0xfe,0xeb,0xff,0x97,0xff, 0xf7,0xfe,0xfe,0x01,0xfa,0xff,0x97,0x05, // 8912
0xf5,0x00,0x44,0x01,0x81,0xfe,0xe2,0x01, 0x2a,0x00,0x54,0xff,0xad,0xff,0xca,0x00, // 8928
0x43,0x02,0x5f,0x02,0x59,0xfe,0xd2,0xfe, 0xc8,0xfe,0x11,0xfd,0x34,0xf8,0x12,0xfe, // 8944
0x5a,0x01,0x2a,0xff,0x45,0xfe,0x06,0x00, 0x89,0x00,0xe2,0xfe,0x74,0x00,0x4f,0xff, // 8960
0x20,0xff,0x3c,0xfa,0xe8,0xfe,0x62,0xfd, 0xab,0x04,0xdc,0xff,0x6d,0xff,0xd0,0xfe, // 8976
0x46,0xff,0x64,0x00,0x42,0x02,0x71,0x00, 0x88,0x00,0x7a,0x00,0x0b,0x05,0xb3,0xff, // 8992
0xcd,0xff,0x8e,0xff,0x36,0xff,0x63,0x00, 0xc8,0xff,0xbf,0x01,0x98,0xfe,0xe4,0xff, // 9008
0xae,0x01,0x12,0x01,0xf4,0xff,0x93,0xff, 0x2c,0xfe,0xb4,0x03,0x7e,0xff,0xdc,0x00, // 9024
0xf9,0xf9,0x18,0xff,0xd1,0xff,0x41,0x01, 0x80,0x00,0x99,0xff,0x60,0x01,0xcd,0xfc, // 9040
0x15,0x07,0x2a,0x01,0xb1,0x00,0x7e,0x00, 0x5f,0x00,0x34,0xff,0x9a,0x00,0x99,0x00, // 9056
0xe3,0xff,0xf3,0xff,0x5a,0x01,0x78,0x00, 0x4e,0x00,0x4a,0xff,0x90,0x01,0x33,0x00, // 9072
0xc8,0xff,0xaa,0xff,0x43,0x00,0x5f,0x06, 0x3c,0x01,0x45,0xfe,0xb2,0xff,0x62,0x00, // 9088
0xc6,0xff,0x31,0xff,0xd8,0xff,0x46,0x00, 0x2b,0x01,0x46,0x00,0xa2,0xff,0x2e,0xff, // 9104
0xd0,0x01,0x03,0x01,0xc6,0xfe,0xb8,0xff, 0x69,0x00,0x90,0xff,0x16,0x01,0x65,0x01, // 9120
0x83,0x01,0x60,0x00,0xf9,0xfe,0xc5,0xff, 0xe2,0xfe,0x84,0xfe,0xdf,0xff,0x95,0x00, // 9136
0xeb,0xff,0xd4,0x01,0x4e,0x05,0x51,0xff, 0xd9,0xfe,0xb0,0xff,0xb2,0xff,0x9b,0xff, // 9152
0x19,0x00,0xf7,0xff,0x51,0x01,0x11,0xff, 0x07,0x00,0x90,0xfb,0xce,0xfd,0xf9,0xff, // 9168
0xc4,0x03,0x50,0xfe,0x88,0xfe,0x7a,0xfe, 0x11,0x00,0xdc,0xfe,0x01,0x04,0xd6,0xfe, // 9184
0x0a,0x00,0x3c,0xfe,0x8a,0xfc,0xbc,0xfd, 0xdd,0x00,0x88,0xff,0xb2,0xfe,0x9e,0xfe, // 9200
0x34,0x00,0xe7,0xff,0x97,0x00,0xd5,0xff, 0x10,0x01,0x3f,0x00,0x30,0x01,0xde,0xff, // 9216
0xbc,0x03,0x6e,0x00,0x2e,0x00,0x89,0xff, 0x85,0xff,0xb6,0xfa,0xa2,0x00,0xbd,0xff, // 9232
0xa5,0x02,0x6e,0xfe,0x59,0xff,0x4d,0x03, 0x23,0xfe,0x59,0x02,0x79,0xfd,0x62,0x01, // 9248
0x5c,0x00,0x60,0xff,0x71,0x00,0x09,0xff, 0x42,0x01,0x5d,0x00,0x82,0x00,0x14,0x00, // 9264
0xe9,0xff,0x36,0x02,0xcf,0xff,0xe8,0xff, 0xc1,0xff,0x2f,0xff,0xea,0xff,0x63,0xff, // 9280
0xda,0xfc,0x91,0x01,0x26,0x00,0x20,0x00, 0x02,0x00,0xc1,0xff,0xfc,0xfa,0x42,0x00, // 9296
0x6c,0xff,0xd7,0xfd,0x6c,0x01,0x36,0x02, 0xb7,0xff,0x2f,0x00,0xc0,0x01,0x12,0x00, // 9312
0xdb,0xff,0x49,0xff,0xd2,0x00,0x21,0xff, 0xa0,0xff,0x67,0xff,0x36,0xff,0x26,0x00, // 9328
0xe0,0xff,0x06,0x00,0x9c,0xff,0x7a,0xff, 0xfa,0x00,0x18,0xfe,0x1a,0x02,0x9e,0x00, // 9344
0xdb,0xff,0xb4,0xfe,0xa0,0x00,0xd2,0xff, 0x8c,0x01,0x26,0xff,0xd2,0xff,0xcc,0xfe, // 9360
0x96,0x00,0x75,0xfe,0x27,0x01,0x7f,0x00, 0x0f,0xff,0xa2,0xfe,0x36,0x00,0xb5,0xff, // 9376
0xb4,0x01,0x55,0xff,0xee,0xff,0x52,0x00, 0xa1,0x00,0xf3,0x00,0x25,0x00,0x81,0x00, // 9392
0xff,0xff,0xf3,0xff,0xe6,0xff,0x7b,0xfd, 0x7b,0xfc,0x9d,0xff,0xc4,0x00,0x60,0x02, // 9408
0x51,0xfe,0x27,0x00,0x1b,0xff,0x14,0x00, 0x57,0x01,0x8f,0x03,0x96,0xff,0x1e,0xfe, // 9424
0xe5,0x01,0x2c,0xfd,0xf5,0xff,0x42,0xfe, 0x02,0xfa,0x89,0xff,0xd3,0x02,0xcb,0xfd, // 9440
0x49,0xfa,0xd7,0x00,0x88,0xff,0xf9,0xfc, 0x5d,0xff,0x6f,0x02,0xb9,0xfd,0x20,0x00, // 9456
0x7e,0xfd,0xea,0x02,0x70,0xff,0x1a,0x00, 0xd8,0xff,0xc7,0x01,0x86,0x00,0xd0,0xff, // 9472
0xe8,0xfd,0x17,0x01,0x05,0x00,0x85,0xff, 0xde,0x00,0x0c,0x01,0x1b,0x00,0x19,0x00, // 9488
0x74,0x00,0x17,0x01,0x5e,0xfe,0x23,0x02, 0xe9,0xff,0xda,0xff,0xa1,0xfe,0xd9,0x00, // 9504
0x66,0x02,0xa4,0x00,0x58,0xfe,0x00,0xff, 0x32,0x03,0xb9,0xff,0x32,0xfe,0xc5,0x00, // 9520
0xb4,0xff,0xf4,0xff,0x63,0xfe,0x94,0xff, 0xc3,0xff,0x22,0x01,0x26,0x01,0xa0,0x05, // 9536
0xf1,0x01,0xf7,0xf8,0xd6,0x04,0x62,0x00, 0xbf,0x06,0x47,0x03,0x2f,0xff,0xaa,0x00, // 9552
0x1b,0x01,0xf1,0x00,0xaf,0x01,0x80,0xfe, 0xe6,0xff,0x43,0xfe,0x27,0xfe,0x71,0xfa, // 9568
0x32,0xff,0x83,0xff,0xcf,0xff,0x99,0x02, 0x04,0xff,0xd3,0xfe,0x16,0x04,0xf5,0xff, // 9584
0x02,0x01,0xfa,0xff,0x15,0x06,0xfe,0xfe, 0x13,0x00,0xc8,0xff,0x49,0xff,0xae,0x05, // 9600
0xac,0x00,0xb1,0x00,0xda,0xff,0x72,0x01, 0x31,0xfe,0xa4,0xfd,0x3c,0xff,0x01,0xfd, // 9616
0xb4,0xff,0xf1,0xfd,0x57,0x00,0x87,0x00, 0x5a,0x01,0x1e,0x00,0x4e,0x00,0x7d,0x07, // 9632
0x54,0xfe,0xd3,0xf8,0x4f,0xfd,0xff,0xfe, 0xd4,0xff,0x31,0xfd,0xe9,0x02,0x85,0x02, // 9648
0xa8,0xfb,0x86,0x00,0x30,0x00,0x11,0x00, 0x78,0xfe,0x78,0xff,0xb6,0x00,0xe3,0x08, // 9664
0xd9,0x00,0xfc,0xfe,0x3c,0x00,0xe9,0x00, 0x90,0xff,0x1f,0x05,0xff,0xfd,0x78,0xfc, // 9680
0xc3,0xfd,0xa6,0xfb,0x10,0x02,0x5e,0x02, 0x4b,0x01,0x31,0xfe,0x46,0x02,0x00,0x04, // 9696
0x2c,0xfb,0x0c,0xfd,0x32,0xff,0xd3,0x05, 0x63,0xfb,0xc0,0x01,0x70,0x02,0xb4,0xfb, // 9712
0xfe,0x01,0x4a,0x05,0x8e,0xff,0x69,0x00, 0x44,0x03,0x29,0x01,0x96,0x00,0xb9,0x00, // 9728
0x57,0xff,0xa5,0xfe,0x16,0x02,0x44,0x00, 0x19,0x01,0x52,0xff,0x53,0xff,0xda,0xfc, // 9744
0xa6,0x00,0x66,0x00,0x4a,0x01,0x67,0x00, 0x7a,0x02,0x38,0x01,0x03,0x00,0x42,0x00, // 9760
0xa8,0x01,0xb4,0xfd,0x6b,0x06,0x66,0xff, 0xff,0xfe,0x0e,0xfe,0x82,0x03,0xbe,0xfe, // 9776
0xbf,0xff,0x30,0x01,0x99,0x00,0x7b,0xff, 0x87,0xfc,0x1c,0x00,0x5a,0x00,0x51,0x02, // 9792
0xc6,0xfe,0x2a,0x00,0x0c,0x02,0xc3,0xfc, 0xbb,0xff,0x40,0x00,0xb2,0x01,0x3a,0x00, // 9808
0x24,0xff,0x4c,0x01,0x1e,0xff,0xd5,0xfd, 0x61,0xff,0x85,0x03,0x73,0xfe,0x00,0x00, // 9824
0xf5,0xfb,0x0e,0xfe,0xc1,0xff,0xda,0xf9, 0x45,0x00,0x83,0xff,0xb9,0x02,0x74,0x00, // 9840
0xc1,0xff,0x44,0xff,0x23,0xff,0x9e,0x03, 0x13,0x02,0xde,0x00,0xdb,0x01,0xd6,0xfd, // 9856
0x74,0x02,0xbe,0xff,0xd2,0xfc,0xcc,0xfd, 0x90,0x01,0xc8,0x00,0x53,0xfc,0xd9,0x01, // 9872
0x17,0x05,0x34,0x01,0x15,0x01,0x46,0xfe, 0x40,0xff,0xcc,0xff,0xae,0x02,0xe8,0xfd, // 9888
0x84,0x04,0x4a,0xfe,0xc0,0x05,0x6a,0x06, 0x2c,0x00,0xf6,0x00,0xbb,0x04,0xfd,0xfc, // 9904
0x15,0xfc,0x9f,0xff,0xa3,0x01,0x1f,0xfc, 0x1f,0xff,0x1d,0x03,0x18,0x01,0x5b,0x02, // 9920
0x80,0x02,0xbe,0x04,0xa7,0xff,0x78,0xfc, 0x14,0x01,0xe4,0xff,0xcf,0xff,0x95,0x04, // 9936
0xab,0xfe,0x8e,0x02,0x11,0xf8,0x27,0xfe, 0x93,0x01,0xfd,0xfe,0xec,0xff,0x2a,0x01, // 9952
0x75,0xfb,0x08,0xfb,0x63,0x04,0x29,0x03, 0x33,0x02,0xb3,0xfd,0xe9,0xf9,0x00,0xfd, // 9968
0x70,0xff,0xa4,0x02,0xf6,0xfd,0xbd,0xff, 0x4d,0x00,0x75,0x01,0xbf,0xff,0xf6,0xff, // 9984
0x6f,0xff,0xa7,0xf9,0x30,0xff,0x6c,0x03, 0x8f,0xfe,0xe9,0xff,0x3f,0x02,0xad,0xf7, // 10000
0x04,0xff,0xb9,0x00,0xbc,0xff,0xef,0xff, 0xa8,0x01,0x6a,0xff,0x52,0x01,0x6b,0x00, // 10016
0x8c,0xfe,0x1b,0xfb,0x12,0x00,0xf6,0xff, 0x0f,0xfe,0x68,0xfd,0x08,0xfe,0x68,0x01, // 10032
0xbc,0xff,0x76,0xfe,0x05,0x00,0x78,0x01, 0x00,0x01,0xee,0xfe,0x86,0xfe,0x3e,0xfe, // 10048
0xea,0x01,0x1e,0x00,0x0c,0x01,0xff,0xfb, 0x81,0xff,0xf7,0xfd,0x94,0x00,0xab,0xff, // 10064
0x91,0x03,0x0d,0x00,0x9d,0xfc,0x99,0x08, 0x20,0x00,0xb0,0xfd,0x91,0xff,0x44,0x05, // 10080
0x36,0xff,0x75,0xfe,0x73,0xff,0xb6,0xfe, 0x01,0x05,0x65,0x00,0x56,0x01,0x53,0x01, // 10096
0x14,0x00,0x07,0x04,0x7a,0x01,0xfb,0xff, 0x1e,0x02,0xe7,0x02,0x00,0x03,0xa7,0xff, // 10112
0x26,0x00,0x36,0xfc,0x6a,0x03,0x91,0xf7, 0x87,0x00,0x33,0xff,0x10,0x01,0x58,0x01, // 10128
0xbe,0x00,0x16,0xff,0x47,0xfe,0x24,0x02, 0xb0,0xfe,0x30,0x01,0xf6,0xfd,0xae,0x01, // 10144
0x3a,0xfa,0x14,0x01,0xb5,0x05,0x6e,0x04, 0x4a,0xff,0x4e,0xfd,0x1a,0x04,0xe8,0xfe, // 10160
0x06,0x02,0xcd,0xff,0xf9,0x00,0x4f,0x01, 0x21,0x00,0xb7,0xff,0xc6,0x00,0x13,0x01, // 10176
0x2a,0x01,0x2c,0x00,0x14,0x01,0x67,0x01, 0x4f,0xfe,0x84,0x01,0xe7,0x01,0xd6,0x03, // 10192
0x40,0x01,0xc4,0xfb,0x8d,0xfd,0x35,0xfd, 0xc5,0x00,0x32,0x01,0x47,0xfd,0x6a,0xfe, // 10208
0x41,0xfb,0x31,0xf7,0x2f,0xff,0xe2,0x00, 0x98,0xfe,0x7b,0x01,0x6d,0xfe,0xb2,0x02, // 10224
0xcc,0xff,0x63,0x00,0x00,0xfd,0x9f,0x00, 0xaa,0xff,0xa0,0x00,0x9a,0x00,0xdb,0xfb, // 10240
0x19,0xff,0xcc,0xfd,0xd8,0xfd,0x9d,0x07, 0xdb,0xfe,0x59,0xfe,0x6a,0xfb,0xe0,0x07, // 10256
0x06,0xff,0x0b,0x00,0xeb,0xff,0x1f,0x15, 0xdd,0xfe,0xd1,0x01,0x28,0x02,0x4d,0xfe, // 10272
0x04,0x00,0x71,0x01,0xc9,0x00,0x9a,0xfe, 0x8c,0xff,0x7f,0x00,0x9e,0x00,0x76,0xff, // 10288
0x8a,0x00,0xe5,0xff,0xc3,0xfe,0x7a,0x01, 0x38,0xfe,0xe3,0xff,0x0d,0x00,0xb7,0xff, // 10304
0xc6,0x00,0xe9,0xfd,0xa3,0xff,0x45,0x01, 0xca,0xfc,0x48,0xfc,0x15,0x00,0xab,0x00, // 10320
0xf3,0x01,0xe3,0xff,0x19,0x01,0xdf,0xff, 0x8e,0x00,0x92,0x01,0x1d,0x01,0x26,0xff, // 10336
0x54,0x00,0x1a,0x00,0xa7,0x00,0x9c,0xff, 0x67,0x00,0x4d,0x00,0x35,0xff,0x9e,0xfe, // 10352
0x15,0x00,0x9b,0xfe,0x42,0x00,0x77,0x00, 0x32,0xff,0x94,0xff,0x8b,0xfe,0xd8,0xff, // 10368
0xe1,0x00,0x69,0xff,0x3c,0x00,0xda,0xff, 0x8e,0x03,0x9d,0x01,0x35,0x01,0x83,0x00, // 10384
0xaa,0xfe,0xa2,0xff,0x48,0x00,0x9b,0xf2, 0x64,0x00,0x4f,0xfe,0xf2,0xfe,0x15,0x01, // 10400
0x45,0x00,0xff,0x01,0x14,0x01,0x15,0xff, 0x0d,0xff,0x03,0x00,0xa6,0xff,0x5c,0x00, // 10416
0x46,0xfe,0x48,0x01,0x59,0xff,0x11,0x02, 0x50,0x00,0x18,0x00,0x11,0x00,0x8e,0xff, // 10432
0x90,0x00,0x0e,0x00,0xbc,0xff,0x08,0xfe, 0xe4,0x00,0x78,0xff,0x1d,0x01,0xf1,0xff, // 10448
0x14,0x00,0x76,0x00,0x56,0xff,0xaf,0x0f, 0x35,0x00,0x9a,0xfe,0xb4,0xff,0x20,0x00, // 10464
0x88,0xf6,0x78,0x01,0x9a,0xff,0x77,0xfe, 0x1f,0x02,0x89,0x01,0xb2,0xff,0x7c,0x00, // 10480
0xd3,0x00,0xfc,0xfd,0x40,0xff,0x94,0x00, 0x17,0x01,0x6c,0xff,0x49,0x00,0x22,0x00, // 10496
0x59,0x01,0xcf,0xfe,0x28,0x00,0x3f,0xff, 0x95,0xff,0x9f,0xfe,0x8b,0xff,0x3e,0x00, // 10512
0x06,0xff,0xb6,0xfd,0xf0,0x0d,0xc9,0xfe, 0x14,0xff,0xe3,0x00,0xe7,0xf4,0x30,0xff, // 10528
0x1a,0x01,0x9a,0xff,0x1c,0x01,0x5a,0xfd, 0x93,0x00,0x9f,0xfc,0xc8,0xff,0xdd,0xff, // 10544
0xb0,0xfc,0x29,0xff,0x68,0x03,0xcf,0xfe, 0xa2,0x00,0x16,0xff,0x3e,0xff,0x58,0x01, // 10560
0x4f,0x01,0x7e,0x00,0x96,0x01,0xfa,0x00, 0xa6,0xff,0xf1,0xff,0xf9,0x00,0xc2,0x00, // 10576
0x85,0x01,0xd8,0xff,0x59,0xff,0x32,0x01, 0xbb,0xfc,0x85,0x00,0xd7,0xff,0x12,0x02, // 10592
0xf9,0x01,0x94,0x00,0x56,0x01,0xf5,0x01, 0x07,0xfb,0x15,0xff,0x92,0xff,0x00,0x02, // 10608
0x1a,0x01,0x7b,0x02,0x66,0x00,0x7d,0xfe, 0xaa,0xfe,0x43,0xff,0x0f,0xfe,0xf8,0xfe, // 10624
0x6b,0xff,0x25,0x00,0x97,0xff,0xef,0xfe, 0x1a,0x01,0x83,0x00,0xff,0x01,0x7b,0xfd, // 10640
0xc8,0xff,0xd5,0xfe,0x8d,0xff,0x98,0xfe, 0x83,0x01,0x03,0x00,0x2d,0xfe,0xd2,0xfe, // 10656
0xce,0x02,0xfe,0x01,0x0d,0x01,0x35,0x01, 0x42,0xff,0x8d,0xff,0xd6,0x03,0x59,0xff, // 10672
0x48,0x00,0xe3,0x01,0x0d,0x00,0xf7,0x02, 0x18,0x00,0xa3,0x00,0x2d,0x03,0xd5,0x00, // 10688
0xe2,0x00,0x11,0x00,0x13,0x01,0x9b,0xff, 0xab,0x00,0x7b,0x01,0x8a,0xfd,0x45,0xff, // 10704
0xfe,0xfc,0xc2,0xfe,0x9a,0xfc,0x59,0x02, 0x36,0xff,0x38,0x00,0x8d,0xff,0xa4,0xfe, // 10720
0x69,0x02,0xe3,0x00,0x68,0xfe,0xaa,0xff, 0xec,0xff,0x6e,0x02,0xae,0xff,0x82,0x00, // 10736
0xd1,0x00,0x3d,0xfe,0xc4,0xfc,0xc8,0xfd, 0xed,0xff,0xae,0x00,0xc2,0xff,0x7c,0xfe, // 10752
0x2b,0xff,0x02,0x03,0xcf,0x02,0x5b,0x01, 0xd1,0xfe,0xb7,0x00,0xb8,0xff,0x45,0xff, // 10768
0xa6,0x00,0xcc,0x00,0x94,0xff,0xcb,0xff, 0xd8,0xfe,0x68,0x00,0x93,0xff,0x04,0x00, // 10784
0x1d,0xfc,0x01,0xff,0xbf,0xfe,0x22,0xfe, 0xe9,0x00,0x0f,0x00,0x51,0x00,0x5f,0x02, // 10800
0x91,0x01,0xa1,0xff,0xe2,0xff,0x2b,0xfe, 0xc5,0x01,0x93,0x00,0x3e,0xff,0xb7,0x00, // 10816
0x29,0xff,0xd9,0xfc,0xa2,0x00,0x51,0x01, 0xf3,0xff,0x6a,0x01,0xee,0xff,0xb9,0xff, // 10832
0x75,0x01,0xfc,0x00,0x38,0xfe,0xc9,0xfe, 0x1a,0x02,0xbc,0xfe,0xc6,0xfe,0x81,0x00, // 10848
0x5e,0x00,0xf8,0xfc,0x9c,0x00,0xd9,0xfd, 0x48,0x01,0x43,0xff,0x2f,0x01,0xc4,0x00, // 10864
0xfc,0xfd,0x17,0x00,0x17,0x00,0x83,0xfd, 0xc8,0x02,0x88,0x00,0x03,0xfd,0x4e,0xfe, // 10880
0x47,0xfd,0xc4,0xfe,0x6b,0x01,0x77,0x01, 0xe5,0xfb,0xb2,0x00,0xc2,0xff,0xdd,0x00, // 10896
0xa6,0x01,0x29,0xfe,0xd1,0x02,0xb7,0xfe, 0x19,0x01,0xd6,0x00,0x8f,0xfe,0x00,0x02, // 10912
0xd2,0x02,0x72,0xfd,0x63,0x00,0x92,0x00, 0xd5,0xfb,0x93,0x01,0xfe,0xfc,0xef,0x00, // 10928
0x45,0xfc,0xce,0xfe,0x89,0xfe,0x3a,0x00, 0x02,0x06,0x7b,0xfe,0x52,0x03,0x7a,0x00, // 10944
0x86,0x00,0xe0,0xff,0x93,0xfe,0x2d,0xfe, 0x31,0x04,0xd8,0x02,0x31,0x00,0xb2,0x00, // 10960
0xd6,0xfd,0x56,0xfe,0x51,0x03,0x3f,0xff, 0x84,0x01,0x16,0x01,0xe0,0xff,0xf1,0x01, // 10976
0x2c,0x02,0x0a,0xfe,0x3b,0x00,0x36,0xfd, 0xfa,0x01,0x30,0x00,0xbe,0xff,0x2f,0xff, // 10992
0x75,0x00,0xbd,0xfd,0x20,0x02,0x2f,0x01, 0x05,0xff,0xe3,0xfe,0xa6,0xfd,0x55,0xfd, // 11008
0x05,0x00,0x9b,0x01,0x9f,0xff,0x48,0x01, 0x62,0x02,0x70,0xfc,0x2b,0xfe,0x88,0xfc, // 11024
0x85,0xfc,0xba,0x02,0xea,0x01,0xd3,0xfe, 0x23,0x00,0x85,0xff,0x15,0x02,0x22,0xff, // 11040
0x11,0x00,0xbe,0xfd,0xfd,0xff,0xfb,0xff, 0xc2,0x02,0x80,0xff,0xc2,0x01,0x32,0x00, // 11056
0x4a,0xff,0xa2,0xfe,0x3a,0xff,0xcc,0x00, 0xc9,0xfd,0xb1,0x00,0x59,0x01,0xd0,0xfd, // 11072
0xaf,0xfe,0xea,0x00,0xd0,0xff,0x26,0x01, 0x4e,0xfe,0xc6,0xff,0x3d,0x01,0x9b,0x01, // 11088
0x14,0xff,0xe9,0xfa,0x79,0xfe,0xc6,0xff, 0x05,0x00,0xff,0x04,0x41,0x00,0x42,0x00, // 11104
0x84,0x03,0xf8,0xfe,0x45,0xff,0xdd,0x01, 0xf7,0xfe,0x57,0x00,0x79,0x01,0x51,0xfe, // 11120
0xbb,0xff,0xfc,0xfd,0xcf,0xff,0x1f,0x01, 0x19,0x00,0x79,0xfe,0xc1,0xfc,0xbc,0xff, // 11136
0xa5,0xfe,0x92,0xff,0x30,0x00,0x6f,0xfd, 0x81,0xff,0xa0,0x00,0xbf,0xfe,0xe3,0xff, // 11152
0xf6,0xfe,0xd7,0x06,0x7e,0xff,0x61,0x01, 0x4f,0xff,0xf2,0xfd,0xcb,0xff,0xf1,0xff, // 11168
0x33,0x00,0x51,0x00,0x44,0x03,0x8f,0x00, 0x88,0xff,0x0e,0x00,0xc8,0xff,0x6e,0xf3, // 11184
0x97,0x00,0x21,0xff,0x25,0xf4,0x6f,0xff, 0x52,0xff,0x89,0xff,0x0d,0xff,0x77,0x03, // 11200
0xd3,0xfe,0xcd,0x00,0xea,0xff,0x07,0x00, 0x78,0x00,0x68,0x02,0x13,0x01,0x6e,0xfd, // 11216
0x88,0x04,0x1f,0xfe,0x89,0x08,0x38,0xfe, 0x88,0xfe,0x35,0x00,0x82,0xff,0xa5,0xfe, // 11232
0x81,0xfb,0xdd,0xff,0xcb,0xff,0xed,0xfd, 0x7e,0xfe,0xdb,0x03,0x69,0x00,0xf5,0xfc, // 11248
0x12,0x02,0xb7,0x00,0xbb,0xfd,0xa7,0x02, 0x5e,0xfe,0xa8,0x00,0x8c,0x06,0xf5,0xfe, // 11264
0xc0,0xfe,0x71,0xfe,0xb8,0x02,0xa8,0xfd, 0xce,0xff,0xd1,0xff,0xed,0x03,0x2b,0xfd, // 11280
0x6c,0x00,0xdc,0x01,0x94,0xff,0xb5,0xfb, 0xa8,0x00,0xec,0x00,0xaa,0xff,0xfb,0xfd, // 11296
0x55,0x00,0xe3,0xfe,0x54,0xff,0x23,0xf7, 0x7b,0xff,0x0a,0xff,0x0d,0x03,0xda,0x00, // 11312
0xb4,0xfe,0x50,0xfd,0x6d,0x00,0x33,0xff, 0x70,0x00,0x8a,0xfe,0xbe,0x03,0xef,0xff, // 11328
0x22,0xfe,0x6e,0xff,0xf9,0xf9,0x2e,0x00, 0x62,0x04,0x4a,0x00,0x98,0xff,0x2f,0x01, // 11344
0x01,0x00,0xee,0xff,0xd5,0xff,0x37,0xff, 0xac,0xff,0x40,0x01,0x32,0xfd,0x2d,0xfd, // 11360
0xc1,0xfe,0x2e,0x01,0x0b,0xff,0xa5,0x02, 0xdd,0xfc,0x36,0xfd,0xe9,0xff,0x37,0xfd, // 11376
0x63,0xff,0xc0,0xfd,0x3f,0x00,0x43,0x00, 0x1b,0xff,0xf8,0xfe,0x9a,0xff,0xab,0xff, // 11392
0xba,0xff,0x5f,0x00,0xe8,0xfe,0x0a,0xfe, 0xed,0xfe,0xd8,0xff,0x25,0x03,0x83,0xff, // 11408
0xed,0x00,0xe2,0x03,0x88,0xff,0xd2,0x01, 0x4e,0xfe,0x4d,0x01,0x06,0x00,0xbe,0x01, // 11424
0x84,0x00,0x78,0x00,0x76,0x00,0xa3,0x05, 0x91,0xfe,0xb9,0xfd,0x33,0x00,0xb1,0x02, // 11440
0x33,0xff,0xd8,0x01,0xdc,0xff,0x19,0x00, 0x7a,0x02,0x74,0x00,0x46,0xff,0x98,0x01, // 11456
0xa5,0xff,0x53,0x00,0x48,0xf9,0xe9,0x00, 0x7d,0x00,0x96,0xff,0x19,0x01,0x5b,0x00, // 11472
0xec,0x00,0x48,0xfe,0x25,0x00,0x1a,0x00, 0x55,0x02,0x08,0xfc,0x46,0x00,0xb9,0xfe, // 11488
0x2e,0x04,0xbf,0xfe,0x51,0x02,0x97,0xff, 0xed,0x02,0x3e,0xff,0xc9,0x00,0xab,0xff, // 11504
0x82,0x01,0xb8,0x01,0x1b,0x06,0x22,0x00, 0x16,0x00,0xe1,0xfe,0x08,0xfe,0xb0,0xfe, // 11520
0xd5,0xff,0x28,0x00,0x45,0x00,0x6a,0x01, 0xaf,0xfb,0xe3,0xff,0x25,0xff,0x7b,0x00, // 11536
0xc2,0xfd,0xe5,0x02,0xab,0xfd,0xb5,0x04, 0x00,0xfc,0x02,0x00,0x0d,0xff,0x13,0x02, // 11552
0x41,0x01,0x10,0xff,0xea,0xff,0xf8,0xf9, 0x2f,0x05,0xf9,0xfd,0xb1,0xfd,0x33,0x07, // 11568
0x3e,0x01,0x5b,0x01,0xa3,0xff,0xd9,0xff, 0xc0,0xff,0x3c,0xff,0xda,0xfc,0xf3,0xff, // 11584
0xeb,0xff,0x2e,0x01,0x2d,0xfe,0xf1,0xff, 0xb4,0x01,0x43,0xff,0x09,0x00,0xb8,0x01, // 11600
0x14,0x01,0x76,0xff,0x9b,0xfb,0xbd,0xff, 0x24,0x01,0xbe,0x00,0x2f,0x03,0xdb,0x00, // 11616
0x99,0x00,0x4a,0xff,0x0c,0xff,0x0c,0x00, 0x3e,0xfe,0x2c,0x00,0x22,0xfe,0x4a,0xff, // 11632
0x9e,0xfe,0x98,0x00,0x75,0x00,0x78,0x00, 0x1c,0x01,0xd5,0x00,0x2c,0x00,0xe2,0x00, // 11648
0xba,0xff,0x5e,0xff,0xdb,0x00,0x3a,0xff, 0x45,0x01,0x39,0x01,0x2f,0x01,0xfd,0xff, // 11664
0xf6,0x00,0x36,0xfe,0xc6,0xff,0x9e,0x04, 0x1c,0xff,0xc2,0xff,0x44,0x00,0x76,0xfe, // 11680
0x91,0xfe,0xdf,0xff,0x99,0xff,0xae,0xfe, 0x1e,0x00,0xdc,0x01,0x9f,0xfe,0x07,0x00, // 11696
0xa3,0xff,0x0e,0x00,0x4a,0x00,0x53,0x01, 0xa0,0xff,0xba,0xff,0x8c,0xfe,0xd7,0xff, // 11712
0x7d,0x00,0x26,0xff,0x89,0x00,0x14,0xff, 0x68,0xff,0x66,0x02,0x7e,0xfe,0x12,0x00, // 11728
0xb0,0xff,0xe7,0x0f,0xff,0xfe,0x9a,0x00, 0xbb,0x00,0x9c,0xfe,0x90,0xff,0x66,0xfd, // 11744
0x87,0x01,0x34,0xff,0x1e,0xfe,0x3f,0xff, 0x96,0x00,0x86,0xff,0xee,0xff,0xbc,0x00, // 11760
0x52,0x00,0xbe,0x00,0xe7,0xff,0x4a,0x00, 0xe7,0xfe,0x4b,0xff,0xf6,0xff,0x62,0xff, // 11776
0xdc,0x00,0x46,0xfe,0xda,0x02,0x97,0xfe, 0x1d,0xff,0x79,0x00,0x1a,0xff,0xe8,0x00, // 11792
0x59,0x00,0x53,0x05,0x32,0x00,0x14,0x00, 0x1a,0x00,0x14,0x01,0x0a,0x02,0xcb,0xfd, // 11808
0xc1,0xfe,0x2a,0x00,0xb8,0xff,0x64,0x01, 0xcc,0xff,0x7b,0xff,0xae,0x03,0x6c,0x00, // 11824
0xc2,0xfe,0xe5,0xff,0x47,0x03,0x8a,0xfe, 0xda,0xfe,0xd8,0xff,0x5b,0xfe,0xbc,0x03, // 11840
0x37,0xff,0x88,0xff,0x4a,0x00,0x42,0x02, 0xd0,0xfe,0xc6,0x01,0xb3,0xf9,0xad,0xff, // 11856
0xc3,0xff,0xfd,0xff,0xe0,0xfc,0x9f,0x01, 0x6e,0x00,0x4b,0x01,0x95,0xff,0x08,0x02, // 11872
0xa8,0x00,0x18,0xfe,0x44,0xff,0x11,0xfe, 0xf8,0xff,0x77,0xfa,0x3f,0x01,0x1e,0x0a, // 11888
0x15,0x00,0x1b,0x00,0x59,0xff,0x71,0xfe, 0xb8,0xfd,0xa6,0xff,0x07,0x05,0x0d,0x07, // 11904
0x04,0xfe,0xe7,0x00,0x4c,0x00,0x8e,0xff, 0x00,0x01,0x7f,0x00,0x45,0xff,0x3f,0xff, // 11920
0x5b,0x00,0xf5,0x00,0x9d,0x00,0x6b,0x03, 0xce,0xfe,0x0b,0xf3,0x8e,0x00,0x61,0x00, // 11936
0xdb,0xfe,0x6a,0xff,0xd7,0xff,0xce,0xff, 0xc2,0xff,0xc1,0x00,0x26,0x05,0xc6,0xfd, // 11952
0xfd,0xfe,0x47,0x00,0x49,0x01,0x38,0xfe, 0xaf,0x00,0xac,0xff,0x94,0x06,0x50,0xff, // 11968
0xca,0xff,0xe2,0xff,0x55,0x01,0xaa,0xff, 0xd5,0xfd,0xab,0xff,0xdb,0xfe,0x61,0xfd, // 11984
0x2e,0x02,0x76,0xff,0x41,0x00,0x51,0x05, 0xa5,0xfe,0x57,0x00,0xec,0x02,0xd5,0x07, // 12000
0x3a,0x01,0x55,0xfe,0xba,0x00,0x13,0x00, 0xa0,0x02,0xe5,0xff,0x45,0x02,0xe7,0x00, // 12016
0xc6,0xf9,0xfa,0x01,0x20,0xfe,0xae,0x00, 0x38,0xff,0x14,0x01,0x93,0xff,0x50,0xff, // 12032
0xdb,0xff,0xc6,0x01,0xab,0xff,0xb2,0xff, 0x7c,0x01,0x04,0xfb,0xcf,0xfe,0xe4,0xf7, // 12048
0xfa,0x01,0x76,0x00,0x21,0xff,0x4a,0xfc, 0x97,0x00,0xb3,0x01,0x01,0xff,0xb5,0xfe, // 12064
0x7d,0xfd,0x81,0x00,0x96,0x02,0xe9,0x00, 0xe8,0xfe,0x9b,0x00,0xec,0xff,0xd6,0xfe, // 12080
0x5e,0x01,0x3a,0x02,0x04,0xff,0x83,0x00, 0x7f,0x00,0x2f,0x01,0xb3,0xff,0x61,0xff, // 12096
0x2d,0xff,0x7d,0x06,0x3c,0xfe,0x44,0xff, 0xec,0x00,0xa1,0x00,0xbc,0xff,0xf8,0x00, // 12112
0x81,0x00,0xb8,0x01,0x4c,0xff,0xd1,0x00, 0x09,0x03,0x23,0x00,0x42,0xff,0x0d,0xff, // 12128
0xd8,0x00,0xb1,0xff,0xcc,0x00,0x7c,0x00, 0x02,0xff,0xf1,0xfd,0xe9,0xff,0x84,0xff, // 12144
0x93,0x00,0x10,0x01,0xb8,0x00,0x6b,0xff, 0xf5,0xff,0x7a,0x00,0x6b,0x01,0x8d,0x03, // 12160
0x76,0x01,0xc7,0x01,0xc5,0xff,0x7b,0xff, 0x5c,0xff,0xd9,0xff,0x72,0xff,0xd4,0x00, // 12176
0xa6,0xfe,0x2c,0x01,0x56,0xff,0x37,0xfd, 0x2d,0x00,0x35,0xfc,0x68,0xf6,0x16,0xfe, // 12192
0x5f,0xfe,0xd0,0xfc,0x89,0x01,0xce,0xff, 0xfc,0xff,0x22,0x00,0x71,0xfe,0xf2,0xff, // 12208
0x81,0xff,0xaa,0x00,0xbd,0x00,0x4d,0x00, 0x59,0xff,0x33,0x00,0x75,0x01,0xbf,0x03, // 12224
0x52,0xff,0xeb,0xff,0xb2,0xfc,0xf0,0xff, 0x2e,0x02,0x39,0xff,0xc0,0xff,0x72,0x00, // 12240
0x56,0x01,0xa1,0xfe,0xb2,0xff,0x7f,0x06, 0x93,0x00,0xc9,0xf9,0xe5,0xfc,0xc9,0xff, // 12256
0xff,0xfd,0xe1,0xfc,0x5a,0x01,0x8a,0x00, 0x84,0xfd,0x0b,0x01,0xc8,0xff,0x14,0x00, // 12272
0x19,0xff,0xb8,0x02,0x6d,0xfe,0xcf,0x00, 0x11,0x00,0xe1,0xfb,0x64,0x00,0x14,0x01, // 12288
0x95,0x00,0xff,0xfe,0x36,0xfd,0x94,0xfe, 0x47,0x00,0x7e,0xff,0xca,0xff,0x6c,0xfa, // 12304
0xfe,0xfd,0x07,0xff,0x29,0xfc,0x41,0x01, 0x16,0x02,0xec,0xff,0x4b,0x00,0xf0,0x02, // 12320
0x86,0xfc,0x85,0xff,0x57,0xfe,0x2c,0x00, 0x28,0x04,0xea,0x00,0xa6,0xfe,0xc2,0xfd, // 12336
0x9a,0x05,0x9d,0xff,0x9d,0x01,0x21,0x00, 0xc4,0xff,0x22,0x03,0x84,0x04,0xd4,0xfc, // 12352
0x16,0xfe,0x98,0xfe,0xaf,0x02,0x29,0x00, 0x9a,0xff,0x19,0x00,0x81,0x00,0xf6,0xfe, // 12368
0x71,0x07,0x7a,0x00,0x65,0xff,0x89,0x02, 0xfe,0xff,0x75,0x01,0x6f,0xfe,0x57,0xfd, // 12384
0x7f,0xfb,0x05,0x00,0x1e,0x01,0x36,0x00, 0xe6,0xff,0x17,0xfb,0xea,0x08,0x01,0x00, // 12400
0x6b,0x01,0x91,0x00,0x6e,0xfe,0x48,0xf8, 0xf5,0xff,0x94,0x00,0xef,0xff,0x08,0x02, // 12416
0x58,0x03,0x4e,0xfc,0x30,0xfd,0x52,0xfc, 0x32,0xfc,0x6e,0xfd,0x84,0x0c,0xbb,0xff, // 12432
0xb7,0xff,0x73,0xff,0xeb,0xff,0x26,0xfd, 0x2f,0xff,0x5a,0x01,0xe4,0xff,0xe9,0xfe, // 12448
0x06,0xff,0x93,0xfd,0x25,0xfc,0xde,0xff, 0x4e,0x00,0xf5,0xfd,0x90,0xff,0x8f,0xff, // 12464
0xdc,0xfe,0xaa,0xff,0x3c,0xfe,0x5a,0xfd, 0xae,0x00,0x61,0xfe,0x68,0x01,0x8c,0xfe, // 12480
0xb9,0xfc,0xac,0xfe,0x5f,0xfe,0x65,0xff, 0xa2,0xfe,0x5e,0x00,0xe1,0xfe,0x55,0x02, // 12496
0xc8,0x01,0xaa,0xfd,0x3b,0x01,0xd8,0x01, 0xb1,0x02,0x31,0x03,0xd1,0xfc,0x0f,0xff, // 12512
0x18,0x01,0x8d,0xfd,0x0c,0x03,0xeb,0x01, 0x2e,0x02,0x6a,0xfd,0xce,0xff,0x15,0x02, // 12528
0x98,0x01,0xcc,0xfd,0x17,0x00,0x42,0x01, 0xba,0x00,0x53,0x00,0x48,0x02,0xd9,0x00, // 12544
0xa1,0xff,0x38,0xfb,0xf4,0xfc,0x7c,0xff, 0x6e,0xfe,0x6a,0xfb,0xa7,0x01,0x86,0xfe, // 12560
0x00,0xff,0x15,0xff,0xf9,0x02,0xe5,0xfe, 0xcb,0xfc,0x01,0x00,0x52,0x00,0x1f,0x00, // 12576
0x2d,0x01,0x51,0xff,0x0e,0x00,0xf1,0xfd, 0x83,0xfc,0xae,0xff,0x99,0xfd,0xce,0xfd, // 12592
0x14,0x01,0xe3,0x03,0xdc,0xfe,0xe4,0xfd, 0xa6,0xff,0x46,0xff,0x28,0xff,0x1d,0x00, // 12608
0x17,0xff,0xe2,0xff,0x4b,0x01,0xe3,0xfb, 0xe5,0x00,0x20,0x01,0x9b,0x01,0x67,0xfe, // 12624
0xb7,0xf7,0xdb,0xfd,0x72,0xff,0x99,0xfd, 0x06,0xfe,0x80,0xfe,0xf1,0xfe,0x0b,0x01, // 12640
0x49,0xfe,0xf9,0x03,0x0c,0x01,0xa5,0xff, 0xda,0x00,0xde,0xfe,0x4f,0xfc,0xc0,0xfe, // 12656
0x40,0x00,0x80,0xfe,0x93,0xfd,0x5e,0x02, 0xcb,0xff,0xb5,0xfe,0xf2,0xfc,0x1f,0x01, // 12672
0x68,0xfd,0x1a,0xff,0x2c,0x01,0xfe,0x00, 0x68,0x00,0xf1,0xfd,0x9a,0x01,0xb5,0xff, // 12688
0x44,0xfe,0xa2,0xfd,0xf5,0x01,0x25,0x04, 0x2d,0x00,0x60,0xfe,0xdf,0xff,0x63,0x01, // 12704
0x78,0xff,0xd8,0xfe,0x1e,0x01,0x60,0xfe, 0x42,0x02,0x1a,0x01,0xe4,0xff,0x8e,0x08, // 12720
0xdf,0xfd,0x0c,0x01,0x9d,0x00,0x23,0x00, 0x34,0xfe,0x17,0x01,0xca,0xfe,0x93,0xfd, // 12736
0x2f,0xfe,0xca,0x02,0x29,0xfd,0x11,0xfe, 0x25,0x01,0xbc,0x02,0x94,0xff,0xed,0xf8, // 12752
0x81,0x01,0x7c,0xfb,0x57,0x03,0xa7,0x02, 0xe8,0x01,0x9e,0x01,0x6b,0xfc,0x88,0xff, // 12768
0xf0,0xff,0xfd,0xff,0x05,0x01,0x1b,0xfe, 0xcb,0xfb,0x06,0x01,0x55,0x00,0x02,0x00, // 12784
0x80,0xfd,0x42,0xfe,0x1c,0x01,0x0e,0xff, 0x8c,0xff,0xa4,0x02,0x0e,0x00,0x88,0xff, // 12800
0xee,0xff,0xe6,0xff,0x03,0x02,0x38,0x00, 0x32,0xff,0xcf,0xff,0x71,0x00,0x0e,0x00, // 12816
0x01,0xff,0xde,0xfd,0x22,0x00,0xec,0xff, 0xa5,0xfe,0xd9,0xff,0xb0,0x01,0xdd,0x01, // 12832
0xd5,0xfd,0x24,0x01,0xa0,0x00,0x77,0x01, 0xd5,0xff,0x50,0xff,0x29,0x05,0xfc,0xfd, // 12848
0xc6,0xff,0xd4,0xfe,0x4e,0xff,0xc4,0xff, 0x22,0xff,0x18,0x01,0x92,0xfe,0x6b,0x00, // 12864
0x77,0xfd,0x9c,0xff,0x00,0xff,0x06,0xff, 0x41,0xfe,0xd0,0xfe,0x18,0xfe,0x2a,0x01, // 12880
0x1b,0x01,0x77,0xfe,0x3a,0x01,0x08,0xfd, 0x50,0x05,0x4e,0x00,0xfe,0x01,0xbb,0xfe, // 12896
0xae,0xfe,0xd7,0x01,0xc3,0xff,0xa9,0xfe, 0x57,0xff,0x81,0xff,0xf1,0x02,0xd9,0x00, // 12912
0x96,0xfe,0x86,0xfe,0xae,0xfe,0x1a,0xff, 0x3e,0x00,0x24,0x00,0x09,0xff,0xad,0xfe, // 12928
0x4a,0xff,0x63,0xff,0x0f,0x00,0xbc,0xfa, 0x84,0xff,0x31,0x02,0x46,0x00,0xb9,0xff, // 12944
0x73,0xfd,0x15,0x01,0x7e,0x01,0xe7,0x01, 0x74,0x02,0xe6,0xfe,0x49,0x00,0x69,0x02, // 12960
0x62,0x03,0xd2,0xff,0x5e,0xff,0x56,0x00, 0xb2,0x02,0x8a,0xff,0x48,0x05,0x53,0xff, // 12976
0x45,0x01,0xe1,0x02,0xa7,0x02,0x86,0x01, 0x83,0xff,0xed,0xff,0x7f,0xff,0x7f,0x00, // 12992
0x8b,0xfe,0x2a,0xff,0x03,0xfe,0xf2,0x03, 0xd4,0x02,0x84,0x01,0x1e,0xff,0xaa,0xfc, // 13008
0x84,0xff,0x69,0xff,0xe4,0x00,0x45,0x04, 0x46,0x01,0xf9,0x01,0xac,0xf8,0xf5,0xff, // 13024
0x59,0x02,0xac,0x00,0xf1,0xfc,0xb8,0xff, 0x35,0xfc,0xb5,0xfe,0x08,0x00,0xcb,0xfe, // 13040
0x51,0xfe,0xa9,0x00,0xdb,0xfe,0x2c,0x01, 0xb6,0xfe,0x88,0xfe,0xcb,0xff,0x16,0xff, // 13056
0x7c,0x00,0x11,0x03,0xa4,0x00,0x73,0x03, 0xc2,0x00,0x9d,0xfd,0x6f,0xff,0x41,0xfe, // 13072
0xb8,0x00,0x2c,0x00,0x5f,0x03,0xa6,0xfa, 0x07,0x01,0x90,0xff,0x76,0x00,0x2d,0x00, // 13088
0xba,0x02,0x04,0x01,0xdf,0xfa,0xec,0xff, 0xb9,0xfd,0x9f,0xfe,0x22,0x00,0x02,0xfe, // 13104
0x96,0xfe,0xc9,0xfb,0xcf,0xfe,0x68,0x00, 0x4e,0xfe,0x81,0xfc,0xbd,0x01,0xb3,0x00, // 13120
0xe9,0x00,0xd1,0x01,0xa0,0xfd,0xae,0x00, 0x87,0x00,0xef,0xff,0xc8,0x00,0xef,0xff, // 13136
0xff,0xff,0xe1,0x00,0xb0,0xfe,0x06,0xf9, 0xcd,0xfe,0x99,0xff,0x93,0xf9,0x73,0xfe, // 13152
0xe9,0x01,0x31,0x01,0x67,0x01,0xde,0x03, 0xa7,0x00,0xe7,0xfe,0x8d,0xfe,0x65,0xff, // 13168
0x71,0x02,0x8b,0x00,0x50,0x00,0xc2,0x01, 0x69,0x0b,0x01,0xfe,0xf8,0x02,0xda,0xfe, // 13184
0x81,0x00,0x0c,0x00,0xe9,0xff,0x2c,0xfa, 0xf9,0xfc,0x0a,0x00,0x96,0x02,0x58,0xfa, // 13200
0xf3,0x00,0x85,0x01,0x70,0xfd,0xad,0xff, 0xa6,0xfe,0x32,0x02,0xb5,0xfe,0x4d,0x00, // 13216
0x39,0x00,0xa8,0x00,0xb4,0x03,0x04,0x04, 0x6a,0xfd,0x96,0xfd,0x3f,0x03,0x70,0xff, // 13232
0xeb,0xfe,0x43,0xfe,0xcc,0x00,0xe6,0xff, 0xc2,0x00,0x95,0x02,0xeb,0x01,0xe1,0x00, // 13248
0x7f,0xff,0x7a,0xff,0xc9,0xff,0x80,0x02, 0x29,0xff,0x23,0xfa,0x11,0x02,0xb7,0xfa, // 13264
0x82,0xf9,0x41,0xfe,0xfb,0xfe,0x7e,0x00, 0x20,0x04,0x16,0xff,0x33,0x00,0x32,0xff, // 13280
0x86,0x00,0x90,0xff,0x8c,0x02,0x32,0x00, 0x3b,0xfc,0x35,0xfd,0x59,0xfc,0x7b,0xff, // 13296
0xa8,0x00,0x6b,0x01,0xa2,0x00,0x72,0xff, 0xe1,0x00,0x6f,0xff,0x21,0xff,0xdd,0xff, // 13312
0x23,0x00,0x81,0x01,0x8d,0x03,0xbe,0xfe, 0x61,0xff,0x4d,0x01,0xaf,0xfc,0x31,0x04, // 13328
0x7e,0xff,0x34,0xff,0x16,0xfe,0xe7,0x05, 0x28,0xfa,0xa3,0xff,0xdf,0xfe,0x27,0x00, // 13344
0x9d,0xfc,0xf5,0xfd,0x0b,0x01,0x0d,0x04, 0xf7,0x00,0x6b,0x05,0x82,0xfe,0xc9,0xfe, // 13360
0xcd,0x00,0xcb,0x00,0x15,0xff,0x7a,0x01, 0xaf,0xfd,0x01,0x00,0x32,0x01,0xa9,0xff, // 13376
0x11,0x00,0x29,0xff,0xf3,0xff,0x11,0xff, 0x0c,0xfe,0x8a,0x01,0xde,0x01,0x55,0xff, // 13392
0xe1,0xfe,0xf4,0xff,0x0e,0x02,0x30,0xff, 0xc8,0xff,0xb5,0x00,0x40,0x07,0x2d,0xff, // 13408
0xfe,0xff,0xfe,0xfd,0xb1,0xfc,0x78,0xff, 0x2e,0x00,0x40,0x01,0xd1,0x00,0xaf,0x01, // 13424
0x1b,0x00,0x1e,0x01,0x79,0x03,0xcc,0x01, 0x2e,0xfd,0x70,0x01,0xb3,0x00,0x8b,0x00, // 13440
0xbe,0x00,0x4e,0x00,0xa6,0x01,0xc1,0x01, 0xab,0xfe,0x5d,0xff,0xf0,0xfe,0x40,0x02, // 13456
0x86,0xfb,0xba,0x00,0xe8,0xfc,0xbc,0x00, 0xdf,0xff,0xa4,0xfe,0xbd,0xfe,0x78,0x00, // 13472
0xb4,0x01,0x55,0xff,0x67,0x01,0xf3,0x01, 0x80,0xff,0xc0,0xfe,0xe9,0xff,0x5e,0x01, // 13488
0xb3,0x00,0x89,0x01,0x40,0x02,0x60,0xff, 0x5d,0x01,0xf8,0xfd,0xc6,0xff,0xad,0xfe, // 13504
0xb6,0x00,0x8c,0x02,0xba,0x00,0x00,0x00, 0x09,0x06,0x75,0xff,0x5b,0x00,0x39,0xff, // 13520
0xcb,0xfe,0x4a,0xfe,0x89,0x03,0x03,0xff, 0x50,0x05,0x79,0xfe,0x83,0x03,0x7d,0x00, // 13536
0x95,0x01,0xee,0x03,0x94,0x05,0x8a,0x03, 0x48,0x00,0xba,0x01,0xfb,0xff,0x86,0x00, // 13552
0xec,0xfc,0x5d,0x00,0xe9,0xff,0x2d,0xfd, 0xa3,0x05,0x81,0x02,0x1d,0xff,0x04,0xfc, // 13568
0x3b,0x00,0x7b,0xfe,0xbc,0x02,0x0c,0x05, 0x33,0xfe,0x51,0xff,0x72,0xfa,0x47,0xff, // 13584
0xe3,0x00,0xc3,0xff,0x43,0x01,0xba,0x03, 0x5b,0xf8,0x82,0xff,0x9e,0xff,0x26,0xff, // 13600
0x70,0xfe,0x56,0xfe,0x9b,0xff,0x9a,0x02, 0xde,0x00,0xd4,0xff,0x5e,0xfe,0xea,0x01, // 13616
0x5a,0x01,0x2a,0x00,0x27,0x05,0x7c,0x00, 0x04,0x01,0x71,0xff,0xc8,0xfa,0xb1,0x01, // 13632
0xe8,0x00,0x6e,0x00,0x34,0x00,0x39,0xff, 0x1f,0x01,0x94,0xfc,0xaf,0xfe,0xcb,0x02, // 13648
0x74,0x01,0xec,0xfe,0xaa,0xfe,0x92,0xfe, 0x15,0x01,0x61,0xff,0x50,0x05,0x05,0x00, // 13664
0xc9,0xff,0xa1,0xff,0xe1,0xfc,0x96,0xfe, 0xb0,0xff,0xaf,0xff,0x2f,0xff,0x4c,0x00, // 13680
0xb6,0x01,0xdd,0xff,0x37,0xfe,0x14,0x00, 0xde,0xfb,0x4b,0x02,0x15,0x00,0x25,0x00, // 13696
0x30,0x04,0x2b,0xfe,0xf0,0x00,0x79,0xff, 0x97,0x01,0x40,0xfa,0x3f,0x00,0x4e,0x01, // 13712
0x29,0x00,0x30,0xff,0x04,0x01,0x5a,0xff, 0xc2,0xff,0xed,0xfe,0xad,0xff,0x4b,0x00, // 13728
0xa6,0xff,0x56,0x01,0x65,0x00,0x7c,0x00, 0x20,0x00,0xa6,0xff,0x0b,0x00,0x17,0x01, // 13744
0x60,0xff,0xd7,0x00,0x0b,0x00,0xe0,0xfe, 0xd1,0xfd,0x86,0x00,0xe0,0xff,0xa8,0x00, // 13760
0x99,0xf7,0xdb,0xff,0xe2,0xfe,0xdb,0xff, 0xd7,0x00,0x35,0x00,0x08,0xfe,0xa5,0x00, // 13776
0x4d,0x00,0xf3,0x00,0x17,0x00,0xf1,0xfe, 0x66,0xff,0xf0,0xfe,0xab,0xfe,0xad,0xff, // 13792
0x65,0x00,0x99,0xff,0x75,0x00,0xb0,0x00, 0x2d,0xff,0x3b,0x02,0x0f,0x00,0xf3,0xfe, // 13808
0x71,0xff,0x02,0x00,0xe7,0xfd,0x51,0x01, 0x66,0x00,0x2b,0x00,0xac,0x00,0xad,0x00, // 13824
0xc9,0xff,0x31,0xfe,0x6d,0x00,0x2a,0xff, 0x2a,0x00,0x54,0x00,0xb8,0x00,0x72,0xfb, // 13840
0xc6,0xff,0xa6,0xfd,0xf2,0x00,0x28,0x01, 0x2b,0xff,0x64,0xff,0xcc,0xfe,0x3f,0xff, // 13856
0xa4,0x00,0xfe,0xfe,0x70,0x01,0xee,0xff, 0x92,0x01,0xc8,0x08,0xde,0xff,0x75,0x01, // 13872
0x9d,0x00,0xdd,0xff,0xdb,0xff,0x87,0x00, 0x45,0x00,0xd5,0x00,0xad,0xfe,0x32,0x01, // 13888
0x3c,0xff,0x78,0xff,0xca,0xff,0xee,0x02, 0xf0,0xfe,0xe0,0xff,0xb2,0xff,0xbe,0x00, // 13904
0x87,0xff,0x26,0xfa,0x6f,0x03,0x74,0x00, 0x7f,0x02,0x03,0x01,0x25,0xff,0x17,0x02, // 13920
0xe4,0x01,0xa8,0x00,0x40,0x00,0xe8,0x02, 0x28,0xff,0xdd,0x00,0x0e,0x00,0xc7,0x01, // 13936
0x40,0x01,0xf9,0xfc,0xb6,0xff,0x6b,0x03, 0x3a,0xfd,0xe0,0xff,0x12,0x00,0xa2,0x00, // 13952
0x5a,0x00,0xef,0xfc,0xe2,0xff,0x73,0x00, 0xbc,0xfd,0x61,0xfe,0xf9,0xfc,0xc9,0xfd, // 13968
0x52,0x01,0x9e,0xff,0x33,0xfc,0x92,0xfc, 0x0b,0x00,0x8c,0xf9,0x30,0xff,0x04,0xff, // 13984
0x28,0x04,0x81,0x00,0xb4,0xfd,0x2f,0x02, 0xde,0x04,0xae,0xff,0x6a,0xfe,0xb5,0xfd, // 14000
0xcb,0xfa,0x51,0xff,0x5f,0xfc,0x31,0xfe, 0x35,0x01,0x77,0x00,0xbc,0xff,0xda,0xff, // 14016
0x31,0x02,0x7f,0x01,0x90,0x01,0x12,0xff, 0xfd,0x02,0x41,0x05,0x71,0x00,0x67,0x00, // 14032
0xbb,0xfe,0xfe,0xfe,0x60,0x01,0x11,0x01, 0x8f,0x01,0xd2,0xfb,0x1a,0x03,0xcc,0xfe, // 14048
0x8c,0x00,0x6a,0xfd,0xd1,0x00,0xf4,0xff, 0x8f,0xfe,0x8a,0xff,0x45,0xfe,0xed,0x01, // 14064
0xea,0xfa,0x24,0x01,0x38,0xff,0x16,0x02, 0xe1,0x00,0x84,0xfd,0x4f,0x01,0xf5,0xfc, // 14080
0x39,0x00,0xc6,0xfe,0x48,0xfe,0x0f,0x01, 0x47,0x00,0x45,0x02,0x18,0x00,0x95,0x00, // 14096
0x06,0x02,0xf3,0xfc,0xa2,0x02,0x48,0x00, 0x02,0x02,0x77,0x00,0x6c,0x01,0xd1,0xff, // 14112
0x78,0x01,0xe8,0x02,0xe1,0xff,0x2c,0x01, 0x13,0x01,0x79,0xff,0xfa,0xff,0xc4,0xff, // 14128
0x9f,0x01,0x65,0xff,0x9f,0xfd,0xd9,0x00, 0x86,0x00,0xf0,0xfe,0xea,0xff,0x24,0x00, // 14144
0xd6,0xfe,0x83,0xff,0x14,0x00,0xe6,0xfe, 0x71,0xff,0x11,0x00,0xb4,0x00,0xaa,0x03, // 14160
0xeb,0x02,0xb5,0x00,0xcd,0x00,0xe2,0xfe, 0x99,0xfe,0xce,0x00,0xc5,0xfd,0xab,0x04, // 14176
0x1a,0x01,0x6c,0x00,0x33,0x00,0x3d,0x01, 0xdd,0x00,0xd1,0x00,0xa2,0xff,0xe9,0xfe, // 14192
0x61,0xff,0xd7,0xff,0xd7,0x01,0xed,0xff, 0x3b,0xfd,0x74,0xff,0x66,0xff,0xc7,0x00, // 14208
0x78,0xff,0xdf,0x00,0xb5,0x00,0xc1,0x03, 0xa1,0xfd,0xf5,0xff,0xd4,0x00,0xd8,0xff, // 14224
0xb3,0xfe,0x0e,0x00,0xbf,0xfd,0x78,0xff, 0xcf,0xfc,0xc3,0xff,0xa2,0x01,0x84,0xff, // 14240
0xb4,0xfb,0xa6,0x00,0x94,0x01,0x3a,0xf7, 0xc6,0xfe,0x83,0x02,0xb0,0x01,0x85,0x01, // 14256
0x1b,0x00,0x3a,0x01,0xbd,0xff,0x32,0x01, 0xb2,0x00,0x9b,0xff,0x74,0x00,0xd9,0xff, // 14272
0x7d,0x05,0xa1,0x01,0xc3,0xf4,0xd2,0xff, 0x3a,0xfe,0x6c,0x00,0xa0,0xf8,0x6e,0x01, // 14288
0x27,0x00,0x1f,0x00,0x33,0x07,0x02,0x02, 0x72,0x00,0x8c,0xfe,0x00,0x00,0x04,0xff, // 14304
0xdb,0xfd,0x38,0x04,0x59,0x00,0x49,0xff, 0xa3,0x01,0x99,0xff,0x63,0xfe,0xd9,0xfe, // 14320
0x74,0xff,0x6a,0x02,0x8d,0x04,0xaf,0xfa, 0x7d,0x01,0x45,0xf7,0x26,0xfe,0x0b,0xfe, // 14336
0x9c,0xfc,0x2a,0xff,0xdd,0x00,0x03,0x00, 0xe1,0xff,0x63,0x05,0xe5,0x01,0xac,0xff, // 14352
0xa5,0x01,0x1f,0xff,0x5d,0x00,0x83,0xff, 0x75,0x00,0x93,0xfa,0xac,0xfa,0x04,0x01, // 14368
0x12,0x00,0x8d,0x05,0xbf,0xff,0x89,0x00, 0x6a,0x01,0x45,0xfd,0x9e,0xfd,0x0c,0x01, // 14384
0xc3,0xff,0x22,0x01,0xa0,0xff,0x3d,0x05, 0x78,0x00,0x41,0xfc,0x29,0xf8,0x49,0x02, // 14400
0x78,0x01,0x90,0xfd,0x47,0x00,0x45,0x01, 0xc6,0xff,0xc7,0x01,0xad,0xff,0x45,0xff, // 14416
0x47,0x01,0xe5,0x01,0x86,0x01,0x0e,0x03, 0xb8,0xf9,0xea,0x00,0xdf,0x00,0xe4,0xfc, // 14432
0x7c,0x00,0xc6,0x00,0x97,0x01,0x1d,0xff, 0xef,0x00,0x27,0x01,0x28,0xfd,0xe3,0x00, // 14448
0x14,0x00,0x83,0xfd,0xcc,0xff,0xd6,0xfd, 0x09,0xff,0xa8,0xfe,0x8b,0x01,0xee,0xfe, // 14464
0x8a,0xff,0xf2,0xff,0x87,0xfe,0x56,0x00, 0xc5,0xff,0x09,0x01,0x73,0xff,0x27,0x01, // 14480
0x99,0xff,0x6c,0xfc,0xe7,0x00,0x70,0x00, 0x06,0x06,0x00,0x01,0x22,0x01,0x5c,0x01, // 14496
0x91,0x00,0xb0,0xfe,0x33,0x00,0xaa,0xff, 0xfb,0xfe,0xb0,0xfd,0x1e,0xf9,0x66,0x01, // 14512
0xb9,0x00,0x11,0xff,0xe8,0x00,0xf7,0xff, 0x14,0x00,0xa8,0x00,0x36,0x00,0x83,0xff, // 14528
0xdd,0xff,0x3b,0x00,0xfb,0xfe,0x65,0xfe, 0xed,0xff,0xa3,0xff,0xd9,0xfe,0x20,0x00, // 14544
0xdd,0xff,0xdc,0xfe,0x09,0x00,0x9c,0x01, 0x82,0x02,0x5f,0x00,0x09,0xff,0x8e,0xfe, // 14560
0xfd,0xfc,0x96,0xfe,0xa2,0xfd,0xca,0xff, 0x3f,0x00,0xe6,0xfe,0xa3,0x00,0xe6,0xff, // 14576
0x3e,0xff,0xb8,0x01,0xb8,0xff,0xcd,0xfe, 0x83,0x01,0xf9,0x02,0x13,0x01,0xb5,0x00, // 14592
0x8c,0x00,0x6c,0xfe,0x49,0x01,0x43,0x02, 0x37,0xfe,0xb8,0xff,0x1a,0xff,0xcf,0xff, // 14608
0x17,0xff,0x44,0xff,0xf4,0xfa,0xd3,0xff, 0xad,0xfe,0xe3,0x00,0xb4,0xfc,0xeb,0x03, // 14624
0xdf,0xfe,0xa6,0x00,0xf1,0xfe,0x1c,0x02, 0x32,0x01,0x4f,0xff,0x14,0x00,0x5f,0xfd, // 14640
0xc4,0x01,0x39,0x00,0x45,0xff,0x29,0x02, 0xa6,0x00,0x5d,0xfe,0xb2,0xff,0xf8,0xfe, // 14656
0xc1,0xff,0x92,0xfe,0xeb,0x00,0xb1,0x02, 0x65,0x01,0x78,0xfc,0x50,0xff,0xc6,0x00, // 14672
0x01,0x03,0x79,0x00,0xdd,0xfe,0x06,0x01, 0x2e,0x01,0x29,0x00,0xd4,0xff,0x0f,0x00, // 14688
0x33,0x00,0x25,0x00,0x03,0x00,0x45,0x00, 0x06,0x02,0xde,0xfe,0xee,0xff,0x3a,0xff, // 14704
0x90,0x01,0xe6,0x01,0x4a,0x01,0xdd,0x00, 0x42,0xff,0x40,0x01,0x00,0x01,0xc1,0x01, // 14720
0x68,0x01,0x0b,0xff,0xff,0x00,0xbb,0xff, 0x47,0xff,0x38,0x00,0x51,0xff,0x72,0x00, // 14736
0x61,0xff,0xfa,0x02,0x35,0x00,0xcf,0xfe, 0x6a,0x00,0x73,0xfd,0x41,0xfd,0xa8,0x01, // 14752
0x81,0x00,0x97,0x00,0x7b,0x01,0x21,0xfa, 0x8a,0xff,0x55,0xff,0x9a,0xff,0xfd,0xfc, // 14768
0x00,0x02,0xb7,0x01,0xd4,0x00,0x59,0x00, 0x1c,0xff,0x99,0xfa,0x08,0x01,0xc2,0xfd, // 14784
0x16,0xfd,0xe8,0xfd,0xc9,0xff,0xaf,0xff, 0xee,0xfd,0x93,0xfe,0x83,0x00,0xaf,0xff, // 14800
0xc3,0xff,0x17,0x03,0x50,0x00,0x90,0x02, 0x7e,0xff,0xeb,0x00,0x14,0x01,0x48,0xfc, // 14816
0x6b,0x00,0xe5,0x00,0xfb,0xff,0x84,0x01, 0x42,0x01,0x1b,0x00,0xaf,0x00,0x0b,0x06, // 14832
0xc5,0x00,0xdf,0xfd,0x32,0x01,0x36,0x09, 0x52,0xff,0x2b,0x00,0xc5,0x00,0x30,0x00, // 14848
0xfa,0xff,0xa0,0xfe,0x7c,0xfe,0x7c,0x00, 0xf5,0xfe,0x1e,0x00,0x83,0xff,0xed,0x05, // 14864
0x4d,0x01,0x19,0x01,0x73,0x00,0x66,0xff, 0xdd,0x02,0x34,0xff,0x2c,0x04,0x4b,0xfd, // 14880
0xd9,0xff,0xe2,0x00,0x7a,0x00,0x44,0x01, 0x4b,0xfe,0x0d,0x01,0x07,0x00,0x12,0x02, // 14896
0x05,0xff,0xf3,0xff,0x8e,0x00,0x09,0x02, 0x25,0x00,0xe3,0xfc,0x48,0x05,0x64,0x00, // 14912
0x5a,0x01,0xd9,0xfc,0x4b,0xff,0xcc,0x00, 0x5d,0x00,0x02,0x06,0x46,0xfe,0x57,0x02, // 14928
0x7c,0x00,0x80,0x01,0x73,0xff,0x44,0xfe, 0x9d,0x04,0x7b,0x01,0x4f,0xff,0x11,0x01, // 14944
0xf9,0x00,0x43,0xfe,0xf4,0xfd,0xcf,0x00, 0x1c,0x02,0x3d,0xff,0x00,0x00,0x50,0xfe, // 14960
0x5c,0x00,0x5b,0xfe,0xf2,0xfe,0xce,0xff, 0x0e,0xfc,0x59,0xf6,0x39,0x00,0x21,0x00, // 14976
0x59,0x00,0xeb,0xff,0x93,0x00,0x0a,0x01, 0x78,0xff,0x73,0xff,0xa9,0x00,0x71,0x01, // 14992
0xed,0xfe,0x50,0x00,0xb8,0xfd,0x05,0xfc, 0xd2,0xfd,0x41,0xf9,0xc2,0xff,0x96,0x03, // 15008
0xfd,0x03,0x19,0xfe,0xcf,0xf9,0xf5,0x01, 0x36,0xff,0x36,0x01,0xa6,0xff,0x70,0x01, // 15024
0xba,0xfd,0x7a,0xff,0x0f,0x01,0x87,0xfe, 0xb1,0xff,0xdf,0x00,0x3d,0x00,0x2d,0xfe, // 15040
0x0c,0x01,0xce,0xff,0x73,0x00,0xab,0xff, 0x38,0xff,0xa5,0xff,0xcc,0x01,0x32,0xfb, // 15056
0xae,0x01,0x20,0x00,0xac,0xff,0x6b,0x00, 0x19,0xff,0x66,0x00,0x5b,0xff,0x45,0x00, // 15072
0x27,0x02,0x66,0x00,0x87,0xfe,0x79,0x00, 0xa1,0xff,0x92,0x00,0xfb,0xff,0x5e,0x04, // 15088
0xfb,0x00,0x39,0xfe,0xc2,0xff,0x13,0xff, 0x66,0x00,0x5d,0xff,0x19,0xff,0x24,0x03, // 15104
0xa6,0x00,0xc6,0xff,0x80,0x03,0xff,0x01, 0xba,0xfe,0xf4,0xfd,0x78,0x03,0x8c,0x03, // 15120
0x5f,0x02,0x82,0xff,0xe8,0x01,0x98,0xff, 0x0a,0x01,0xe0,0xfe,0x57,0xfc,0x60,0xfc, // 15136
0x64,0xfa,0x7e,0x04,0x84,0xfb,0xb1,0xff, 0xba,0xff,0x09,0x02,0x98,0x01,0x96,0xfe, // 15152
0x51,0x01,0xf0,0xfd,0xeb,0x04,0x3c,0x00, 0x40,0x00,0x7e,0x01,0x90,0xff,0xbd,0x08, // 15168
0x3b,0xfe,0x15,0x03,0x68,0xff,0xaa,0xff, 0x1f,0x03,0x78,0xff,0x78,0xff,0x54,0x01, // 15184
0x5c,0xff,0x8c,0xff,0x61,0x02,0x36,0x00, 0xd3,0x00,0xbf,0xff,0x78,0x00,0xb7,0xfc, // 15200
0xb3,0x00,0x38,0x03,0xde,0x00,0x92,0x00, 0xbe,0x00,0x40,0xff,0xc6,0x00,0x83,0x01, // 15216
0xa9,0xff,0xe7,0x03,0x20,0x01,0x46,0x04, 0xcc,0xfe,0x25,0xfd,0x33,0x00,0x13,0xfc, // 15232
0x54,0x00,0x89,0x00,0x78,0x02,0x4c,0x00, 0x47,0x01,0x62,0x01,0xbd,0xfc,0x72,0xfe, // 15248
0xb4,0xfe,0xc8,0xfd,0x20,0x00,0x62,0x00, 0x60,0x02,0xa2,0xfc,0x74,0xff,0x98,0xfc, // 15264
0x80,0x00,0xcb,0xff,0x5b,0xff,0xd7,0x02, 0x52,0xff,0x2a,0xff,0x90,0xff,0xe4,0xfd, // 15280
0x32,0xfd,0x09,0xfe,0xb0,0x00,0x58,0x02, 0x35,0x00,0x27,0x01,0xfc,0xfe,0xea,0xfd, // 15296
0x78,0x01,0x53,0x03,0x34,0x00,0xc7,0xfc, 0xbe,0x00,0xc0,0xfe,0xa5,0xfe,0x9d,0x04, // 15312
0x41,0x01,0x58,0xfe,0x01,0x01,0x7b,0x00, 0xe5,0x01,0x3d,0x00,0xaf,0xff,0xeb,0x02, // 15328
0xfa,0xfe,0x1d,0xfd,0xc3,0xf7,0x4f,0xfc, 0xfc,0x02,0x6e,0x00,0x40,0x01,0xd5,0xff, // 15344
0x2d,0x00,0xf8,0x00,0x0b,0x02,0x6e,0xfe, 0x55,0x01,0xa9,0x01,0xd8,0xfe,0x42,0xfe, // 15360
0xba,0x03,0xe8,0xff,0x14,0xfe,0x5f,0x01, 0xda,0x00,0x3e,0x03,0xee,0x00,0xd7,0x01, // 15376
0x90,0xff,0x4f,0xfd,0x2a,0x00,0xe0,0xfe, 0xd9,0x02,0x0a,0x00,0x40,0xfc,0x47,0xfe, // 15392
0x7a,0xfb,0xc4,0xfe,0x95,0x01,0x0d,0x01, 0x63,0x00,0x0b,0x01,0x04,0x04,0x6c,0x01, // 15408
0x5e,0xfe,0x1e,0x03,0xac,0x00,0x53,0x00, 0x79,0xfd,0xed,0xf9,0x09,0x03,0x2e,0x00, // 15424
0xab,0xfe,0xef,0xfc,0x1f,0xfd,0xc9,0x01, 0x8d,0xfc,0x29,0x03,0xfd,0xff,0x53,0x00, // 15440
0x5c,0xff,0x8c,0x01,0xb4,0xfc,0xf0,0xfd, 0xd5,0x02,0x6b,0x01,0x23,0x00,0x76,0x00, // 15456
0xd4,0x02,0x27,0x00,0xe0,0x06,0x26,0xfc, 0xf3,0x01,0x91,0xfc,0x81,0x00,0x02,0xf8, // 15472
0xc4,0xfe,0x3c,0x00,0xb3,0x02,0x73,0xff, 0x7e,0xff,0xaa,0x01,0x51,0x05,0x9b,0xf8, // 15488
0xfc,0xfd,0xb4,0xfb,0x71,0xfc,0x89,0xfe, 0x9a,0xff,0x71,0x04,0xcf,0xfe,0xbc,0xff, // 15504
0x78,0x01,0xb2,0xff,0xd3,0x00,0xf4,0xfe, 0x98,0xff,0x97,0x00,0x0c,0x02,0x32,0xfd, // 15520
0x72,0xfd,0xdc,0xfc,0xda,0x0f,0x6a,0x03, 0xec,0x00,0x97,0x00,0xd9,0xfa,0xd2,0xfe, // 15536
0xa5,0xff,0xe7,0xfe,0x23,0x02,0x5f,0x00, 0x3d,0x03,0xad,0x00,0x84,0x00,0x21,0xfd, // 15552
0x71,0x01,0x6c,0xff,0x9e,0xfc,0xa4,0xfe, 0xe5,0xfd,0xd2,0x00,0x46,0x00,0x7b,0xff, // 15568
0x66,0xff,0x36,0xff,0x3f,0x00,0x26,0x00, 0xc6,0x00,0xf9,0xfc,0x39,0x00,0xee,0xfe, // 15584
0xfd,0xfe,0x03,0x04,0x9e,0x00,0x56,0xfd, 0x6c,0x03,0xfa,0x00,0xfb,0xfc,0x9c,0x06, // 15600
0x04,0x04,0x42,0x00,0x0a,0x00,0xee,0x01, 0x0c,0x01,0x21,0xfd,0x27,0xff,0xda,0xfb, // 15616
0x5b,0x02,0xa2,0x00,0x50,0x00,0x7d,0x00, 0x6d,0xff,0x0b,0x01,0x8c,0xff,0x2c,0x00, // 15632
0x42,0x00,0x07,0x01,0xd8,0xfd,0x55,0x01, 0xad,0x01,0x02,0xfe,0x81,0x00,0x2c,0x01, // 15648
0xe6,0x00,0x81,0xfe,0x71,0xff,0x15,0x00, 0x91,0x00,0xce,0xff,0xa4,0xff,0xd6,0xfe, // 15664
0xae,0xfe,0xe8,0xfe,0xdd,0x00,0x9c,0xfc, 0x93,0x00,0x73,0xff,0x56,0x04,0x71,0xff, // 15680
0x86,0xff,0xfe,0xfe,0xc8,0xff,0x34,0x00, 0x38,0x00,0x04,0x00,0x72,0xfe,0xeb,0xfe, // 15696
0x99,0xff,0xff,0xff,0x46,0xff,0xb2,0xff, 0x57,0xfe,0xd5,0x01,0x70,0x01,0x2c,0xff, // 15712
0x6c,0xff,0x08,0xfe,0x66,0xfd,0xfa,0x06, 0x28,0x00,0x35,0xff,0x61,0xfe,0x9e,0x02, // 15728
0xf6,0x00,0x11,0x00,0xfa,0xfe,0x8b,0x01, 0x75,0x03,0xea,0xff,0xe5,0xfe,0xe8,0x00, // 15744
0xb7,0xfd,0xd9,0xfe,0x6a,0xf9,0xba,0xff, 0xc1,0xff,0x29,0xff,0x2c,0x00,0x3b,0xfd, // 15760
0xc9,0x00,0x3d,0x00,0xfb,0xfe,0x59,0xff, 0x4d,0xff,0xf9,0xfe,0xf9,0x00,0x99,0x00, // 15776
0x9a,0xff,0xec,0xfe,0xfd,0xfb,0xf0,0xff, 0x47,0x01,0x65,0xfb,0xc0,0x01,0x0f,0xf9, // 15792
0x9d,0x00,0xab,0x0d,0x7a,0x02,0xef,0x00, 0xda,0xfd,0x76,0x02,0x57,0xff,0xe6,0xff, // 15808
0x30,0x04,0x8b,0x02,0x32,0x00,0x33,0xff, 0x50,0x03,0xcf,0xfd,0x3f,0xff,0xb6,0xf9, // 15824
0x2b,0x01,0x46,0xff,0x33,0xff,0xfb,0xfb, 0x88,0x00,0x08,0xff,0x25,0xff,0xfe,0xff, // 15840
0x25,0xfd,0xa2,0x01,0x88,0x00,0xb9,0xf4, 0xc0,0x00,0x33,0x07,0x81,0x00,0xc3,0xfc, // 15856
0x6d,0x00,0x17,0x03,0x87,0xff,0x0f,0x01, 0x04,0xff,0x80,0x00,0x79,0x02,0x92,0xfe, // 15872
0x09,0x00,0x68,0xff,0x4e,0xff,0x52,0xff, 0xaf,0xff,0xdc,0xff,0x56,0x00,0xc6,0xfe, // 15888
0xf9,0xff,0xe6,0xfd,0x0f,0xfd,0x64,0xff, 0x30,0x01,0xe3,0x01,0xd6,0xff,0xfe,0x00, // 15904
0x29,0x01,0x45,0xfe,0x33,0xff,0x68,0x01, 0x56,0x00,0x64,0x02,0x42,0xfc,0x75,0x01, // 15920
0x59,0x03,0xdd,0xfd,0xce,0xff,0x3a,0xfe, 0xbf,0xff,0x0b,0x00,0x4f,0xfe,0x28,0x01, // 15936
0x9d,0xff,0x63,0xff,0x38,0xff,0x0d,0x00, 0xfe,0x00,0x34,0x00,0x5f,0xff,0x25,0x00, // 15952
0xaa,0x01,0x9b,0xfd,0x67,0xfd,0xb4,0x01, 0x57,0xfc,0x6a,0xff,0x50,0xfe,0x06,0x01, // 15968
0xc3,0x00,0x97,0x04,0x0a,0x04,0x49,0x01, 0x29,0x03,0x54,0xfe,0xc6,0x00,0xc0,0xfe, // 15984
0x74,0x00,0xc9,0xff,0xcf,0xff,0x2e,0x00, 0x0c,0xfc,0x01,0xff,0x06,0xff,0x00,0x00, // 16000
0x2f,0x00,0xa8,0xfd,0xa9,0xfb,0x89,0xff, 0xef,0x02,0x2a,0xff,0x18,0x00,0x59,0x02, // 16016
0x61,0x00,0x3a,0x00,0x36,0x02,0x1e,0x01, 0x97,0xff,0xf4,0x01,0x4e,0x00,0x45,0xfd, // 16032
0x90,0xff,0xf2,0x00,0x11,0x02,0x2c,0xfe, 0x9c,0xff,0xbc,0xff,0xe9,0x02,0xda,0xfd, // 16048
0xcd,0xff,0x3c,0xfd,0xe8,0xfe,0xe6,0xff, 0x07,0xfe,0xd0,0xfd,0x37,0x01,0x42,0xfe, // 16064
0x58,0xff,0x30,0xfd,0xd7,0x03,0x12,0x01, 0xcc,0xff,0xa2,0xfe,0x68,0xfd,0xc0,0x00, // 16080
0x2f,0x00,0x89,0xff,0x7c,0x01,0x0d,0x00, 0x7c,0x01,0x2e,0xff,0xe5,0xfc,0x33,0xff, // 16096
0x58,0x03,0xb0,0xff,0x9a,0x00,0x51,0xff, 0xb8,0x03,0xdb,0xff,0xf4,0xff,0x98,0x04, // 16112
0x62,0x00,0x85,0x02,0x74,0x01,0x22,0xff, 0x63,0xff,0xd8,0x02,0xf9,0xff,0x71,0x00, // 16128
0x24,0xf9,0x8a,0xff,0x23,0x00,0x3f,0xff, 0x54,0x00,0x3e,0x00,0xac,0xff,0x1f,0x02, // 16144
0xb3,0x00,0x63,0xff,0xd5,0xfe,0xa1,0xfe, 0x3f,0xfe,0x48,0x00,0x04,0xff,0xcf,0xff, // 16160
0xa7,0xfd,0x78,0xfe,0x0c,0x00,0x5a,0xfa, 0x13,0x01,0x71,0x08,0xca,0x02,0x38,0x03, // 16176
0xed,0xfc,0xd6,0xff,0x1f,0x00,0x02,0x01, 0x2e,0xff,0x9b,0xfd,0x69,0x00,0x03,0x00, // 16192
0x36,0xfd,0x1d,0xfa,0x61,0x02,0x0c,0x00, 0xda,0xff,0x09,0x04,0x3d,0xff,0x7a,0xfe, // 16208
0x4d,0x01,0x32,0xfe,0x3b,0xff,0x4e,0xfe, 0x96,0xff,0x44,0x00,0x31,0x00,0x44,0x01, // 16224
0xed,0xfe,0xa2,0x00,0x72,0x03,0x9e,0x01, 0x1b,0x00,0x6f,0x02,0x84,0xfe,0x64,0xfe, // 16240
0x08,0x02,0xe2,0xff,0xd1,0xff,0x65,0x00, 0x47,0xfe,0x31,0xfd,0x27,0x01,0xca,0x00, // 16256
0x35,0x02,0x64,0x00,0x9e,0xff,0xee,0xff, 0xe3,0xff,0x38,0x00,0xe5,0xff,0x16,0xff, // 16272
0x8d,0x03,0x4c,0xfe,0x5e,0xff,0xcd,0x00, 0xaf,0xff,0x9a,0xff,0x7e,0x00,0x69,0xfd, // 16288
0xc5,0xf4,0x36,0xfe,0x26,0xff,0x79,0xfe, 0x80,0xfc,0xff,0xfe,0x73,0xfe,0x5c,0x03, // 16304
0xc0,0xff,0xb3,0x00,0x38,0x01,0x47,0x01, 0xf4,0xff,0x3e,0x00,0x11,0xfa,0xd8,0x00, // 16320
0xe3,0xff,0x21,0xfd,0xdc,0xff,0x13,0x0d, 0x16,0x00,0xcd,0xff,0x47,0x00,0xd9,0x00, // 16336
0x89,0xff,0x24,0xff,0x70,0x01,0x80,0x01, 0x3f,0xfe,0x6e,0x02,0x9d,0xf9,0x00,0x03, // 16352
0xbf,0x01,0xce,0xfb,0xe1,0xfe,0x4e,0x00, 0x70,0x00,0xaf,0x01,0x12,0xfa,0xb9,0xfe, // 16368
0xf1,0x00,0x6d,0x00,0xe6,0x04,0xef,0xff, 0xc5,0xff,0x78,0x02,0x91,0xfe,0x99,0x00, // 16384
0xb1,0x00,0xfc,0xff,0x1b,0xff,0xea,0x03, 0xb7,0xff,0xf0,0xff,0x40,0x01,0x3b,0x01, // 16400
0xde,0x01,0x36,0xfe,0xa0,0xfe,0x81,0xfe, 0x22,0x01,0xe0,0x02,0x79,0xff,0x8d,0x00, // 16416
0xf5,0xfb,0x01,0x00,0x5c,0xff,0x61,0xff, 0xfd,0xfe,0xba,0xfe,0xe5,0xfe,0xb6,0xfd, // 16432
0xc3,0x02,0x71,0x08,0x9c,0xfe,0x98,0x00, 0x1d,0x02,0x6f,0xff,0x18,0xff,0x8e,0xff, // 16448
0x44,0x00,0x99,0x00,0x03,0x00,0x7e,0xfd, 0x7b,0x02,0x93,0xfe,0xf6,0xff,0x62,0x01, // 16464
0x6c,0xff,0x73,0x00,0x1c,0x00,0xfc,0xff, 0xdc,0x00,0x02,0x01,0xff,0xff,0x9b,0xff, // 16480
0xe2,0x00,0xed,0x00,0x3b,0x07,0x9b,0x00, 0x67,0x00,0xdc,0xff,0xd1,0xfe,0x0c,0x01, // 16496
0x7e,0xff,0x49,0xff,0x4c,0xff,0x84,0x02, 0xa2,0xfc,0xb5,0xff,0x94,0x02,0xd7,0xff, // 16512
0x30,0xff,0x3c,0xfe,0xcf,0xff,0x03,0x02, 0xbc,0x00,0x65,0x00,0xe7,0x00,0x86,0x00, // 16528
0xc7,0xff,0xf7,0xfd,0x77,0xff,0xf5,0x00, 0x6e,0x01,0x91,0xfe,0xdb,0xfb,0x7d,0x00, // 16544
0x56,0x00,0x6c,0xff,0x62,0x00,0xd7,0x00, 0x5d,0x00,0xf5,0x00,0x42,0x00,0xae,0x00, // 16560
0xf7,0xff,0xb3,0xfe,0x89,0xff,0xcd,0x00, 0xac,0xff,0x8c,0x02,0x6d,0x00,0x68,0x00, // 16576
0xdc,0x01,0x13,0x00,0xb1,0xfe,0x5c,0x00, 0xb9,0xff,0x22,0xfd,0x3b,0xff,0x3c,0x00, // 16592
0x7b,0x07,0x1f,0xff,0x6c,0xfe,0xce,0xff, 0x0b,0x00,0x27,0x01,0xa7,0x01,0x61,0x00, // 16608
0x92,0x06,0xf8,0xfc,0x91,0xfe,0x11,0xff, 0x24,0x00,0xad,0xff,0xd3,0x07,0xe4,0x00, // 16624
0x23,0x01,0xeb,0xfd,0x28,0xfe,0x65,0xff, 0xfd,0xff,0x80,0xff,0x24,0x00,0xeb,0xfe, // 16640
0x17,0x0b,0x30,0xff,0xf2,0xff,0xb0,0x00, 0xf0,0x01,0xfd,0xff,0x60,0x01,0x4a,0x05, // 16656
0x26,0x02,0xbe,0xfd,0xff,0xfd,0x55,0xff, 0x46,0x03,0xe0,0xff,0xdb,0xff,0x2c,0x05, // 16672
0x56,0xf8,0x92,0xff,0x61,0xff,0x02,0xfe, 0xe0,0xfd,0x54,0x01,0x07,0x03,0x36,0x00, // 16688
0x00,0x01,0x04,0xff,0x4e,0xff,0x6d,0xff, 0x89,0x01,0xcf,0x00,0x6e,0x00,0xab,0x00, // 16704
0x34,0x04,0xc3,0xfe,0xeb,0xfe,0xd5,0x02, 0x39,0xfe,0x19,0xff,0x22,0xff,0x5f,0xfe, // 16720
0xa7,0xfd,0x63,0xfe,0x79,0xff,0x80,0xfd, 0xe5,0x02,0x65,0x00,0x6f,0xff,0xeb,0xff, // 16736
0x8b,0xfe,0xea,0x00,0xba,0x00,0x40,0x01, 0xed,0x01,0xce,0xfa,0x2e,0xfd,0xa3,0x00, // 16752
0xef,0xfd,0x41,0xfd,0x58,0xff,0xa7,0xff, 0x64,0x02,0x85,0xff,0x52,0xfa,0x5c,0xfe, // 16768
0x24,0xfe,0x5f,0x02,0x10,0xff,0xc6,0x00, 0x67,0x00,0xe8,0xff,0x98,0xff,0x41,0x01, // 16784
0xe3,0x00,0xa3,0xfe,0x5b,0x00,0x28,0x00, 0xde,0xff,0x11,0xff,0xa8,0xff,0xf0,0x00, // 16800
0xbb,0xff,0x2f,0x00,0x05,0xff,0x64,0xff, 0xb3,0x01,0x73,0xfe,0x71,0x01,0xab,0x00, // 16816
0x79,0xff,0xa6,0xff,0x51,0xff,0xa1,0xff, 0x34,0x00,0x31,0x01,0x29,0x02,0xb7,0xfe, // 16832
0x70,0x01,0x41,0xfc,0x3b,0x00,0x71,0x02, 0x2c,0xff,0x2d,0xff,0x8f,0xfd,0xd5,0x00, // 16848
0xec,0xfd,0x6f,0xff,0x25,0xfe,0x7a,0xff, 0x0a,0xff,0xaf,0x00,0x8f,0xfe,0x35,0x05, // 16864
0x9b,0xff,0x23,0x00,0x5f,0x01,0xde,0x01, 0xee,0xfe,0xee,0x00,0xa8,0xff,0x34,0x04, // 16880
0x99,0x01,0x12,0x00,0xa8,0x00,0xed,0x06, 0x52,0xff,0xbf,0xff,0xf2,0xfd,0x91,0xff, // 16896
0xa1,0xfe,0xc4,0x00,0x42,0x01,0x48,0x03, 0x95,0xff,0x55,0x00,0x1a,0xff,0xff,0x01, // 16912
0x29,0x04,0xba,0x01,0x3d,0xff,0x7c,0xfe, 0x94,0xfe,0xa5,0xfc,0x31,0xfe,0x2b,0x01, // 16928
0x58,0x01,0x3e,0xff,0x47,0x01,0x32,0xff, 0xa6,0xff,0xc8,0xfd,0x1d,0x03,0x65,0x00, // 16944
0x90,0x01,0xa2,0x00,0x63,0x00,0x14,0x00, 0x9d,0x00,0xf6,0xfe,0x83,0xff,0x3c,0x00, // 16960
0xca,0xff,0x7e,0x00,0x44,0x01,0xb0,0xff, 0x61,0x00,0x83,0xfc,0x7d,0x01,0xca,0x00, // 16976
0x50,0x02,0x84,0xff,0x19,0x00,0x2c,0xff, 0xc7,0xff,0xa8,0x01,0x5c,0xfd,0xdd,0xfb, // 16992
0xdf,0x02,0x07,0xfe,0x6b,0xf5,0x77,0x00, 0x68,0x04,0xd0,0xff,0x58,0x00,0x9b,0x00, // 17008
0x7e,0xfe,0x32,0x00,0xc7,0xfe,0xcf,0xfb, 0x21,0x04,0xf1,0x02,0x6c,0x00,0x8a,0x08, // 17024
0xdb,0xfe,0xad,0x00,0x40,0x01,0x66,0xff, 0x0f,0x02,0x27,0xff,0x48,0x01,0xfa,0xfd, // 17040
0x8a,0xfe,0x91,0x01,0xc9,0xff,0x6b,0xff, 0xa9,0x00,0xb9,0x01,0xf3,0xf8,0x2c,0x02, // 17056
0x45,0x00,0x7b,0x00,0x1a,0x00,0x1a,0x02, 0x8b,0xfe,0xb7,0xff,0x14,0x01,0xa1,0xfe, // 17072
0x3a,0xfe,0x56,0xfe,0xff,0xff,0xde,0xfe, 0xdb,0x01,0x68,0xff,0x4c,0x02,0x43,0x00, // 17088
0x73,0xfe,0x30,0xfd,0x42,0x00,0x9a,0x03, 0x6f,0xff,0x2e,0xfd,0xc7,0xfe,0x7f,0xff, // 17104
0x34,0x00,0x95,0xff,0x6d,0xfd,0xa7,0x00, 0xbf,0xff,0x5d,0x00,0xe8,0xfc,0x3a,0x04, // 17120
0x86,0xff,0x28,0xf9,0xe5,0x04,0x20,0x01, 0x75,0xfe,0xa7,0x00,0x2d,0x00,0x18,0xfc, // 17136
0x93,0x02,0x94,0xff,0x7c,0x03,0x9d,0x00, 0x8d,0x00,0x1a,0x01,0xee,0xfc,0x94,0xfc, // 17152
0xd6,0xfc,0x0e,0x00,0x8c,0xfe,0x8a,0xfe, 0x6e,0xff,0x66,0xfe,0xda,0xfa,0xbf,0x00, // 17168
0xe0,0xfe,0x86,0x05,0xe9,0xfa,0xb0,0x00, 0x86,0xff,0x25,0x02,0xab,0xff,0x7b,0x00, // 17184
0xdc,0xff,0x84,0x00,0x09,0xff,0xd8,0xfa, 0x93,0xff,0xb1,0x02,0xff,0xff,0x66,0xfd, // 17200
0x58,0xfe,0x47,0xfc,0x5f,0x00,0xa2,0x04, 0x1d,0x0d,0xae,0x03,0xef,0x00,0xf4,0xfb, // 17216
0x9b,0x00,0xc4,0xfc,0x54,0x06,0xd9,0xfe, 0xdb,0xf6,0xf7,0xff,0xc8,0x00,0xda,0x00, // 17232
0x63,0x01,0xde,0x01,0x07,0xff,0x4d,0xff, 0x6f,0xfe,0xf5,0x02,0xbc,0x00,0x82,0xfe, // 17248
0xae,0x00,0x7e,0xff,0xda,0x01,0xdd,0xfd, 0x35,0x00,0xf9,0xff,0x60,0xfa,0xe9,0xff, // 17264
0x6e,0x00,0x75,0xfe,0x7a,0x03,0x0e,0x01, 0x31,0x00,0x10,0x00,0x08,0x00,0xc8,0xff, // 17280
0xe5,0xfe,0xa1,0x04,0xdb,0x00,0x30,0x01, 0x52,0xfc,0x4b,0x00,0x6b,0x01,0x38,0x01, // 17296
0x6d,0xff,0x21,0xff,0x63,0xfd,0xb9,0xff, 0xe7,0xfe,0xd3,0x01,0xa8,0x06,0x28,0x02, // 17312
0x63,0xff,0x95,0x00,0xd4,0xff,0xf0,0xff, 0x90,0xff,0x7b,0xff,0xcc,0xff,0x3e,0xff, // 17328
0x80,0x00,0xaf,0x00,0x2e,0x00,0xf8,0xfe, 0x22,0xff,0xa5,0xff,0xb9,0xfd,0x6d,0x00, // 17344
0xed,0xff,0xc4,0x04,0x0e,0x00,0x35,0x01, 0xbc,0x00,0xe5,0xff,0x79,0xfe,0xa3,0x00, // 17360
0x87,0xff,0x16,0xfe,0x77,0xfe,0xef,0xff, 0x7b,0x01,0xe8,0x00,0xab,0x00,0xe0,0xfe, // 17376
0x91,0xfe,0xdf,0x01,0x30,0x00,0x98,0x00, 0x2e,0x01,0xda,0x00,0x1d,0x02,0x1c,0x00, // 17392
0x2e,0x00,0x17,0x00,0xf2,0x00,0x6a,0x00, 0xbe,0x04,0x4f,0xff,0x3b,0x00,0xcd,0xfe, // 17408
0x37,0x00,0x71,0xfe,0x21,0x05,0x23,0x00, 0x97,0xff,0x4c,0x00,0xd9,0xfe,0x96,0xff, // 17424
0x62,0xfe,0x14,0xff,0xe1,0xff,0xc6,0x01, 0x6e,0xff,0x7b,0xff,0xdd,0x00,0xad,0xff, // 17440
0x8e,0x01,0x15,0x01,0x0c,0x00,0xdb,0x00, 0x99,0xff,0x69,0x00,0xf7,0xfe,0xde,0xff, // 17456
0x58,0x00,0x89,0x00,0x3b,0x00,0x75,0x00, 0xe7,0xff,0xff,0x00,0xda,0xfe,0x93,0xff, // 17472
0x03,0xff,0xae,0xff,0xa2,0xff,0x23,0x04, 0xc3,0xff,0xb2,0xfe,0x18,0xfd,0x4b,0x00, // 17488
0x83,0xff,0x68,0xff,0x23,0xff,0x20,0xff, 0x0f,0xfe,0x79,0xff,0xff,0x00,0xe4,0x00, // 17504
0x4b,0xff,0x6d,0xfe,0x82,0x00,0xfa,0x00, 0x1d,0x00,0x2b,0x00,0x09,0x00,0x6b,0xff, // 17520
0x3d,0x00,0x25,0xfe,0x7f,0xff,0x71,0x00, 0xe1,0x00,0x4b,0xff,0xf4,0xfe,0xf9,0x01, // 17536
0x35,0xfc,0x41,0x01,0x00,0x01,0x77,0xfe, 0xe5,0x00,0x88,0x01,0xe3,0xfe,0xb7,0xfe, // 17552
0x03,0x01,0xd3,0x03,0xf8,0x00,0x8f,0x00, 0xd9,0xff,0x45,0xff,0x0d,0x00,0xd8,0xff, // 17568
0xb3,0xff,0x25,0x02,0xd9,0xff,0x6f,0x00, 0xe8,0xfd,0x9e,0xfd,0x01,0x00,0x65,0x00, // 17584
0x08,0xfd,0xbb,0x00,0x92,0xff,0x9e,0xff, 0xea,0xfc,0xec,0xff,0xb3,0x02,0xa6,0xff, // 17600
0x05,0xff,0xb7,0x04,0x16,0x00,0xf3,0x00, 0x6b,0xff,0x56,0xfc,0x37,0x00,0xd8,0xfd, // 17616
0x12,0x00,0x68,0x03,0x1b,0x00,0x23,0x02, 0x5a,0xfd,0x0c,0x00,0x5d,0x01,0x3f,0x00, // 17632
0x5d,0xf8,0xc1,0x01,0x3e,0x01,0x02,0x03, 0xba,0x07,0x5a,0x00,0x42,0x0a,0x7d,0xff, // 17648
0xa1,0x02,0xf2,0x01,0x12,0x00,0x5a,0x00, 0x48,0xfb,0x90,0xfe,0x17,0xff,0xbb,0x04, // 17664
